<pad>	0
<unk>	0
<s>	0
</s>	0
ಲ್	-0
ತ್	-1
▁ಮ	-2
▁ಸ	-3
ಿದ	-4
ನ್	-5
▁ಕ	-6
ಲ್ಲ	-7
▁ನ	-8
ಾರ	-9
▁ಅ	-10
▁ಪ	-11
ಂದ	-12
ಾಗ	-13
್ರ	-14
ನು	-15
ರು	-16
ತ್ತ	-17
▁ಹ	-18
ಿಸ	-19
▁ಬ	-20
ಗಳ	-21
ಕ್	-22
ರ್	-23
್ಯ	-24
ಗೆ	-25
▁ವ	-26
▁ಇ	-27
ನ್ನು	-28
▁ಆ	-29
್ದ	-30
ಲ್ಲಿ	-31
ಿಯ	-32
▁ಎ	-33
ಸ್	-34
▁ತ	-35
ೆಯ	-36
ಿದ್ದ	-37
ರಿ	-38
ವು	-39
▁ಪ್ರ	-40
ಿದೆ	-41
್ಟ	-42
ಿಕ	-43
ದು	-44
▁ರ	-45
▁ದ	-46
ುತ್ತ	-47
▁ಮಾ	-48
ಾಗಿ	-49
ಕ್ಕ	-50
ತ್ತು	-51
ಂದು	-52
▁ಜ	-53
▁ಅವ	-54
ಂತ	-55
ಂಡ	-56
ರೆ	-57
▁ವಿ	-58
ಾನ	-59
▁ಯ	-60
ುವ	-61
ಿನ	-62
▁ಗ	-63
▁ಈ	-64
ನ್ನ	-65
ಾದ	-66
ಾಯ	-67
ಾರೆ	-68
▁ನಿ	-69
ಿತ	-70
ಗಳು	-71
▁ಶ	-72
▁ಮತ್ತು	-73
▁ಭ	-74
▁ಮಾಡ	-75
ದಲ್ಲಿ	-76
▁ಚ	-77
ಿಲ್ಲ	-78
ಕ್ಷ	-79
ಿಗೆ	-80
್ಮ	-81
ಿದ್ದಾರೆ	-82
ಟ್ಟ	-83
▁ಉ	-84
ಲು	-85
▁ಒ	-86
ಂಗ	-87
ಂಬ	-88
ದೆ	-89
ನೆ	-90
ತ್ರ	-91
ಕ್ಕೆ	-92
▁ನೀ	-93
ತಿ	-94
ಷ್ಟ	-95
ಾವ	-96
▁ಸ್	-97
ಿಂದ	-98
ವೆ	-99
▁ಆದ	-100
ೇಕ	-101
▁ಮು	-102
ಾಲ	-103
ಾಗಿದೆ	-104
ಟ್	-105
ಮ್ಮ	-106
ಗಳನ್ನು	-107
ಡೆ	-108
▁ಎಂದು	-109
ೇಶ	-110
ೊಳ	-111
ವನ್ನು	-112
ಚ್	-113
ಾಮ	-114
▁ಇದ	-115
ಾರ್	-116
ೇಳ	-117
ಡಿ	-118
ಾಜ	-119
್ಳ	-120
ರುವ	-121
▁ಸಂ	-122
ವಾಗಿ	-123
ೊಂಡ	-124
ವುದ	-125
ರಿಸ	-126
▁ನಾ	-127
ಪ್	-128
▁ಬಿ	-129
▁ಲ	-130
▁ಹೆ	-131
ಚ್ಚ	-132
▁ಹೊ	-133
ಬೇಕ	-134
▁1	-135
ಕಾರ	-136
▁ಕೆ	-137
ವಾ	-138
ಡ್	-139
▁ಕಾರ	-140
▁ಆದರೆ	-141
ವಿ	-142
ತ್ಯ	-143
ಲೆ	-144
ರಣ	-145
▁ಹಾಗ	-146
ಬ್	-147
▁ಏ	-148
್ಯಾ	-149
▁ಹೇಳ	-150
ತೆ	-151
ಿಸಿ	-152
ಲಿ	-153
ಾಣ	-154
ೊಳ್ಳ	-155
▁ಅವರು	-156
ಟಿ	-157
▁ಕು	-158
ದ್	-159
ನಾ	-160
ೋಗ	-161
▁ಸಮ	-162
ಧ್ಯ	-163
▁ಸಿ	-164
ುತ್ತದೆ	-165
▁ಸಾ	-166
ಿದರು	-167
ಿಳ	-168
▁ಇದು	-169
ಡು	-170
ರಿಗೆ	-171
ಗ್	-172
▁ಸು	-173
ವರ	-174
▁ಅದ	-175
▁ಭಾರ	-176
▁ಬೆ	-177
▁ಅವರ	-178
ಹು	-179
▁ರಾಜ	-180
ೀಯ	-181
ನಿ	-182
ೆಯಲ್ಲಿ	-183
ಶ್	-184
ಬ್ಬ	-185
▁ನೀಡ	-186
ಕೆ	-187
ಪಿ	-188
▁ಮೂ	-189
▁ಭಾರತ	-190
▁ಕೊ	-191
ದ್ದ	-192
ಂಧ	-193
ತಿಯ	-194
ಗಳಲ್ಲಿ	-195
ರಾ	-196
▁ಆಗ	-197
ವುದು	-198
▁2	-199
▁ಫ	-200
ದಿ	-201
ಲೀ	-202
ಬೇಕು	-203
ಿದ್ದರು	-204
ದ್ಧ	-205
▁ಟ	-206
ಿಸಲ	-207
ನ್ಯ	-208
ಾರಿ	-209
ಂತೆ	-210
▁ಹೆಚ್ಚ	-211
▁ಚಿ	-212
▁ಹಾಗೂ	-213
▁ಕಾ	-214
▁ನಿರ್	-215
ತು	-216
ಮಾ	-217
ರೂ	-218
▁ಸೇ	-219
▁ಸ್ಥ	-220
▁ನಡೆ	-221
ಾಸ	-222
ಸ್ಥ	-223
ರಿಂದ	-224
ಿರ	-225
ಿಕೆ	-226
ಧಾನ	-227
ಜೆ	-228
ಿತು	-229
▁ಆರ	-230
ವಾಗ	-231
▁ಯಾ	-232
▁ಕೆಲ	-233
ಪ್ಪ	-234
ಂಗ್	-235
ಿವ	-236
▁ಸಹ	-237
ವಾದ	-238
ೆಯನ್ನು	-239
▁ಪೊ	-240
▁ತಿಳ	-241
▁ಮೇ	-242
▁ಕ್ರ	-243
ಂದ್ರ	-244
ಿದ್ದು	-245
ಗ್ಗೆ	-246
▁ಎಲ್ಲ	-247
▁ಖ	-248
ಡೆಯ	-249
""	-250
ವರು	-251
▁ಪೊಲೀ	-252
▁ಒಂದು	-253
ೆಗೆ	-254
▁(	-255
▁ಬಗ್ಗೆ	-256
▁ಮೊ	-257
ಾಕ	-258
ೊಂದ	-259
▁ಜನ	-260
ಖ್ಯ	-261
▁ಪ್ರಕ	-262
▁ದಾ	-263
ಾರು	-264
▁ವ್ಯ	-265
ಿಸುವ	-266
ವೇ	-267
ಿಸುತ್ತ	-268
▁ಇಲ್ಲ	-269
▁ಎಂದ	-270
ಕ್ತ	-271
▁ಬಳ	-272
▁ದೇ	-273
▁ನಾನು	-274
್ರೆ	-275
▁ಸರ್	-276
ಂತರ	-277
▁ಪರಿ	-278
ಜಿ	-279
ಣೆ	-280
ರುತ್ತ	-281
▁ಕೋ	-282
ಸಿ	-283
▁ಗು	-284
ಿಸಿದ	-285
ಗಳಿಗೆ	-286
▁ಮಹ	-287
ದಲ	-288
ುವುದ	-289
ಷ್ಟು	-290
ಿಕೊಂಡ	-291
ಗೂ	-292
ಬಹು	-293
ದಿಂದ	-294
ಂಕ	-295
▁ಕೇ	-296
ಿರುವ	-297
▁ಅಭ	-298
▁ನಾವು	-299
▁ಕಾರ್ಯ	-300
▁ಕೂ	-301
▁ಡ	-302
ಣ್	-303
ಿಕೊಳ್ಳ	-304
ೂರ್	-305
ನ್ನೂ	-306
ಪ್ರ	-307
ಪಡ	-308
ತ್ರಿ	-309
ಜ್	-310
ುವುದು	-311
▁ಚಿತ್ರ	-312
▁ನೋ	-313
▁ಬಿಜೆ	-314
ಿಸಿದ್ದಾರೆ	-315
ಷ್	-316
ಧಿಕ	-317
ರಿಯ	-318
▁ಪು	-319
ತನ	-320
▁ಎಂಬ	-321
ಳು	-322
ಲಿಲ್ಲ	-323
▁ಮೋ	-324
▁ನಮ್ಮ	-325
ವನ	-326
▁ಗೆ	-327
▁ರಾ	-328
ಂಭ	-329
▁ಮೂಲ	-330
ರ್ಥ	-331
ಿಸ್	-332
▁ಸರ್ಕಾರ	-333
ವಾಗಿದೆ	-334
ಸ್ತ	-335
▁‘	-336
ಲೇ	-337
ಚಾರ	-338
▁ಧ	-339
▁ಪಾ	-340
ಳೆ	-341
ನೆಯ	-342
▁ರಾಜ್ಯ	-343
ಗೊಂಡ	-344
▁ಯಾವುದ	-345
ಲಾ	-346
ದೇಶ	-347
ಿಯಲ್ಲಿ	-348
00	-349
▁ಉತ್ತ	-350
▁ಬೇ	-351
▁ದಾಖ	-352
ಲಾಗಿದೆ	-353
ಕಾ	-354
▁ಕ್	-355
▁ಘ	-356
ಿಸಿದರು	-357
ದುಕ	-358
ಕರ	-359
ಬಹುದು	-360
ಸರು	-361
▁ಹೊಂದ	-362
ಿಸಲು	-363
▁ಅನು	-364
ಾಹ	-365
ರೀ	-366
ಣ್ಣ	-367
ುಂಬ	-368
ೆಹ	-369
ಂಟ	-370
▁ರೂ	-371
ದ್ಯ	-372
▁ಮೇಲೆ	-373
ಕ್ರ	-374
▁ನಿಮ್ಮ	-375
ಳ್ಳ	-376
ಸ್ಯ	-377
ನೇ	-378
▁ಮುಖ್ಯ	-379
ೇನೆ	-380
ಲಾಗ	-381
್ರೆಸ್	-382
ಂಪ	-383
ಟ್ಟು	-384
▁ಪ್ರಧಾನ	-385
▁ಹೇ	-386
▁ದೇಶ	-387
▁ಹಿ	-388
▁ದಿನ	-389
ಂಗ್ರೆಸ್	-390
ಮಾನ	-391
▁ಪ್ರಕರಣ	-392
▁ಐ	-393
▁ಯಾವುದೇ	-394
▁“	-395
ಡುವ	-396
ಿತಿ	-397
▁ಬಂದ	-398
▁ನಡೆಸ	-399
▁ಕಾಂಗ್ರೆಸ್	-400
▁ಕೂಡ	-401
▁ಸ್ವ	-402
ಡಿಯ	-403
ರಲ್ಲಿ	-404
▁ಕೈ	-405
▁3	-406
▁ಎರ	-407
▁ಅದು	-408
▁ಬಿಜೆಪಿ	-409
▁ಅಧಿಕ	-410
▁ನೀವು	-411
ಸೆ	-412
ೊಂದಿಗೆ	-413
▁ತನ್ನ	-414
▁.	-415
ಿಯನ್ನು	-416
ಿವೆ	-417
▁ನಲ್ಲಿ	-418
▁ಆಯ	-419
ೋಜ	-420
ರೇ	-421
▁ನೆ	-422
ಷ್ಟ್ರ	-423
ಮೆ	-424
▁ಶಿ	-425
▁ವೈ	-426
▁ವಿದ	-427
ೇವೆ	-428
ುತ್ತಿದೆ	-429
ಾನ್	-430
ೊಂದು	-431
▁ಪ್ರತಿ	-432
ಳಿ	-433
ಲ್ಪ	-434
ಾಪ	-435
▁ಶ್ರ	-436
..	-437
▁ಮನ	-438
▁ವಿರು	-439
ೀರ್	-440
▁ವರ್	-441
ಗಾಗಿ	-442
▁ಕಾರಣ	-443
ಸು	-444
ತರ	-445
▁ಅಧ್ಯ	-446
ಂಚ	-447
ಾಯಕ	-448
ುನ	-449
ರೆಯ	-450
ಲಿದೆ	-451
ಗೊಳ	-452
▁ಅನ	-453
ಬಿ	-454
▁ತಮ್ಮ	-455
ಕ್ಷಣ	-456
▁ಪೊಲೀಸರು	-457
▁ಪ್ರಯ	-458
▁ಮುಂದ	-459
▁ಅಗ	-460
ಮ್	-461
▁ನ್ಯ	-462
▁ವಿರುದ್ಧ	-463
ತ್ವ	-464
▁ಉಪ	-465
ಿಯಾ	-466
▁ಯಾವ	-467
ರೋ	-468
▁ಸ್ಪ	-469
▁ಸ್ಥಳ	-470
▁ಸಚ	-471
▁ಹೀ	-472
ೂರು	-473
ಫ್	-474
ಾಂ	-475
ಎಸ್	-476
▁ಅಲ್ಲ	-477
▁ನಂತರ	-478
▁ಸಂಬ	-479
▁ಸಾಮ	-480
▁ಹು	-481
ಮಗೆ	-482
▁ಅಪ	-483
ಗಿ	-484
ವಹ	-485
▁ಓ	-486
ಾರ್ಥ	-487
▁ಏನು	-488
▁ನನ	-489
▁ವಿಷ	-490
ಾಯಿತು	-491
▁ಜೀ	-492
ೋಷ	-493
▁ಹೇಗೆ	-494
▁ಕೆಲಸ	-495
▁ಮೂಲಕ	-496
▁”	-497
ದಲ್ಲ	-498
ಾನೆ	-499
▁ಮೊದಲ	-500
ಕು	-501
▁ಸಾಧ್ಯ	-502
ರೆಗೆ	-503
ಸ್ಪ	-504
▁ಸಂಬಂಧ	-505
ೂರ	-506
ರ್ಶ	-507
ಿತ್ತು	-508
▁ಮಕ್ಕ	-509
▁ಇಲ್ಲಿ	-510
ಲ್ಯ	-511
▁ಪಡೆ	-512
▁ಸೂ	-513
ಿನಲ್ಲಿ	-514
▁ಮತ್ತ	-515
ಿನಿ	-516
▁ಅಥ	-517
▁ಗ್ರ	-518
ಿಸಲಾಗಿದೆ	-519
▁ಮೋದಿ	-520
ಂತ್ರ	-521
▁ಇದೆ	-522
ಿಸಿದೆ	-523
▁""	-524
▁ಮಾತ	-525
▁ಪಕ್ಷ	-526
▁ಹೋಗ	-527
ಡ್ಡ	-528
▁ಪ್ರಮ	-529
▁ಹಿಂದ	-530
ದೇ	-531
▁ಅಂತ	-532
ತ್ಮ	-533
▁5	-534
▁ವಿಶ್	-535
▁ನಡೆಯ	-536
▁ಸಂಪ	-537
▁ಹೊಸ	-538
▁ತೆ	-539
ೃತ	-540
ಾಲಯ	-541
▁ಹೊರ	-542
ೋದ	-543
▁ಘಟ	-544
▁ವಿಷಯ	-545
ರಿಕ	-546
ಮಿ	-547
▁ಕುರಿ	-548
▁ಹೆಚ್ಚು	-549
▁ಸರ	-550
ವೂ	-551
▁ಸೆ	-552
ಿರು	-553
▁ಕೇಂದ್ರ	-554
▁ಅಥವಾ	-555
▁ಕ್ಷ	-556
ಲೂ	-557
▁ರೈ	-558
▁,	-559
▁ಭಾಗ	-560
ಂತ್ರಿ	-561
▁ದೊ	-562
ರವ	-563
ಟರ್	-564
▁ಅಧ್ಯಕ್ಷ	-565
ಗು	-566
▁ವಿದ್ಯ	-567
ಕರ್	-568
▁ಕರ್	-569
▁ರೀ	-570
ಹಾರ	-571
ರನ್ನು	-572
ರುತ್ತದೆ	-573
ಿಗಳು	-574
▁ಎಂದರು	-575
▁ನನ್ನ	-576
▁ಆರೋ	-577
ೀರ	-578
▁ಬಾ	-579
ುವುದಿಲ್ಲ	-580
ರೀಕ್ಷ	-581
▁ಜೊ	-582
▁ಹಲ	-583
ಕ್ಕೂ	-584
▁ಗಳ	-585
ಕ್ಕಾಗಿ	-586
ುನಾವ	-587
▁ತಂಡ	-588
▁4	-589
▁ದಾಖಲ	-590
ಜ್ಞ	-591
ಿದು	-592
ಾಯಿ	-593
ತೆಯ	-594
▁ದು	-595
▁ಯೆಹ	-596
▁ಸಚಿವ	-597
▁ನನಗೆ	-598
ಗರ	-599
▁ಅವರಿಗೆ	-600
ವಿಲ್ಲ	-601
▁ಗಾ	-602
▁ಅಗತ್ಯ	-603
▁ಡಿ	-604
ಕ್ರಮ	-605
ಂದರೆ	-606
▁ಸಂದ	-607
▁ಎಸ್	-608
▁ಪ್ರಶ್	-609
▁ಮೆ	-610
▁ಚುನಾವ	-611
▁ಅತ್ಯ	-612
▁20	-613
▁-	-614
ರಿನ	-615
ಡುಗ	-616
▁ಕ್ರಮ	-617
▁ಬ್ಯಾ	-618
▁ಅವನ	-619
ಿಸ್ತ	-620
ಧಾರ	-621
▁ತುಂಬ	-622
▁ಅದನ್ನು	-623
ಂಗಳ	-624
."	-625
ುತ್ತಾರೆ	-626
ಂಜ	-627
▁ಸಂಗ	-628
▁ಕಾಲ	-629
ಿಸುತ್ತದೆ	-630
▁ಕೇಳ	-631
ಿಯಾಗ	-632
ಂದಿ	-633
ಮಂತ್ರಿ	-634
▁ಸಮಯ	-635
▁ಇದ್ದ	-636
ಟ್ರ	-637
▁ಜಿಲ್ಲ	-638
ಾಗಿತ್ತು	-639
ಂಥ	-640
▁ಸೋ	-641
ುದ	-642
ಾರಾ	-643
▁ರಾಷ್ಟ್ರ	-644
ೇಶ್	-645
▁ಜೊತೆ	-646
ೋಗ್ಯ	-647
ೀಕ	-648
▁ಹಾಕ	-649
▁ಇದನ್ನು	-650
ಗಾರ	-651
ಿಸಿಕೊಂಡ	-652
ವರ್	-653
▁ನೇ	-654
▁ಬದಲ	-655
▁ನಾಯಕ	-656
▁ಇದರಿಂದ	-657
▁ಹಣ	-658
ಾಸ್	-659
ಭವ	-660
▁ನ್ಯಾಯ	-661
ಮನ	-662
▁ಮಾತ್ರ	-663
ಕ್ತಿ	-664
▁ಪೊಲೀಸ್	-665
ುತ್ತಿದ್ದ	-666
▁ಪ್ರಧಾನಿ	-667
ಎಂ	-668
ಗೊಳ್ಳ	-669
▁ವಿಚಾರ	-670
ೂರ್ಣ	-671
ಿತ್	-672
▁ಅವರನ್ನು	-673
▁ಯೆಹೋ	-674
▁ಆರಂಭ	-675
▁ಶ್ರೀ	-676
▁ಅರ್	-677
▁ಯಾರ	-678
▁ಕುಮ	-679
ಂಡ್	-680
ಗಳಿಂದ	-681
▁ಮಿ	-682
▁ನೋಡ	-683
▁ಎಲ್ಲಾ	-684
ದ್ದು	-685
▁ಹೇಳಿದರು	-686
▁ಪರ	-687
▁ನಡೆದ	-688
▁ಹೋ	-689
ವ್	-690
▁ಮಾಹ	-691
ೊಬ್ಬ	-692
ಾಷ	-693
▁ಬೈ	-694
ಖೆ	-695
▁ವಿಶ	-696
▁ವಿಶ್ವ	-697
ಪು	-698
▁ಏನ	-699
▁ಸಿನಿ	-700
ವಿದೆ	-701
▁ಬಹ	-702
▁ಅದರ	-703
ಷ್ಠ	-704
▁ಸಮಸ್ಯ	-705
ುಖ	-706
ಶಸ್	-707
ೋರ್	-708
▁ಭಾರತದ	-709
▁ಈಗ	-710
▁ನಿಯ	-711
ಕಿ	-712
ೇಷ	-713
▁ಗೊ	-714
ಾತ	-715
▁ಆಸ್ಪ	-716
ರಿದ	-717
▁ಸ್ಟ	-718
▁ಸ್ಥಾನ	-719
▁ಎರಡು	-720
▁"""	-721
▁ಸದ	-722
▁ಇಂಡ	-723
▁ಲಕ್ಷ	-724
▁ಒಳ	-725
ವಸ್ಥ	-726
ತ್ನ	-727
▁ಕಿ	-728
▁ಮಹಿಳ	-729
ಕಾಶ	-730
ಾಡ	-731
▁'	-732
▁ತೆಗೆ	-733
▁ಮಕ್ಕಳ	-734
ದರ್ಶ	-735
ೇತ್ರ	-736
ೆಯೇ	-737
▁ಕೆಲವು	-738
▁ತನಿ	-739
ತಾ	-740
ಸಭ	-741
▁ಸಭ	-742
▁ಠ	-743
ಕೀಯ	-744
ೋಕ	-745
ರ್ಭ	-746
▁ಭಾರತೀಯ	-747
ರ್ಮ	-748
▁ಆಯ್	-749
ಚಿ	-750
ಬೇ	-751
▁ಕಂಡ	-752
▁ಬಹು	-753
ಿಸಿದ್ದ	-754
▁ಯೋಜ	-755
ಲಿಯ	-756
▁ಇರ	-757
ಾಲಿ	-758
▁ಇನ್ನ	-759
▁ತಿ	-760
▁ಬಂಧ	-761
▁ಉತ್ತರ	-762
▁ತೋ	-763
▁ನಟ	-764
ಷ್ಯ	-765
ಂದ್ಯ	-766
▁ಶು	-767
ಿಸಿಕೊಳ್ಳ	-768
ರಾಗ	-769
ೃದ್ಧ	-770
▁ದೇವರ	-771
▁ಅವು	-772
▁ಅನ್ನು	-773
▁ಆರೋಗ್ಯ	-774
ಂತಹ	-775
ೀತ	-776
▁ಪಂದ್ಯ	-777
▁ಹೇಳಿದ್ದಾರೆ	-778
▁ಕಾಣ	-779
ತ್ಪ	-780
ೆಯು	-781
▁ಕುರಿತು	-782
▁ಇಬ್ಬ	-783
▁ಬಿಡುಗ	-784
ಟ್ಟಿ	-785
▁ಮಾಡಿ	-786
▁ವಿದ್ಯಾರ್ಥ	-787
▁ಪಿ	-788
▁ಒಬ್ಬ	-789
▁ಆರ್	-790
▁ಪ್ರತ	-791
ಕರು	-792
▁ಇದರ	-793
▁ಎಂ	-794
▁ಉಳ	-795
್ರಹ	-796
▁ಒಂದ	-797
▁ಅಧಿಕಾರಿ	-798
▁ಪ್ರದೇಶ	-799
▁ಬಳಿಕ	-800
ಕ್ಸ್	-801
ಿದ್	-802
ಟುಂಬ	-803
▁ನಿರ್ಮ	-804
▁ಮಾಡುವ	-805
▁ಇದಕ್ಕೆ	-806
ಿಗಳ	-807
▁ತಪ್ಪ	-808
ದುಕೊಂಡ	-809
ಳೆಯ	-810
▁ಇನ್ನೂ	-811
▁6	-812
▁ಉತ್ತಮ	-813
▁ದೊಡ್ಡ	-814
▁ಕೋಟಿ	-815
▁ಅನೇಕ	-816
▁ಅಲ್ಲಿ	-817
▁ಹೆಚ್ಚಿನ	-818
▁ರೀತಿಯ	-819
▁ಯು	-820
ೀನ	-821
▁ಸಾಧ	-822
ಾಂತ	-823
ೋಧ	-824
▁ಎರಡ	-825
▁ಮಾರ್	-826
▁ಗಾಯ	-827
▁ಭೇ	-828
ರುವುದ	-829
ಿಸಲಾಗ	-830
ಸ್ಟ್	-831
▁:	-832
ಂಟ್	-833
ರೇಂದ್ರ	-834
▁ಕ್ಷೇತ್ರ	-835
▁ಇತರ	-836
್ರಿಯ	-837
▁ಕಾರ್ಯಕ್ರಮ	-838
ುತ್ತಿದ್ದಾರೆ	-839
▁ಗಾಂಧ	-840
▁ಮಾತನಾ	-841
▁ನಿರ್ದೇಶ	-842
▁ಕುಟುಂಬ	-843
ಮಾಡ	-844
ರ್ಯ	-845
ವಾಸ	-846
ಿಯಾಗಿ	-847
▁ಮಾಹಿತಿ	-848
ಿಸಿದ್ದರು	-849
▁ಗೋ	-850
▁ನಡುವ	-851
ನೆಗೆ	-852
ದುಕೊಳ್ಳ	-853
ೃಷ್ಟ	-854
ಿತರ	-855
▁ಸಂಸ್ಥ	-856
ವರಿಗೆ	-857
▁ನಂಬ	-858
▁ಸಾವ	-859
▁ಪಡೆಯ	-860
▁ವೆ	-861
▁ಸಿಂಗ್	-862
ರ್ಚ	-863
್ಯೂ	-864
▁ಠಾಣ	-865
▁ಮುಖ	-866
▁ನಮಗೆ	-867
▁ವರ್ಷ	-868
ರಿಸಿ	-869
▁ನರೇಂದ್ರ	-870
▁ಜೀವನ	-871
▁ಬೇಕ	-872
ಿದ್ಧ	-873
▁ಅವನು	-874
ನ್ಸ್	-875
ಹ್	-876
ಾಳ	-877
▁ಮಾಜಿ	-878
್ರಿ	-879
ಿಯೂ	-880
ಿಕೆಯ	-881
▁ನಿಜ	-882
ಿಯು	-883
▁ಮಾಡಿದ	-884
▁ವಿಶೇಷ	-885
▁ಚುನಾವಣ	-886
▁ಒಪ್ಪ	-887
ಟಕ	-888
▁ನಗರ	-889
▁ಕಡಿ	-890
▁ಪ್ರಮುಖ	-891
ೆಗಳು	-892
ಿಕೆಟ್	-893
ಾನ್ಯ	-894
▁ಗೊತ್ತ	-895
▁ಮೈ	-896
ವಲ್ಲ	-897
▁ಮುಖ್ಯಮಂತ್ರಿ	-898
▁ವಿಧಾನ	-899
▁ವಾ	-900
▁ವೇ	-901
ೆಲ್ಲ	-902
▁ವರ	-903
▁ಪರಿಸ	-904
ೀಲ	-905
▁ಭಾಷ	-906
▁ಕೃ	-907
▁ಬಹಳ	-908
▁ಆಟ	-909
▁ಗಮನ	-910
▁ಪರಿಣ	-911
ಿಸಬೇಕು	-912
▁10	-913
▁’	-914
▁ಪದ	-915
ಜನ	-916
▁ವೇಳ	-917
ರಳ	-918
▁ಫೋ	-919
▁ಬೀ	-920
▁ಆತನ	-921
ಕ್ಕಿ	-922
▁ಎದು	-923
▁ಸಹಾಯ	-924
▁ಸಂದರ್ಭ	-925
ವಲ	-926
▁ಜನರು	-927
▁ಸಲ್ಲ	-928
▁ಚೆ	-929
ಕೊಂಡ	-930
▁ಮಾಡಲು	-931
▁ಟಿ	-932
▁ಆರೋಪ	-933
ಾಗಿದ್ದ	-934
▁ಸರಕಾರ	-935
ದ್ರ	-936
▁ಸಂತ	-937
▁ಅಭಿವ	-938
▁ಎನ್	-939
▁ಸೈ	-940
ಪಟ್ಟ	-941
▁ಆತ	-942
▁ಕುಮಾರ್	-943
ಸಾ	-944
ಣಿ	-945
ೋಹ	-946
▁ಗೌ	-947
▁7	-948
▁ಸೌ	-949
▁ತಿಳಿಸಿದ್ದಾರೆ	-950
▁8	-951
▁ತೀ	-952
▁ಪರೀಕ್ಷ	-953
▁ಲೋಕ	-954
ೊಡ	-955
▁ವ್ಯಾ	-956
▁ಆಸ್ಪತ್	-957
ಲಭ	-958
▁ಪ್ರತಿಭ	-959
ಿಸ್ತಾನ	-960
▁ಕಳೆ	-961
ಸ್ಕ	-962
▁ತರ	-963
ರೋಧ	-964
ನಲ್ಲಿ	-965
▁ಏಕೆ	-966
▁ಕಂಪ	-967
▁ಜೆ	-968
ಾದರೂ	-969
▁ತಂದ	-970
▁ವಿವಿ	-971
▁ಬಳಸ	-972
ಿಕಿತ್	-973
ಹುಲ್	-974
▁ಸದಸ್ಯ	-975
▁ಪ್ರಯತ್ನ	-976
ಗಿನ	-977
▁—	-978
ಂಕ್	-979
▁ಭೂ	-980
ಾನೂ	-981
ಿರಿ	-982
▁ಬರ	-983
...	-984
ಬಾರ	-985
ವರೆ	-986
▁ಮುಂದು	-987
▁ಜಿ	-988
▁ರೂಪ	-989
ಜು	-990
ರಣೆ	-991
▁ಪಾಕ	-992
▁ಅವಕಾಶ	-993
▁ಬೆಂಗಳ	-994
ಕೋ	-995
▁ಪರಿಣಾಮ	-996
▁ಇನ್ನು	-997
▁ಪಾತ್ರ	-998
ಕ್ತಿಯ	-999
▁ಆಯ್ಕೆ	-1000
ಂಶ	-1001
▁ಕೊಡ	-1002
ಕೊಳ್ಳ	-1003
್ಟ್	-1004
ವೀ	-1005
▁ರಾಹುಲ್	-1006
▁ಕಲ	-1007
▁ಘಟನೆ	-1008
▁ವ್ಯಕ್ತ	-1009
▁ಸೂಚ	-1010
▁ಉತ್ಪ	-1011
▁ಮಾನ	-1012
▁ಅಭಿ	-1013
ಜ್ಞಾನ	-1014
ಿಣ	-1015
▁ಗಾಂಧಿ	-1016
▁ವ್ಯವಸ್ಥ	-1017
ರಾದ	-1018
▁ಶಾಲ	-1019
ಯ್ಯ	-1020
ವನು	-1021
▁ಮಾತು	-1022
ೇನು	-1023
▁ವಾಹ	-1024
ದಲು	-1025
ಲಿನ	-1026
▁?	-1027
ೃತ್ತ	-1028
▁ವಿವಿಧ	-1029
▁ಟ್ರ	-1030
▁ಹೊಂದಿದೆ	-1031
▁ತನಿಖೆ	-1032
▁ಅದಕ್ಕೆ	-1033
▁ಮಗ	-1034
▁ಮಧ್ಯ	-1035
ುತ್ತಿರುವ	-1036
ಾಟ	-1037
ಶ್ರ	-1038
▁ಯೇ	-1039
▁ರಾಜಕೀಯ	-1040
▁ಸಮಸ್ಯೆ	-1041
ಲ್ಲೂ	-1042
▁ಹೈ	-1043
▁ಟೆ	-1044
▁ಪಡೆದ	-1045
▁ಬಿಜೆಪ	-1046
▁ಯೆಹೋವನ	-1047
▁ಬಿಡುಗಡೆ	-1048
ಾಯ್	-1049
ರಿಗೂ	-1050
▁ವಿಧ	-1051
▁ಇದೇ	-1052
▁ನಾಲ್	-1053
▁ಅಭಿವೃದ್ಧ	-1054
ೋಚ	-1055
▁ವಹ	-1056
▁ಎನ್ನು	-1057
▁ಚಿಕಿತ್	-1058
▁ಆಡ	-1059
ಸ್ತು	-1060
ಾನಿ	-1061
▁ಮಾತನಾಡ	-1062
ಾಮಿ	-1063
▁ತುಂಬಾ	-1064
▁ಬಲ	-1065
▁ಹಲವು	-1066
▁ಸಂಖ್ಯ	-1067
▁ಕಾರ್	-1068
ೇಖ	-1069
ಲಾಗುತ್ತದೆ	-1070
▁ವಾಹನ	-1071
▁ಕೇವಲ	-1072
ಾಂಶ	-1073
ವಾರ	-1074
▁ಸಾಕ	-1075
▁ಸಿದ್ಧ	-1076
▁ವಿಭ	-1077
▁ನಿಮಗೆ	-1078
▁ಸೇರಿದ	-1079
▁ಪ್ರಮಾಣ	-1080
ಿದ್ದೇನೆ	-1081
ಸ್ಸ	-1082
ಿದ್ದೇವೆ	-1083
▁ವೇಳೆ	-1084
್ದರಿಂದ	-1085
▁ಪಾಕಿಸ್ತಾನ	-1086
ಯ್	-1087
ರಿಕೆ	-1088
ಯೂ	-1089
ಸರ್	-1090
▁12	-1091
▁ಬೆಳ	-1092
▁ದೇಶದ	-1093
▁ಉದ್ದ	-1094
▁ಭೇಟಿ	-1095
ಾದ್	-1096
ಾರಂಭ	-1097
▁ದೇವ	-1098
▁ಯುವ	-1099
ಟೆ	-1100
▁ದೂರ	-1101
▁ಪ್ರಶ್ನೆ	-1102
▁ಚರ್ಚ	-1103
ಲ್ಪಟ್ಟ	-1104
▁ಮತ	-1105
▁ಎಂಬುದ	-1106
ಕೂ	-1107
ಗ್ರ	-1108
ಷ್ಟೇ	-1109
▁ದಿ	-1110
▁ನಿನ್ನ	-1111
▁ಅಭ್ಯ	-1112
▁ಬೇರೆ	-1113
ಮಾರು	-1114
ೆಂದು	-1115
ಿಸುವುದು	-1116
▁ಮೀ	-1117
▁ಮಾರು	-1118
▁ಪೆ	-1119
▁ಅಂದ	-1120
▁ಹೀಗೆ	-1121
▁ಸಲ	-1122
ನಾಟಕ	-1123
▁ಕಾರು	-1124
ಶ್ಯ	-1125
▁ಅರ್ಥ	-1126
▁ಆತ್ಮ	-1127
▁ಗ್ರಾಮ	-1128
ಗಳಿವೆ	-1129
▁ವೈದ್ಯ	-1130
▁ಪ್ರತಿಭಟ	-1131
ಾಗುತ್ತದೆ	-1132
▁ಮಂದಿ	-1133
▁ಯಾರು	-1134
▁ಬೇಡ	-1135
ರ್ಧ	-1136
▁ನೀರು	-1137
▁ಶಾಸ	-1138
▁ಪ್ರೀ	-1139
▁ಮೂರು	-1140
▁ಬಾರಿ	-1141
ಿರಿಯ	-1142
ುತ್ತಿಲ್ಲ	-1143
▁ಆದ್ದರಿಂದ	-1144
ಿರಲಿಲ್ಲ	-1145
▁ಅಭ್ಯರ್ಥ	-1146
▁"	-1147
ುವಂತೆ	-1148
▁ಕಂಡು	-1149
▁15	-1150
▁ತು	-1151
ೆಯಿಂದ	-1152
▁ಉದ್ಯ	-1153
▁ಮಾರ್ಗ	-1154
▁ಒತ್ತ	-1155
▁ಪಟ್ಟ	-1156
▁ನೀಡಿ	-1157
ಳಿತ	-1158
▁ಫಲ	-1159
▁ಮುಂದಿನ	-1160
▁ಕಾಯ	-1161
▁ಮುಂಬ	-1162
▁ವಿರೋಧ	-1163
▁ಕರ್ನಾಟಕ	-1164
▁ತಯ	-1165
ಚಿತ	-1166
ಾಗಿರುವ	-1167
▁ಜನರ	-1168
ಾಗಲೇ	-1169
▁ಮಾಡಿದ್ದಾರೆ	-1170
▁ಜೀವ	-1171
▁ಆಸ್ಪತ್ರೆಗೆ	-1172
▁ಚೆನ್ನ	-1173
ಟು	-1174
ರೆದ	-1175
▁ರೋಗ	-1176
▁ಮುಂದೆ	-1177
▁ಆಹಾರ	-1178
▁201	-1179
▁ಸತ್ಯ	-1180
ದಾರ	-1181
ಬಲ್	-1182
▁ಸೇವ	-1183
್ಥ	-1184
▁ಬಯ	-1185
▁ಲಾ	-1186
▁ಮೃತ	-1187
▁ಒಳ್ಳ	-1188
▁ಆಗಿದೆ	-1189
▁ನಡುವೆ	-1190
▁ಸಿಗ	-1191
ಿಯೇ	-1192
▁ಅತಿ	-1193
ಿದ್ದರೆ	-1194
ಬಾರದು	-1195
ಾಮೆ	-1196
ಾಮ್	-1197
▁ಪರಿಸ್ಥ	-1198
▁ರಾಷ್ಟ್ರೀಯ	-1199
▁ಸಾಮಾನ್ಯ	-1200
ಭಾವ	-1201
▁ಕೈಗೊಳ್ಳ	-1202
▁ಮಾದ	-1203
▁ಕಾನೂ	-1204
▁ಹಾ	-1205
▁ಕಡಿಮೆ	-1206
▁ತಿಳಿಸಿದರು	-1207
ಗೋ	-1208
ಆರ್	-1209
ಗಳಿ	-1210
▁ಇಲಾ	-1211
ರ್ಕ	-1212
ಹಿ	-1213
▁ಟೀ	-1214
▁ಅತ್ಯಂತ	-1215
ಮ್ಮೆ	-1216
▁ಕೆಳ	-1217
▁ಇಷ್ಟ	-1218
▁ಅಮೆ	-1219
ನೂ	-1220
▁ಉಂಟ	-1221
▁ರಚ	-1222
▁ರಿ	-1223
▁ಗುರು	-1224
▁ಸರಿಯ	-1225
▁ಠಾಣೆಯಲ್ಲಿ	-1226
ವ್ರ	-1227
▁ತಾ	-1228
▁ಬು	-1229
▁ಶಾ	-1230
▁ಜಿಲ್ಲಾ	-1231
ೋಲ್	-1232
ುತ್ತವೆ	-1233
ವಾರು	-1234
▁ಆರೋಪಿ	-1235
ತೆಯನ್ನು	-1236
▁ನಾವ	-1237
▁ಶಿಕ್ಷ	-1238
▁ದೆಹ	-1239
▁ಸ್ಪರ್ಧ	-1240
▁ಜೊತೆಗೆ	-1241
ಕೆಯ	-1242
ುತ್ತೇನೆ	-1243
▁ಟ್	-1244
▁ಡಾ	-1245
▁ಮಹಿಳೆಯ	-1246
ಶೀಲ	-1247
ತೆಗೆ	-1248
ಿಯಿಂದ	-1249
▁ಇಬ್ಬರು	-1250
▁ಜಯ	-1251
▁ಭಯ	-1252
▁ಸುಮಾರು	-1253
▁ಸಾಕಷ್ಟು	-1254
▁ಅಮ	-1255
▁ಬೆಂಬ	-1256
ಾಜ್	-1257
ುದು	-1258
▁9	-1259
▁ಕನ್ನ	-1260
ಣ್ಣು	-1261
▁ಶಿವ	-1262
▁ತೋರಿಸ	-1263
▁ರೆ	-1264
▁ಶೇ	-1265
ೀಪ	-1266
▁ರು	-1267
▁19	-1268
▁ಇಂಡಿಯಾ	-1269
▁ಸಂಪೂರ್ಣ	-1270
ವರೆಗೆ	-1271
ಹಾಸ	-1272
▁ಸದ್ಯ	-1273
ಲಯ	-1274
▁ವಿಜ	-1275
▁ಸಿನಿಮಾ	-1276
▁ಗುಣ	-1277
▁ಪ್ರಸ	-1278
▁ಯೋಜನೆ	-1279
▁ಸಂದರ್ಭದಲ್ಲಿ	-1280
▁ಸಿನಿಮ	-1281
ಕಟ್ಟ	-1282
ವಾಹ	-1283
▁ಸೇರಿದಂತೆ	-1284
▁ಹಿರಿಯ	-1285
▁ಪ್ರಶಸ್	-1286
▁ಬ್ಯಾಂಕ್	-1287
ನ್ನೆ	-1288
▁ಲಭ	-1289
▁ಅಧಿಕಾರ	-1290
▁ಪ್ರತಿಯ	-1291
▁ಇವೆ	-1292
▁ತೀವ್ರ	-1293
▁ಖಾನ್	-1294
▁ದೂರು	-1295
ನ್ನೇ	-1296
ಿಯಾದ	-1297
▁ವ್ಯಕ್ತಪಡ	-1298
ಾಜಿಕ	-1299
▁ಸ್ಮ	-1300
▁ಕಟ್ಟ	-1301
ಗ್ಗ	-1302
▁ಜೋ	-1303
ೀರಿ	-1304
▁ವಿವ	-1305
ದಲ್ಲೇ	-1306
ಾರಿಗೆ	-1307
ುತ್ತೇವೆ	-1308
▁ಸ್ಪಷ್ಟ	-1309
▁ಇರುವ	-1310
▁ಬೆಲೆ	-1311
ವಾಗಿತ್ತು	-1312
ಧಿ	-1313
ಟೋ	-1314
ಾರ್ವ	-1315
▁ಮತ್ತೆ	-1316
▁ಬೆಂಬಲ	-1317
ಿನಿಂದ	-1318
▁ಹೆಸ	-1319
▁ಸುದ್ದ	-1320
▁ನಿರೀಕ್ಷ	-1321
▁ಕೊಟ್ಟ	-1322
ಳ್ಳಿ	-1323
▁ಭಾವ	-1324
▁ಅನುಭವ	-1325
▁ಪ್ರತಿಕ	-1326
▁ಘೋಷ	-1327
▁ಮಂಡ	-1328
▁ಶಿಕ್ಷಣ	-1329
▁ಸಾಮಾಜಿಕ	-1330
▁ಸಂಘ	-1331
▁ಚಿಕಿತ್ಸೆ	-1332
ಿಕಾ	-1333
ತ್ತೀ	-1334
▁ಊ	-1335
▁ಆರ್ಥ	-1336
▁ತೀರ್	-1337
▁ಪ್ರಕಾರ	-1338
▁ಮಟ್ಟ	-1339
▁ಮೊದಲು	-1340
▁ಕಷ್ಟ	-1341
▁ನಿರ್ವಹ	-1342
ದಿಯ	-1343
▁ಉದ	-1344
▁ಮನೆ	-1345
ರುವುದು	-1346
▁ಚಾಲ	-1347
▁ಯಶಸ್	-1348
▁ಅಧಿಕಾರಿಗಳು	-1349
▁ಕ್ಯ	-1350
▁ತಿಳಿದು	-1351
ಲಿದ್ದಾರೆ	-1352
▁ಪೊಲೀಸ	-1353
▁ಜಾಗ	-1354
▁ಹಾಗೆ	-1355
ತ್ಸ	-1356
▁ನೀಡಿದ್ದಾರೆ	-1357
▁ಅಸ	-1358
▁ಆಸ್	-1359
▁ನವ	-1360
ೋರ್ಟ್	-1361
ೆಗಳ	-1362
▁ಹಲವಾರು	-1363
▁ಆರ್ಥಿಕ	-1364
▁ಹೀಗಾಗಿ	-1365
ಾರಾಷ್ಟ್ರ	-1366
ಕಾರಿ	-1367
▁ಈಗಾಗಲೇ	-1368
▁ನೋಡಿ	-1369
ಡುವುದ	-1370
▁ಭಾಗವಹ	-1371
ಡಿಯೋ	-1372
ನೆಯನ್ನು	-1373
ೃಹ	-1374
▁ಪಕ್ಷದ	-1375
ಜಾ	-1376
ಪಾ	-1377
▁ಆದರೂ	-1378
ಯನ	-1379
ಬೇಡಿ	-1380
ಲಾಯಿತು	-1381
ಭು	-1382
ತ್ಮಕ	-1383
▁ಸೇವೆ	-1384
ಷಿ	-1385
▁ಕನ್ನಡ	-1386
▁ಇದರಲ್ಲಿ	-1387
ರಲಿಲ್ಲ	-1388
▁ಸಿಕ್ಕ	-1389
▁ಅಭಿವೃದ್ಧಿ	-1390
▁ಸುರ	-1391
▁ಇಂತಹ	-1392
▁ನಿರ್ಮಾಣ	-1393
▁ಸ್ವಲ್ಪ	-1394
▁ಸರ್ಕಾರದ	-1395
▁ಕ್ಯಾ	-1396
▁ಸಾರ್ವ	-1397
▁ಸಂಪರ್ಕ	-1398
▁ಮೌ	-1399
▁ಹಂತ	-1400
▁ನಾಗ	-1401
ೀಕರಿಸ	-1402
ದಗ	-1403
▁ತಮ	-1404
ಿದ್ದಾನೆ	-1405
ಶಿ	-1406
▁ಸಂಸ	-1407
ುತ್ತಾ	-1408
▁ಹಿಂದೆ	-1409
▁ಗೌರವ	-1410
▁ಪೈ	-1411
▁ಬಣ್ಣ	-1412
ೆಯೂ	-1413
▁ಜ್	-1414
ಷ್ಣ	-1415
▁ತಯಾರ	-1416
▁ಮಕ್ಕಳು	-1417
ಹೆ	-1418
ೈನ	-1419
ಗಣ	-1420
▁ಗಳು	-1421
▁ಸಾಲ	-1422
ಂತ್	-1423
ಾದರೆ	-1424
▁ಪುನ	-1425
ಿನ್ನ	-1426
▁ವ್ಯಕ್ತಿ	-1427
▁ದಾಖಲಾಗಿದೆ	-1428
▁ವಿಮಾನ	-1429
20	-1430
ರ್ಟ್	-1431
▁ಉದ್ದೇಶ	-1432
▁ಧರ್ಮ	-1433
ಾದಲ್ಲಿ	-1434
▁ಲೈ	-1435
ನಿಗೆ	-1436
▁ಎಚ್ಚ	-1437
▁ಸಹೋದ	-1438
ಾಗಿಲ್ಲ	-1439
ೂರ್ವ	-1440
▁ಅಮೆರಿಕ	-1441
ಕಾಲ	-1442
ತಿಹಾಸ	-1443
ಿಸಬೇಕ	-1444
▁ಪ್ರತಿಕ್ರಿಯ	-1445
▁ರಸ್	-1446
▁ತೆಗೆದುಕೊಳ್ಳ	-1447
ಯೇ	-1448
ಸ್ರ	-1449
▁ಭಾರತದಲ್ಲಿ	-1450
▁ಇಡ	-1451
ಿಸಿತು	-1452
ದಾನ	-1453
▁ಅಂಗ	-1454
▁ಗಳನ್ನು	-1455
ನನ್ನು	-1456
▁ಮಾಡಬೇಕು	-1457
ೀಡ	-1458
ವರನ್ನು	-1459
ಥ್	-1460
▁ಗಂಭ	-1461
▁ಚಿತ್ರದ	-1462
ೇಲ್	-1463
▁ದ್	-1464
ಜನಿಕ	-1465
▁ಆಫ್	-1466
ಿಸುವುದ	-1467
ಬ್ದ	-1468
▁ನಿರ್ಧಾರ	-1469
ವುಡ್	-1470
000	-1471
ತ್ವದ	-1472
ಹಿತ	-1473
▁ಪೋ	-1474
ವನ್ನೂ	-1475
▁ಕಾನೂನು	-1476
▁ಉತ್ಪಾದ	-1477
ಶ್ಮ	-1478
▁ಅದೇ	-1479
ಯೋಗ	-1480
▁ಒದಗ	-1481
▁ನೆರ	-1482
▁ಸಂಭವ	-1483
ೋಣ	-1484
▁ಕಡೆ	-1485
ೇರಿ	-1486
ವೇಶ	-1487
▁ಯಾಕೆ	-1488
ರಾಟ	-1489
▁11	-1490
▁ಏಕ	-1491
▁ಪ್ರಶಸ್ತಿ	-1492
▁ಬೆಂಗಳೂರು	-1493
▁ಹೂ	-1494
▁ನಿಯಮ	-1495
▁ಅಂಶ	-1496
▁ಎಲ್ಲಿ	-1497
▁ವೀ	-1498
ಾಲಿವುಡ್	-1499
▁ಪರಿಹಾರ	-1500
ಾವಣೆ	-1501
ುವಿನ	-1502
),	-1503
▁ಎಂಬುದು	-1504
▁ಮಾರುಕಟ್ಟ	-1505
▁ಆಧ	-1506
▁ಯಾವಾಗ	-1507
▁ರಾಜ್ಯದ	-1508
ರಾಗಿ	-1509
▁ಸೀ	-1510
ಾಗುವ	-1511
ಎಲ್	-1512
▁ರನ್	-1513
ಿಮ	-1514
▁ನೀರಿನ	-1515
▁ಸಾಕ್ಷ	-1516
▁ಲಭ್ಯ	-1517
▁ಮದು	-1518
▁ಪಾಲ	-1519
▁ರೈತ	-1520
▁ತಮಿಳ	-1521
▁ನಿಂದ	-1522
▁ಚುನಾವಣೆ	-1523
▁ನಿಯಂತ್ರ	-1524
ಚ್ಛ	-1525
ನೋ	-1526
ತಿಕ	-1527
▁ಉಳಿದ	-1528
▁ರಸ್ತೆ	-1529
▁ಗಾಯಗೊಂಡ	-1530
▁ಎಂಜಿ	-1531
▁ಗಂಭೀರ	-1532
▁ಸಾಧ್ಯವಿಲ್ಲ	-1533
▁ಹೃ	-1534
▁ಮನು	-1535
▁ಚಲ	-1536
▁ಔ	-1537
▁ಲಿ	-1538
ಬಹುದ	-1539
▁ಪತ್ರ	-1540
ವಾಗುತ್ತದೆ	-1541
ಾಚಾರ	-1542
ಲ್ಲಾ	-1543
▁ಜಾ	-1544
▁ಒಟ್ಟು	-1545
ದಯ	-1546
ಪುರ	-1547
▁ದೃ	-1548
▁ಮಾಡಿಕೊಂಡ	-1549
ಯು	-1550
ರ್ಜ	-1551
್ರಾ	-1552
ಲ್ಲೇ	-1553
ವಾಸಿ	-1554
ೂರಿನ	-1555
▁ಯೇಸು	-1556
▁ಮಾಡಿಕೊಳ್ಳ	-1557
▁ಪ್ರಯಾಣ	-1558
▁ಕೊಹ್	-1559
ಸಭಾ	-1560
ಾರಾಟ	-1561
ದರ್ಶನ	-1562
▁ಕ್ರಿಕೆಟ್	-1563
▁ಇವು	-1564
--	-1565
▁ಗಣ	-1566
ತ್ಯೆ	-1567
▁ಬದುಕ	-1568
ಾದ್ಯ	-1569
ಕ್ಕಿಂತ	-1570
▁ಉಪಸ್ಥ	-1571
ೇಟ್	-1572
▁ಬಯಸ	-1573
▁ಸಂಗೀತ	-1574
ಿಸಬಹುದು	-1575
▁ಮಾಡಿದೆ	-1576
ರುವುದಿಲ್ಲ	-1577
ಿಯನ್	-1578
▁ಸಂಕ	-1579
▁ಕುರಿತ	-1580
ಸ್ವ	-1581
ವ್ಯ	-1582
▁ಪ್ರಕಟ	-1583
ವೃತ್ತ	-1584
▁ಹೆಸರು	-1585
ೇಜ	-1586
▁ಸಂತೋಷ	-1587
ೀಕರಣ	-1588
▁ವ್ಯಾಪ	-1589
▁ಸಾರ್ವಜನಿಕ	-1590
ನ್ಮ	-1591
ವಿದ	-1592
ಗೊಂಡಿದೆ	-1593
ಪ್ರೀ	-1594
▁ಖಂಡ	-1595
▁ಮಾಡಲಾಗಿದೆ	-1596
▁ದಕ್ಷ	-1597
▁ಅಭಿನ	-1598
▁ಕಳೆದ	-1599
▁ಪ್	-1600
▁ಉದಾಹ	-1601
▁ಅಳ	-1602
ಾಗಿದ್ದಾರೆ	-1603
▁ಸಂಬಂಧಿಸಿದ	-1604
ಹಾಕ	-1605
ಚಿತ್ರ	-1606
▁ನ್ಯಾಯಾಲಯ	-1607
▁ಪೌ	-1608
▁ಎಷ್ಟು	-1609
ಗೇ	-1610
ರಿಸಲು	-1611
▁ಸುಲಭ	-1612
▁ಬಾಲ	-1613
▁ಸ್ಥಳೀಯ	-1614
ನಾದ	-1615
▁ಇತ್ತೀ	-1616
▁ಪ್ರಾ	-1617
▁ಸಿಬ್ಬ	-1618
▁ಪರಿಶೀಲ	-1619
▁ಯಾರೂ	-1620
ರುತ್ತವೆ	-1621
ಬು	-1622
ಘಾತ	-1623
▁ಬೆಳೆ	-1624
▁ನೀಡಿದ	-1625
ಿಸಿರುವ	-1626
▁ಕಾಶ್ಮ	-1627
▁ಪೂರ್ಣ	-1628
▁ತಲೆ	-1629
್ಮಿಕ	-1630
▁25	-1631
ಣಿಗೆ	-1632
▁ತಮಿಳು	-1633
ಕತೆ	-1634
▁ಆದೇಶ	-1635
▁ನಮ	-1636
▁ರಾಮ	-1637
▁ವರದಿ	-1638
ಕ್ಕು	-1639
▁ಸರಣ	-1640
ಿರುವುದ	-1641
▁ಮನುಷ್ಯ	-1642
▁ಕರೆ	-1643
ಿದ್ದೆ	-1644
▁ಕಥ	-1645
ನೆಯಲ್ಲಿ	-1646
▁ಮುಂಬೈ	-1647
▁ಕೊಹ್ಲಿ	-1648
▁ದರ	-1649
▁ಪಾಲ್	-1650
ಗದ	-1651
ಪ್ಪು	-1652
▁ತಂತ್ರ	-1653
ೇಲ	-1654
▁ಹೃದಯ	-1655
▁ಎಂಬುದನ್ನು	-1656
▁ಹೌ	-1657
▁—⁠	-1658
▁ಇತ್ತೀಚ	-1659
▁ಒಳ್ಳೆಯ	-1660
ಣೆಯ	-1661
ದಲ್ಲಿರುವ	-1662
ೋಜನ	-1663
▁ವಿಭಾಗ	-1664
▁ಬಾಲಿವುಡ್	-1665
ಾಸ್ತ್ರ	-1666
▁ಸಂಖ್ಯೆ	-1667
ಾಂಗ	-1668
▁[	-1669
ಾಂತರ	-1670
▁ಅರ	-1671
▁ಲೀ	-1672
ದಂತೆ	-1673
ಲೆಯಲ್ಲಿ	-1674
▁ಪ್ರವೇಶ	-1675
▁ಇಳ	-1676
▁ಜ್ಞ	-1677
ತಿಯನ್ನು	-1678
▁ಸ್ಥಳಕ್ಕೆ	-1679
ಿದನು	-1680
ಾರ್ಟ್	-1681
ೇಯ	-1682
ಪ್ತ	-1683
ಧಿಕಾರಿ	-1684
▁ಉಪಸ್ಥಿತರ	-1685
▁ಶೆ	-1686
▁ಸೂಕ್ತ	-1687
▁ಎಂಜಿನ್	-1688
▁ಪರಿಸ್ಥಿತಿ	-1689
ಲ್ಕ	-1690
▁ಭದ್ರ	-1691
▁ಆಡಳಿತ	-1692
ಲಾಗುವುದು	-1693
ನ್ವ	-1694
▁ನೀನು	-1695
▁ತಿಳಿಯ	-1696
▁ಸುದ್ದಿ	-1697
▁ವಶ	-1698
▁ಇಸ್ರ	-1699
▁ಮಾರಾಟ	-1700
ಡಿಎಸ್	-1701
ಿಸಿತ್ತು	-1702
ಲೋ	-1703
ರಾಜ	-1704
ರಷ್ಟು	-1705
▁ಸಣ್ಣ	-1706
▁ಅಲ್ಲದೆ	-1707
▁14	-1708
▁ಕರ್ತ	-1709
▁13	-1710
▁ಎರಡೂ	-1711
▁ಪರಿಗಣ	-1712
▁ಸುತ್ತ	-1713
ಬಂದ	-1714
▁ಆಸ	-1715
▁ರೀತಿ	-1716
▁ಸಮಯದಲ್ಲಿ	-1717
ಂಕಿ	-1718
ಟಿಂಗ್	-1719
▁ದೇವರು	-1720
▁ಪ್ರಾಣ	-1721
ಬೆ	-1722
▁ನಟಿ	-1723
▁ನಾನ	-1724
ಪ್ರಾಯ	-1725
ೀಸ್	-1726
▁ಇಂಗ್	-1727
▁ಗುರುತ	-1728
ಿಸು	-1729
▁ದಕ್ಷಿಣ	-1730
▁ಮುನ್ನ	-1731
ೇತ	-1732
ಸೂ	-1733
ೈಲ	-1734
▁ಸಾವು	-1735
ಗಿಂತ	-1736
ಧ್ಯಮ	-1737
ರ್ಮಾ	-1738
▁–	-1739
▁ನಿರಾ	-1740
ಷೇ	-1741
ತೀ	-1742
ರ್ಪ	-1743
ಿಗಳಿಗೆ	-1744
▁ಉಪಸ್ಥಿತರಿದ್ದರು	-1745
ನದ	-1746
▁ಕಡ	-1747
▁ರಕ್ಷ	-1748
ಲೆಂಡ್	-1749
▁ಸುಪ್ರೀ	-1750
▁ಕಾಶ್ಮೀರ	-1751
ರಾಧ	-1752
ತ್ತರ	-1753
ರಿಸುವ	-1754
▁ತಿರು	-1755
ುತ್ತಾನೆ	-1756
ಮು	-1757
▁ನೇಮ	-1758
▁ಕ್ರೈ	-1759
▁ಸ್ನೇ	-1760
ಿಸಿದ್ದು	-1761
ಿಕ್	-1762
▁ಶೀ	-1763
ಾಗಿವೆ	-1764
▁ತಿಳಿದ	-1765
▁ನ್ಯೂ	-1766
ಲಾಗುತ್ತಿದೆ	-1767
ನಿರ್	-1768
ಳಿಗೆ	-1769
ಿಸುತ್ತಾರೆ	-1770
ರುಷ	-1771
▁ಮಳೆ	-1772
▁ಹಂಚ	-1773
ವಾಗಿಲ್ಲ	-1774
▁ನಾಲ್ಕು	-1775
▁ನಡೆದಿದೆ	-1776
ಸಂ	-1777
▁ಫೋನ್	-1778
ರ್ಸ್	-1779
ಸೆಲ್	-1780
▁ಮನೆಯ	-1781
▁ನಿಲ್ಲ	-1782
▁18	-1783
ಿತಾಂಶ	-1784
▁ಪತ್ತ	-1785
ವಾಗಿಯೂ	-1786
▁ಮುಖಂಡ	-1787
ೈಲ್	-1788
▁ಕೊರ	-1789
ೀಲ್	-1790
▁ನೆನ	-1791
▁ರಕ್ತ	-1792
ಬಾದ್	-1793
▁ಪ್ರಶ್ನ	-1794
ಕ್ಯ	-1795
,000	-1796
▁ಬಳಕೆ	-1797
ದಿನ	-1798
▁ಪೂ	-1799
ಂಡು	-1800
▁ಎಲ್	-1801
ರ್ಥ್ಯ	-1802
▁ಸಾವಿರ	-1803
ಂಪು	-1804
ಲ್ಪಡ	-1805
ಾರ್ಕ್	-1806
▁ವಿಡಿಯೋ	-1807
ಸ್ತಕ	-1808
▁ಪ್ರಾರಂಭ	-1809
▁ಒಂದೇ	-1810
▁ಇಲಾಖೆ	-1811
▁ಕಾರ್ಯದರ್ಶ	-1812
▁ಜಾಲ	-1813
▁ಅನುಮ	-1814
▁ಪ್ರಯೋಜನ	-1815
▁ಯೆಹೋವನು	-1816
▁ಪ್ರಕ್ರಿಯ	-1817
▁ಪ್ರತಿಭಟನೆ	-1818
ೊಮ್ಮೆ	-1819
▁ತೊಂದ	-1820
▁ಸಿದ್ದ	-1821
▁ಬರುತ್ತ	-1822
ಗಳೂ	-1823
ಶ್ಚ	-1824
▁ಶರ್ಮಾ	-1825
▁ಹೇಳಿಕೆ	-1826
▁50	-1827
▁ಪೂರ	-1828
▁ಫಲಿತಾಂಶ	-1829
▁ಅನಿ	-1830
▁ಎರಡನೇ	-1831
ರಾವ	-1832
▁ಸಾಗ	-1833
▁ಕೋರ್ಟ್	-1834
ಬಾ	-1835
▁ತನಿಖ	-1836
▁ಹಾಗಾಗಿ	-1837
▁ಎಂದಿದ್ದಾರೆ	-1838
▁/	-1839
▁ನೈ	-1840
ಧ್ಯಕ್ಷ	-1841
ಲಾಗಿತ್ತು	-1842
▁ಅಡ	-1843
▁ಕೌ	-1844
▁ಬಗೆ	-1845
ಾದ್ಯಂತ	-1846
್ಯು	-1847
▁ಪೆಟ್ರ	-1848
▁ವಸ್ತು	-1849
▁ಸಾಮರ್ಥ್ಯ	-1850
▁ಪ್ರಧಾನಮಂತ್ರಿ	-1851
▁ಟೆಸ್ಟ್	-1852
ಡ್ಡಿ	-1853
▁ಓದಿ	-1854
ರಾಮ	-1855
ಲಾದ	-1856
ಿಸಿಲ್ಲ	-1857
▁ಬೈಬಲ್	-1858
ೆಗಳಲ್ಲಿ	-1859
▁ತಕ್ಷಣ	-1860
▁ಜನರಿಗೆ	-1861
▁ಮಂದ	-1862
ವಾಯಿತು	-1863
▁ಹೋರಾಟ	-1864
▁ಮುಂದುವರ	-1865
▁ಸಿಬಿ	-1866
▁ಇತಿಹಾಸ	-1867
ನಾನು	-1868
▁ಭರವ	-1869
▁ಇವರ	-1870
▁ಬೈಕ್	-1871
▁ಸ್ವಾ	-1872
▁ಸುರಕ್ಷ	-1873
ಂಸ	-1874
▁ನು	-1875
▁ಅರ್ಜಿ	-1876
▁ಸರಳ	-1877
▁ಸೃಷ್ಟ	-1878
▁ಸಮುದ	-1879
▁ಹುಡು	-1880
▁ಸಹೋದರ	-1881
▁ಕುಮಾರ	-1882
▁ದೇವಾಲಯ	-1883
ಿಸುತ್ತಿದ್ದಾರೆ	-1884
ಬಲ್ಲ	-1885
▁200	-1886
▁ವಾರ	-1887
▁ಸೇರಿ	-1888
▁ವಿದೇಶ	-1889
▁ದಾಖಲಿಸಿಕೊಂಡ	-1890
್ವ	-1891
ೆಯಾಗ	-1892
▁ಇವರು	-1893
▁ಹತ್ತ	-1894
▁ಕರೆಯ	-1895
▁ನನ್ನನ್ನು	-1896
ಎನ್	-1897
ೆಂಬ	-1898
▁ಆಫ	-1899
▁ಕಾಮ	-1900
▁ಯೋಚ	-1901
ಬಲ	-1902
▁ಏರ್	-1903
▁ಹಿನ್ನೆ	-1904
ನಿಯ	-1905
▁16	-1906
▁ಕರ್ತನ	-1907
▁ಎಲ್ಲರೂ	-1908
ರಾಟ್	-1909
▁ಎಚ್	-1910
▁ಹೀಗ	-1911
▁ಇರಲಿಲ್ಲ	-1912
▁ಮೃತಪಟ್ಟ	-1913
ೈಸ	-1914
ಳುಹ	-1915
▁ಪುಸ್ತಕ	-1916
ೂಕ	-1917
ಂತು	-1918
ಸಭೆ	-1919
▁ಪೋಷ	-1920
ನ್ಯಾಸ	-1921
ಶಾ	-1922
▁ಎನ್ನ	-1923
▁ಮಹಾರಾಷ್ಟ್ರ	-1924
ನ್ವಯ	-1925
ೊಟ್ಟ	-1926
ಿದ್ದವು	-1927
▁ರಕ್ಷಣ	-1928
▁ನೀಡಿದೆ	-1929
ಿಕೆಯನ್ನು	-1930
ಜೀ	-1931
▁17	-1932
▁ಉಲ್ಲ	-1933
▁ಗೆದ್ದ	-1934
▁ಸೊ	-1935
▁ಆಟಗಾರ	-1936
▁ನೀಡಿದರು	-1937
ೀಗ	-1938
▁ಅಪಾಯ	-1939
▁ತಂಡದ	-1940
▁ಸಮಾಜ	-1941
▁ಉದ್ಯೋಗ	-1942
▁ಲೆ	-1943
▁ಬಸ್	-1944
▁ವೈರ	-1945
▁ವೆಚ್ಚ	-1946
▁ಇಲ್ಲಿದೆ	-1947
ಿಸುತ್ತೇನೆ	-1948
ೀರಾ	-1949
▁ಟ್ವೀ	-1950
▁ವಿದ್ಯಾರ್ಥಿಗಳು	-1951
ಮೇ	-1952
▁ದೇಹ	-1953
▁ಕಾಯ್ದ	-1954
▁ವಿಚಾರಣೆ	-1955
▁ವಿರಾಟ್	-1956
ಥಮ	-1957
▁ಮಾಡುತ್ತದೆ	-1958
ೋಟ	-1959
▁ಅದರಲ್ಲಿ	-1960
▁ಶಾಂತ	-1961
▁ಅಧ್ಯಯನ	-1962
▁ಬದಲಾವಣೆ	-1963
ಪತಿ	-1964
ೇಸ್	-1965
▁ಮರ	-1966
▁ವಯ	-1967
▁ಕಳುಹ	-1968
▁ಪ್ರೇ	-1969
▁ಬಿಟ್ಟು	-1970
ಿಸಲಾಯಿತು	-1971
▁ಸಭೆಯಲ್ಲಿ	-1972
▁ಚುನಾವಣೆಯಲ್ಲಿ	-1973
ಡಿದ	-1974
ಡುಗೆ	-1975
ವರಿ	-1976
▁30	-1977
▁ಇಡೀ	-1978
▁ಕ್ರೈಸ್ತ	-1979
ಾಳೆ	-1980
▁ಆನ	-1981
▁ಖಾ	-1982
ಿಕೊಂಡು	-1983
ಕಾಸ	-1984
ಷನ್	-1985
▁ಬ್ರ	-1986
ಪ್ರದೇಶ	-1987
▁ರೀತಿಯಲ್ಲಿ	-1988
▁ಆಚ	-1989
▁ನೀಡುವ	-1990
▁ಥ	-1991
ಾಗ್	-1992
ವಿಧಾನ	-1993
▁ವಾರ್	-1994
▁ಇನ್	-1995
▁ಅಂದರೆ	-1996
▁ಜಗ	-1997
ವರೆಗೂ	-1998
▁ಮೌಲ್ಯ	-1999
▁ರಾಜ್ಯದಲ್ಲಿ	-2000
ಮಾರ್	-2001
▁ಅಷ್ಟ	-2002
▁ಮಾಧ್ಯಮ	-2003
ೃತಿ	-2004
▁ಹಾಜ	-2005
ಪಾಲ	-2006
▁100	-2007
▁ಭೂಮ	-2008
▁ಆಧಾರ	-2009
▁ಹೌದು	-2010
ತೃ	-2011
ಘ್ರ	-2012
▁ಜ್ಞಾನ	-2013
▁ನಿರ್ದೇಶಕ	-2014
▁ಒಟ್ಟ	-2015
ೆಯಾಗಿದೆ	-2016
▁ಮರು	-2017
▁ಚಿತ್ರದಲ್ಲಿ	-2018
ೀನ್	-2019
ರಿಸಿದ	-2020
▁ಪ್ರತ್ಯ	-2021
ಾಗ್ಯೂ	-2022
▁ಪುತ್ರ	-2023
▁ಚೆನ್ನಾಗಿ	-2024
▁ಬಿಜೆಪಿಯ	-2025
ಿಲ್	-2026
▁ಖು	-2027
▁ಖರೀ	-2028
▁ಗೃಹ	-2029
▁ಪ್ರದರ್ಶನ	-2030
ಫಲ	-2031
▁ಪಡ	-2032
▁ಕುಡಿಯ	-2033
▁ಕೈಗೊಂಡ	-2034
▁ಪರೀಕ್ಷೆ	-2035
ೂಹ	-2036
▁ಛ	-2037
▁ವಾಸ	-2038
ುತ್ತಮ	-2039
ಿಕವಾಗಿ	-2040
▁ಬಡ	-2041
ತ್ನಿ	-2042
▁ಹೋದ	-2043
▁ಅಧ	-2044
ಮಿತ್	-2045
▁ಶೀಘ್ರ	-2046
▁ಸಂಚಾರ	-2047
ಮೊ	-2048
▁ರೋ	-2049
▁ಸಂಶ	-2050
▁ಹರ	-2051
▁ಆಸ್ಟ್ರ	-2052
▁ಮಾದರಿಯ	-2053
▁ಆಕೆ	-2054
ಸ್ವಾಮಿ	-2055
▁ಹಣಕಾಸ	-2056
▁ಮಾಡಿದರು	-2057
▁ಉಗ್ರ	-2058
▁ದೆಹಲಿ	-2059
ಗಾ	-2060
▁ಸರಿ	-2061
▁ವರ್ಗ	-2062
▁ತಪ್ಪು	-2063
▁ಜೆಡಿಎಸ್	-2064
ರ್ವ	-2065
▁ಸಾಂ	-2066
▁ಹಾಕಿ	-2067
ಿಸಿದನು	-2068
ಎಫ್	-2069
▁ಇಂಥ	-2070
▁ವಿವರ	-2071
ಜರಾ	-2072
▁ಅಂತರ	-2073
▁ಯುದ್ಧ	-2074
▁ಬಂದಿದೆ	-2075
ಳಿಯ	-2076
▁ಕೂಡಾ	-2077
▁ಹಿಂದೂ	-2078
▁ಅಭಿಪ್ರಾಯ	-2079
▁ಅತ್ಯುತ್ತಮ	-2080
ಮಟ್ಟ	-2081
▁ಮಾನವ	-2082
▁ಅವನಿಗೆ	-2083
ಿತಿಯನ್ನು	-2084
▁ಹೊಂದಿರುವ	-2085
▁ಕುಸ	-2086
▁ತಲು	-2087
▁ಸಚಿ	-2088
▁ಕೂಡಲೇ	-2089
ುತ್ತಿದ್ದರು	-2090
ಿದ್ದರೂ	-2091
ಡಾ	-2092
▁ಕತ್ತ	-2093
▁ಬರೆದ	-2094
▁ಸಂಸದ	-2095
▁ವಾಸ್ತ	-2096
▁ವಿಸ್ತ	-2097
ಹಾ	-2098
ಂಡರ್	-2099
▁ಇದೊಂದು	-2100
▁ಕಪ	-2101
▁ತಿಂ	-2102
▁ಮುಗ	-2103
▁ಸಹಕಾರ	-2104
▁ಪೆಟ್ರೋಲ್	-2105
▁ಬಿಡುಗಡೆಯ	-2106
ಲುವು	-2107
ಿಂಗ್	-2108
ಿಸುವುದಿಲ್ಲ	-2109
▁ಡೀ	-2110
ಂಟರ್	-2111
▁ಆದಾಗ್ಯೂ	-2112
▁ಪ್ರತಿಯೊಬ್ಬ	-2113
ಪಕ್ಷ	-2114
ದರಿಂದ	-2115
▁ಪತ್ನಿ	-2116
ಾಶ	-2117
▁ಮರಣ	-2118
▁ಶುಭ	-2119
▁ಅಂತಿಮ	-2120
▁ಪೂರ್ವ	-2121
▁ಇಸ್ರಾಯ	-2122
ಳ್ಳು	-2123
ಶ್ಚಿ	-2124
▁ನಾಯ	-2125
▁ಚಿಕ್ಕ	-2126
ವಾಗಲಿದೆ	-2127
▁ಮಾಡಬಹುದು	-2128
ನಾಥ್	-2129
▁ದಾಳಿ	-2130
ಿಸಲಾಗಿತ್ತು	-2131
ಪರ್	-2132
▁ಮೂರ	-2133
▁ಟ್ವೀಟ್	-2134
ುತ್ತಿತ್ತು	-2135
▁ಅಮಿತ್	-2136
▁ಜೈ	-2137
ಲ್ಯಾ	-2138
ಾತ್ಮಕ	-2139
▁ಕೇರಳ	-2140
▁ಬರುವ	-2141
ಂಟಿ	-2142
ಿತಿಯ	-2143
▁ಬಿಡ	-2144
▁ಸಿಎಂ	-2145
▁ಗುಜರಾ	-2146
▁ಆಸ್ಪತ್ರ	-2147
ಲೈ	-2148
▁ಯೆ	-2149
ವೇನು	-2150
▁ವ್ಯವಸ್ಥೆ	-2151
ನೀ	-2152
ೋಪ	-2153
ಮ್ಮು	-2154
▁ಸಂಭ	-2155
▁ಉದಾಹರಣ	-2156
▁ವ್ಯಕ್ತಿಯ	-2157
▁ಅಗತ್ಯವಿದೆ	-2158
▁1.	-2159
▁ಅಪ್	-2160
▁ಲಾಭ	-2161
▁ಪಡೆದುಕೊಂಡ	-2162
▁ಏನೂ	-2163
▁ಬಂಗ	-2164
▁ಫೋಟೋ	-2165
▁ಸಂಘಟ	-2166
▁ಆತ್ಮಹ	-2167
ದಲ್ಲಿದೆ	-2168
▁ಚಂದ್ರ	-2169
ರೂಪ	-2170
▁ಆಳ	-2171
▁ಎಫ್	-2172
ಡುವುದು	-2173
▁ಕಾರ್ಯಾ	-2174
▁ಮನೆಯಲ್ಲಿ	-2175
▁ಬಾರ	-2176
▁ಮ್ಯಾ	-2177
▁ದೃಷ್ಟ	-2178
ಿಸಲ್ಪಟ್ಟ	-2179
್ತ	-2180
▁ನೂ	-2181
▁ಹಾರ	-2182
ೂರ್ತಿ	-2183
▁ತಂದೆ	-2184
▁ಮಾಡಬೇಕ	-2185
▁ಪ್ರಾರ್ಥ	-2186
▁ದೇಶದಲ್ಲಿ	-2187
ಾಚ	-2188
ಿಸುವಂತೆ	-2189
▁ಕಾರ್ಯದರ್ಶಿ	-2190
ಕ್ಸ	-2191
ಕರಿಸ	-2192
▁ಕೆಳಗಿನ	-2193
▁ವಿಶ್ವಾಸ	-2194
▁ಗೊತ್ತಿಲ್ಲ	-2195
ಾಣಿ	-2196
ವಿದ್ಯ	-2197
▁ಜನಪ್ರ	-2198
▁ದೀಪ	-2199
▁ದಾಖಲೆ	-2200
ಲೆಯ	-2201
ವಿಡ್	-2202
▁ಮೂಡ	-2203
▁ಚುನಾವಣಾ	-2204
▁ಸಿಬ್ಬಂದಿ	-2205
▁ತಂತ್ರಜ್ಞಾನ	-2206
▁ಮೂವರು	-2207
▁ಒತ್ತಾಯ	-2208
▁ತೆರಿಗೆ	-2209
ಲ್ದ	-2210
▁ಸ್ಥಾಪ	-2211
ಿರುವುದು	-2212
▁ಒಪ್ಪಂದ	-2213
ಕೂಲ	-2214
ಹೋಗ	-2215
ಿಸ್ಟ	-2216
▁ರಾಜೀನ	-2217
ಗಳಾದ	-2218
▁ವಿಷಯದಲ್ಲಿ	-2219
▁ಕಣ	-2220
ಾಗಿದ್ದು	-2221
ೋತ್ಸ	-2222
▁ಸಭೆ	-2223
▁ಪಟ್ಟಣ	-2224
▁ವ್ಯವಹ	-2225
▁ಸಾಧ್ಯತೆ	-2226
ೊಡಗ	-2227
ಿವೇಶ	-2228
ೌಡ	-2229
▁ಚಿಂತ	-2230
▁ವಿದ್ಯು	-2231
▁ಆಶ	-2232
▁ನಿರ	-2233
▁ಬಂಧನ	-2234
ದೊಂದಿಗೆ	-2235
ಿಗಳನ್ನು	-2236
▁ಅವುಗಳನ್ನು	-2237
ೂಲ	-2238
▁ಚೀ	-2239
ಲಭ್ಯ	-2240
▁ಅದ್	-2241
▁ಕಲ್ಪ	-2242
▁ಕೊಲೆ	-2243
▁ಮನವಿ	-2244
▁ಕಾರ್ಯಕರ್	-2245
▁ವರ್ಷದ	-2246
ತಿಯಲ್ಲಿ	-2247
▁ಸಂಸ್ಥೆ	-2248
▁ಅವಳ	-2249
▁ಲೇಖ	-2250
▁ನೇತೃ	-2251
▁ಇನ್ನೊಂದು	-2252
▁ಉದ್	-2253
▁ನೇರ	-2254
▁ತಲುಪ	-2255
ಿಸಲಾಗುತ್ತದೆ	-2256
ಕನ	-2257
ೀಪ್	-2258
▁ಆಗ್ರಹ	-2259
ುತ್ತಿವೆ	-2260
▁ಶೆಟ್ಟಿ	-2261
▁ನಿಯಂತ್ರಣ	-2262
▁ನೀಡಲಾಗಿದೆ	-2263
▁ಬಳಿ	-2264
▁ಸಂಸ್ಕ	-2265
▁ಆತನು	-2266
▁ವೃತ್ತ	-2267
ರಿತ	-2268
▁ಖಾಸ	-2269
▁ಪಾವ	-2270
ನೆಗಳು	-2271
ರದ	-2272
ಿತಾ	-2273
ೋನ	-2274
▁ಪಾರ	-2275
▁ಮಹಾ	-2276
▁ಹೈಕ	-2277
▁ಪ್ರೀತ	-2278
▁ಹೇಳಿದ	-2279
▁ಭಾರತಕ್ಕೆ	-2280
▁ತೆಗೆದುಕೊಂಡ	-2281
▁!	-2282
ಾಯು	-2283
▁ಶಕ್ತಿ	-2284
ಂಟು	-2285
ನ್ನಿ	-2286
▁ಅಪಘಾತ	-2287
ಂಪ್	-2288
ಟುವ	-2289
▁ಡೆ	-2290
ೆಲ್ಲಾ	-2291
▁ಬೇಕು	-2292
▁ಅಧಿಕೃತ	-2293
▁ಜಿಲ್ಲೆಯ	-2294
▁ವಿಜ್ಞಾನ	-2295
▁ಯೋಗ	-2296
▁ಅಂತಹ	-2297
▁ಎಲ್ಲವೂ	-2298
ಟ್ಟಿನಲ್ಲಿ	-2299
▁ಅವಧ	-2300
ವೆಂದು	-2301
ಶ್ಚಿಮ	-2302
▁ಸಿಬಿಐ	-2303
▁ಪ್ರೀತಿ	-2304
▁ಮಿಶ್ರ	-2305
-1	-2306
ದೆಹ	-2307
ೊಳಗೆ	-2308
ವಣಿಗೆ	-2309
ೇಂದ್ರ	-2310
▁ಹಬ್ಬ	-2311
▁ಅನ್ವಯ	-2312
▁ವಾಸ್ತವ	-2313
ಯಲ್ಲಿ	-2314
▁ಭಾರೀ	-2315
▁ರೈಲು	-2316
ಾರ್ಹ	-2317
▁ಜತೆ	-2318
ವಾಬ್ದ	-2319
▁ಆದ್ರೆ	-2320
▁ಚಿನ್ನ	-2321
ಿಯಾಗಿದೆ	-2322
ಕರಣ	-2323
▁ತನ	-2324
ಟ್ಟೆ	-2325
ಕರಿಗೆ	-2326
ಿಸಿವೆ	-2327
▁ಕೆಲವ	-2328
▁ರೂಪಾಯಿ	-2329
ವೋ	-2330
ಲ್ಲಿದ್ದ	-2331
▁ಕೀರ್	-2332
ಿತವಾಗಿ	-2333
▁ನಿರ್ಧ	-2334
▁ಕ್ಯಾಮೆ	-2335
▁ಆಲ	-2336
▁ಔಷ	-2337
ಕಾರಣ	-2338
▁ಐದು	-2339
ಕವಾಗಿ	-2340
ಸ್ತುತ	-2341
▁ತರಬೇ	-2342
▁ಕಪೂರ್	-2343
ಲ್ಸ್	-2344
▁ವೈದ್ಯಕೀಯ	-2345
▁ನಿರ್ಣ	-2346
▁ಸುಧಾರ	-2347
▁ಡೀಸೆಲ್	-2348
▁ವಿಕೆಟ್	-2349
ಾವರಣ	-2350
▁ಎಲೆ	-2351
▁ಹೂಡ	-2352
▁ಎಲ್ಲರಿಗೂ	-2353
▁ಬೆಳವಣಿಗೆ	-2354
ಭುತ	-2355
▁ಶತ	-2356
ಮಾನ್	-2357
▁ಸೇರ	-2358
▁ಗಿ	-2359
▁ತಡೆ	-2360
▁ಕಾರ್ಯಾಚ	-2361
▁ಕಳ	-2362
▁ಆಗಮ	-2363
ಲಿರುವ	-2364
ಸ್ತ್ರ	-2365
ಲ್ಲಿದೆ	-2366
ಲ್ಲದೆ	-2367
▁ನಷ್ಟ	-2368
▁ಸೌಲಭ್ಯ	-2369
ರುತ್ತಾರೆ	-2370
▁ನಿರ್ದೇಶನ	-2371
ಭೂ	-2372
▁ವಲಯ	-2373
▁ಮಹಿಳಾ	-2374
▁ಎದುರಿಸ	-2375
▁ರೋಹ	-2376
▁ಹೋಗಿ	-2377
▁ಅಭಿಮಾನ	-2378
▁ಜವಾಬ್ದ	-2379
▁ಪಶ್ಚಿಮ	-2380
ಸ್ಲಿ	-2381
ಿದೆಯ	-2382
▁ಒತ್ತಡ	-2383
▁ಸಂಗ್ರಹ	-2384
▁ಕನ	-2385
ಚ್ಚು	-2386
▁ಕೆಟ್ಟ	-2387
▁ವಿಶ್ವವಿದ್ಯ	-2388
▁ನಿಟ್ಟಿನಲ್ಲಿ	-2389
▁ಧಾರ	-2390
▁ಜಮ್ಮು	-2391
▁ನಡೆಸಿದ	-2392
ಗಳೊಂದಿಗೆ	-2393
ಿಗೂ	-2394
▁ಸಲಹೆ	-2395
ಗಳನ್ನೂ	-2396
▁ಹಕ್ಕು	-2397
ರ್ಷ	-2398
▁ಅಂಕ	-2399
▁ಘಟಕ	-2400
▁ಅನ್ನ	-2401
▁ಮಾಡುವುದು	-2402
▁ಕಾರ್ಯಕ್ರಮದಲ್ಲಿ	-2403
▁ಡೇ	-2404
▁ತಾಯಿ	-2405
ರಾಮಯ್ಯ	-2406
▁ಗಳಲ್ಲಿ	-2407
▁ಪ್ರಸ್ತುತ	-2408
▁ಮುಖ್ಯಸ್ಥ	-2409
ಬರ್	-2410
ನಿಂದ	-2411
ಮಂತ್ರ	-2412
▁ಪ್ರವಾಸ	-2413
ಿಸುತ್ತೇವೆ	-2414
ವಿಷ್ಯ	-2415
▁ಬಿದ್ದ	-2416
ಮೇಶ್	-2417
ವಿರುವ	-2418
▁ಯಾರಿ	-2419
▁ಯಾವುದು	-2420
▁ಹಾಗೆಯೇ	-2421
ಿರುತ್ತದೆ	-2422
me	-2423
▁ಬೇಸ	-2424
▁ಕ್ರೀಡ	-2425
▁ಪುರುಷ	-2426
▁ವಿವಾದ	-2427
▁ಮತ್ತೊಂದು	-2428
▁ಸಂಶೋಧ	-2429
▁ಹುದ್ದ	-2430
▁ಅಲ್ಲದೇ	-2431
▁ಗುಜರಾತ್	-2432
▁ನಡೆಯುತ್ತಿದೆ	-2433
ಟ್ಸ್	-2434
ರಬೇಕು	-2435
▁ಸೇರಿಸಿ	-2436
▁ಸ್ಮಾರ್ಟ್	-2437
▁ಸಂಬಂಧಿಸಿದಂತೆ	-2438
ಶು	-2439
▁ಆನಂದ	-2440
▁ನೀಡಲು	-2441
▁ನಾಯಕರು	-2442
▁ಪೊಲೀಸರಿಗೆ	-2443
ೇಜ್	-2444
▁ರಾಜೀನಾಮೆ	-2445
▁ನಗ	-2446
▁ಪ್ರಸ್ತ	-2447
▁ಮಾಡಿಲ್ಲ	-2448
ವಾನ	-2449
▁ಅಲ	-2450
ಕರ್ಷ	-2451
▁ಪ್ರಗ	-2452
ಾಧ	-2453
▁ನಿಗ	-2454
▁ಗೆಲುವು	-2455
▁ಭವಿಷ್ಯ	-2456
▁ಪ್ರವಾಸಿ	-2457
ಚ್ಚಿ	-2458
▁ನೂತನ	-2459
▁ವ್ಯವಹಾರ	-2460
ಿಸುತ್ತಿದೆ	-2461
▁ಕಾರ್ಯನಿರ್	-2462
▁ಪಂದ್ಯದಲ್ಲಿ	-2463
▁ಪ್ರೊ	-2464
▁ಗೆಲ್ಲ	-2465
ಿಗ	-2466
ೇಕೆ	-2467
▁ವರದ	-2468
ಲ್ದಾಣ	-2469
▁ಇತ್ತು	-2470
▁ನವದೆಹ	-2471
▁ಜನಪ್ರಿಯ	-2472
▁ಸಾಮಾನ್ಯವಾಗಿ	-2473
ಸ್ತಿ	-2474
▁ಕುಟುಂಬದ	-2475
ರಾಗಿದ್ದಾರೆ	-2476
ವಡ	-2477
▁ಕರ	-2478
▁ಶಕ್ತಿಯ	-2479
▁ರೇ	-2480
▁ನಿನ	-2481
▁ಮಳೆಯ	-2482
▁ಸುಂದ	-2483
▁ದಿನಗಳ	-2484
▁ಮಾರುಕಟ್ಟೆಯಲ್ಲಿ	-2485
▁ತೊ	-2486
▁ಬೌ	-2487
ೀಕ್ಷ	-2488
ೇಶನ್	-2489
▁ಗೇ	-2490
▁ಜಲ	-2491
ಟುವಟ	-2492
▁ಯಾದ	-2493
ಕ್ಷನ್	-2494
ತ್ರಿಕ	-2495
▁ಸಮ್ಮ	-2496
▁ಅದ್ಭುತ	-2497
ಬೈಲ್	-2498
ಸಾಧ್ಯ	-2499
▁ಖಾಸಗಿ	-2500
▁ಮೈತ್ರಿ	-2501
▁ಸ್ಥಿತಿ	-2502
▁ಫಿ	-2503
▁ಬಂದು	-2504
▁ಮನಸ್ಸ	-2505
▁ಚಾ	-2506
▁ಇಂದು	-2507
▁ಕೊಂಡ	-2508
▁ಉಪಯೋಗ	-2509
ಿಸಲಾಗುವುದು	-2510
ತಾಣ	-2511
▁ಪುಟ	-2512
▁ಹುಟ್ಟ	-2513
▁ಹಣಕಾಸು	-2514
▁ಕಚ	-2515
▁ವೇಗ	-2516
▁ಅವುಗಳ	-2517
▁ಯಾವಾಗಲೂ	-2518
▁ಸದಸ್ಯರು	-2519
▁ಇರುತ್ತದೆ	-2520
ಶ್ವ	-2521
▁ಗೂ	-2522
▁ಅವಶ್ಯ	-2523
ಕುಮಾರ್	-2524
▁ಹಿನ್ನೆಲೆಯಲ್ಲಿ	-2525
ಲ್ಡ್	-2526
▁ಭಿನ್ನ	-2527
ರಿಸಿದರು	-2528
▁ಅನುಕೂಲ	-2529
ವಾಗಿದ್ದು	-2530
ಗೌಡ	-2531
ೋನ್	-2532
್ರು	-2533
ನ್ನತ	-2534
▁ತಕ್ಕ	-2535
▁ಕೆಲವರು	-2536
▁ಆ್ಯ	-2537
▁ಯೇಸ	-2538
▁ಸಾರ	-2539
ಸ್ಥಾನ	-2540
▁ಮೇಲ್	-2541
▁ನಿಲ್ದಾಣ	-2542
▁ವಿನ್ಯಾಸ	-2543
▁ಮಕ್ಕಳಿಗೆ	-2544
ಿನಿಯ	-2545
▁ರಕ್ಷಣಾ	-2546
ಲಿಕ	-2547
▁ಗುಂಡ	-2548
▁ಹಾಗು	-2549
▁ಗ್ರಾಹ	-2550
▁ಅಹ	-2551
ೋತ್ಪ	-2552
ನದಲ್ಲಿ	-2553
▁ಅಷ್ಟೇ	-2554
▁ಚಟುವಟ	-2555
▁ವರೆಗೆ	-2556
▁ಪುರ	-2557
▁ಸಂಚ	-2558
ಿಸಿಸಿ	-2559
▁ಆತಂಕ	-2560
▁ಬರೆಯ	-2561
▁ಮುಂಚ	-2562
▁ರೈತರ	-2563
▁ಅವನನ್ನು	-2564
▁ಮಾತ್ರವಲ್ಲ	-2565
ಟಾ	-2566
ವಾಲ್	-2567
▁ಆದಾಯ	-2568
▁ಶಾಸಕ	-2569
▁ವಿದ್ಯುತ್	-2570
▁ಇಂದ	-2571
▁ಫ್ರ	-2572
ಕ್ರಿಯ	-2573
ಶಾಸ್ತ್ರ	-2574
▁ಜಾಲತಾಣ	-2575
▁ತೊಂದರೆ	-2576
▁ತೀರ್ಮಾನ	-2577
▁ಸಿದ್ದರಾಮಯ್ಯ	-2578
ಂಜಾ	-2579
ವರೂ	-2580
▁ಅಂಬ	-2581
▁ಭೇಟ	-2582
▁ಕೊನೆಯ	-2583
▁ಮಾದರಿ	-2584
▁ಮಾಡುವುದ	-2585
▁ಸಚಿವಾಲಯ	-2586
▁ಪ್ರತಿಕ್ರಿಯೆ	-2587
ಸನ್	-2588
▁ಒಳಗೊಂಡ	-2589
▁ಕರ್ತನು	-2590
ತನೆ	-2591
ೆವು	-2592
▁ಕಠ	-2593
▁ಮೂರನೇ	-2594
▁ಮೇಲಿನ	-2595
ಫಿ	-2596
▁ಆಯು	-2597
▁ಎಂದೂ	-2598
▁ಚರ್ಚೆ	-2599
▁ದಿನಗಳಲ್ಲಿ	-2600
ಂತ್ಯ	-2601
ಯಕ್ತ	-2602
▁ಅಂಥ	-2603
▁ಪಂಚ	-2604
ಬೇಕೆಂದು	-2605
▁ಬಂದಿಲ್ಲ	-2606
▁ವಿಕ	-2607
▁ಅವಳು	-2608
▁ಖಚಿತ	-2609
▁ಯಶಸ್ವ	-2610
ಗೊಳಿಸಲು	-2611
▁ಮುಸ್ಲಿ	-2612
▁ಮಾಡಿದ್ದ	-2613
▁`	-2614
ಂಕಾ	-2615
▁ಬ್ರಿ	-2616
▁ಸುಪ್ರೀಂ	-2617
▁ಬೆಂಗಳೂರಿನ	-2618
ಸಿಕ	-2619
▁ನಡುವಿನ	-2620
▁ವಶಕ್ಕೆ	-2621
▁ನಮ್ಮನ್ನು	-2622
ಬೇಕಾದ	-2623
▁ಅಳವಡ	-2624
▁ಖರೀದ	-2625
▁ಪಾಲ್ಗೊಂಡ	-2626
್ರಮ	-2627
ಲಿಕ್	-2628
▁ಕುಮಾರಸ್ವಾಮಿ	-2629
ವಳ	-2630
ೈನಲ್	-2631
▁ಇಲಾಖ	-2632
▁ಕಲಿಯ	-2633
▁ಪ್ಯಾ	-2634
▁ಅಭಿನಯ	-2635
▁ವೈಯಕ್ತ	-2636
ತೇಕ	-2637
ರ್ಗ	-2638
▁ಪೀ	-2639
▁ಬ್	-2640
ಿರಂಗ	-2641
▁ಯೋಜನೆಯ	-2642
▁21	-2643
್ಯಾಸ	-2644
▁ಮದುವೆ	-2645
ವಾಗಿರುವ	-2646
▁ಉತ್ಪನ್ನ	-2647
ುಟ	-2648
ಜ್ಜ	-2649
ೊಬ್ಬರು	-2650
ಸಿನ	-2651
ೀರ್ಘ	-2652
▁ನಿಧ	-2653
▁ಸುವ	-2654
▁ನಿಷೇ	-2655
▁ಭಾಷಣ	-2656
▁ಬಿಎಸ್	-2657
▁ಮುಕ್ತ	-2658
ದಾ	-2659
ಸ್ಸು	-2660
▁ದೃಢ	-2661
▁ನಿಂತ	-2662
▁ಬಹುತೇಕ	-2663
▁ಸರ್ಕಾರಿ	-2664
ಿಸಲಿದ್ದಾರೆ	-2665
ಟಲ್	-2666
▁ಚೌ	-2667
▁ವಾದ	-2668
ತಂತ್ರ	-2669
▁ಆಕರ್ಷ	-2670
ಸೇ	-2671
ರೇನು	-2672
ಬೇಕಿದೆ	-2673
▁ರೋಹಿತ್	-2674
▁ವ್ಯತ್ಯ	-2675
ಡುವುದಿಲ್ಲ	-2676
▁ಬಿಜೆಪಿಗೆ	-2677
▁ಧೋ	-2678
ನ್ನಾಗಿ	-2679
▁ಪ್ರಚಾರ	-2680
▁ಮೊಬೈಲ್	-2681
▁ವ್ಯಾಪಾರ	-2682
ಬಹುದಾಗಿದೆ	-2683
▁ತಡೆಯ	-2684
▁ಅಪರಾಧ	-2685
▁ಹೇಳಿದೆ	-2686
ಲ್ಲು	-2687
ನಾಗಿ	-2688
▁ವಿತ	-2689
▁ಶ್ರೇ	-2690
ಿಸಲಿದೆ	-2691
ಕೊ	-2692
ಯಾ	-2693
ಭಾರ	-2694
▁ಮೃ	-2695
▁ಅನುಸ	-2696
▁ಕೇಳಿ	-2697
ೋತ್ಪಾದ	-2698
▁ಸಮಿತಿ	-2699
ಾಗೆ	-2700
▁24	-2701
▁ನೌ	-2702
ದಲ್ಲೂ	-2703
▁ಯಾವು	-2704
ವಂತ	-2705
ಾವ್	-2706
ಲ್ಲೆ	-2707
▁ಮಂಗಳ	-2708
▁ನಿಷೇಧ	-2709
▁ಹಿಂದಿನ	-2710
▁ಹೈಕೋರ್ಟ್	-2711
ದನ	-2712
▁)	-2713
ಬಂಧ	-2714
ಕ್ರೋ	-2715
▁ರೈಲ್	-2716
▁ಸೋಂಕ	-2717
▁ಸೇರಿಸ	-2718
▁ಹತ್ತಿರ	-2719
▁ಸಾಧ್ಯವಾಗ	-2720
▁ಟ್ವಿ	-2721
▁ಕೀ	-2722
▁ಕಾರ್ಡ್	-2723
▁ಪ್ರತ್ಯೇಕ	-2724
ವಿತ್ರ	-2725
▁ಆಯೋಗ	-2726
▁ಕಡಿಮ	-2727
▁ಮದುವ	-2728
▁ರಿಂದ	-2729
▁ತಿಂಗಳ	-2730
▁ಯಾದವ್	-2731
▁ಸಂಪುಟ	-2732
▁ಸ್ವೀಕರಿಸ	-2733
50	-2734
ಣಾ	-2735
▁ಮಂಜ	-2736
▁ತೆಲು	-2737
▁ಕಟ್ಟಡ	-2738
▁ಬೆಳೆಯ	-2739
ನಲ್	-2740
ೇಜು	-2741
▁ಕೃಷಿ	-2742
▁ನಡೆಸಿ	-2743
▁ಪರಿಸರ	-2744
▁ಬದಲಾಯ	-2745
▁ಹತ್ಯೆ	-2746
ಲದ	-2747
ುರ	-2748
▁ಆವ	-2749
▁ಮಾರ	-2750
ಮಾಡುವ	-2751
▁ಇನ್ನಷ್ಟು	-2752
ಟೆಡ್	-2753
ಕೊಂಡು	-2754
▁ಭರವಸೆ	-2755
▁ಲಕ್ಷಣ	-2756
▁ಪಡೆದುಕೊಳ್ಳ	-2757
ಿಯೋ	-2758
▁ಅರಿ	-2759
▁ಪಂಜಾ	-2760
▁ಬೆಂಕಿ	-2761
▁ಷ	-2762
▁ಯೂ	-2763
ತ್ತಿ	-2764
▁ನೀತಿ	-2765
▁ಹೊಡೆ	-2766
▁ಸರಿಯಾದ	-2767
▁ಸಾವನ್ನ	-2768
▁ಇದಕ್ಕಾಗಿ	-2769
▁ದಂಡ	-2770
ರಿಷ್ಠ	-2771
ಿಸಿದರೆ	-2772
▁ರೈತರು	-2773
▁ಹಿಂದಿ	-2774
▁40	-2775
ಲಿವೆ	-2776
▁ಕಥೆ	-2777
▁ಯೋಧ	-2778
▁ಮೋದಿಯ	-2779
▁ಸೂಪರ್	-2780
▁ನಡೆಸಿದ್ದಾರೆ	-2781
ಾದಿ	-2782
▁22	-2783
▁ಟೈ	-2784
▁ಜಾರಿ	-2785
ರೊಂದಿಗೆ	-2786
▁ಕಾರ್ಯನಿರ್ವಹ	-2787
‍ನ	-2788
▁ದೈ	-2789
ಂಭಾಗ	-2790
್ಯಾತ	-2791
▁ಮೋಟ	-2792
ರಾಷ್ಟ್ರ	-2793
▁ವಿಶ್ವದ	-2794
ೇನ	-2795
ತ್ತಿನ	-2796
▁ಪೈಕಿ	-2797
▁ಅಂತ್ಯ	-2798
▁ನಂಬಿಕೆ	-2799
▁ಬಹಿರಂಗ	-2800
▁ಯಾರಿಗೂ	-2801
▁ಹೆಚ್ಚುವ	-2802
▁ಟೀಂ	-2803
▁ಬೋಧ	-2804
▁ನಗರದ	-2805
▁ಇದ್ದಾರೆ	-2806
▁ಏಕೆಂದರೆ	-2807
▁ಇತ್ತೀಚೆಗೆ	-2808
▁ಫೆ	-2809
▁ನವದೆಹಲಿ	-2810
▁ಭಯೋತ್ಪಾದ	-2811
▁ಕ್ಷೇತ್ರದಲ್ಲಿ	-2812
ವಾಗತ	-2813
▁ಎಕ್ಸ್	-2814
▁ಕಾರ್ಮಿಕ	-2815
ಾಂಕ	-2816
ಾಮೀ	-2817
▁ಕಂಪನ	-2818
▁ಕೃಷ್ಣ	-2819
▁ಜನರನ್ನು	-2820
▁ಪರಿಶೀಲನೆ	-2821
▁ಮನೋ	-2822
ಾಗಿಯೇ	-2823
▁ದೃಶ್ಯ	-2824
▁ನಿಮ್ಮನ್ನು	-2825
ಮ್ಸ್	-2826
▁ಐಪಿ	-2827
▁ನಾಶ	-2828
▁ಆವೃತ್ತ	-2829
▁ಮುಂದುವ	-2830
▁ಲೋಕಸಭಾ	-2831
▁ರಾಜಕಾರಣ	-2832
▁ಇದರಿಂದಾಗಿ	-2833
▁ದಾಖಲಿಸಲಾಗಿದೆ	-2834
▁ಅವರಿ	-2835
▁ಉಚಿತ	-2836
ಗಳಿಗಾಗಿ	-2837
▁ಅಭ್ಯರ್ಥಿ	-2838
▁ಮಾಡುತ್ತಿದ್ದ	-2839
▁ದಾವ	-2840
▁ದುರ	-2841
▁ಮನೆಗೆ	-2842
ಾಗಿದ್ದರು	-2843
ವೈ	-2844
▁ವಾತ	-2845
▁ನಿರ್ಣಯ	-2846
▁ಸಂವಿಧಾನ	-2847
an	-2848
▁ಹಾಸ	-2849
ೇಲಿಯಾ	-2850
▁ಅಕ್ಷ	-2851
▁ಕಠಿಣ	-2852
▁ನಾಯಕರ	-2853
▁ನಿರ್ಧರಿಸ	-2854
▁ಔಷಧ	-2855
▁ಬಂಡ	-2856
ೆಂದರೆ	-2857
▁ಮಹಿಳೆ	-2858
▁ಎನ್ನಲಾಗಿದೆ	-2859
▁ಅಗ್	-2860
▁ತೊಳ	-2861
ಕ್ಟ್ರ	-2862
▁ಬಾಲಕ	-2863
▁ಇಲ್ಲದ	-2864
▁ಸವ	-2865
▁ಕನಿ	-2866
▁ಜತೆಗೆ	-2867
▁ಸಮಾರಂಭ	-2868
▁ಆರು	-2869
▁ಹೈದ	-2870
▁ಆಫ್ರ	-2871
ಂತ್ರ್ಯ	-2872
▁ಪಟ್ಟಿ	-2873
▁ಸಂದೇಶ	-2874
▁ಎನ್ನುವ	-2875
▁ಬಾರಿಗೆ	-2876
ಿಕೆಯಲ್ಲಿ	-2877
ದಾಗಿ	-2878
▁ಕಣ್ಣ	-2879
▁ರಾಜ್	-2880
ವಾಗಿವೆ	-2881
▁ಲೀಟರ್	-2882
▁ವಿವಾಹ	-2883
▁ಆಗಿತ್ತು	-2884
▁ತಮಿಳುನಾ	-2885
▁ಪ್ರಯಾಣಿಕ	-2886
ಾಮು	-2887
▁ನೋಟ	-2888
ಸ್ಕೃತ	-2889
ೂರಪ್ಪ	-2890
ತಂತ್ರ್ಯ	-2891
▁ಪ್ರಭಾವ	-2892
ಿಕೊಳ್ಳಲು	-2893
ಮಚ	-2894
ೌನ್	-2895
▁ಶೈ	-2896
▁ಚಲನ	-2897
▁ಪಾಕ್	-2898
▁ಹೆಚ್ಚಳ	-2899
ಿಸುತ್ತವೆ	-2900
▁ಇಂಗ್ಲೆಂಡ್	-2901
▁ವಿನ	-2902
▁ಹಿಡ	-2903
ದನ್ನು	-2904
▁ಕ್ರಿಸ್	-2905
▁ಪ್ರಕರಣದ	-2906
ನರ್	-2907
▁ವ್ಯತ್ಯಾಸ	-2908
▁ನಡೆಸುತ್ತಿದ್ದಾರೆ	-2909
ಂಕರ್	-2910
ಣೆಗೆ	-2911
ಲಕ್ಷ	-2912
ದಿಲ್ಲ	-2913
ವಸ್ಥಾನ	-2914
▁ದೊರೆಯ	-2915
▁ಸ್ನೇಹಿತ	-2916
▁ವಿಮ	-2917
ಗೊಳಿಸುವ	-2918
▁ಸ್ವಾಗತ	-2919
ನೆಗಳನ್ನು	-2920
▁ಮಾತುಕತೆ	-2921
▁ಸಂಸ್ಥೆಯ	-2922
ಮತ	-2923
ಸ್ಪರ	-2924
▁ಅರಸ	-2925
▁ತರಬೇತಿ	-2926
▁ಕಳೆದುಕೊಂಡ	-2927
▁ದಯ	-2928
▁ತಾನು	-2929
▁ಏರಿಕೆ	-2930
ಾಧ್ಯಕ್ಷ	-2931
▁ಇದ್ದರು	-2932
▁ತೆಲುಗು	-2933
▁ಹೆಚ್ಚಾಗಿ	-2934
ಾನ್ಸ್	-2935
▁ಶಾಲಾ	-2936
▁ಮೊತ್ತ	-2937
▁ದೇವಸ್ಥಾನ	-2938
▁ಆತ್ಮಹತ್ಯೆ	-2939
ರ್ತ	-2940
▁ಊಟ	-2941
▁ಪೇ	-2942
▁ಆಟೋ	-2943
ತೆಗಳು	-2944
ಖ್	-2945
ೇವ	-2946
▁ಆನ್	-2947
ಬಿಟ್ಟ	-2948
▁ಉನ್ನತ	-2949
▁ಕಂಪನಿ	-2950
ಡಿಯೂರಪ್ಪ	-2951
ೆನು	-2952
ಸ್ಕರ	-2953
ೀರ್ಣ	-2954
▁ರಾಯ	-2955
▁ವಿಫಲ	-2956
‍ನಲ್ಲಿ	-2957
▁ಗುರಿಯ	-2958
ಲಾಗಿದ್ದು	-2959
▁ವಾತಾವರಣ	-2960
▁ವಾಗ	-2961
▁ಮಧ್ಯೆ	-2962
ತೆಯಲ್ಲಿ	-2963
▁ಪರಸ್ಪರ	-2964
▁ಇಸ್ರಾಯೇ	-2965
ಸಿಯ	-2966
▁ಡ್ರ	-2967
▁ಹೋಲ	-2968
▁ನಡೆದಿ	-2969
▁ವಾಕ್ಯ	-2970
▁ಸಂಗತಿ	-2971
▁ನಿರಂತರ	-2972
ಿಕೊಳ್ಳುವ	-2973
▁ಸಾವನ್ನಪ್ಪ	-2974
ಜಯ್	-2975
ತರೆ	-2976
▁ರದ್ದು	-2977
▁ಸುಂದರ	-2978
▁ನಡೆಯಿತು	-2979
▁ಸ್ವಾತಂತ್ರ್ಯ	-2980
ನಾನ	-2981
ೆಯಾಗಿ	-2982
▁ಚೀನಾ	-2983
ಕೆಯನ್ನು	-2984
▁ಬೇಡಿಕೆ	-2985
▁ಸರಿಯಾಗಿ	-2986
ಲನು	-2987
▁ದಿನದ	-2988
▁ನಾಗರಿಕ	-2989
▁ಪವಿತ್ರ	-2990
▁ಅತ್ಯಾಚಾರ	-2991
▁ಮಾತನಾಡಿದ	-2992
▁ಯಡಿಯೂರಪ್ಪ	-2993
▁ಸಂಪೂರ್ಣವಾಗಿ	-2994
ಯೋಜ	-2995
ಜೆಟ್	-2996
ಮಾಡಿ	-2997
ದಿಷ್ಟ	-2998
ಯನ್ನು	-2999
▁ಉಂಟು	-3000
▁ವಿಜಯ	-3001
▁ಅಭಿನಂದ	-3002
▁ಪಂಜಾಬ್	-3003
▁ಚಟುವಟಿಕೆ	-3004
▁ರವಿ	-3005
ದಕ್ಕೆ	-3006
▁ಸಾಧನೆ	-3007
▁ತಿಂಗಳು	-3008
▁ಸುಳ್ಳು	-3009
▁ಮತ್ತಿತರ	-3010
▁ಎನ್ನುತ್ತ	-3011
▁ವಿಶ್ವವಿದ್ಯಾಲಯ	-3012
▁ಬೀಳ	-3013
ಗಳಾಗಿ	-3014
▁ಇದೀಗ	-3015
▁ಧನ್ಯ	-3016
▁ಸಚಿವರ	-3017
▁ಆತನನ್ನು	-3018
▁ವೈಯಕ್ತಿಕ	-3019
▁ಪಾಪ	-3020
▁ಸ್ಫ	-3021
▁ಅಗ್ನಿ	-3022
▁ಪ್ರತಿನಿ	-3023
▁ಪ್ರೀತಿಯ	-3024
▁ವಿಭಿನ್ನ	-3025
ಂಘ	-3026
ಪ್ರದ	-3027
ಿರಬೇಕು	-3028
▁ಮುಂದುವರೆ	-3029
▁ಪ್ರಕರಣಗಳು	-3030
ಿಕೊಂಡಿದ್ದಾರೆ	-3031
▁ಆಸ್ಟ್ರೇಲಿಯಾ	-3032
ೆಗಳನ್ನು	-3033
▁ಆಸ್ಪತ್ರೆಯಲ್ಲಿ	-3034
▁ಮಧ	-3035
▁ಸಿಸಿ	-3036
ರಾಬಾದ್	-3037
▁ಬಹುಮಾನ	-3038
ಚನ	-3039
ನನ್ನ	-3040
▁ಅಗತ್ಯವಿಲ್ಲ	-3041
ಟೊ	-3042
ಹೊ	-3043
▁ಭ್ರ	-3044
▁2020	-3045
▁ಫೇಸ್	-3046
▁ಲೈನ್	-3047
▁ಪಾಕಿಸ್ತಾನದ	-3048
ಜ್ಯ	-3049
ಟನ್	-3050
ಮೂರ್ತಿ	-3051
▁ಇಬ್ಬರೂ	-3052
▁ಸಮುದಾಯ	-3053
▁ತಿಳಿಸಿದೆ	-3054
ವಾಗಿರುತ್ತದೆ	-3055
99	-3056
ತರು	-3057
▁ದೋಷ	-3058
ನ್ಸರ್	-3059
▁ಅರ್ಜ	-3060
▁ನೋವು	-3061
▁ಭಕ್ತ	-3062
▁ಪ್ರವಾಹ	-3063
▁ಗುಣಮಟ್ಟ	-3064
ಂಡಿ	-3065
ಫಾರ	-3066
ಪ್ರಭು	-3067
▁ಎಂದರೆ	-3068
ನಿಕ	-3069
ವನ್	-3070
▁ಗುರಿ	-3071
▁ನೀಡಬೇಕು	-3072
ಿಸುತ್ತಿದ್ದ	-3073
▁‘‘	-3074
್ಯಾನ	-3075
▁ಘೋಷಣೆ	-3076
ಗಳಾಗಿವೆ	-3077
▁ತೆಗೆದು	-3078
ವಾಡ	-3079
ವನ್ನ	-3080
▁ಹಸಿ	-3081
▁ಉದಾಹರಣೆಗೆ	-3082
▁ನಿಜವಾಗಿಯೂ	-3083
in	-3084
ಭಾಗ	-3085
ಾಂತ್	-3086
▁ಬರೆ	-3087
ವಾಗುವ	-3088
▁ವೈರಲ್	-3089
▁ಹೊರಗೆ	-3090
▁ಧಾರ್ಮಿಕ	-3091
ುತ್ತಿದ್ದು	-3092
ರಕ	-3093
ಕಪ್	-3094
ವಾಳ	-3095
ೋದು	-3096
▁ಸಾಹಿ	-3097
▁ನಿನಗೆ	-3098
▁ಚಲನಚಿತ್ರ	-3099
▁ಭಾಗವಹಿಸಿದ್ದರು	-3100
ಗಾರಿ	-3101
▁ಸಹಜ	-3102
▁ಇತರೆ	-3103
▁ಹೂಡಿಕೆ	-3104
▁ಅವರೊಂದಿಗೆ	-3105
ಮೀ	-3106
ನೆಂದು	-3107
▁ಆಕೆಯ	-3108
▁ಹೆತ್ತ	-3109
▁ಕೊಡುಗೆ	-3110
ತಿಗೆ	-3111
ನಿಯಾ	-3112
▁ಹಾಡ	-3113
▁ಹೇಗ	-3114
ಮ್ಮದ್	-3115
▁ನೇಮಕ	-3116
ರಬಹುದು	-3117
▁ಮಾರುತಿ	-3118
▁ಮಹಿಳೆಯರು	-3119
▁ಕಾಣಿಸಿಕೊಂಡ	-3120
▁ಪ್ರತಿಯೊಂದು	-3121
▁ಅಂತಾರಾಷ್ಟ್ರ	-3122
▁ಆಪ	-3123
▁ಪಟ	-3124
ಕ್ಕೇ	-3125
▁ಕಾಳ	-3126
▁ಕರೆದ	-3127
▁ಕಾಯಿ	-3128
▁ಹೆಂಡ	-3129
▁ಘಟನೆಯ	-3130
▁ಫೈನಲ್	-3131
▁ಬಂಗಾಳ	-3132
▁ಮತದಾನ	-3133
▁ಕಾಲೇಜು	-3134
▁ಮಂತ್ರಿ	-3135
▁ಮಾಡುತ್ತಿದ್ದಾರೆ	-3136
ಚಯ	-3137
▁R	-3138
ಗಿತ	-3139
ರಂಗ	-3140
ಂಧ್ರ	-3141
ಟಿಕ್	-3142
▁ಸಂರ	-3143
▁ಅಪ್ಪ	-3144
▁ಬಿಟ್ಟ	-3145
▁ಶುಲ್ಕ	-3146
ರಿದ್ದರು	-3147
ಲೊ	-3148
ಂತೂ	-3149
ಕ್ಷೇ	-3150
ಾನಂದ	-3151
▁ಉದ್ಘ	-3152
▁ಸಮಾನ	-3153
▁ಮುಚ್ಚ	-3154
▁ಕೋವಿಡ್	-3155
▁ಜಾಗತಿಕ	-3156
▁ನೀಡುತ್ತದೆ	-3157
ಲುವ	-3158
ೀವ್	-3159
ಲಿಗೆ	-3160
▁ಅರಣ	-3161
▁ಗಂಡ	-3162
▁ಕೃತ್ಯ	-3163
▁ಸ್ವಚ್ಛ	-3164
▁ಕಾಮಗಾರಿ	-3165
re	-3166
ನಗರ	-3167
▁ಓದು	-3168
▁ತಾಣ	-3169
▁ಭಾರಿ	-3170
▁ಪ್ರಜಾ	-3171
▁ಎಲೆಕ್ಟ್ರ	-3172
▁ನಿರಾಕರಿಸ	-3173
▁ಅಂತಾರಾಷ್ಟ್ರೀಯ	-3174
▁ನಿಮ	-3175
ಪೂರ್ಣ	-3176
▁ತೊಡಗ	-3177
▁ಸನ್ನ	-3178
▁ಇಂಟರ್	-3179
▁ಬಜೆಟ್	-3180
▁ಪಡೆಯಲು	-3181
▁ನೀಡಿದ್ದರು	-3182
▁ಹೈದರಾಬಾದ್	-3183
▁ಇರುವುದಿಲ್ಲ	-3184
ಲನ	-3185
ಇದು	-3186
ಿದರೆ	-3187
▁ತೆರಳ	-3188
▁ಪ್ರಥಮ	-3189
▁ಬಳಕೆದಾರ	-3190
ಾಗುತ್ತಿದೆ	-3191
▁ನಿರ್ದಿಷ್ಟ	-3192
▁ಪ್ರದೇಶದಲ್ಲಿ	-3193
▁ಶೂ	-3194
▁ತೈಲ	-3195
▁ಕಡೆಗೆ	-3196
▁ದೀರ್ಘ	-3197
▁ಟ್ರಂಪ್	-3198
▁ಬಹಳಷ್ಟು	-3199
▁ಹೆಚ್ಚುವರಿ	-3200
ಿಯಾಗಿದ್ದಾರೆ	-3201
ಡೇ	-3202
ಗಟ್ಟ	-3203
▁ತಾಯ	-3204
▁ಚಾಲಕ	-3205
▁ತೆರೆ	-3206
▁ಮೂಲದ	-3207
ನಾಗಿದ್ದ	-3208
ರ್ಜಿ	-3209
ವೊಂದ	-3210
ಸಿಸಿ	-3211
ಶಿಷ್ಟ	-3212
▁ಕೊನೆ	-3213
▁ಎಲ್ಲರ	-3214
▁ಇರಬೇಕು	-3215
▁ಉದ್ಘಾಟ	-3216
ಿಸುತ್ತಿರುವ	-3217
ನ್ಸ	-3218
ಾರದ	-3219
▁''	-3220
▁ಬಲಿ	-3221
▁ನೆನಪ	-3222
ಕರನ್ನು	-3223
▁ಐಪಿಎಲ್	-3224
▁ಸಚಿವರು	-3225
▁ಅವಲ	-3226
▁ಹರಿಯ	-3227
▁ವಿಜಯ್	-3228
▁ಅದಕ್ಕಾಗಿ	-3229
▁ಚಿತ್ರವನ್ನು	-3230
▁ಹಾನ	-3231
▁ಕಿರು	-3232
▁ಚರ್ಮ	-3233
ರುಗ	-3234
ಕ್ಟರ್	-3235
ಗಳಿಗೂ	-3236
▁ಖಾತೆ	-3237
▁ತರುವ	-3238
▁ತಾವು	-3239
▁ದ್ವಿ	-3240
▁ಸುಜು	-3241
▁ಬೇರೆಯ	-3242
▁ಮಿಶ್ರಣ	-3243
▁ರಾತ್ರಿ	-3244
▁ಹೆಣ್ಣು	-3245
▁ಮತ್ತಷ್ಟು	-3246
ಪೋ	-3247
▁ದಿವ	-3248
▁ಸಲ್	-3249
▁ಆಯೋಜ	-3250
▁ಹೇಳಿ	-3251
▁ಪತ್ತೆ	-3252
▁ವೀಕ್ಷ	-3253
ಣೆಯನ್ನು	-3254
▁ಕನಿಷ್ಠ	-3255
▁ಪೊಲೀಸರ	-3256
▁ಆಸ್ಪತ್ರೆ	-3257
▁ವಿಧಾನಸಭಾ	-3258
▁ವಿದ್ಯಾರ್ಥಿ	-3259
ಪೆ	-3260
▁ಫ್	-3261
▁ಕೋಟ	-3262
▁ಪ್ರಶ	-3263
▁ಕಣ್ಣು	-3264
▁ಬೆಳೆಸ	-3265
▁ಎಚ್ಚರಿಕೆ	-3266
▁2.	-3267
ಣ್ಣೆ	-3268
ಿಕಲ್	-3269
▁ತಲಾ	-3270
▁ಮಗು	-3271
▁ಮೇಲ	-3272
▁ಲೆಕ್ಕ	-3273
▁ಒಳಗೊಂಡಿದೆ	-3274
ಪದ	-3275
▁ಕ್ಷಣ	-3276
▁ಅಂದನು	-3277
▁ಇಲ್ಲಿನ	-3278
▁ಚೆನ್ನೈ	-3279
▁ಸ್ಟಾರ್	-3280
ರಾಷ್ಟ್ರೀಯ	-3281
ಗ್ರಹ	-3282
▁ರಿಯ	-3283
▁ನಿತ್ಯ	-3284
▁ವಯಸ್ಸ	-3285
ಿಸಲಿಲ್ಲ	-3286
▁ಪ್ರಕ್ರಿಯೆ	-3287
ಕರ್ಯ	-3288
ಕಾರ್	-3289
ಕ್ಸಿ	-3290
ಾದರು	-3291
▁ತೂಕ	-3292
▁ನಿಖ	-3293
▁ಬೇಗ	-3294
▁ಖರ್ಚ	-3295
▁ಕ್ರಿಯ	-3296
ಿರಬಹುದು	-3297
▁ಅದರಿಂದ	-3298
▁ನಡೆಯಲಿದೆ	-3299
ಬೀ	-3300
ಮಯ	-3301
ಮಾಪ	-3302
▁ನಡ	-3303
▁ಕಾಪ	-3304
ಸ್ಟರ್	-3305
▁ದುರ್	-3306
▁ಧೋನಿ	-3307
▁ಹಾಡು	-3308
ತೆಯಿಂದ	-3309
▁ಅರಣ್ಯ	-3310
▁ಪ್ರಜಾಪ್ರಭು	-3311
ವಾಮ	-3312
ಾಟಾ	-3313
▁ಮಲ	-3314
▁ಆಹ್	-3315
▁ವಾಣಿ	-3316
▁ಆಯ್ಕೆಯ	-3317
▁ನೇತೃತ್ವದ	-3318
▁ಲೋ	-3319
ಾಗಲಿ	-3320
▁ಸಾಹಿತ್ಯ	-3321
▁ಕ್ಯಾಮೆರಾ	-3322
▁ಚಿತ್ರಕ್ಕೆ	-3323
▁ಮಾಡಿದ್ದರು	-3324
ಗರು	-3325
ನ್ನಾ	-3326
ುತ್ತೆ	-3327
▁ನೆಲೆ	-3328
▁ಪರಿಚಯ	-3329
▁ಮಂಡಳಿ	-3330
▁ವ್ಯಾಪ್	-3331
ೂನ್	-3332
▁ರಸ್ತ	-3333
ಿದ್ದಾಳೆ	-3334
▁ಪ್ರದೇಶದ	-3335
▁ವಿದ್ಯಾರ್ಥಿಗಳಿಗೆ	-3336
ಸೆಯ	-3337
ರ್ಶನ	-3338
ೇಶ್ವರ	-3339
▁ಮುಂತ	-3340
▁ಒಳ್ಳೇ	-3341
▁ಖಂಡಿತ	-3342
▁ಬಿಹಾರ	-3343
▁ಸಮರ್ಪ	-3344
▁ಮಾಡಿರುವ	-3345
▁ವೈದ್ಯರು	-3346
▁ಸಾಂಸ್ಕೃತ	-3347
▁ಗಂಭೀರವಾಗಿ	-3348
▁I	-3349
▁37	-3350
▁ನೆಲ	-3351
▁ಟ್ಯಾ	-3352
ಪ್ರದಾಯ	-3353
▁ಸ್ಥಳದಲ್ಲಿ	-3354
▁H	-3355
ಷ್ಯಾ	-3356
▁ಚಮಚ	-3357
ಿದಿದೆ	-3358
▁ರಾಮ್	-3359
▁ಸಮೀಪ	-3360
▁ಸ್ಪೀ	-3361
▁ಅಷ್ಟು	-3362
▁ಉಪ್ಪು	-3363
▁ಉಲ್ಲೇಖ	-3364
▁|	-3365
ನಾಂಗ	-3366
ಕ್ರೋಶ	-3367
▁ಮಗುವ	-3368
▁ಮರೆಯ	-3369
▁ಜೀವನದ	-3370
▁ಮಾತಾಡ	-3371
ಾಧಿಕಾರಿ	-3372
▁ಗ್ರಾಮೀ	-3373
▁ಮೋಟಾರ್	-3374
▁ವರ್ಷಗಳ	-3375
ದಲ್ಲಿದ್ದ	-3376
ಿತಿಯಲ್ಲಿ	-3377
▁ಎನ್ನುವುದು	-3378
ತಃ	-3379
▁28	-3380
ರಂದು	-3381
▁ಆದಿ	-3382
▁ತಾಳ	-3383
▁ತ್ಯ	-3384
ಿಯವರು	-3385
▁ಎಷ್ಟ	-3386
ುತ್ತೀರಿ	-3387
ಣು	-3388
ಾಕಿ	-3389
ಾವಿ	-3390
▁ಆಲ್	-3391
▁ಪಾಂಡ	-3392
▁ಶ್ರಮ	-3393
▁ಸಕ್ಕ	-3394
ಾಗಲಿದೆ	-3395
ುತ್ತಲೇ	-3396
▁ಏಕದಿನ	-3397
▁ಹೋಗುವ	-3398
▁ಆಕ್ರೋಶ	-3399
▁ವಾಣಿಜ್ಯ	-3400
ಿಸಿಕೊಳ್ಳಲು	-3401
▁ಸಾಂಸ್ಕೃತಿಕ	-3402
ಫೆ	-3403
ರಲು	-3404
ಷಿಕ	-3405
▁ಆದ್ಯ	-3406
▁ಗಳಿಗೆ	-3407
▁ಶುದ್ಧ	-3408
ತ್ವದಲ್ಲಿ	-3409
▁ಸಲ್ಮಾನ್	-3410
▁ವಿಶ್ವಕಪ್	-3411
▁ಕ್ಯಾನ್ಸರ್	-3412
▁ಹೇಳುತ್ತಾರೆ	-3413
▁ಯೋ	-3414
▁ರಣ	-3415
▁ಮೈಸ	-3416
▁ಅಪಾರ	-3417
▁ಟೂರ್	-3418
ಂತಿಲ್ಲ	-3419
▁ಕಾಪಾಡ	-3420
▁ಶಾಂತಿ	-3421
▁ಹುಡುಕ	-3422
▁ಸಮುದ್ರ	-3423
▁ಕಂಪನಿಯು	-3424
▁ಸ್ಥಾನಕ್ಕೆ	-3425
▁ಶೋ	-3426
▁500	-3427
▁ಅರ್ಹ	-3428
▁ಅವರೇ	-3429
▁ಸರಣಿ	-3430
ಗಾರಿಕೆ	-3431
ಿಸಿದಾಗ	-3432
▁ಹೇಳುವ	-3433
▁ಪ್ರಯೋಗ	-3434
▁1,	-3435
▁ದಂಪ	-3436
▁ರಷ್ಟು	-3437
▁ಸಂಯೋಜ	-3438
▁ಹಾಗಾದರೆ	-3439
ೊಡ್ಡ	-3440
▁ಇಟ್ಟು	-3441
▁ಕೊಡುವ	-3442
▁ತೀರ್ಪು	-3443
▁ನಡೆಸಿದರು	-3444
▁ವಿರುದ್ಧದ	-3445
▁ಅವಧಿಯಲ್ಲಿ	-3446
ಕ್ಷಿ	-3447
▁ಅಡಿ	-3448
▁ವೇದ	-3449
▁ಹಿಂ	-3450
ಿಸಿರಿ	-3451
▁ಪೂರೈಸ	-3452
▁ವೃದ್ಧ	-3453
▁ಯೇಸುವಿನ	-3454
▁ಸರ್ಕಾರಕ್ಕೆ	-3455
on	-3456
ಶಃ	-3457
▁ಇಮ	-3458
▁ಅರು	-3459
▁ದ್ರ	-3460
ಾರ್ಜ್	-3461
▁ಗುಂಪು	-3462
▁ಹೊರತು	-3463
▁ಸುಜುಕಿ	-3464
▁ಸಾವಿರಾರು	-3465
ದರ	-3466
ಿಕೊಡ	-3467
▁ಧ್ವ	-3468
▁ಮಹತ್ವ	-3469
▁ಹಿಂದು	-3470
▁ಕೀರ್ತನೆ	-3471
▁ಧನ್ಯವಾದ	-3472
▁ಝ	-3473
ಡಿನ	-3474
ೊನಾ	-3475
▁ನಿದ	-3476
▁ಅಂದು	-3477
ಬಹುದಾದ	-3478
▁ಪಂಚಾಯ	-3479
▁ಪ್ರವಾದ	-3480
ಗೈ	-3481
▁S	-3482
ಗಳೇ	-3483
ಾಲ್	-3484
ೊಳಗ	-3485
▁ಜೋಡ	-3486
▁ನನಗ	-3487
▁ಪಾಟ	-3488
▁ಉಳಿಯ	-3489
▁ಹೊತ್ತ	-3490
ಿಸುವಲ್ಲಿ	-3491
▁ಚಿತ್ರೀಕರಣ	-3492
▁ವಿದ್ಯಾರ್ಥಿಗಳ	-3493
್ಮಿ	-3494
ಪಾಲ್	-3495
ಹರಿಸ	-3496
ಾಜ್ಯ	-3497
▁ಏಳು	-3498
▁ನಾಮ	-3499
▁ಪದಕ	-3500
▁ಮೊಹ	-3501
▁ಹರಿ	-3502
▁ಸ್ಕೂ	-3503
▁ಕಾಲೇಜ	-3504
▁ಕುಡಿಯುವ	-3505
?"	-3506
ಸ್ಟ	-3507
▁ದುಃ	-3508
▁ಪಾಠ	-3509
ದೆಂದು	-3510
▁ಉದ್ಯಮ	-3511
▁ಭೂಮಿಯ	-3512
▁ಆಗಿಲ್ಲ	-3513
▁ನಿಜಕ್ಕೂ	-3514
ಂಡಾ	-3515
ನಾಥ	-3516
ಮುಖ	-3517
ಫ್ಟ್	-3518
▁ಕರು	-3519
ಯುಕ್ತ	-3520
▁ಉತ್ಸ	-3521
▁ದಾವೀ	-3522
▁ಬಳಸಿ	-3523
▁ಯೆಹೂ	-3524
▁ಪ್ರಾಯ	-3525
▁ವಾಗ್ದ	-3526
▁ಸ್ನೇಹ	-3527
▁ಮಹತ್ವದ	-3528
▁ಇದಲ್ಲದೆ	-3529
▁ಪ್ರಮಾಣದ	-3530
ತಾನ	-3531
ೇತರ	-3532
▁ಭೀ	-3533
▁ಬಿಸಿ	-3534
▁ನೆರವು	-3535
▁ಪತ್ರಿ	-3536
ದಿಂದಾಗಿ	-3537
▁ದಿನಾಂಕ	-3538
▁ರಕ್ಷಣೆ	-3539
▁ಅವುಗಳಲ್ಲಿ	-3540
ಪರ	-3541
ರಣ್	-3542
ನ್ಸಿ	-3543
ೈರ್ಯ	-3544
▁ಟಾಟಾ	-3545
▁ಪದವಿ	-3546
▁ಪೋಷಕರು	-3547
▁ಜೀವನದಲ್ಲಿ	-3548
ುತ್ತಿರಲಿಲ್ಲ	-3549
▁0	-3550
ಗಲ್	-3551
▁ಕಮ	-3552
▁ವಸ	-3553
ಿದಾಗ	-3554
▁ಕಲೆ	-3555
▁ತಿರ	-3556
▁ತೆರ	-3557
▁ಈಗಲೂ	-3558
▁ಗರ್ಭ	-3559
▁ಪಾವತ	-3560
▁ವೃತ್ತಿ	-3561
ಿಸುತ್ತಾನೆ	-3562
▁ಪ್ರಸ್ತಾಪ	-3563
▁ವ್ಯಕ್ತಪಡಿಸಿದರು	-3564
ೈಕೆ	-3565
ಸ್ತುವ	-3566
▁ನಿಧನ	-3567
▁ಭರ್ಜ	-3568
▁ಕೊರತೆ	-3569
▁ಬುದ್ಧ	-3570
▁ಹೇಳಿದ್ದ	-3571
▁ಬರುತ್ತದೆ	-3572
▁ಕೆಲವೊಮ್ಮೆ	-3573
ಭಯ	-3574
ಣ್ಯ	-3575
ಲರ್	-3576
ಾಗಳ	-3577
▁23	-3578
ಭಾರತ	-3579
▁ಒಳಗ	-3580
▁ಚೀನ	-3581
ಾಯ್ತು	-3582
ಬಂದಿದೆ	-3583
ಲ್ಪಡುವ	-3584
▁ಕಂಡುಬ	-3585
▁ಸರಕಾರದ	-3586
▁ಘಟನೆಯಲ್ಲಿ	-3587
ಗಾಲ	-3588
ಾಳು	-3589
ಡಿಯೊ	-3590
ನೆಯು	-3591
್ಯಾರ	-3592
▁ಡೌನ್	-3593
▁ದುಃಖ	-3594
▁ಹೊರಡ	-3595
ನಾತ್ಮಕ	-3596
ಲಿಯಲ್ಲಿ	-3597
▁ಅವರಲ್ಲಿ	-3598
▁ಅಡಿಯಲ್ಲಿ	-3599
▁ಬಂಧಿಸಿದ್ದಾರೆ	-3600
ಪ್ಟ	-3601
ಬಿಡ	-3602
▁ಒಡ	-3603
▁ಗೊಂದ	-3604
▁ದೇವೇ	-3605
▁ವಾಯು	-3606
ದಲ್ಲಿನ	-3607
ವೆಂದರೆ	-3608
▁ಆರಂಭಿಕ	-3609
▁ಸ್ಥಗಿತ	-3610
▁ಸಿನಿಮಾದಲ್ಲಿ	-3611
▁N	-3612
ಂಗೆ	-3613
ಕಿನ	-3614
ೀಶ್	-3615
▁ತಾಲ	-3616
▁ರಂಗ	-3617
ರೆಲ್ಲ	-3618
ಲಿಂಗ್	-3619
ೋತ್ಸವ	-3620
ರಾಗಿದ್ದರು	-3621
ೂಷ	-3622
ನಾವು	-3623
▁ಉಲ್ಲಂಘ	-3624
▁ಎಂದರೇನು	-3625
▁ಮಾಡುವುದಿಲ್ಲ	-3626
▁ಅಶ	-3627
▁ಮಸ	-3628
▁ಶ್	-3629
ಿಸಲಿ	-3630
▁ಪೂಜ	-3631
▁ಸಾರಿಗೆ	-3632
▁ಸಿನಿಮಾದ	-3633
▁ಸುಪ್ರೀಂಕ	-3634
ೆರ	-3635
’’	-3636
ಚರ್	-3637
ಳಿದ	-3638
ಾಮಕ	-3639
ವಾಲು	-3640
ಿಂದ್	-3641
ಂಗ್ಸ್	-3642
▁ಆಂಧ್ರ	-3643
ಳಿಯಲ್ಲಿ	-3644
▁ಭ್ರಷ್ಟ	-3645
▁ಯಾವುವು	-3646
▁ರೈಲ್ವೆ	-3647
ಬೇಕಾಗಿದೆ	-3648
ುವುದನ್ನು	-3649
▁ಪ್ರಕರಣದಲ್ಲಿ	-3650
ಳದ	-3651
ಕಲ್	-3652
▁ಸಾಧನ	-3653
ಂಜಿನಿಯ	-3654
▁ಇಬ್ಬರ	-3655
▁ಶ್ರೇಷ್ಠ	-3656
▁ವಿಶೇಷವಾಗಿ	-3657
▁ರಾಷ್ಟ್ರಪತಿ	-3658
ೀಶ	-3659
ಪತ್ರ	-3660
ಲಾಸ್	-3661
▁ಆಶೀರ್	-3662
▁ಬೆನ್ನ	-3663
▁ಸಂಕಷ್ಟ	-3664
▁ಇಲ್ಲಿಗೆ	-3665
▁ಎಡ	-3666
▁ಫು	-3667
▁ಗಂಟ	-3668
ಗಳನ್ನ	-3669
▁ಓರ್ವ	-3670
▁ಅನುಮೋದ	-3671
▁ಹಣವನ್ನು	-3672
ರುವುದರಿಂದ	-3673
▁ಸನ್ನಿವೇಶ	-3674
▁ಮಕ್ಕಳನ್ನು	-3675
ಾಪಕ	-3676
ಮ್ಯಾ	-3677
ಂತೆಯೇ	-3678
ದಿರುವ	-3679
▁ಜನ್ಮ	-3680
▁ತ್ರಿ	-3681
▁ಹಚ್ಚ	-3682
▁ಕಾರಿನ	-3683
▁ಬಾಂಗ್	-3684
▁ಪ್ರಿಯಾ	-3685
▁ಭದ್ರತಾ	-3686
▁ಮಾನಸಿಕ	-3687
▁ಕ್ಷೇತ್ರದ	-3688
ಾಪ್	-3689
ಾಗಿಯೂ	-3690
ಿಕೆಗೆ	-3691
▁ಎದುರು	-3692
ಿಕೊಳ್ಳಿ	-3693
▁ಶಾಸಕರು	-3694
▁ಹೆಸರಿನ	-3695
▁ಪ್ರಸಾದ್	-3696
▁ಮುಂದುವರಿಯ	-3697
ಯಿ	-3698
▁ಚೇತ	-3699
▁ಸನ್	-3700
▁ಉಪಾಧ್ಯಕ್ಷ	-3701
ಿನೆ	-3702
ೈನ್	-3703
ಡಿಗೆ	-3704
ದ್ದೇ	-3705
ವೆಂಬ	-3706
ುನಿಕ	-3707
ರಿಂಗ್	-3708
▁ಸಭೆಯ	-3709
▁ತಂದೆಯ	-3710
▁ಶಸ್ತ್ರ	-3711
▁ಹೊತ್ತು	-3712
ಸಭೆಯಲ್ಲಿ	-3713
▁ಮಾಡುತ್ತಾರೆ	-3714
ೇಡ್	-3715
▁:⁠	-3716
ಂಡ್ರ	-3717
ಾಗ್ರ	-3718
ೋದ್ಯ	-3719
▁ಕೂಟ	-3720
▁ವಾಪ	-3721
▁ಸಲಹ	-3722
ಕ್ಷೇಪ	-3723
ಪೂರ್ವ	-3724
▁2018	-3725
▁ಬಂತು	-3726
▁ಪಡೆದು	-3727
▁ಮುಂತಾದ	-3728
▁ಸಂಭ್ರಮ	-3729
▁ನೀಡಿಲ್ಲ	-3730
▁ಹೆಸರನ್ನು	-3731
▁ಮಸೂ	-3732
ರಿಸಿದೆ	-3733
▁ಶತಮಾನ	-3734
▁ಕಾರ್ಯಾಚರಣೆ	-3735
▁ತಿಳಿದುಕೊಳ್ಳ	-3736
er	-3737
▁ರಹ	-3738
ರಾಜ್	-3739
▁ಅರ್ಧ	-3740
▁ಕ್ಷಮ	-3741
▁ತೆರೆಯ	-3742
▁ಸುಮ್ಮ	-3743
▁ಹುಡುಗ	-3744
▁ರೆಡ್ಡಿ	-3745
ವೇಷ	-3746
▁ಪಾದ	-3747
ತವಾಗಿ	-3748
ಲಿಯನ್	-3749
▁ಚಾಂಪ	-3750
▁ಬದ್ಧ	-3751
▁ಸಂಗಡ	-3752
▁ಕಪ್ಪು	-3753
▁ಸಮರ್ಥ	-3754
▁ಅಪೊ	-3755
▁ನದಿ	-3756
▁ಪತಿ	-3757
▁ಆಜ್ಞ	-3758
▁ಶಿಷ್ಯ	-3759
▁ಸ್ತ್ರ	-3760
▁ಹಣ್ಣು	-3761
▁ಆಹ್ವಾನ	-3762
▁ಕ್ರಿಸ್ತನ	-3763
at	-3764
ಬ್ರ	-3765
ೆಲ್	-3766
▁ಪೌರ	-3767
ಮೆಂಟ್	-3768
ವಿತ್ತು	-3769
ಿಸಿಸಿಐ	-3770
▁ಎತ್ತರ	-3771
▁ಸವಾಲು	-3772
▁ಅದೃಷ್ಟ	-3773
▁ಅನುಮಾನ	-3774
▁ಜವಾಬ್ದಾರಿ	-3775
ಿಸಲಾಗುತ್ತಿದೆ	-3776
ಲಾರ	-3777
▁ಕಾವ	-3778
▁ಕುತ	-3779
▁ಮೀಸ	-3780
ಡ್ಡಾಯ	-3781
▁ಕಲ್ಯ	-3782
▁ದೊರೆ	-3783
▁ಸೆಲ್	-3784
್ಯಾತ್ಮ	-3785
▁ಜನಾಂಗ	-3786
▁ಶಿಫಾರ	-3787
▁ಎಂದಿಗೂ	-3788
▁ಗೆದ್ದು	-3789
▁ಕೆಲಸವನ್ನು	-3790
▁ಬ್ಯಾಟಿಂಗ್	-3791
ಪರಿ	-3792
ಮಾರ	-3793
ಾನೇ	-3794
▁32	-3795
ಲಿಷ್	-3796
ಾಯಾಮ	-3797
▁ಅನ್ಯ	-3798
▁ಪ್ರತಿದ	-3799
▁ನಾವೆಲ್ಲ	-3800
▁ಅಧಿಕಾರಿಗಳ	-3801
▁ಸುಪ್ರೀಂಕೋರ್ಟ್	-3802
ಠಿ	-3803
ಮಿತ	-3804
ಾನು	-3805
ಾಲೆ	-3806
▁ಜಪ	-3807
▁ಇಂಧ	-3808
▁ಯಾಕ	-3809
▁ಏರಿಕ	-3810
▁ಮೀನು	-3811
ಾವನ್ನು	-3812
▁ಗೊಂದಲ	-3813
▁ಇಲ್ಲವೆ	-3814
▁ಗೊತ್ತು	-3815
▁ಶಿಕ್ಷೆ	-3816
▁ಹಿಡಿದು	-3817
▁ನಮ್ಮಲ್ಲಿ	-3818
▁ವಿದೇಶಾಂಗ	-3819
▁ಹೇಳಿದ್ದು	-3820
▁ಕ್ಷೇತ್ರಗಳಲ್ಲಿ	-3821
▁C	-3822
ನೀಯ	-3823
ಮನ್	-3824
ೆಂದ	-3825
▁ಎನ	-3826
▁ಆದು	-3827
▁ನಗದು	-3828
▁ಅಂದಾಜ	-3829
ಲ್ಯಾಂಡ್	-3830
▁ಆರೋಪಿಗಳನ್ನು	-3831
ಿಯವರ	-3832
▁ಶೋಧ	-3833
▁ಕುಸಿತ	-3834
▁ಗಾತ್ರ	-3835
▁ಧೈರ್ಯ	-3836
▁ವೈರಸ್	-3837
▁ಅನುಮತಿ	-3838
▁ಕಡ್ಡಾಯ	-3839
▁ಮಾತನಾಡಿ	-3840
▁ನಿರೀಕ್ಷೆ	-3841
ವಾಗುತ್ತಿದೆ	-3842
ುತ್ತಿದ್ದೇವೆ	-3843
▁ಗಾಯಗೊಂಡಿದ್ದಾರೆ	-3844
ವಿತ	-3845
▁ಓಡ	-3846
ದಿಗೆ	-3847
ೇಷನ್	-3848
▁ತನಕ	-3849
▁ವಂಚ	-3850
▁ಲೈಂಗ	-3851
ಗಳಿಲ್ಲ	-3852
ಗೊಳಿಸಿ	-3853
▁ಕುತೂಹ	-3854
▁ತಿರುಗ	-3855
▁ಭರ್ಜರಿ	-3856
▁ಪ್ರಸಿದ್ಧ	-3857
ಗುಣ	-3858
ಲುಕ	-3859
▁ಅಲ್	-3860
▁ಹಿತ	-3861
▁ಬುಕ್	-3862
▁ಸೇನಾ	-3863
▁ಹೊರತ	-3864
▁ಕೆಳಗೆ	-3865
▁ಸ್ಪಂದ	-3866
▁ಆಯುಕ್ತ	-3867
▁ಕ್ರಿಕೆ	-3868
▁ಸಕ್ರಿಯ	-3869
▁ಪಾಲ್ಗೊಳ್ಳ	-3870
▁ಪ್ರಮಾಣದಲ್ಲಿ	-3871
ೆಡೆ	-3872
▁ನಾರ	-3873
▁ವರೆ	-3874
▁ವಿಳ	-3875
▁ಆಚರಿಸ	-3876
▁ವಿವೇಕ	-3877
▁ಕಲ್ಯಾಣ	-3878
▁ಟಾರ್ಕ್	-3879
▁ರೈತರಿಗೆ	-3880
ad	-3881
▁ಈರು	-3882
▁ಗಂಗ	-3883
▁ಶೇಕ	-3884
▁ಅತಿಥ	-3885
▁ನಾಲ್ಕ	-3886
▁ಸೇರ್ಪ	-3887
▁ಅಧಿವೇಶ	-3888
▁ಆರೋಪಿಗಳ	-3889
▁ಸಿಬ್ಬಂದ	-3890
▁ರಾಜಸ್ಥಾನ	-3891
ಣಿಯ	-3892
▁60	-3893
ೇರಿಯ	-3894
▁ಅತೀ	-3895
▁ಉಡು	-3896
▁ಅಲ್ಪ	-3897
ಾಗಬೇಕು	-3898
ೋತ್ಸಾಹ	-3899
▁ಸಹಾಯಕ	-3900
▁ಸೂಚನೆ	-3901
▁ಐತಿಹಾಸ	-3902
ಿಸಿಕೊಂಡು	-3903
ಾಭ	-3904
ಗೂಡ	-3905
ಭಾಯ	-3906
ಮ್ಯ	-3907
ಾಳಿ	-3908
▁ಕ್ಲ	-3909
▁ಕನಸು	-3910
▁ನಿಖರ	-3911
▁ಪಾರ್	-3912
▁ಸರ್ವ	-3913
▁ಹ್ಯಾ	-3914
ಗಳಲ್ಲೂ	-3915
ಿಕೊಟ್ಟ	-3916
▁ಕಾರಣಗಳು	-3917
▁ಗ್ರಾಮೀಣ	-3918
ವಿನ	-3919
▁ನರ	-3920
ೃತ್ಯ	-3921
ಪಡಿಸಿ	-3922
▁2019	-3923
▁ಇಟ್ಟ	-3924
▁ಕಂಪೆ	-3925
▁ಪ್ಲೇ	-3926
▁ಸಕ್ಕರೆ	-3927
▁ಸೋನಿಯಾ	-3928
▁ಮತ್ತಿತರರು	-3929
ಟರಿ	-3930
ವಿಕ	-3931
▁ಠಾಕ	-3932
▁ಸೋಲ	-3933
ಧಿಕಾರ	-3934
▁ಭಾಷೆ	-3935
ಶ್ಚರ್ಯ	-3936
▁ಅಕ್ರಮ	-3937
▁ಕೆಂಪು	-3938
▁ದುರಂತ	-3939
▁ಪೋಸ್ಟ್	-3940
▁ಪ್ರತಿನಿಧ	-3941
ದೋ	-3942
▁ಕಸ	-3943
▁ರಸ	-3944
ದಿದೆ	-3945
▁ಜಾರ	-3946
ನ್ಮೂಲ	-3947
ಸ್ಕಾರ	-3948
▁ಹೊಣೆ	-3949
▁ಚಾಲನೆ	-3950
▁ಬದುಕು	-3951
▁ಸಾವಿನ	-3952
▁ಲೋಕಸಭೆ	-3953
▁ಮಹಿಳೆಯರ	-3954
▁ಸ್ಪಷ್ಟಪಡ	-3955
▁ಮಾಡಲಾಗುತ್ತದೆ	-3956
ಪಂಚ	-3957
ಮಿಯ	-3958
ತಿಯು	-3959
▁ಬೃಹ	-3960
▁ಪವರ್	-3961
▁ಯತ್ನ	-3962
▁ತೀರ್ಪ	-3963
▁ಸ್ಥಿರ	-3964
▁ಇವರಿಗೆ	-3965
▁ಜಾರಿಗೆ	-3966
▁ದೆಹಲಿಯ	-3967
▁ಲೈಂಗಿಕ	-3968
▁ವಿವರಿಸ	-3969
▁ಉದಾಹರಣೆ	-3970
▁ಸುಲಭವಾಗಿ	-3971
▁ಪ್ರತಿಭಟನಾ	-3972
▁ಪಟ್ಟಿಯಲ್ಲಿ	-3973
ರಲಿ	-3974
▁31	-3975
▁ಕಪ್	-3976
▁ಅರ್ಪ	-3977
▁ಆರಾಧ	-3978
▁ಪ್ರಾಥಮ	-3979
▁ಪ್ರೋತ್ಸಾಹ	-3980
ಾನದ	-3981
▁26	-3982
▁ಸಾಯ	-3983
▁ದೊರಕ	-3984
▁ಸತ್ತ	-3985
▁ಸಮಗ್ರ	-3986
▁ತನಿಖೆಗೆ	-3987
▁ಮುನ್ನಡೆ	-3988
▁ವೈಶಿಷ್ಟ	-3989
▁ಆದುದರಿಂದ	-3990
▁ಅಭ್ಯರ್ಥಿಗಳು	-3991
▁ಸಮಾ	-3992
ಗಿರುವ	-3993
▁ಸೋಲು	-3994
▁ಅಸ್ತಿ	-3995
▁ಕಚೇರಿ	-3996
▁ರಲ್ಲಿ	-3997
▁ಅನುದಾನ	-3998
▁ಕುತೂಹಲ	-3999
▁ಗರಿಷ್ಠ	-4000
▁ಗಾಯಾಳು	-4001
▁ಮೂಲಗಳು	-4002
▁ಆಧ್ಯಾತ್ಮ	-4003
▁ಮಧ್ಯಪ್ರದೇಶ	-4004
▁ಒಣ	-4005
ಬ್ಬರ	-4006
▁ಅಗ್ರ	-4007
▁ಶಾಲೆ	-4008
ಾಮುಖ್ಯ	-4009
▁ಆರೋಗ್ಯದ	-4010
▁ನೀಡಿದ್ದ	-4011
▁ನೀರನ್ನು	-4012
▁%	-4013
ಪಾತ	-4014
▁ತೃ	-4015
▁ಶವ	-4016
▁ಹಗ	-4017
▁ತ್ವ	-4018
▁ನಂದ	-4019
▁ಫಾರ	-4020
ಕ್ಷ್ಮ	-4021
▁ಮಗಳು	-4022
▁ಸಿಪಿ	-4023
▁ನಿಭಾಯ	-4024
▁ಅಲ್ಲಿಂದ	-4025
ಸೌ	-4026
್ಮೆ	-4027
▁ಸ್ವಯ	-4028
▁ಹಸ್ತ	-4029
ಂತಾಗಿದೆ	-4030
ಣೆಯಲ್ಲಿ	-4031
ಿಸಿಕೊಳ್ಳುವ	-4032
▁ಪ್ರಾಮುಖ್ಯ	-4033
▁ವಿಚಾರದಲ್ಲಿ	-4034
▁ಪಾಲ್ಗೊಂಡಿದ್ದರು	-4035
ಪಡಿ	-4036
ರ್ಬ	-4037
ಾಶ್	-4038
▁ಬೊ	-4039
ನಮ್ಮ	-4040
▁ಅಲಿ	-4041
▁ಬೆದ	-4042
▁ಮೆಣ	-4043
▁ಕೈಗೆ	-4044
▁ಡಿಸ್	-4045
▁ದಾರಿ	-4046
▁ಪಟೇಲ್	-4047
▁ಬೇಕಾದ	-4048
▁ಮಟ್ಟದ	-4049
▁ಶಾಸಕರ	-4050
▁ಸ್ವಂತ	-4051
ವಾಗಿದ್ದ	-4052
▁ಇರುತ್ತ	-4053
▁ಸೇರಿವೆ	-4054
▁ನ್ಯಾಯಮೂರ್ತಿ	-4055
ನನ	-4056
▁A	-4057
ಫೋನ್	-4058
ಷ್ಕಾ	-4059
ೃಷ್ಣ	-4060
▁ಎಸೆ	-4061
▁ಕಲಾವ	-4062
▁ಬಚ್ಚ	-4063
▁ವೇತನ	-4064
▁ಕೊಳ್ಳ	-4065
ದಲ್ಲಿಯೇ	-4066
▁ವ್ಯಾಯಾಮ	-4067
▁ಐತಿಹಾಸಿಕ	-4068
ಬೇಕಾಗುತ್ತದೆ	-4069
ರಂಜ	-4070
▁ಬೋ	-4071
ಜುನ್	-4072
ರಿಯಾ	-4073
▁ಕೃತ	-4074
ವರಾಜ್	-4075
▁ಅಡ್ಡ	-4076
▁ಜಾತಿ	-4077
▁ತಿದ್ದು	-4078
▁ಮೈಸೂರು	-4079
▁ಆಶ್ಚರ್ಯ	-4080
▁ನೀಡಿರುವ	-4081
▁ಸ್ಪರ್ಧೆ	-4082
▁ನ್ಯಾಯಾಂಗ	-4083
▁ಪ್ರತಿದಿನ	-4084
ತೆಯು	-4085
ತ್ರೆ	-4086
ಾವಳಿ	-4087
▁ಕೌಶ	-4088
▁ತಾಂ	-4089
▁ಬಾಹ	-4090
▁ಆಲೋಚ	-4091
▁ಓವರ್	-4092
▁ಕ್ರೀ	-4093
▁ಟಿವಿ	-4094
▁ಶ್ರೀಲ	-4095
▁ಹಿನ್ನ	-4096
▁ಅಪೊಸ್ತ	-4097
▁ನಿವೃತ್ತ	-4098
ಿಸಿದ್ದೇವೆ	-4099
▁ಪ್ರಾಥಮಿಕ	-4100
▁ಮತ್ತೊಮ್ಮೆ	-4101
▁ವೈಶಿಷ್ಟ್ಯ	-4102
ome	-4103
ಬೇಡ	-4104
▁150	-4105
▁ಕೋಪ	-4106
ವನ್ನೇ	-4107
▁ಗ್ರಹ	-4108
▁ನೋಂದ	-4109
ಪಡಿಸುವ	-4110
▁ಭದ್ರತೆ	-4111
▁ಕ್ರಮಗಳನ್ನು	-4112
▁ಮಾಡುತ್ತಿದೆ	-4113
▁ಪಡೆದಿದ್ದಾರೆ	-4114
ಾಶಯ	-4115
ಲೀಸ್	-4116
▁ಮನ್	-4117
▁ಇಂಧನ	-4118
▁ಪಾಲು	-4119
▁ಲೇಖನ	-4120
ವರೆಲ್ಲ	-4121
▁ಅವಲಂಬ	-4122
▁ಬದಲಾವ	-4123
▁ರಮೇಶ್	-4124
▁ಶ್ರೀಮ	-4125
▁ಅಪ್ಲಿಕ	-4126
▁ಇಲಾಖೆಯ	-4127
▁ಕ್ಲಿಕ್	-4128
▁ತಂಡಗಳು	-4129
▁ನಡೆಸಲು	-4130
ಿಸಲಾಗಿದ್ದು	-4131
▁ಮುಂದುವರಿಸ	-4132
▁ಮಾಹಿತಿಯನ್ನು	-4133
▁ಸಮಸ್ಯೆಗಳನ್ನು	-4134
ಮೋ	-4135
▁27	-4136
ಕ್ಟ್	-4137
ಿಯರು	-4138
ಲಕ್ಷಣ	-4139
ಸ್ಯುವ	-4140
▁ವರ್ಣ	-4141
▁ವೆಬ್	-4142
ಿಸುತ್ತಾ	-4143
▁ಈರುಳ್ಳಿ	-4144
▁ಇದುವರೆಗೂ	-4145
▁ಪ್ರಶ್ನೆಗೆ	-4146
ಂು	-4147
ಎಚ್	-4148
ಕೋಶ	-4149
▁ಇತ್ಯ	-4150
▁ಆಸ್ತಿ	-4151
▁ಬಳಿಗೆ	-4152
ಡಿಯಲ್ಲಿ	-4153
▁ಬಿಸಿಸಿಐ	-4154
▁ಅಜ	-4155
ಾಂತಿ	-4156
▁ಡಿಸ	-4157
▁ನೂರ	-4158
ಿದೆಯೇ	-4159
▁ಅಚ್ಚ	-4160
▁ತಜ್ಞ	-4161
▁ಹೊರಬ	-4162
▁ನೆರವೇ	-4163
▁ಪೌಲನು	-4164
▁ತಿರಸ್ಕ	-4165
▁ನಡೆಯುವ	-4166
▁ಹುಟ್ಟು	-4167
▁ಅಪೊಸ್ತಲ	-4168
▁ಶಾಸ್ತ್ರ	-4169
▁ಎನ್ನುವುದ	-4170
▁ಚಾಂಪಿಯನ್	-4171
ದಲ್ಲಿದ್ದಾರೆ	-4172
▁ಜಿಲ್ಲೆಯಲ್ಲಿ	-4173
ಸೈ	-4174
ಂಬ್	-4175
▁ಗ್	-4176
▁ದಶ	-4177
▁ಕಾಡ	-4178
▁ಪ್ರಚ	-4179
▁ಇಂದಿನ	-4180
▁ನ್ಯೂಜಿ	-4181
▁ಪ್ರದರ್ಶ	-4182
▁ಹೇಳುವುದು	-4183
ರುಪ	-4184
▁ಎಐ	-4185
▁ಜು	-4186
ದೀಪ್	-4187
▁ಅಡ್	-4188
▁ಆಂತ	-4189
▁ಏನೇ	-4190
▁ಜರುಗ	-4191
▁ಕರ್ತವ್ಯ	-4192
ಂಭಾಗದಲ್ಲಿ	-4193
▁ಲಭ್ಯವಿದೆ	-4194
▁ಸದ್ಯಕ್ಕೆ	-4195
▁ಹೇಳಿದ್ದರು	-4196
▁ಮುಖ್ಯಮಂತ್ರ	-4197
▁35	-4198
▁ಚು	-4199
▁ಫೈ	-4200
ಮೇಲೆ	-4201
▁ಆಪ್	-4202
▁ಪುನಃ	-4203
▁ಸಿಂಗ	-4204
ರಿಗಾಗಿ	-4205
▁ನೋಡೋಣ	-4206
▁ಚಿನ್ನದ	-4207
▁ಬಿಡುಗಡೆಗೊಳ	-4208
ಯಲ್	-4209
ಷ್ಕ	-4210
▁ಓದ	-4211
▁ವಕ	-4212
▁ಸದಾ	-4213
ೋತ್ತರ	-4214
▁ಕಿವಿ	-4215
▁ಬಾಗಿ	-4216
▁ಹಳೆಯ	-4217
▁ತೊಳೆಯ	-4218
▁ಹಲ್ಲೆ	-4219
▁ಮಂಗಳೂರು	-4220
▁ಜವಾಬ್ದಾರ	-4221
▁ವಿಷಯಗಳನ್ನು	-4222
▁ಜಾಲತಾಣದಲ್ಲಿ	-4223
▁ಅಬ	-4224
ಿಕೆಯು	-4225
▁ಕಳ್ಳ	-4226
▁ತಿನ್ನು	-4227
▁ಆಫ್ರಿಕಾ	-4228
▁ಮುಖಂಡರು	-4229
▁ಸೆಕ್ಷನ್	-4230
▁ಹಾಜರಿದ್ದರು	-4231
ಪೊ	-4232
ೊಯ	-4233
್ದು	-4234
ಜ್ಜೆ	-4235
▁ವಿಪ	-4236
ಶುದ್ಧ	-4237
ೆಂಬರ್	-4238
▁ನಾನೇ	-4239
▁ಅಮೆರಿಕದ	-4240
▁ನಿನ್ನನ್ನು	-4241
-19	-4242
ಿಷ್ಟ	-4243
▁ಇತರರು	-4244
▁ಅಭ್ಯಾಸ	-4245
▁ನಡೆಸುವ	-4246
▁ಹೇಳಿದನು	-4247
▁ಮೃತಪಟ್ಟಿದ್ದಾರೆ	-4248
ಡರ್	-4249
ಶೇಖ	-4250
ೊಯ್ಯ	-4251
ಾಯ್ಡ್	-4252
▁ನ್ನು	-4253
▁ರಾವ್	-4254
▁ಎಚ್ಚರ	-4255
▁ನೋಡಲು	-4256
▁ಆಂತರಿಕ	-4257
▁ಅನುಷ್ಕಾ	-4258
▁ಸೂಕ್ಷ್ಮ	-4259
ುತ್ತಿದ್ದೇನೆ	-4260
▁ಕಾರ್ಯಕ್ರಮದ	-4261
▁ಕಾರ್ಯಕರ್ತರು	-4262
ರಂ	-4263
ಾಯಣ	-4264
...]	-4265
ವಾಣಿ	-4266
ಿಸಲಾದ	-4267
▁ಕಾನ್	-4268
▁ಪರಾರ	-4269
▁ಲಿಮಿ	-4270
▁[...]	-4271
▁ಹಿಡಿದ	-4272
▁ನಿವಾಸಿ	-4273
ಕಾರಾತ್ಮಕ	-4274
▁ಚಿತ್ರರಂಗ	-4275
ಿಕೊ	-4276
▁80	-4277
▁ಫೀ	-4278
ದಾಯಕ	-4279
ನಾಯಕ	-4280
▁ಪೀಠ	-4281
▁ಸಾಹ	-4282
▁ಡಿಜಿ	-4283
ಪಡಿಸಲು	-4284
▁ನಿವಾರ	-4285
▁ಸಂಜಯ್	-4286
▁ಸಮೀಕ್ಷ	-4287
▁ಜಗತ್ತಿನ	-4288
▁ನಾಲ್ವರು	-4289
▁ಮಾಡಿದ್ದು	-4290
▁ವಿಷಯವನ್ನು	-4291
ಂಗಿ	-4292
▁ದೌ	-4293
▁ಲೇ	-4294
ಯಿಂದ	-4295
ವಾದು	-4296
▁ಚಲಾಯ	-4297
▁ಹೋರಾ	-4298
ಲಿದ್ದು	-4299
▁ನಿಗದಿ	-4300
▁ರಕ್ತದ	-4301
▁ಪಡೆದರು	-4302
▁ವಿಮರ್ಶ	-4303
▁ಅರ್ಜುನ್	-4304
▁ಕರ್ನಾಟಕದ	-4305
ಿಯಾಗಿದ್ದರು	-4306
19	-4307
ಶಾಮಕ	-4308
▁ಬಿಐ	-4309
▁ಬೃಹತ್	-4310
▁ಹಿಡಿಯ	-4311
ರಿದ್ದಾರೆ	-4312
▁ಅನುಮೋದನೆ	-4313
▁ರಾಜ್ಯಪಾಲ	-4314
ನೊ	-4315
ವೊ	-4316
ಂಕು	-4317
ೂಲ್	-4318
ಪ್ರಾ	-4319
▁ಉಭಯ	-4320
▁ಕಡತ	-4321
▁ತಾರ	-4322
ಸ್ಥರು	-4323
ಾರ್ಡ್	-4324
▁ಅಮ್ಮ	-4325
ಿಸುವಾಗ	-4326
▁ಒಮ್ಮೆ	-4327
ಿದ್ದೀರಿ	-4328
▁ಆದಿತ್ಯ	-4329
▁ಬಚ್ಚನ್	-4330
▁ನಂಬಿಕೆಯ	-4331
▁ಇದುವರೆಗೆ	-4332
▁ವಿಧಾನಸಭೆ	-4333
▁ಎಲ್ಲವನ್ನೂ	-4334
ಯಾನ	-4335
▁ಬಸ	-4336
ರಾಜು	-4337
ಿಯಲ್	-4338
▁ಗುಂಪ	-4339
▁ದಿವಸ	-4340
▁ಮಾಂಸ	-4341
ಗೋಸ್ಕರ	-4342
▁ಬೆಟ್ಟ	-4343
▁ಕಾಯ್ದೆ	-4344
▁ಶುಭಾಶಯ	-4345
▁ಚಿಕಿತ್ಸ	-4346
▁ಚಿತ್ರಗಳು	-4347
▁ಸುರಕ್ಷಿತ	-4348
▁ಅಧ್ಯಕ್ಷತೆ	-4349
▁ಕಾರ್ಯಾಚರಣ	-4350
ಿಸಿಕೊಂಡಿದ್ದಾರೆ	-4351
.5	-4352
್ಮಾ	-4353
ಟ್ಟರ್	-4354
▁ರಚನೆ	-4355
▁ಸೆರೆ	-4356
▁ಖರ್ಚು	-4357
▁ದೇಶಗಳ	-4358
▁ಮತದಾರ	-4359
▁ಮುಂಚೆ	-4360
▁ಸಂಘಟನೆ	-4361
▁ಕುರಿತಂತೆ	-4362
▁ಪ್ರಕರಣವನ್ನು	-4363
ನಿನ	-4364
ಮಾಣ	-4365
ಿಕಾರ	-4366
್ಟರ್	-4367
▁ಮೋಶ	-4368
▁Home	-4369
▁ವಕ್ತ	-4370
▁ಸಚಿವೆ	-4371
▁ಹೋಂಡಾ	-4372
ದಿದ್ದರೆ	-4373
▁ಆಗಿರುವ	-4374
▁ಜ್ಞಾನೋ	-4375
▁ಮನಸ್ಸು	-4376
ತ್ವವನ್ನು	-4377
▁ಆಗುತ್ತದೆ	-4378
▁ಲಿಮಿಟೆಡ್	-4379
ಕಲ	-4380
ಜೀವ	-4381
ಂಟ್ರ	-4382
▁ಗಡಿ	-4383
ಮಾಧಾನ	-4384
▁ಸ್ವತಃ	-4385
▁ಪಡೆಯುವ	-4386
▁ಯಾರಿಗೆ	-4387
▁ವಿತರಿಸ	-4388
▁ಸಹಾಯಮಾಡ	-4389
▁ಲಕ್ಷಣಗಳು	-4390
▁ಅಗ್ನಿಶಾಮಕ	-4391
▁ಶಿವಕುಮಾರ್	-4392
ೋಕ್	-4393
▁70	-4394
....	-4395
ಪ್ಪಿ	-4396
ಳಿಕೆ	-4397
ಷ್ಟೆ	-4398
▁300	-4399
▁ಕಾದ	-4400
▁ಡಾಲ	-4401
▁ಬೆಲ	-4402
▁ನಾನೂ	-4403
▁ಬೇಸರ	-4404
▁ವಕೀಲ	-4405
▁ವಶಪಡ	-4406
▁ಹಿಂಸಾ	-4407
▁ಆತನಿಗೆ	-4408
▁ಆಸಕ್ತಿ	-4409
▁ಉಸ್ತುವ	-4410
▁ಕಂಪನಿಯ	-4411
▁ಬಂಡವಾಳ	-4412
▁ಇಂಡಿಯನ್	-4413
▁ಅಧ್ಯಕ್ಷೆ	-4414
▁ಇಂಗ್ಲಿಷ್	-4415
▁ನಿರ್ವಹಣೆ	-4416
▁ಚುನಾವಣೆಗೆ	-4417
▁ಅಧಿಕಾರಕ್ಕೆ	-4418
▁ಭ್ರಷ್ಟಾಚಾರ	-4419
ಹೆಚ್	-4420
ಿಸೋಣ	-4421
▁ಬೀಜ	-4422
▁ಮೋಹ	-4423
▁ಶಾರ	-4424
ಂದ್ರೆ	-4425
ಕ್ಕಿಳ	-4426
▁ಖುಷಿ	-4427
▁ಧರಿಸ	-4428
▁ಪುಡಿ	-4429
ವರಲ್ಲಿ	-4430
▁ಮೂಲಭೂ	-4431
▁ಮೆಚ್ಚ	-4432
▁ಸಿಲುಕ	-4433
▁ಇವೆಲ್ಲ	-4434
▁ನಿಜವಾದ	-4435
▁ಪ್ರಕಾಶ್	-4436
ಿಸುತ್ತಿದ್ದರು	-4437
ಕ್ಟ	-4438
ಗಿದ	-4439
ಳುವ	-4440
್ಯದ	-4441
▁ಧೂ	-4442
▁ಪ್ಲ	-4443
▁ಇಂದಿ	-4444
▁ಕೋಚ್	-4445
▁ಹಾನಿ	-4446
▁ಆಧಾರ್	-4447
▁ಬ್ಯಾನ	-4448
▁ಸೈತಾನ	-4449
▁ಆಧುನಿಕ	-4450
▁ದೇವರಿಗೆ	-4451
▁ನಿರ್ಮಾಪ	-4452
▁ಮುಸ್ಲಿಂ	-4453
ಿಸಿದ್ದೇನೆ	-4454
▁ಪ್ರಶ್ನೆಯ	-4455
▁ಆಧ್ಯಾತ್ಮಿಕ	-4456
▁ಪ್ರಕರಣಕ್ಕೆ	-4457
).	-4458
ಕೈ	-4459
್ಟಿ	-4460
▁ಅಖ	-4461
▁ರಜ	-4462
ತ್ತಾ	-4463
▁ಅದೆ	-4464
▁ಈತನ	-4465
▁ತರಗ	-4466
▁ದೈಹ	-4467
▁ಬರ್	-4468
ಕಾಲಿಕ	-4469
▁ಕಡೆಯ	-4470
▁ಜೋಡಿ	-4471
▁ಠಾಣೆ	-4472
▁ನಾಟಕ	-4473
▁ವರೆಗೂ	-4474
▁ಅದೊಂದು	-4475
▁ಅಲ್ಲಿನ	-4476
▁ಇಲ್ಲವೇ	-4477
▁ಭಾರತವು	-4478
▁ಮನೋಭಾವ	-4479
▁ಸಮಾಧಾನ	-4480
▁ಎಚ್ಚರಿಕ	-4481
▁ಶೀಘ್ರದಲ್ಲೇ	-4482
al	-4483
ಂಗಡ	-4484
ೂರಿ	-4485
ಗ್ರಿ	-4486
ಾತ್ಮ	-4487
▁ಅಸ್	-4488
▁ಕಲಾ	-4489
▁ಯಶಸ್ಸು	-4490
▁ಆಸ್ಟ್ರೇ	-4491
ಾಲಾ	-4492
ೇಳೆ	-4493
ಾಧೀಶ	-4494
ೀಕಾರ	-4495
▁ಮರಳ	-4496
್ರಾನ್	-4497
▁ಲಾಕ್	-4498
▁ಹವಾಮ	-4499
▁ಅನಿಲ್	-4500
▁ಇನ್ಸ್	-4501
▁ನೋಡುವ	-4502
▁ಬಂದರು	-4503
▁ಮಾಡ್ತ	-4504
▁ಪ್ರಪಂಚ	-4505
▁ಹೆಜ್ಜೆ	-4506
▁ಇಲ್ಲಿವೆ	-4507
▁ತಂಡಕ್ಕೆ	-4508
▁ಮೊಹಮ್ಮದ್	-4509
▁ವ್ಯವಸ್ಥೆಯ	-4510
▁ಇಸ್ರಾಯೇಲ್ಯ	-4511
▁ವಹಿಸಿದ್ದರು	-4512
ಂಡನ್	-4513
ದವರು	-4514
ವಾರ್	-4515
ಾಪುರ	-4516
▁ಮರೆ	-4517
ಗಳೇನು	-4518
ಷ್ಠಾನ	-4519
▁ತಮಗೆ	-4520
▁ಪಕ್ಕ	-4521
▁ಹಾಗೇ	-4522
▁ವಿಧೇಯ	-4523
▁ಸ್ಟ್ರ	-4524
▁ಹೆದ್ದ	-4525
▁ಇಲ್ಲಿಯ	-4526
▁ಈವರೆಗೆ	-4527
▁ವಕ್ತಾರ	-4528
▁ಸುವಾರ್	-4529
▁ಅರ್ಥಮಾಡ	-4530
▁ಪತ್ರಕರ್	-4531
▁ವಾರ್ಷಿಕ	-4532
▁ಹೊಂದಿವೆ	-4533
▁ಹೊಂದಿದ್ದು	-4534
▁ಆರೋಪಿಯನ್ನು	-4535
▁ಕಾಣಿಸಿಕೊಳ್ಳ	-4536
ೂತ	-4537
ಂತಿ	-4538
ಂಬೆ	-4539
▁ಈಡೇ	-4540
ಸಂಸ್ಥ	-4541
ಾಷನಲ್	-4542
▁ಇರಲಿ	-4543
▁ಕಲಿತ	-4544
▁ಕೊಲ್ಲ	-4545
▁ಶುರುವ	-4546
▁ಹಸಿರು	-4547
ಕೊಳ್ಳುವ	-4548
▁ಅನಿವಾರ	-4549
▁ಎಸ್ಯುವ	-4550
▁ಟಿಕೆಟ್	-4551
▁ತಾಂತ್ರಿಕ	-4552
ar	-4553
ಗೊ	-4554
ಲೇಷ	-4555
▁29	-4556
▁ಪಠ	-4557
▁ಬಜ	-4558
▁ಮಮ	-4559
ಡಿಯಾ	-4560
ಪ್ತಿ	-4561
ಸರ್ಗ	-4562
▁ತೆಲ	-4563
ೀಂದ್ರ	-4564
▁ಗಣ್ಯ	-4565
▁ದೇಹದ	-4566
▁ಗಳಿಂದ	-4567
▁ಅನಿವಾರ್ಯ	-4568
ಾಗುವುದಿಲ್ಲ	-4569
▁ತೆಗೆದುಹಾಕ	-4570
ಗೊಳಿಸಲಾಗಿದೆ	-4571
▁ಆಗುವುದಿಲ್ಲ	-4572
▁ಎಲೆಕ್ಟ್ರಿಕ್	-4573
ಗಡೆ	-4574
ಸಾರ	-4575
ಹೋದ	-4576
ನಲ್ಲ	-4577
ಸೇನೆ	-4578
▁250	-4579
ಖ್ಯಾತ	-4580
ಾಡಳಿತ	-4581
▁ಟೀಮ್	-4582
▁ಹಕ್ಕ	-4583
▁ಗ್ರಾಂ	-4584
▁ಮಗುವಿನ	-4585
▁ಅಸಮಾಧಾನ	-4586
▁ದೇವೇಗೌಡ	-4587
▁ನಗರದಲ್ಲಿ	-4588
▁ಸಂಪನ್ಮೂಲ	-4589
▁ಸಂಸ್ಕೃತಿ	-4590
▁ಅಪ್ಲಿಕೇಶನ್	-4591
▁ಸಮಸ್ಯೆಯನ್ನು	-4592
▁ಜೇ	-4593
ಾವೇಶ	-4594
▁ಕೇಜ	-4595
▁ಭಟ್	-4596
▁ನಿಮಿ	-4597
▁ನೌಕರ	-4598
▁ಸಸ್ಯ	-4599
▁ಗೂಗಲ್	-4600
▁ದಾವೀದ	-4601
▁ನಂಬಿಗ	-4602
ುತ್ತಿಗೆ	-4603
▁ಅಂಶಗಳು	-4604
▁ಏನನ್ನು	-4605
▁ಸ್ವಾಮಿ	-4606
▁ಒಟ್ಟಿಗೆ	-4607
▁ಆರೋಗ್ಯಕರ	-4608
▁ಪ್ರತಿಭಟನಾಕಾರ	-4609
▁ಪ್ರದೇಶಗಳಲ್ಲಿ	-4610
▁ನಂ	-4611
ಂಗಾಣ	-4612
ಾವತಿ	-4613
▁ಬೈಬ	-4614
ುವಾಗಿ	-4615
▁ಆಗುವ	-4616
▁ಗೋವಾ	-4617
▁ಜನಸಂ	-4618
▁ಬೆಂಕ	-4619
ಾಮಾನ್ಯ	-4620
▁ಕೆಲವೇ	-4621
▁ಜಪಾನ್	-4622
ದುಕೊಂಡು	-4623
▁ಅನೇಕರು	-4624
▁ಕಾಯಿಲೆ	-4625
▁ವಿಷಯಗಳ	-4626
▁ತೊಂದರೆಯ	-4627
▁ಪಾತ್ರದಲ್ಲಿ	-4628
▁ಪ್ರಶ್ನೆಗಳು	-4629
ಂಹ	-4630
▁ಖಾತ	-4631
▁ಬಾಗ	-4632
▁ಅರುಣ್	-4633
▁ಸೈನಿಕ	-4634
▁ಅವರಿಂದ	-4635
▁ಪ್ರಗತಿ	-4636
▁ಸುರೇಶ್	-4637
▁ಕ್ರಿಕೆಟಿ	-4638
▁ಮಟ್ಟದಲ್ಲಿ	-4639
▁ಬೆಂಗಳೂರಿನಲ್ಲಿ	-4640
ರೊ	-4641
▁G	-4642
ಯರ್	-4643
ರುಳ	-4644
ಳೆದ	-4645
ಾಳಂ	-4646
ಿಯಾನ	-4647
▁ಅರವ	-4648
▁ಕೊಳ	-4649
▁ದುಬ	-4650
▁ಬಳಲ	-4651
ಬ್ಬರು	-4652
▁ಪ್ರಭ	-4653
ವಾಗಿಯೇ	-4654
▁ಅಡುಗೆ	-4655
▁ವರದಿಯ	-4656
▁ಮದುವೆಯ	-4657
ುವುದಕ್ಕೆ	-4658
▁ದಾಖಲಿಸಿ	-4659
▁ಸ್ಥಳದಲ್ಲೇ	-4660
▁ಆಗ್ರಹಿಸಿದರು	-4661
▁ಜಿಲ್ಲಾಧಿಕಾರಿ	-4662
▁P	-4663
ಡಲು	-4664
ುವೆ	-4665
ರಿದೆ	-4666
▁ಖುಷ	-4667
ಶ್ವಾಸ	-4668
▁ನೆಟ್	-4669
▁ಬಾಕಿ	-4670
▁ಸಾಂಕ	-4671
▁ಎಣ್ಣೆ	-4672
▁ನಿಧಾನ	-4673
▁ನೃತ್ಯ	-4674
▁ಬಹುಮತ	-4675
▁ನೈಸರ್ಗ	-4676
▁ಬದಲಾಗಿ	-4677
▁ಹವಾಮಾನ	-4678
ತೆಗಳನ್ನು	-4679
ರಲ್ಲಿರುವ	-4680
▁ಹೇಳುತ್ತದೆ	-4681
▁ಶಕ್ತಿಯನ್ನು	-4682
▁ಆಗಿ	-4683
▁ವಚನ	-4684
ೋದ್ಯಮ	-4685
▁ಹಾಲು	-4686
ವಿಟ್ಟು	-4687
ದ್ದನ್ನು	-4688
▁ಉತ್ತೇಜ	-4689
▁ಎರಡನೆಯ	-4690
▁ನೇರವಾಗಿ	-4691
▁ಮಹೀಂದ್ರ	-4692
▁ಶಿಫಾರಸು	-4693
▁ಬಾಂಗ್ಲಾದ	-4694
▁ಮಾಡಲಾಗಿತ್ತು	-4695
ಜೋ	-4696
ಂದೂ	-4697
ಂಪಿ	-4698
ರೂಸ	-4699
ವಶಾ	-4700
▁ಆಸೆ	-4701
▁ಚಂದ	-4702
▁ಯೋಹ	-4703
▁ಜಂಟಿ	-4704
▁ಲೋಡ್	-4705
▁ಸಿಂಧ	-4706
ತೆಯಿದೆ	-4707
▁ಖ್ಯಾತ	-4708
▁ಜನರಲ್	-4709
್ರಿವಾಲ್	-4710
▁ಭಕ್ತರು	-4711
ಕ್ಕಿಂತಲೂ	-4712
▁ಇಂಡಿಯಾದ	-4713
ಂಡ್ರಾಯ್ಡ್	-4714
▁ಅವಶ್ಯಕತೆ	-4715
▁ಕಾಲದಲ್ಲಿ	-4716
▁ಕ್ರಮವಾಗಿ	-4717
▁ವಿಸ್ತರಿಸ	-4718
ಿಕೊಳ್ಳಬೇಕು	-4719
▁ಸ್ಪಷ್ಟವಾಗಿ	-4720
ಕದ	-4721
ಟದ	-4722
ಬ್ಲ್ಯ	-4723
ವಶಾತ್	-4724
ಿಯಲ್ಲ	-4725
▁ಇಚ್ಛ	-4726
▁ಇರಿಸ	-4727
▁ಸಮಯದ	-4728
▁ತಿನ್ನ	-4729
▁ಭಾವನೆ	-4730
▁ಸುರಿಯ	-4731
▁ರಾಜೀವ್	-4732
ುತ್ತಿರುವುದ	-4733
▁ಯೆಹೋವನಿಗೆ	-4734
▁ದೆಹಲಿಯಲ್ಲಿ	-4735
▁ಎನ್ನುತ್ತಾರೆ	-4736
▁ಒತ್ತಾಯಿಸಿದರು	-4737
▁ಸತ	-4738
ಾಯಿತ	-4739
▁ಕೊಠ	-4740
ಿಸ್ಟ್	-4741
್ಯಾಮ್	-4742
▁ವರ್ತ	-4743
▁ದಂಪತಿ	-4744
▁ದಾಖಲು	-4745
▁ಮುಟ್ಟ	-4746
▁ಸ್ವರೂ	-4747
ುವುದಾಗಿ	-4748
▁ಪದಾರ್ಥ	-4749
▁ವಾಹನಗಳ	-4750
▁ವೆಸ್ಟ್	-4751
ಿಯಾಗಿದ್ದ	-4752
▁ನಿರ್ಬಂಧ	-4753
▁ತಂಡವನ್ನು	-4754
▁ತಮಿಳುನಾಡು	-4755
▁ಮಾರುಕಟ್ಟೆ	-4756
▁ಸಮಸ್ಯೆಗಳು	-4757
ಲೋಕ	-4758
ಾಸಿ	-4759
▁2:	-4760
ರ್ತು	-4761
▁ಮಧು	-4762
ುತ್ತಿ	-4763
▁ಹಿಂಬ	-4764
▁ಬಹುಶಃ	-4765
▁ದೇಶಕ್ಕೆ	-4766
▁ವಿಶಿಷ್ಟ	-4767
▁ಇತ್ತೀಚಿನ	-4768
▁ದಾಖಲಿಸಿಕೊಂಡು	-4769
ತೋ	-4770
ದೇಹ	-4771
▁ಇವ	-4772
▁ಚೋ	-4773
ತೀಶ್	-4774
ತೊಡಗ	-4775
▁ಇಸ್	-4776
▁ವಿಟ	-4777
ಸಿಂಗ್	-4778
ೆಯಲ್ಲ	-4779
▁ಕಡಿತ	-4780
▁ಜಾಮೀ	-4781
▁ತಾನೇ	-4782
▁ಪರ್ವ	-4783
▁ಮೂರ್	-4784
▁ಸವಾಲ	-4785
▁ಹರಿದ	-4786
▁ಮಂದಿರ	-4787
▁ಮಗನಾದ	-4788
▁ಸ್ಕ್ರ	-4789
▁ಹುದ್ದೆ	-4790
ಿಯಾಗಿಲ್ಲ	-4791
▁ಕಾರನ್ನು	-4792
▁ತಿದ್ದುಪಡಿ	-4793
▁ಸಂಬಂಧಪಟ್ಟ	-4794
▁ಬಾಂಗ್ಲಾದೇಶ	-4795
▁ಸಂಖ್ಯೆಯಲ್ಲಿ	-4796
ಶತ	-4797
ಂಚ್	-4798
▁ಷೇ	-4799
ಟೆಲ್	-4800
ಪಡುವ	-4801
▁ಮೌನ	-4802
▁ರುಪ	-4803
ವುಳ್ಳ	-4804
ಾಂತ್ಯ	-4805
▁ಅಹ್ಮ	-4806
▁ಡಾಲರ್	-4807
▁ಸಚಿನ್	-4808
▁ಸ್ಫೋಟ	-4809
▁ಪರವಾಗಿ	-4810
▁ಸಮಾವೇಶ	-4811
▁ಮುಸ್ಲಿಮ	-4812
▁ಪ್ರಸ್ತಾವ	-4813
▁ಹಂತದಲ್ಲಿ	-4814
▁ನ್ಯಾಯಾಧೀಶ	-4815
▁ಸಂಸ್ಥೆಗಳು	-4816
▁ಬರೆದಿದ್ದಾರೆ	-4817
ಬಳ	-4818
▁3:	-4819
▁ದಾರ	-4820
▁ಶರೀ	-4821
ಸ್ಟ್ರ	-4822
▁ಪಾಸ್	-4823
▁ಮಂಜು	-4824
▁ವರುಷ	-4825
▁ವೈವಿ	-4826
▁ಶಕ್ತ	-4827
▁ಹ್ಯು	-4828
▁ಪೇತ್ರ	-4829
▁ಪ್ರಿಯ	-4830
▁ಯೆರೂಸ	-4831
▁ಹೊಂದಿ	-4832
▁ಕ್ರೀಡಾ	-4833
▁ದಿನೇಶ್	-4834
▁ದಿನಕ್ಕೆ	-4835
▁ವ್ಯವಸ್ಥೆಯನ್ನು	-4836
ಂಡೈ	-4837
ವರೇ	-4838
▁ಘನ	-4839
ರೋನಾ	-4840
ಲಿಂಗ	-4841
ವರ್ಧ	-4842
ಿದಾರ	-4843
▁ಎತ್ತ	-4844
▁ನೀವೇ	-4845
ಲೇಬೇಕು	-4846
▁ಕೋಲ್ಕ	-4847
▁ದ್ವೇಷ	-4848
▁ವಿಜೇತ	-4849
▁ಹತ್ತು	-4850
▁ಜಾಮೀನು	-4851
▁ಮೊದಲಾದ	-4852
▁ಶಿಕ್ಷಕ	-4853
▁ಸಂರಕ್ಷ	-4854
▁ಇರುವುದು	-4855
▁ಗಮನಾರ್ಹ	-4856
▁ಪರೀಕ್ಷಾ	-4857
▁ಉಸ್ತುವಾರಿ	-4858
ಪೀ	-4859
ಂುು	-4860
ಲಿತ	-4861
▁ತಾಪ	-4862
▁ಹೆದ	-4863
▁ಪದ್ಧ	-4864
▁ಮಿಂಚ	-4865
▁ಹೆಗ್	-4866
▁ಮಾನ್ಯ	-4867
ಾಗುವುದು	-4868
▁ಪಾಟೀಲ್	-4869
▁ಪೌರತ್ವ	-4870
▁ಮೂಲಭೂತ	-4871
▁ಸಮಿತಿಯ	-4872
▁ಸಾಕ್ಷಿ	-4873
▁ಅನುಸರಿಸ	-4874
▁ತೆಲಂಗಾಣ	-4875
▁ಪಕ್ಷಗಳು	-4876
▁ಆತ್ಮಹತ್ಯ	-4877
▁ಹಿಂಸಾಚಾರ	-4878
▁ಆಸ್ಟ್ರೇಲಿಯ	-4879
▁ಕೇಜ್ರಿವಾಲ್	-4880
ೀಮ್	-4881
▁ಅತ	-4882
ಜಿತ್	-4883
ತ್ತೂ	-4884
▁ಯಾಜ	-4885
▁ಸುಖ	-4886
ರಲಿದೆ	-4887
ಹಿಡಿಯ	-4888
▁ಪ್ರಣ	-4889
▁ಸಂತಸ	-4890
▁ಯಂತ್ರ	-4891
▁ಸಂವಾದ	-4892
▁ಕಡಿಮೆಯ	-4893
▁ಇಮ್ರಾನ್	-4894
▁ಘಟನೆಗಳು	-4895
▁ರಾಜ್ಯಗಳ	-4896
▁ಆಶೀರ್ವಾದ	-4897
▁ಮರಣೋತ್ತರ	-4898
▁ದೇಶಾದ್ಯಂತ	-4899
▁ವಾಸ್ತವವಾಗಿ	-4900
▁ಪ್ರಶ್ನೆಗಳಿಗೆ	-4901
▁ಅಂತರರಾಷ್ಟ್ರೀಯ	-4902
ಶನ್	-4903
ೆಸ್	-4904
ೊಂದಿ	-4905
▁ಗೌಡ	-4906
▁ನೆಹ	-4907
ಣ್ಣಿನ	-4908
▁ಕೂಡಿ	-4909
▁ಸಂಜೆ	-4910
▁ಸೈಟ್	-4911
▁ಹಂತದ	-4912
ಿಂದಾಗಿ	-4913
▁ಕಾಳಜಿ	-4914
▁ನಿಯೋಜ	-4915
▁ಪುನರು	-4916
▁ಬಣ್ಣದ	-4917
▁ಬದಲಿಗೆ	-4918
▁ಸದಸ್ಯರ	-4919
ಿಕೊಂಡಿದೆ	-4920
▁ಒಪ್ಪಿಗೆ	-4921
▁ಟ್ವಿಟರ್	-4922
▁ಮುಂಬರುವ	-4923
ಿಸಿದ್ದಾನೆ	-4924
▁ಹೊಂದಿದ್ದಾರೆ	-4925
ಕಂಪ	-4926
ದೆಯ	-4927
‍ಗೆ	-4928
▁ಶೌ	-4929
ನೀವು	-4930
ರಾನ್	-4931
ೋಹರ್	-4932
▁ಗೆಲ	-4933
▁ಮಲಯ	-4934
▁ಮೋಸ	-4935
ಸ್ಥಾಪ	-4936
ಿಲ್ಲದ	-4937
▁ಗೇರ್	-4938
▁ಪತ್ನ	-4939
▁ಪರ್ಯ	-4940
▁ಸೂರ್	-4941
▁ಸೇವಾ	-4942
ಿಸಲ್ಪಡ	-4943
▁ಅಂಗಡಿ	-4944
▁ಆಯಿತು	-4945
▁ತಯಾರಿ	-4946
▁ಯೋಗ್ಯ	-4947
▁ಶಾಶ್ವ	-4948
▁ಎಂಬುದರ	-4949
▁ತುರ್ತು	-4950
▁ಮಾಡಬೇಡಿ	-4951
▁ಹ್ಯುಂಡೈ	-4952
▁ಕಾಶ್ಮೀರದ	-4953
▁ಕೆಲವೊಂದು	-4954
▁ನೈಸರ್ಗಿಕ	-4955
▁ಆರಂಭದಲ್ಲಿ	-4956
▁ತೆಗೆದುಕೊಂಡು	-4957
▁ಸಮಾರಂಭದಲ್ಲಿ	-4958
▁ಸಂದರ್ಭಗಳಲ್ಲಿ	-4959
▁ದಾಖಲಿಸಿದ್ದಾರೆ	-4960
ಹೋ	-4961
▁ಎಣ	-4962
▁ವಲ	-4963
▁ಹಳ	-4964
▁ಪರ್	-4965
▁ಶಂಕ	-4966
▁ಆಕಾಶ	-4967
▁ಕಾಲು	-4968
▁ಉಪಕರಣ	-4969
▁ಏನಿದು	-4970
▁ದೀಕ್ಷ	-4971
▁ಮುದ್ರ	-4972
ರುವುದಾಗಿ	-4973
▁ಅನುಷ್ಠಾನ	-4974
▁ಕಾರಣಕ್ಕೆ	-4975
▁ಸಿನಿಮಾಗಳ	-4976
ಸರ	-4977
ಂದಿರ	-4978
▁ನಮಗ	-4979
▁ಪದೇ	-4980
▁ಬೀರ	-4981
▁ಸ್ಯಾ	-4982
ಗಿಂತಲೂ	-4983
ದಿಂದಲೇ	-4984
▁ಆಧಾರದ	-4985
▁ಜಿಎಸ್	-4986
▁ಘಟನೆಗೆ	-4987
▁ವಿಭಾಗದ	-4988
▁ಸರಕಾರಿ	-4989
▁ಕೇಂದ್ರದ	-4990
▁ಸರ್ಕಾರವು	-4991
▁ಗ್ರಾಮಾಂತರ	-4992
ುತ್ತಿರುವುದು	-4993
▁ಭಾಷೆಗಳಲ್ಲಿ	-4994
▁m	-4995
ೇನ್	-4996
ಕ್ಟೋ	-4997
▁ಅಶ್	-4998
▁ಕೆಡ	-4999
▁ಬೇಯ	-5000
▁ಸಹಿ	-5001
ಕಿಂಗ್	-5002
▁ಕಚ್ಚ	-5003
▁ಫ್ಯಾ	-5004
▁ಬಗೆಯ	-5005
▁ಮಮತಾ	-5006
▁ಮಾಡ್	-5007
▁ಶಬ್ದ	-5008
▁ಸಿಟಿ	-5009
▁ಮಹೇಶ್	-5010
▁ಸಂಪಾದ	-5011
▁ಸೋಂಕು	-5012
▁ದೇವರಾದ	-5013
▁ನೂರಾರು	-5014
▁ಮೃತದೇಹ	-5015
▁ವಿದ್ಯಾ	-5016
▁ಡಿಜಿಟಲ್	-5017
▁ಮಾತನ್ನು	-5018
▁ತಿಳಿಸಿವೆ	-5019
▁ಮಾಡಿತ್ತು	-5020
▁ಇದರೊಂದಿಗೆ	-5021
▁M	-5022
ಸರಿ	-5023
ೂಲ್ಯ	-5024
್ಯಾಪ	-5025
▁ಉಸಿ	-5026
▁ರವೀ	-5027
್ರಹ್ಮ	-5028
▁ಅಬ್ದ	-5029
▁ಇತ್ತ	-5030
▁ಟಾಪ್	-5031
▁ಹರ್ಷ	-5032
ಬೇಕೆಂಬ	-5033
▁ಚಿಂತೆ	-5034
▁ಅಲ್ಲಿಗೆ	-5035
▁ಯೆರೂಸಲೇ	-5036
ತ್ತಿನಲ್ಲಿ	-5037
▁ಸ್ವತಂತ್ರ	-5038
ಿಸುತ್ತಿಲ್ಲ	-5039
▁ಕಾರಣವಾಗಿದೆ	-5040
▁ಪ್ರಜಾಪ್ರಭುತ್ವ	-5041
ಮೋಹ	-5042
ವಲ್	-5043
▁ಅಯ	-5044
▁ಊಹ	-5045
ವಾದಿ	-5046
ಗಾರರು	-5047
ರಾದರು	-5048
▁ಕಳೆಯ	-5049
▁ಕ್ಕೂ	-5050
▁ಬಿರು	-5051
ದಿಂದಲೂ	-5052
▁ಇಳಿಕೆ	-5053
ಿಕೊಂಡರು	-5054
▁ಗುಂಡಿನ	-5055
▁ಪ್ರಕಾಶ	-5056
▁ಪ್ರಚೋದ	-5057
▁ಉತ್ತರಿಸ	-5058
▁ತಕ್ಷಣವೇ	-5059
▁ತಡೆಗಟ್ಟ	-5060
▁ನಾಲ್ಕನೇ	-5061
ಸಾಧ್ಯವಿದೆ	-5062
▁ಶಿಕ್ಷಕರು	-5063
▁ನಾವೆಲ್ಲರೂ	-5064
▁ಪ್ರಿಯಾಂಕಾ	-5065
▁ಮಾಡುತ್ತೇವೆ	-5066
''	-5067
ಿವಾ	-5068
▁ಮಠ	-5069
ಮಿನ್	-5070
ವಿನ್	-5071
▁ತೀರ	-5072
ತ್ರಿಯ	-5073
ೋರ್ಡ್	-5074
▁ಕುರು	-5075
ಿದ್ದನು	-5076
▁ದೈಹಿಕ	-5077
▁ರನ್ನು	-5078
▁ಶಾಲೆಯ	-5079
▁ತ್ವರಿತ	-5080
ಲಿಕ್ಕಾಗಿ	-5081
▁ನ್ಯಾಷನಲ್	-5082
▁ಮಾಡಬಾರದು	-5083
▁ಸಿಕ್ಕಿದೆ	-5084
▁ಸರಣಿಯಲ್ಲಿ	-5085
21	-5086
▁B	-5087
ಮರ್	-5088
▁1:	-5089
▁ಗೀ	-5090
ಪೋಟಿ	-5091
ರಲ್ಲ	-5092
ವಾಸ್	-5093
ೊತ್ತ	-5094
▁ವಂದ	-5095
ಕೊಟ್ಟ	-5096
ಲ್ಲಿನ	-5097
▁ಮುಂದೂ	-5098
▁ಆಕರ್ಷಕ	-5099
▁ಇದನ್ನೂ	-5100
▁ಸಂದರ್ಶ	-5101
▁ಆಗಿದ್ದಾರೆ	-5102
▁ಮಾಡಲಾಯಿತು	-5103
or	-5104
ೇಕ್	-5105
ತ್ತೆ	-5106
ನೆಟ್	-5107
▁ಅಸ್ಸ	-5108
▁ತಂದು	-5109
▁ಬಿಡಿ	-5110
▁ವಸತಿ	-5111
▁ಧ್ವನಿ	-5112
▁ಬಂದಾಗ	-5113
▁ವಿಶ್ರ	-5114
▁ಸೀಮಿತ	-5115
▁ಪೈಪೋಟಿ	-5116
▁ಮಾಡಿದರೆ	-5117
▁ದೇವರನ್ನು	-5118
▁ಪಕ್ಷಕ್ಕೆ	-5119
▁ಬ್ಯಾಟ್ಸ್	-5120
▁ಸಂಸ್ಥೆಯು	-5121
▁ನ್ಯಾಯಾಲಯದ	-5122
▁ಅಭಿಮಾನಿಗಳು	-5123
▁ಆಂಡ್ರಾಯ್ಡ್	-5124
▁ಮಾಡುತ್ತೇನೆ	-5125
▁ಕೈಗೊಳ್ಳಬೇಕು	-5126
▁ಪಂದ್ಯಗಳಲ್ಲಿ	-5127
ಚರ	-5128
ಿಟ್ಟ	-5129
ಕಾರ್ಯ	-5130
ತಾತ್ಮ	-5131
ಮುಖ್ಯ	-5132
ಬಲ್ಲದು	-5133
▁ಆಸಕ್ತ	-5134
▁ಪಾವತಿ	-5135
▁ಫಾರ್ಮ	-5136
▁ಬಳಕೆಯ	-5137
▁ಪುನರಾವ	-5138
▁ಶ್ರೀನಿ	-5139
▁ಜನಸಂಖ್ಯ	-5140
▁ಯಾಕಂದರೆ	-5141
▁ಸಂಕೀರ್ಣ	-5142
▁ಪ್ರತಿಷ್ಠ	-5143
▁ಭಾಗದಲ್ಲಿ	-5144
▁ಶ್ರೀಲಂಕಾ	-5145
▁ಸ್ಥಳೀಯರು	-5146
▁ಸಂಭವಿಸಿದೆ	-5147
▁ಯೋಜನೆಯನ್ನು	-5148
ಸಂಗ	-5149
ಸೂಚ	-5150
ಾನಾ	-5151
ೇರ್	-5152
▁ಆಮ	-5153
ಎಂದು	-5154
ಲಾಗಿ	-5155
ುವಾಗ	-5156
▁ಐಟಿ	-5157
▁ಕೂಗ	-5158
ವಾದರೆ	-5159
ಾಯಿತಿ	-5160
ಿಂದಲೂ	-5161
ುವುದೇ	-5162
▁ಏಪ್ರ	-5163
▁ಒಳಗೆ	-5164
▁ಹಳ್ಳ	-5165
ರ್ಜನ್ಯ	-5166
▁ಯೋಧರು	-5167
▁ಯೋಹಾನ	-5168
▁ಸೈನ್ಯ	-5169
▁ಕೃತಜ್ಞ	-5170
▁ದೀಪಿಕಾ	-5171
▁ಪುತ್ರಿ	-5172
▁ಇರಬಹುದು	-5173
▁ಸ್ಕೂಟರ್	-5174
▁ದೌರ್ಜನ್ಯ	-5175
▁ಮತ್ತೊಬ್ಬ	-5176
▁ವಿಭಾಗದಲ್ಲಿ	-5177
▁ಅಭಿವೃದ್ಧಿಗೆ	-5178
▁ನ್ಯೂಜಿಲೆಂಡ್	-5179
▁ವ್ಯಾಪ್ತಿಯಲ್ಲಿ	-5180
ಿಲ	-5181
ಪಾಸ	-5182
ಯಿತು	-5183
ವಾನ್	-5184
▁400	-5185
▁ಬೀಸ	-5186
▁ಶರಣ	-5187
▁ಸೀತ	-5188
ಗಳಲ್ಲ	-5189
▁ಗಂಡು	-5190
▁ಜಾನ್	-5191
▁ಪ್ಲಾ	-5192
▁ವೆಂಕ	-5193
ಗಾರಿಕಾ	-5194
▁ಆಮೇಲೆ	-5195
▁ನಿರೂಪ	-5196
▁ಮೂಲಸೌ	-5197
▁ಸಂಕೇತ	-5198
▁ಇದೆಲ್ಲ	-5199
▁ಖಚಿತಪಡ	-5200
▁ಬ್ರಿಟಿ	-5201
▁ಸ್ಟೇಟ್	-5202
▁ಸ್ವರ್ಗ	-5203
▁ಸ್ವಾಮೀ	-5204
▁ದೃಷ್ಟಿಕ	-5205
▁ಹುತಾತ್ಮ	-5206
▁ಕೈಗೊಂಡಿದ್ದಾರೆ	-5207
ದಂಡ	-5208
ಂಚಿನ	-5209
ಕಾಯಿ	-5210
ಶ್ಚಯ	-5211
▁ಕುಳ	-5212
▁ಎಸೆತ	-5213
▁ತನಗೆ	-5214
▁ಇಷ್ಟು	-5215
▁ಕೆಲಸದ	-5216
▁ಜೊತೆಯ	-5217
▁ಲಂಡನ್	-5218
▁ವಹಿವಾ	-5219
ಬಂದಿಲ್ಲ	-5220
ವಾದದ್ದು	-5221
▁ಕಿರುಕು	-5222
▁ಪೂರೈಕೆ	-5223
▁ಬಾಕ್ಸ್	-5224
▁ಬೆಳ್ಳಿ	-5225
▁ಆಗಿದ್ದು	-5226
▁ವಿಶ್ಲೇಷ	-5227
▁ಮುಖ್ಯವಾಗಿ	-5228
▁ಪ್ರವಾಸಿಗರು	-5229
▁ಪರಿಸ್ಥಿತಿಯನ್ನು	-5230
.3	-5231
ಿಡ	-5232
ಪಾನ	-5233
ವೇದ	-5234
್ರಾಮ	-5235
▁ಔಟ್	-5236
▁ಟೀಕ	-5237
ಕರಾಗಿ	-5238
ಚಂದ್ರ	-5239
ಶಂಕರ್	-5240
▁ಆಶ್ರ	-5241
▁ಬಿಳಿ	-5242
▁ಮಾಡು	-5243
▁ಶುರು	-5244
▁ಹೆಚ್	-5245
ಪಿಸಿಸಿ	-5246
ಿದ್ದಳು	-5247
▁ಅಮಿತಾ	-5248
▁ಎದ್ದು	-5249
▁ಕೇಳಿದ	-5250
ಾಗಬಹುದು	-5251
▁ಒಬ್ಬರು	-5252
▁ದಿಲ್ಲಿ	-5253
▁ರಾಜಧಾನ	-5254
ದ್ದಾಗಿದೆ	-5255
▁ಸ್ತ್ರೀಯ	-5256
ವಿರುತ್ತದೆ	-5257
▁ದೇಶವನ್ನು	-5258
▁ನಂಬಿಗಸ್ತ	-5259
▁ಕರೆಯಲಾಗುತ್ತದೆ	-5260
ಕಾಂ	-5261
▁ಅದೂ	-5262
ೆಯಿದೆ	-5263
▁ಜನತೆ	-5264
▁ಸ್ಟೋ	-5265
▁ಆಕ್ಷೇಪ	-5266
▁ಬಂಧಿಸಿ	-5267
ುವುದರಿಂದ	-5268
▁ಮಟ್ಟಿಗೆ	-5269
▁ಒಳ್ಳೆಯದು	-5270
▁ಕುರಿತಾಗಿ	-5271
▁ಸಂಪ್ರದಾಯ	-5272
▁ಪ್ರಾರ್ಥನೆ	-5273
▁ಅಭ್ಯರ್ಥಿಗಳ	-5274
▁ಕುಟುಂಬಕ್ಕೆ	-5275
▁ಮಹಿಳೆಯರಿಗೆ	-5276
le	-5277
ಾವಧ	-5278
ಿಕರ	-5279
ಗುರು	-5280
ಟಿವ್	-5281
ಿರುಗ	-5282
ಲಿಕ್ಕ	-5283
▁ಆಘಾತ	-5284
▁ಪಾಯಿ	-5285
▁ಗುಪ್ತ	-5286
▁ದುಷ್ಟ	-5287
▁ದೊರೆತ	-5288
▁ಮಿತ್ರ	-5289
▁ಆದ್ಯತೆ	-5290
▁ಕ್ರೀಡೆ	-5291
▁ಕಾಲೇಜಿನ	-5292
ಿಸಿಕೊಳ್ಳಿ	-5293
▁ಬ್ಯಾನರ್ಜಿ	-5294
ಂಜ್	-5295
ರೋಪ	-5296
ಿರಾ	-5297
▁33	-5298
ಪಿಸಿ	-5299
ೇಬಲ್	-5300
▁ಆಗ್	-5301
▁ನುಡ	-5302
ಶ್ಚಿತ	-5303
▁ಕಬ್ಬ	-5304
▁ದತ್ತ	-5305
▁ಮಾತಾ	-5306
▁ಲೋಕದ	-5307
▁ವಿನಿ	-5308
▁ಶರ್ಮ	-5309
▁ಹರಿಸ	-5310
ಿಸುವರು	-5311
▁ನೋಡಿದ	-5312
▁ಭಾಷೆಯ	-5313
▁ಶ್ರದ್ಧ	-5314
▁ನೊಂದಿಗೆ	-5315
▁ನಿರ್ಲಕ್ಷ	-5316
▁ದೃಷ್ಟಿಕೋನ	-5317
▁ಜ್ಞಾನೋಕ್ತಿ	-5318
▁ಬರುವುದಿಲ್ಲ	-5319
▁ಪ್ರಧಾನಮಂತ್ರ	-5320
▁ಕರ್ನಾಟಕದಲ್ಲಿ	-5321
ಬಿರ	-5322
ಟ್ಯೂ	-5323
ಾಗಲು	-5324
ಿಯರ್	-5325
▁ಏನೆ	-5326
ಂದರ್ಯ	-5327
ಪಟ್ಟು	-5328
ರೇಷನ್	-5329
▁ಬೆಳಕ	-5330
▁ಮದ್ಯ	-5331
▁ಯಾಕೋ	-5332
▁ಸೇನೆ	-5333
▁ಅಪರೂಪ	-5334
▁ಅಬ್ದು	-5335
▁ಅಶೋಕ್	-5336
▁ಬಾಂಬ್	-5337
▁ಮೆಣಸು	-5338
▁ರಾಯಲ್	-5339
▁ಹೇಳಲು	-5340
ೊಂದನ್ನು	-5341
▁ಪರ್ಯಾಯ	-5342
▁ಬರಲಿದೆ	-5343
▁ಶಿವಸೇನೆ	-5344
▁ಮಾಡಿಕೊಂಡು	-5345
▁ಆಂಧ್ರಪ್ರದೇಶ	-5346
ಣದ	-5347
ಹನ	-5348
ರನ್	-5349
▁ಡೈ	-5350
▁ಭಗ	-5351
ಜೀವನ	-5352
ರ್ಚ್	-5353
▁ಅವಿ	-5354
▁ಛಾಯ	-5355
▁ನಮೂ	-5356
▁ಮಣಿ	-5357
ೊಬ್ಬರ	-5358
▁ನೆರವ	-5359
ಚ್ಚುಗೆ	-5360
▁ಒತ್ತು	-5361
▁ಕಟ್ಟು	-5362
ವಾಗಬಹುದು	-5363
▁ಪವಿತ್ರಾತ್ಮ	-5364
▁ದಾಖಲಾಗಿದ್ದು	-5365
▁ನೀಡಲಾಗುತ್ತದೆ	-5366
ಾಗದ	-5367
ೂಕು	-5368
▁2,	-5369
▁36	-5370
▁ತಡ	-5371
▁ಬೂ	-5372
ದಾರ್	-5373
್ಯಾಲ	-5374
▁ರಂಜ	-5375
▁ಹಾಳ	-5376
ಬ್ಬರೂ	-5377
▁ಇವರಿ	-5378
▁ಲೀಗ್	-5379
▁ಸರಕು	-5380
▁ಹೊರಟ	-5381
ಿಯನ್ಸ್	-5382
▁ಪ್ರಬಲ	-5383
▁ಮಲ್ಲಿ	-5384
▁ಮೆಟ್ರ	-5385
▁ಅವಶ್ಯಕ	-5386
▁ಕಚೇರಿಯ	-5387
▁ವಿರೋಧಿ	-5388
▁ವಾಹನಗಳು	-5389
▁ಸಲುವಾಗಿ	-5390
▁ಸಹೋದರಿಯ	-5391
ಿಸುವುದಾಗಿ	-5392
▁ವಾಗ್ದಾಳಿ	-5393
▁ಕ್ರಿಕೆಟಿಗ	-5394
▁ಮಾರ್ಗದರ್ಶನ	-5395
ೌಢ	-5396
ಮಿನ	-5397
▁ನೊ	-5398
▁ಹದ	-5399
▁ಆಮ್	-5400
ಡಿಂಗ್	-5401
ಶಾಂತ್	-5402
ುವಿಕೆ	-5403
▁ಬಾಂಧ	-5404
▁ಬೆರೆ	-5405
▁ಮಾಲಿ	-5406
▁ಕಲ್ಲು	-5407
▁ಕ್ಯಾಮ	-5408
▁ನಿಷ್ಠ	-5409
▁ಮೀಟರ್	-5410
▁ಶ್ರೇಯ	-5411
▁ಪಕ್ಷಗಳ	-5412
▁ವರಿಷ್ಠ	-5413
▁ವಿನಿಮಯ	-5414
▁ಕಿರುಕುಳ	-5415
▁ಬೆದರಿಕೆ	-5416
▁ವೇಗವಾಗಿ	-5417
▁ಸೌಂದರ್ಯ	-5418
▁ಕಂಡುಕೊಳ್ಳ	-5419
▁ಸಿಕ್ಕಿಲ್ಲ	-5420
ಂಟೆ	-5421
ತನದ	-5422
ಾಜಿ	-5423
▁90	-5424
▁ಭೌ	-5425
▁ರೊ	-5426
ಟಿವಿ	-5427
ದ್ದಿ	-5428
▁ಬಾಳ	-5429
▁ಮಾಯ	-5430
▁ಮುರ	-5431
ಚುನಾವ	-5432
ವಿಚಾರ	-5433
ೃದ್ಧಿ	-5434
▁ಅವರೂ	-5435
ದಿತ್ತು	-5436
▁ಖರೀದಿ	-5437
▁ನಿಂತು	-5438
▁ಶಿಬಿರ	-5439
ಗೊಳಿಸಿದ	-5440
ೊನಾಲ್ಡ್	-5441
▁ಅಂಬೇಡ್	-5442
▁ಇಲ್ಲದೆ	-5443
▁ಡಿಕ್ಕಿ	-5444
▁ತಪ್ಪಿತ	-5445
▁ಪರಿವರ್	-5446
▁ಒಟ್ಟಾರೆ	-5447
▁ಗೆಲುವಿನ	-5448
▁ಸೇರ್ಪಡೆ	-5449
▁ಕೆಪಿಸಿಸಿ	-5450
▁ಪರಿಶುದ್ಧ	-5451
▁ಸಿಗುತ್ತದೆ	-5452
ಂಜಿನಿಯರಿಂಗ್	-5453
10	-5454
di	-5455
ಕಥ	-5456
ಪನ್	-5457
ಲಾಕ್	-5458
▁ಕತೆ	-5459
▁ಬರೋ	-5460
▁ಸುನ	-5461
▁ಜಿಯೋ	-5462
▁ಟಾಸ್	-5463
▁ನಾಯ್	-5464
▁ಸೀಟು	-5465
▁ನಂತರದ	-5466
▁ಬಯಸುವ	-5467
▁ಸಂತ್ರ	-5468
▁ಹೊರಟು	-5469
▁ಆಫ್ರಿಕ	-5470
▁ಕಂಪ್ಯೂ	-5471
▁ಕುಳಿತು	-5472
▁ಅವರೆಲ್ಲ	-5473
▁ಕಿಂಗ್ಸ್	-5474
▁ಪಡೆದಿದೆ	-5475
▁ವಿರುದ್ದ	-5476
▁ಚುನಾವಣೆಯ	-5477
▁ನೀಡಿದ್ದು	-5478
▁ಮೆಚ್ಚುಗೆ	-5479
▁ಕ್ರೈಸ್ತರು	-5480
▁ತಿಳಿದಿಲ್ಲ	-5481
▁ಪ್ರತಿಪಕ್ಷ	-5482
▁ಮುಂದುವರೆಸ	-5483
▁ಸ್ಥಾನವನ್ನು	-5484
▁ಸ್ಥಾನಗಳನ್ನು	-5485
▁ಪ್ರಶ್ನಿಸಿದರು	-5486
ಗಮ	-5487
ಿಯರ	-5488
ಚಕ್ರ	-5489
ಸಿಸ್	-5490
▁125	-5491
▁ಪೋಲ	-5492
ರಿಲ್ಲ	-5493
ವಿತೀಯ	-5494
ಶ್ವರ್	-5495
▁ದಟ್ಟ	-5496
▁ಬೈಬಲ	-5497
▁ವಿಭಜ	-5498
ರವಣಿಗೆ	-5499
ರಿಕೊಂಡ	-5500
▁ಒಕ್ಕೂ	-5501
▁ಪ್ರೌಢ	-5502
▁ಯೇಸುವ	-5503
▁ತರುವಾಯ	-5504
▁ಪಂದ್ಯದ	-5505
▁ವಿದೇಶಿ	-5506
▁ಕೆಲಸಕ್ಕೆ	-5507
▁ಡೊನಾಲ್ಡ್	-5508
▁ಮಾಡಲಿಲ್ಲ	-5509
▁ಸುರಕ್ಷತೆ	-5510
ಗೊಳಿಸುತ್ತದೆ	-5511
▁ಮಾತನಾಡಿದರು	-5512
GB	-5513
ಸಿಐ	-5514
▁370	-5515
▁ಓಡಿ	-5516
▁ಹಣದ	-5517
ದಕ್ಕೂ	-5518
ವಾಗಲಿ	-5519
ಸನ್ನು	-5520
▁ಜೇಟ್	-5521
▁ಧವನ್	-5522
▁ರವಾನ	-5523
▁ಸವಾರ	-5524
ಾರೋಗ್ಯ	-5525
▁ಕೊಬ್ಬ	-5526
▁ಚಿತ್ತ	-5527
▁ಛತ್ತೀ	-5528
▁ವಾಪಸ್	-5529
▁ಹೊಂದು	-5530
ಿಕೆಯಿಂದ	-5531
ಿಸಬಾರದು	-5532
▁ಆಗಿದ್ದ	-5533
▁ಏನಾದರೂ	-5534
▁ಕೊರೋನಾ	-5535
▁ಮಲಯಾಳಂ	-5536
▁ಸ್ಪೀಡ್	-5537
▁ಏಪ್ರಿಲ್	-5538
▁ರಾಜನಾಥ್	-5539
▁ಕಳೆದುಕೊಳ್ಳ	-5540
▁ಪಾತ್ರವನ್ನು	-5541
▁ಖಂಡಿತವಾಗಿಯೂ	-5542
▁ರಾಜ್ಯಗಳಲ್ಲಿ	-5543
▁ತಿಳಿದುಬಂದಿದೆ	-5544
ಚಲ	-5545
▁ಿ	-5546
ಕೊಡ	-5547
▁ಲು	-5548
ಖಂಡ್	-5549
ಾದೇಶ	-5550
ಿನಲ್	-5551
▁1.5	-5552
▁ಜಗಳ	-5553
ಿತಿಗೆ	-5554
▁ಅಂತಾ	-5555
▁ಎಂದೇ	-5556
▁ಗೆಲುವ	-5557
▁ಟೂರ್ನ	-5558
▁ನಿವಾಸ	-5559
▁ಪಟ್ಟು	-5560
▁ಮಂತ್ರ	-5561
▁ವನ್ನು	-5562
▁ವರ್ಗದ	-5563
▁ವಿಷಯದ	-5564
▁ಸೀತಾರ	-5565
▁ಕಂಡಿದೆ	-5566
▁ಕಂಪೆನಿ	-5567
▁ಗುರುತು	-5568
▁ವ್ಯಾಪಕ	-5569
▁ಶೈಕ್ಷಣ	-5570
▁ಇನ್ನಿತರ	-5571
▁ಯಾವತ್ತೂ	-5572
▁ಸಿದ್ಧತೆ	-5573
▁ಸ್ಪೀಕರ್	-5574
▁ಉತ್ಪಾದನೆ	-5575
▁ಕಾಣಬಹುದು	-5576
▁ಗುಣಮಟ್ಟದ	-5577
▁ತೀವ್ರವಾಗಿ	-5578
.)	-5579
om	-5580
▁t	-5581
ಜರ್	-5582
▁ಆಕ	-5583
▁ವು	-5584
ಗಾರರ	-5585
ೆರಡು	-5586
▁ಏನೋ	-5587
▁ಕಂಗ	-5588
▁ಧಾವ	-5589
▁ನಿಕ	-5590
▁ಪಡು	-5591
ಾಚರಣೆ	-5592
▁ಚಕ್ರ	-5593
▁ನನಗೂ	-5594
▁ಬಟ್ಟ	-5595
▁ಮುಳು	-5596
▁ಯೋಗಿ	-5597
▁ಸಮೂಹ	-5598
▁ಹಾಲಿ	-5599
▁ಅನಂತರ	-5600
▁ಆಕ್ರಮ	-5601
▁ಮಸೂದೆ	-5602
▁ಇಂಡೀಸ್	-5603
▁ಲಕ್ಷ್ಮ	-5604
▁ವೈದ್ಯರ	-5605
▁ಹೆಂಡತಿ	-5606
▁ಪಾಯಿಂಟ್	-5607
▁ಸಹಜವಾಗಿ	-5608
▁ವರ್ಗಾವಣೆ	-5609
▁ತಿಂಗಳಲ್ಲಿ	-5610
▁ದಾಳಿಯಲ್ಲಿ	-5611
▁ಪರೀಕ್ಷೆಗೆ	-5612
▁ಮೂಲಸೌಕರ್ಯ	-5613
▁ಸಕಾರಾತ್ಮಕ	-5614
▁ಸೇವೆಯನ್ನು	-5615
▁ಸ್ಥಾನದಲ್ಲಿ	-5616
▁ಕಾರ್ಯಕ್ರಮಗಳು	-5617
▁ಪಡೆದುಕೊಂಡಿದೆ	-5618
ಗನ	-5619
ೇದ	-5620
ಂಬಡ	-5621
ರಿಗ	-5622
▁3,	-5623
▁ಧನ	-5624
ಕೆಟ್	-5625
▁ಕಮಿ	-5626
▁ಕುಲ	-5627
▁ಮೆಹ	-5628
▁ಶತಕ	-5629
▁ಅತಿಯ	-5630
▁ಏಷ್ಯ	-5631
ಿಸಬೇಡಿ	-5632
▁ಆನಂದ್	-5633
ಸಾಮಾನ್ಯ	-5634
ಾಗಲಿಲ್ಲ	-5635
▁ಉತ್ಸಾಹ	-5636
▁ಗೊತ್ತಾ	-5637
▁ತರಕಾರಿ	-5638
▁ಸನ್ಮಾನ	-5639
▁ಹೆಮ್ಮೆ	-5640
ಗೊಳಿಸಿದೆ	-5641
▁ಅಸ್ವಸ್ಥ	-5642
▁ವಿಷಯಗಳು	-5643
▁ದಯವಿಟ್ಟು	-5644
▁ಭಾಷೆಯಲ್ಲಿ	-5645
▁ಬಂಧಿಸಲಾಗಿದೆ	-5646
▁ವಸ್ತುಗಳನ್ನು	-5647
▁ಅಳವಡಿಸಲಾಗಿದೆ	-5648
▁ಪ್ರಶ್ನೆಗಳನ್ನು	-5649
ಗತ್ಯ	-5650
ನನಗೆ	-5651
ೃತಿಯ	-5652
▁ಜಾವ	-5653
▁ಮಲಗ	-5654
▁ಸೋಮ	-5655
▁ಅಪರಿ	-5656
▁ಕ್ಕೆ	-5657
▁ನಾವಿ	-5658
▁ಫ್ರೆ	-5659
▁ಸಂಘದ	-5660
▁ಇದ್ದು	-5661
▁ಪುಟ್ಟ	-5662
▁ಪ್ರೇಮ	-5663
▁ಮನಮೋಹ	-5664
▁ಅಮೂಲ್ಯ	-5665
▁ಡಿಗ್ರಿ	-5666
▁ನಿಶ್ಚಯ	-5667
▁ನೀಡುವುದ	-5668
▁ಮೊದಲನೆಯ	-5669
▁ರವೀಂದ್ರ	-5670
▁ಸಾಕ್ಷಿಗಳ	-5671
▁ಸಿದ್ಧಾಂತ	-5672
▁ನೀಡಲಾಗುವುದು	-5673
▁ಸಾರ್ವಜನಿಕರು	-5674
▁ನಡೆಯುತ್ತಿರುವ	-5675
ಡನ್	-5676
▁45	-5677
▁ಈತ	-5678
▁ಮಣ	-5679
ಫಿಕ್	-5680
ಬದ್ಧ	-5681
ೇಕ್ಷ	-5682
▁ಚಿದ	-5683
ನುಸಾರ	-5684
ಶ್ರೂಷ	-5685
▁ಕೇಸ್	-5686
▁ಟೀಕೆ	-5687
▁ಬ್ರೆ	-5688
▁ಮಿತಿ	-5689
▁ಯಜ್ಞ	-5690
▁ಹಗರಣ	-5691
▁ದೂರವಿ	-5692
▁ಪರ್ವತ	-5693
▁ಮೊದಲೇ	-5694
▁ಹೋಗಲು	-5695
ಗೊಂಡಿತು	-5696
ರಿಯನ್ನು	-5697
▁ಅಕ್ಷಯ್	-5698
▁ಅಸಾಧ್ಯ	-5699
▁ಮೌಲ್ಯದ	-5700
▁ಶಾಲೆಗೆ	-5701
▁ಆಗಲಿಲ್ಲ	-5702
▁ಕಣಕ್ಕಿಳ	-5703
▁ಪತ್ರಿಕೆ	-5704
▁ಪ್ರೇಕ್ಷ	-5705
▁ವಸ್ತುಗಳ	-5706
▁ವಿಟಮಿನ್	-5707
▁ಸುಧಾರಣೆ	-5708
▁ಸಂಸ್ಥೆಗಳ	-5709
▁ಸ್ವಾಮೀಜಿ	-5710
▁ಆಸ್ಪತ್ರೆಯ	-5711
▁ಕೆಲಸದಲ್ಲಿ	-5712
ಭಿವ	-5713
▁4:	-5714
ದಿರಿ	-5715
ಾಂಗಣ	-5716
▁ದಾನ	-5717
▁ಶೇಖ	-5718
ವರಾಗಿ	-5719
▁ಕ್ರೆ	-5720
▁ಲ್ಯಾ	-5721
▁ಚೀನಾದ	-5722
▁ತಳ್ಳಿ	-5723
▁ಸಂತಾಪ	-5724
▁ಉದ್ಯಾನ	-5725
▁ಠಾಣೆಗೆ	-5726
▁ಮಾರ್ಚ್	-5727
▁ಸಿಕ್ಕಿ	-5728
▁ಅದರಲ್ಲೂ	-5729
▁ಜನರಲ್ಲಿ	-5730
▁ಶೂಟಿಂಗ್	-5731
▁ಅಂಶಗಳನ್ನು	-5732
▁ನಿರಂತರವಾಗಿ	-5733
es	-5734
ೀಕ್	-5735
ೋಸ್	-5736
▁ಏಳ	-5737
▁ಶರ	-5738
ಧಾರಣ	-5739
ಬಾಲ್	-5740
▁ಅಲೆ	-5741
▁ಗಿಡ	-5742
▁ಬರಹ	-5743
▁ಬಾಧ	-5744
ಂತಿದೆ	-5745
ದಷ್ಟು	-5746
▁ಅಶ್ವ	-5747
▁ಉಷ್ಣ	-5748
▁ನಿಗದ	-5749
▁ಭರವಸ	-5750
▁ಮೆಮೊ	-5751
▁ಉಗ್ರರ	-5752
▁ನೈತಿಕ	-5753
▁ಮುಗಿಯ	-5754
ಗಳೆಂದರೆ	-5755
ರಾಗಿರುವ	-5756
▁ಇದಕ್ಕೂ	-5757
▁ಬಿದ್ದು	-5758
▁ಸೌಕರ್ಯ	-5759
ಿಯಾಗಿರುವ	-5760
▁ಸಂಶೋಧನೆ	-5761
ಿಸಿರಲಿಲ್ಲ	-5762
▁ಸಚಿವಾಲಯದ	-5763
▁ಹೆತ್ತವರು	-5764
▁ಕಾರ್ಯಕರ್ತರ	-5765
▁ಸರ್ಕಾರದಿಂದ	-5766
▁ಹೇಳುತ್ತಾನೆ	-5767
▁ನಟಿಸಿದ್ದಾರೆ	-5768
▁ನೀಡಲಾಗುತ್ತಿದೆ	-5769
ಸಮ	-5770
ಗ್ನ	-5771
ಶಾಯ	-5772
ಿಯೆ	-5773
▁ಜಮ	-5774
ಡ್ಡೆ	-5775
ರೋಧಕ	-5776
ವೇಳೆ	-5777
ಿಸ್ಮ	-5778
▁ಜರ್	-5779
▁ಹರಡ	-5780
ಕ್ಸರ್	-5781
ಾವಕಾಶ	-5782
▁ಕ್ರಿ	-5783
▁ಬಂದ್	-5784
▁ಮೂಡಿ	-5785
▁ಸಹಿತ	-5786
▁ಸ್ವಿ	-5787
▁ಅಕ್ಷರ	-5788
▁ಒಡಂಬಡ	-5789
ರಿನಲ್ಲಿ	-5790
ೊಂದಿಗಿನ	-5791
▁ಕೊನೆಗೆ	-5792
▁ಜಿಲ್ಲೆ	-5793
▁ಕ್ರಿಸ್ತ	-5794
▁ಪಂಚಾಯತ್	-5795
▁ಅಪಾಯಕಾರಿ	-5796
▁ಕತ್ತರಿಸಿ	-5797
▁ಶೈಕ್ಷಣಿಕ	-5798
▁ಅಪಘಾತದಲ್ಲಿ	-5799
▁ಕೈಗೊಂಡಿಲ್ಲ	-5800
ೈಕ	-5801
ವೀಪ	-5802
▁5:	-5803
ನಿಗೂ	-5804
ವೆಡೆ	-5805
ಷ್ಮಾ	-5806
ಾಣಿಕ	-5807
ಾವಧಿ	-5808
▁ಇಗೋ	-5809
▁ಎಂಥ	-5810
▁ಜೈಲ	-5811
▁ದ್ದ	-5812
▁ಸುಲ	-5813
ಕಟ್ಟು	-5814
ಳನ್ನು	-5815
್ಯಾಗ್	-5816
▁ಅಯ್ಯ	-5817
▁ಪೂಜೆ	-5818
▁ವಾಟ್	-5819
ಗಿತ್ತು	-5820
ತಿಯಿಂದ	-5821
ದಾಗಿದೆ	-5822
ಹೆಚ್ಪಿ	-5823
▁ಬಜಾಜ್	-5824
▁ಬಲವಾದ	-5825
▁ಬಾಲಕಿ	-5826
▁ಭೂಕಂಪ	-5827
▁ಸಿಸ್ಟ	-5828
▁ಸುಳ್ಳ	-5829
▁ಕಾಯ್ದು	-5830
▁ಬೆಳ್ಳು	-5831
▁ರಾಜ್ಯಾ	-5832
▁ಪಾಲುದಾರ	-5833
▁ಆಕೆಯನ್ನು	-5834
▁ಫ್ರಾನ್ಸ್	-5835
▁ಕಂಪ್ಯೂಟರ್	-5836
▁ಸ್ನೇಹಿತರು	-5837
▁ಮಾಡುತ್ತಿರುವ	-5838
▁ಸಾಮರ್ಥ್ಯವನ್ನು	-5839
500	-5840
▁4.	-5841
▁ಅಹಿತ	-5842
▁ಜಾಸ್	-5843
▁ತೊಳೆ	-5844
▁ಮಾಲೀ	-5845
▁ರಂದು	-5846
ಂಕಿಂಗ್	-5847
▁ಕ್ವಾರ	-5848
▁ಗ್ರಂಥ	-5849
▁ಧರ್ಮದ	-5850
▁ಮಾತಿನ	-5851
▁ಯೆಶಾಯ	-5852
▁ಅಂದಾಜು	-5853
▁ಜೇಟ್ಲಿ	-5854
ರುತ್ತಿದೆ	-5855
▁ಉಂಟುಮಾಡ	-5856
▁ಉಪಯುಕ್ತ	-5857
▁ಎಲ್ಲಿಂದ	-5858
▁ಮಾಲಿನ್ಯ	-5859
▁ಶುಶ್ರೂಷ	-5860
▁ಅನಾರೋಗ್ಯ	-5861
▁ಉಂಟಾಗಿದೆ	-5862
▁ಒಂದಾಗಿದೆ	-5863
▁ಸಂವಿಧಾನದ	-5864
ವಾಗಿದ್ದಾರೆ	-5865
▁ಅಂಬೇಡ್ಕರ್	-5866
▁ಜೀವನವನ್ನು	-5867
▁ಮುಂದುವರೆಯ	-5868
▁ಹೇಳಲಾಗಿದೆ	-5869
▁ನೇತೃತ್ವದಲ್ಲಿ	-5870
ಪಡೆ	-5871
ರವ್	-5872
ೂಪ್	-5873
▁34	-5874
▁ಕಂಬ	-5875
▁ಬರೀ	-5876
▁ಸಿಡ	-5877
▁ಸ್ಕ	-5878
ರನ್ನೂ	-5879
▁ಅಮಾನ	-5880
▁ಕಾದು	-5881
▁ಬಿಗಿ	-5882
▁ಭೂಮಿ	-5883
▁ಮೃತರ	-5884
▁ಸಜ್ಜ	-5885
▁ಇವುಗಳ	-5886
▁ತಿಳಿವ	-5887
ಲಿನಲ್ಲಿ	-5888
▁ಬಾಗಿಲು	-5889
▁ಸಂಗತಿಯ	-5890
▁ಅಧಿವೇಶನ	-5891
▁ಸಾಧ್ಯವೇ	-5892
▁ಎದುರಿಸಲು	-5893
▁ದಿನದಲ್ಲಿ	-5894
▁ಹಿನ್ನೆಲೆ	-5895
ಿರುವುದಿಲ್ಲ	-5896
▁ಇವುಗಳನ್ನು	-5897
▁ರಸ್ತೆಯಲ್ಲಿ	-5898
▁ಅಧಿಕಾರಿಗಳಿಗೆ	-5899
ಂದೆ	-5900
ಂಬುದ	-5901
ಟಿನ್	-5902
▁ಜಾಹ	-5903
▁ಮನವ	-5904
▁ರುಚ	-5905
▁ಶಿಖ	-5906
▁ಕುಂಬ	-5907
▁ನಮಗೂ	-5908
▁ಫಿಲಿ	-5909
▁ಸಾಕು	-5910
ಚಿಕಿತ್	-5911
ಪಕ್ಷೀಯ	-5912
▁ದಲ್ಲಿ	-5913
▁ಬಂಧಿತ	-5914
▁ಬಡ್ಡಿ	-5915
▁ಯುಎಸ್	-5916
▁ಸಮಾಜದ	-5917
▁ಹಾರ್ದ	-5918
▁ಅಸ್ಸಾಂ	-5919
▁ಬೇಸಿಗೆ	-5920
▁ಮುನ್ನೆ	-5921
ವಿರಲಿಲ್ಲ	-5922
▁ಅರವಿಂದ್	-5923
▁ಕುರಿತಾದ	-5924
▁ಪ್ರಗತಿಯ	-5925
ರುವುದನ್ನು	-5926
▁ಅಸ್ತಿತ್ವ	-5927
▁ಟ್ರಾನ್ಸ್	-5928
▁ಹೆದ್ದಾರಿ	-5929
▁ಇಸ್ರಾಯೇಲ್	-5930
▁ಮಾಡಲಾಗುವುದು	-5931
▁ಅಧ್ಯಕ್ಷತೆಯಲ್ಲಿ	-5932
ದೂ	-5933
▁s	-5934
ಪಾದ	-5935
▁ಪಂ	-5936
ಎಂಸಿ	-5937
ಖ್ಯಾ	-5938
ಗಿದೆ	-5939
ರಣೆಯ	-5940
ಾಮನ್	-5941
▁ಅಸಹ	-5942
▁ರ್ಯ	-5943
▁ಹಿಮ	-5944
ದೊಂದು	-5945
ರಾಜ್ಯ	-5946
ರೆಂದು	-5947
ಾನಿಲಯ	-5948
▁ಆಪ್ತ	-5949
▁ಆಳ್ವ	-5950
▁ಕುಂದ	-5951
▁ಚಿಹ್	-5952
▁ಟೆಕ್	-5953
▁ದ್ರಾ	-5954
▁ಬ್ರಾ	-5955
▁ಮಿಲಿ	-5956
ಾಂತರಿಸ	-5957
ಿಲ್ಲದೆ	-5958
▁ಆಕೆಗೆ	-5959
▁ಬಿಕ್ಕ	-5960
▁ಮಧ್ಯಮ	-5961
▁ಶೇಕಡಾ	-5962
▁ಸೆರೆಯ	-5963
▁ಸ್ವಯಂ	-5964
▁ಅಹಿತಕರ	-5965
▁ಚಿಂತನೆ	-5966
▁ತನ್ನದೇ	-5967
▁ಪ್ರಸಾರ	-5968
▁ನಿಯಮಗಳು	-5969
▁ನಿರ್ಮಲಾ	-5970
▁ಬಗ್ಗೆಯೂ	-5971
▁ಮಾಡಿಕೊಡ	-5972
▁ವಿಚಿತ್ರ	-5973
ಷ್ಠಿಯಲ್ಲಿ	-5974
▁ಚಂದ್ರಶೇಖ	-5975
▁ತಪ್ಪಿತಸ್ಥ	-5976
▁ನೀಡಲಾಯಿತು	-5977
▁ಹೆಚ್ಚಾಗಿದೆ	-5978
▁ಗಾಯಾಳುಗಳನ್ನು	-5979
▁ಮಾಡಲಾಗುತ್ತಿದೆ	-5980
-6	-5981
ಆದ	-5982
ಚೆ	-5983
ಭ್	-5984
▁c	-5985
"""	-5986
ಾರೋ	-5987
▁ರೌ	-5988
ಂಕಾರ	-5989
ಬ್ರಿ	-5990
್ಟನ್	-5991
▁ಪಿತ	-5992
▁ಅನಂತ	-5993
▁ಅವಧಿ	-5994
▁ಡ್ರೈ	-5995
▁ಬರಲು	-5996
▁ಸೆಟ್	-5997
ಕವನ್ನು	-5998
▁ಕೇಳುವ	-5999
▁ನನ್ನು	-6000
▁ಮೋಹನ್	-6001
ರಿಯಲ್ಲಿ	-6002
▁ಅಹ್ಮದ್	-6003
▁ನ್ಯೂಸ್	-6004
▁ಆದದರಿಂದ	-6005
▁ಪಂದ್ಯಗಳ	-6006
▁ಮಾಡಿದನು	-6007
▁ತನ್ನನ್ನು	-6008
▁ಮಾಡುವಂತೆ	-6009
▁ಲಕ್ಷಾಂತರ	-6010
▁ಟ್ವಿಟ್ಟರ್	-6011
▁ಇಸ್ರಾಯೇಲಿನ	-6012
▁ಉತ್ಪಾದಿಸುತ್ತದೆ	-6013
ra	-6014
ಘಟ	-6015
▁3.	-6016
▁48	-6017
▁ದೂ	-6018
ಂಟನ್	-6019
ಮಕ್ಕ	-6020
ೊಡನೆ	-6021
▁ಬಲೆ	-6022
▁ಬುಡ	-6023
▁ಯುನ	-6024
▁ಹಾಲ	-6025
▁ಜಾರ್	-6026
▁ಮರಳಿ	-6027
▁ಯುವಕ	-6028
▁ವಿಂಡ	-6029
ರೆನ್ಸ್	-6030
▁ಉತ್ಸವ	-6031
▁ಕೂದಲು	-6032
▁ಕ್ಷಮೆ	-6033
▁ಭಾರತ್	-6034
ಿದ್ದಲ್ಲಿ	-6035
▁ದ್ವಿತೀಯ	-6036
▁ಪ್ರೀಮಿಯ	-6037
▁ಹೇಳುವುದ	-6038
▁ತಮ್ಮನ್ನು	-6039
▁ನೀಡುವಂತೆ	-6040
▁ಮೋಟಾರ್ಸ್	-6041
ಿಸುವುದನ್ನು	-6042
▁ಶಾಲೆಯಲ್ಲಿ	-6043
▁ಸಾಂಪ್ರದಾಯ	-6044
▁ಪರಿಣಾಮವಾಗಿ	-6045
▁ಯೋಜನೆಗಳನ್ನು	-6046
ಡ್ಕ	-6047
ಲಾಯ	-6048
ೀದ್	-6049
▁ಐಎ	-6050
▁ದಳ	-6051
▁ಹಸ	-6052
ಗೂಡಿ	-6053
ಶ್ಯಕ	-6054
ೀಕೃತ	-6055
▁ಅನಾ	-6056
▁ಇವನ	-6057
▁ಚಳಿ	-6058
▁ಬಾಯ	-6059
▁ಸರಬ	-6060
▁ಹೊಳ	-6061
ಟ್ಟಿನ	-6062
ವಾದರೂ	-6063
▁2016	-6064
▁ಪದ್ಮ	-6065
▁ಬದಲು	-6066
▁ಬಾರ್	-6067
ಬ್ಲ್ಯು	-6068
ರಿಯಾಗಿ	-6069
▁ಗುಂಡು	-6070
▁ಪ್ಲಸ್	-6071
▁ಮೈದಾನ	-6072
▁ಯನ್ನು	-6073
▁ಯೆಹೋವ	-6074
▁ರಹಸ್ಯ	-6075
▁ಸಂಭಾವ	-6076
▁ಹೆಮ್ಮ	-6077
ರಾಗಿದ್ದ	-6078
▁ಅಭಿಯಾನ	-6079
▁ಅವಳಿಗೆ	-6080
▁ನೋಟಿಸ್	-6081
▁ಮಾಡಿತು	-6082
ೂರಿನಲ್ಲಿ	-6083
▁ಬರಲಿಲ್ಲ	-6084
▁ಶಿಕ್ಷಕರ	-6085
▁ಸಂಖ್ಯೆಯ	-6086
▁ಸ್ವರಾಜ್	-6087
▁ನಡೆದಿತ್ತು	-6088
▁ನಿರ್ದೇಶನದ	-6089
▁ಅಗಲಿದ್ದಾರೆ	-6090
ಿಸಿಕೊಳ್ಳಬೇಕು	-6091
▁ಪ್ರವಾಸೋದ್ಯಮ	-6092
▁ಮಹಾರಾಷ್ಟ್ರದ	-6093
▁ಬಳಸಲಾಗುತ್ತದೆ	-6094
▁ಹೊಂದಿರುತ್ತದೆ	-6095
▁ಸಲ್ಲಿಸಿದ್ದಾರೆ	-6096
▁v	-6097
ಖಂಡ	-6098
ರ್ಗೆ	-6099
ಲ್ಟ್	-6100
ವಂತೆ	-6101
ಹಬ್ಬ	-6102
▁ಅಗಲ	-6103
▁ಅನ್	-6104
▁ಅರೆ	-6105
▁ಒಲಿ	-6106
▁ಕಿಡ	-6107
▁ನಾಚ	-6108
ಗೊಂಡು	-6109
▁ಎಂದೆ	-6110
▁ಓಪನ್	-6111
▁ಖ್ಯಾ	-6112
▁ಗಾಗಿ	-6113
▁ಪೂರ್	-6114
ಿಂಗ್ಸ್	-6115
▁ಎನ್ಎಂ	-6116
▁ಐಸಿಸಿ	-6117
▁ಚಿದಂಬ	-6118
▁ತನಿಖಾ	-6119
▁ದಿಕ್ಕ	-6120
▁ರಷ್ಯಾ	-6121
ದಿಯಲ್ಲಿ	-6122
▁ಐಶ್ವರ್	-6123
▁ಯಶಸ್ವಿ	-6124
▁ವೀಡಿಯೊ	-6125
▁ಹರಿಯಾಣ	-6126
▁ಛತ್ತೀಸ್	-6127
▁ಬಾಂಧವ್ಯ	-6128
▁ಮಾತುಗಳು	-6129
ಿಸಬೇಕೆಂದು	-6130
▁ಆರೋಪಿಗಳು	-6131
▁ಕಾರಣವೇನು	-6132
▁ಕೈಗಾರಿಕಾ	-6133
▁ಎಚ್ಚರಿಕೆಯಿಂದ	-6134
‍‍	-6135
▁ಭು	-6136
ಟಿಎಂ	-6137
ಸಭೆಯ	-6138
ಾಂಕ್	-6139
▁ಅಮೇ	-6140
▁ಎಂಟ	-6141
▁ತದನ	-6142
ಕಾಶ್ಮ	-6143
▁ತಪಾಸ	-6144
▁ತಿಮೊ	-6145
▁ಮ್ಯೂ	-6146
▁ಯುನಿ	-6147
▁ವೇಗದ	-6148
▁ಹಿಟ್	-6149
▁ಹೀರೋ	-6150
▁ಗಳಿಸಿ	-6151
▁ತೆಗೆಯ	-6152
▁ನೆಮ್ಮ	-6153
▁ಪ್ರಾಮ	-6154
▁ಮಂಡ್ಯ	-6155
▁ವಿಳಂಬ	-6156
▁ಹೊಡೆದ	-6157
▁ಅನ್ಯಾಯ	-6158
▁ಜಾಗೃತಿ	-6159
▁ಡೇವಿಡ್	-6160
▁ತದನಂತರ	-6161
▁ತಾಲ್ಲೂ	-6162
▁ಸ್ವರೂಪ	-6163
ವಾಗುವುದು	-6164
▁ಮಿಲಿಯನ್	-6165
▁ಉತ್ಪಾದನಾ	-6166
▁ಸಮಯವನ್ನು	-6167
▁ದೇಶಗಳಲ್ಲಿ	-6168
▁ಇಲ್ಲದಿದ್ದರೆ	-6169
▁ಕೈಗೊಳ್ಳಲಾಗುವುದು	-6170
ಚು	-6171
ಘಾನ	-6172
▁ಇಟ	-6173
ಬೀರ್	-6174
ಿರಲಿ	-6175
▁ಉತ್	-6176
ನಿಮ್ಮ	-6177
ರುಗಳು	-6178
ವಾದವು	-6179
▁2017	-6180
▁ಕೊರಿ	-6181
▁ಗೋಲು	-6182
▁ನಾವೇ	-6183
್ರಾಮಿಕ	-6184
▁ಅದಕ್ಕ	-6185
▁ಚರ್ಚ್	-6186
▁ಪ್ರಜೆ	-6187
▁ಮುಗಿದ	-6188
▁ಕಲಾವಿದ	-6189
▁ಪತ್ತೆಯ	-6190
▁ಪಾಂಡ್ಯ	-6191
▁ಯಾವುದೂ	-6192
▁ಹೊಂದಾಣ	-6193
▁ಭವಿಷ್ಯದ	-6194
▁ಯಾರನ್ನೂ	-6195
▁ಸುಮ್ಮನೆ	-6196
ಿರುವುದಾಗಿ	-6197
▁ನಡೆಯುತ್ತದೆ	-6198
▁ಕ್ಷೇತ್ರದಿಂದ	-6199
▁ಚಿತ್ರಗಳನ್ನು	-6200
▁ರಾಜ್ಯಾಧ್ಯಕ್ಷ	-6201
-2	-6202
ಂಠ	-6203
▁T	-6204
ಥಾನ	-6205
ಪಾಳ	-6206
ಪೀಠ	-6207
ಸ್ಮ	-6208
▁ಮಡ	-6209
ಡ್ಸ್	-6210
ಬಿಜೆ	-6211
ಾಗನ್	-6212
▁ಚಂಡ	-6213
▁ಶೌಚ	-6214
▁ಸೋತ	-6215
▁ತೀರಾ	-6216
ಟ್ಟಿಗೆ	-6217
▁ಇರಾನ್	-6218
▁ಯಾಕೋಬ	-6219
▁ಅನಾವರಣ	-6220
▁ಆಧಾರಿತ	-6221
▁ಹಿಂಬಾಲ	-6222
ಿದ್ದರಿಂದ	-6223
▁ಸಂದರ್ಶನ	-6224
ಿಯಾಗಿದ್ದು	-6225
▁ನೀರಿನಿಂದ	-6226
▁ಇವುಗಳಲ್ಲಿ	-6227
▁ಗ್ರಾಹಕರಿಗೆ	-6228
▁ಯೆಹೋವನನ್ನು	-6229
▁ವಿವರಿಸಿದರು	-6230
it	-6231
ಮೈ	-6232
ಗಿಳ	-6233
ಡ್ತ	-6234
ಲಾಘ	-6235
ವಾಣ	-6236
▁ತೂ	-6237
▁ಲೂ	-6238
ನೀನು	-6239
▁ಎಬಿ	-6240
▁ಡಿಎ	-6241
▁ಸಕಲ	-6242
▁ತಗ್ಗ	-6243
▁ಪರಂಪ	-6244
▁ವಲಯದ	-6245
▁ವಿಧಿ	-6246
ವಿಲ್ಲದ	-6247
▁ಕೊಠಡಿ	-6248
▁ಯಲ್ಲಿ	-6249
▁ಸ್ನಾನ	-6250
▁ಹಬ್ಬದ	-6251
ಗುಣವಾಗಿ	-6252
▁ತಾಪಮಾನ	-6253
▁ಹೊಂದಿದ	-6254
▁ಶ್ರೀಮಂತ	-6255
▁ಸಂಶೋಧನಾ	-6256
ಿಸುತ್ತಿವೆ	-6257
▁ಸಲ್ಲಿಸಿದ	-6258
▁ಒಪ್ಪಿಕೊಂಡ	-6259
▁ಕಾರಿನಲ್ಲಿ	-6260
▁ನೀರಿನಲ್ಲಿ	-6261
▁ಧನ್ಯವಾದಗಳು	-6262
▁ಸಾಂಕ್ರಾಮಿಕ	-6263
▁ಮುಂದುವರಿದಿದೆ	-6264
▁ವಿತರಿಸಲಾಯಿತು	-6265
▁ಶಸ್ತ್ರಚಿಕಿತ್	-6266
▁ಕೈಗೊಳ್ಳಲಾಗಿದೆ	-6267
▁ಮಾಡಿಕೊಂಡಿದ್ದಾರೆ	-6268
ಾಹಿ	-6269
▁ವಜ	-6270
ಂದಿನ	-6271
ಲಿನ್	-6272
ವುದೆ	-6273
ಿಸದೆ	-6274
▁ಆಡಿ	-6275
▁ದಾಟ	-6276
▁ನಾಪ	-6277
▁ಮಸೀ	-6278
▁ಸೋದ	-6279
ಕುಮಾರ	-6280
್ಯಾಕ್	-6281
▁ಅನಿಸ	-6282
▁ಕೋರ್	-6283
▁ಘಟಕದ	-6284
▁ತಣ್ಣ	-6285
▁ಬಗೆಹ	-6286
▁ಬಾಬು	-6287
▁ಮೆಗಾ	-6288
▁ರಷ್ಯ	-6289
▁ಲಾಲ್	-6290
▁ಸೆಮಿ	-6291
ಟದಲ್ಲಿ	-6292
ಯಾರ್ಕ್	-6293
▁ಅಬ್ರಹ	-6294
▁ಇದನ್ನ	-6295
▁ನೆನಪು	-6296
▁ಶಂಕರ್	-6297
▁ಸಂಭಾಷ	-6298
▁ಸೆಳೆಯ	-6299
ಗೊಳ್ಳುವ	-6300
ಜ್ಞಾನಿಕ	-6301
ಿದ್ದೆವು	-6302
ಿಸಬೇಕಾದ	-6303
▁ಎದುರಾಗ	-6304
▁ಠಾಕೂರ್	-6305
▁ರುಪಾಯಿ	-6306
▁ಹುಡುಕಾ	-6307
▁ನಡೆದಿಲ್ಲ	-6308
▁ಪರಿಪೂರ್ಣ	-6309
▁ಮದುವೆಯಾಗ	-6310
▁ರಾಜ್ಯಗಳು	-6311
▁ಪುನರಾವರ್ತ	-6312
▁ಆಯ್ಕೆಯನ್ನು	-6313
▁ಪ್ರಯತ್ನಿಸಿ	-6314
ಗತ	-6315
ಝ್	-6316
ೆಗ	-6317
▁ಜೂ	-6318
▁ಹಡ	-6319
ಅವರು	-6320
ವಾಡಿ	-6321
▁ಸತತ	-6322
▁ಖಾಲಿ	-6323
▁ದುಷ್	-6324
▁ನಿಸ್	-6325
▁ಪ್ರಿ	-6326
▁ಫುಟ್	-6327
▁ಮಹಾನ	-6328
▁ಸಂವಹ	-6329
ಲಿಂಡರ್	-6330
▁ಚರ್ಮದ	-6331
▁ನಂಬರ್	-6332
▁ಬರೆದು	-6333
▁ಮಾಡಲಿ	-6334
▁ಸೂರ್ಯ	-6335
▁ಹೋದರು	-6336
▁ಆದಷ್ಟು	-6337
▁ಇಷ್ಟಪಡ	-6338
▁ನೋಂದಣಿ	-6339
▁ಪತ್ರಿಕ	-6340
▁ಹೊಡೆದು	-6341
ಬೇಕಿತ್ತು	-6342
▁ಕಾಯ್ದೆಯ	-6343
▁ನಿಮಿತ್ತ	-6344
▁ವಯಸ್ಸಿನ	-6345
ಾಗಿದ್ದಾನೆ	-6346
▁ಪರಿಣಾಮಕಾರ	-6347
▁ನೀಡುತ್ತಾರೆ	-6348
▁ವಿಶ್ವವಿದ್ಯಾನಿಲಯ	-6349
ಘು	-6350
ೋಬ	-6351
ಕುಲ	-6352
ಗೆಯ	-6353
ಬರಿ	-6354
ಶಾಲ	-6355
ೀಯಾ	-6356
ುವನ	-6357
ೃಂಗ	-6358
ಲಾರೆ	-6359
▁ಅಂಚ	-6360
▁ತ್ತ	-6361
▁ರಜೆ	-6362
▁ಹಾದ	-6363
ಲಾಗುವ	-6364
▁ನಿಷ್	-6365
▁ಬೆಳಗ	-6366
ಿಯಾಗುವ	-6367
▁ಏಷ್ಯಾ	-6368
▁ಪ್ರಾಚ	-6369
▁ಮಧ್ಯಾ	-6370
▁ರಚನೆಯ	-6371
▁ಸಾರುವ	-6372
ಜೆಡಿಎಸ್	-6373
▁ಜನತೆಗೆ	-6374
▁ತಡೆಯಲು	-6375
▁ಪಟ್ಟಣದ	-6376
▁ಬೈಬಲಿನ	-6377
▁ಸಮ್ಮೇಳ	-6378
▁ಕೈಯಲ್ಲಿ	-6379
▁ಚಿದಂಬರಂ	-6380
▁ನೀಡಲಿದೆ	-6381
▁ಮುಕ್ತಾಯ	-6382
▁ನಲ್ಲಿರುವ	-6383
▁ಮೋದಿಯವರು	-6384
ಪಡಿಸಲಾಗಿದೆ	-6385
▁ಆಗುತ್ತಿದೆ	-6386
▁ಪ್ರಶ್ನಿಸಿ	-6387
▁ಮೇಲ್ವಿಚಾರ	-6388
ುತ್ತಿದ್ದಂತೆ	-6389
▁ಅಧಿಕೃತವಾಗಿ	-6390
▁ಪ್ರಯಾಣಿಕರು	-6391
▁ಬೆಳ್ಳುಳ್ಳಿ	-6392
▁ಮಾತುಗಳನ್ನು	-6393
▁ವಿಶ್ವಸಂಸ್ಥ	-6394
▁ಸರ್ಕಾರವನ್ನು	-6395
▁ಜಾಲತಾಣಗಳಲ್ಲಿ	-6396
▁ಸಾಧ್ಯವಾಗಿಲ್ಲ	-6397
nt	-6398
ಕಳ	-6399
ಫೈ	-6400
ಭಿ	-6401
ಫರ್	-6402
ಭವಿ	-6403
ಷತ್	-6404
▁ಐದ	-6405
ಕೋಣೆ	-6406
▁ಬಿಸ	-6407
▁ರಫ್	-6408
▁ರಿಸ	-6409
▁ನಕ್ಷ	-6410
ವಾದುದು	-6411
ಾದೇಶಿಕ	-6412
ಿದ್ದಾಗ	-6413
ೇಶ್ವರ್	-6414
▁ಉಡುಪಿ	-6415
▁ಎತ್ತಿ	-6416
▁ಬನ್ನಿ	-6417
▁ಬಳಸುವ	-6418
▁ಸಮೀಪದ	-6419
ಕಾಶ್ಮೀರ	-6420
ದಲ್ಲಿಯೂ	-6421
▁ಆಗಬೇಕು	-6422
▁ಆತ್ಮಿಕ	-6423
▁ದುರ್ಬಲ	-6424
▁ನಾರಾಯಣ	-6425
▁ಪ್ರೆಸ್	-6426
▁ಮೇರೆಗೆ	-6427
ವಾಗಲಿಲ್ಲ	-6428
▁ಮನುಷ್ಯನ	-6429
▁ಪ್ರಕರಣಗಳ	-6430
▁ಸಂತ್ರಸ್ತ	-6431
▁ಸಂಬಂಧಿಸಿ	-6432
▁ಇಂಡಿಯನ್ಸ್	-6433
▁ಭಾಗಗಳಲ್ಲಿ	-6434
▁ವ್ಯವಹಾರಗಳ	-6435
▁ನಿಯಮಗಳನ್ನು	-6436
▁ಮಾದರಿಯನ್ನು	-6437
▁ಒದಗಿಸುತ್ತದೆ	-6438
▁ಸಲ್ಲಿಸಿದ್ದರು	-6439
ಪೂ	-6440
ದರ್	-6441
▁ಎಸ	-6442
▁ವೃ	-6443
ಪಿಕ್	-6444
ಲೈನ್	-6445
ವೀರ್	-6446
ೇಕರ್	-6447
▁199	-6448
▁ಕಂದ	-6449
▁ಪಲ್	-6450
▁ಮಗಳ	-6451
ಮುತ್ತ	-6452
▁ಅಂಕಿ	-6453
▁ಅತಿದ	-6454
▁ಕಾಲದ	-6455
▁ಪೋರ್	-6456
▁ಹಿಂತ	-6457
ದಾಬಾದ್	-6458
ಳಿಗ್ಗೆ	-6459
ವೆಂಬರ್	-6460
▁ಅದನ್ನ	-6461
▁ಐಫೋನ್	-6462
▁ದಾಳಿಯ	-6463
▁ದ್ವೀಪ	-6464
▁ಮೊಟ್ಟ	-6465
▁ಯೆಹೂದ	-6466
▁ಶ್ಲಾಘ	-6467
▁ಸಮಸ್ತ	-6468
▁ಅದಕ್ಕೂ	-6469
▁ತಾಲೂಕು	-6470
▁ಶಾಶ್ವತ	-6471
▁ಸಮೃದ್ಧ	-6472
▁ಸ್ವಭಾವ	-6473
▁ಇವರನ್ನು	-6474
▁ಒಟ್ಟಾಗಿ	-6475
ಟ್ಟುಕೊಳ್ಳ	-6476
▁ಸೀತಾರಾಮನ್	-6477
▁ಮಾಡಿದ್ದೇನೆ	-6478
▁ಕಾಶ್ಮೀರದಲ್ಲಿ	-6479
▁ಪ್ರತಿಯೊಬ್ಬರೂ	-6480
▁ಸ್ಪರ್ಧೆಯಲ್ಲಿ	-6481
ಘಡ	-6482
ಶೆ	-6483
ame	-6484
nad	-6485
ನಾಯ	-6486
ೀಟ್	-6487
ಗ್ಗು	-6488
ಡಿಪಿ	-6489
ಪುರ್	-6490
ರೀಶ್	-6491
ಸಿಗೆ	-6492
▁ಕಪಿ	-6493
▁ಧ್ಯ	-6494
▁ಯೋಬ	-6495
▁ಸದು	-6496
▁ಸಿಇ	-6497
▁ಎಂಟು	-6498
▁ಎದುರ	-6499
▁ಐವರು	-6500
▁ಕೃತಿ	-6501
▁ಕೇಸು	-6502
▁ಚಾಲೆ	-6503
▁ಜ್ವರ	-6504
▁ತತ್ವ	-6505
▁ದಿನೇ	-6506
▁ನಾನಾ	-6507
▁ಪಠ್ಯ	-6508
▁ರೆಡ್	-6509
▁ವೋಲ್	-6510
▁ಸಂಗಾ	-6511
ಿಸಬಲ್ಲ	-6512
▁ಆ್ಯಪ್	-6513
▁ನಾಯಕಿ	-6514
▁ಬಳಸಲು	-6515
▁ಸಿಂಧು	-6516
▁ಸೆಪ್ಟ	-6517
▁ಅಲ್ಲವೇ	-6518
▁ವೀಡಿಯೋ	-6519
▁ವ್ಯರ್ಥ	-6520
▁ಕಾರುಗಳು	-6521
▁ಬ್ಯಾಂಕು	-6522
▁ಬ್ಯಾಟರಿ	-6523
▁ಮಧ್ಯಾಹ್	-6524
▁ಮೊದಲಿಗೆ	-6525
▁ತೊಳೆಯಿರಿ	-6526
▁ದೀಕ್ಷಾಸ್	-6527
ಿಸಬೇಕಾಗಿದೆ	-6528
▁ತಿರಸ್ಕರಿಸ	-6529
▁ಪ್ರಾದೇಶಿಕ	-6530
▁ಅಗತ್ಯವಿರುವ	-6531
▁ಜಿಲ್ಲೆಗಳಲ್ಲಿ	-6532
▁ಹಂಚಿಕೊಂಡಿದ್ದಾರೆ	-6533
ಫಾ	-6534
▁D	-6535
▁E	-6536
ಜನ್	-6537
ದಂತ	-6538
ೇಜನ	-6539
▁75	-6540
▁ಇಸ	-6541
▁ದೋ	-6542
ನಿಸ್	-6543
ಿತಾಯ	-6544
▁ಅಕಾ	-6545
▁ಐಗು	-6546
ರಿಕೆಯ	-6547
ಲೀಟರ್	-6548
▁ಐಆರ್	-6549
▁ದೂರದ	-6550
▁ಶೇರ್	-6551
▁ಹತ್ಯ	-6552
ದ್ದೀನ್	-6553
▁ಎಷ್ಟೋ	-6554
▁ತುಂಡು	-6555
▁ನಡೆದು	-6556
▁ಪಾಂಡೆ	-6557
▁ಹಲವರು	-6558
▁ಹಾಕಿದ	-6559
▁ಮುಂಬೈನ	-6560
▁ಇದಾಗಿದೆ	-6561
▁ಗೆಲ್ಲುವ	-6562
▁ದಾವೀದನು	-6563
▁ನಿಶ್ಚಿತ	-6564
▁ಬೌಲಿಂಗ್	-6565
ಕ್ತಿಯನ್ನು	-6566
▁ಅಂಗೀಕರಿಸ	-6567
▁ಅತಿದೊಡ್ಡ	-6568
▁ಆಹಾರವನ್ನು	-6569
▁ಪ್ರಾಧಿಕಾರ	-6570
▁ಬೆನ್ನಲ್ಲೇ	-6571
▁ಭಾರತವನ್ನು	-6572
▁ಮುನ್ನೆಚ್ಚ	-6573
▁ಇನ್ನಿಂಗ್ಸ್	-6574
▁ದೀಕ್ಷಾಸ್ನಾನ	-6575
▁ವಾಸ್ತವದಲ್ಲಿ	-6576
▁ಸೂಚಿಸುತ್ತದೆ	-6577
▁ನಿರ್ಧಾರವನ್ನು	-6578
▁ಮುಂದುವರೆದಿದೆ	-6579
.2	-6580
ion	-6581
ಜುನ	-6582
ರಡು	-6583
ಾಜೆ	-6584
ಿರೋ	-6585
▁(1	-6586
▁ತೇ	-6587
ಟೇಜ್	-6588
ಡಿಟ್	-6589
ದಿಸಿ	-6590
▁ಧೂಮ	-6591
▁ಲವ್	-6592
▁ಸಬ್	-6593
▁2014	-6594
▁ಆರಿಸ	-6595
▁ಕರಾವ	-6596
▁ಕಾಡು	-6597
▁ಕೌಶಲ	-6598
▁ನೆರೆ	-6599
▁ಮೃದು	-6600
▁ಯುಪಿ	-6601
▁ಶೃಂಗ	-6602
▁ಆಯೋಗದ	-6603
▁ತಾಯಿಯ	-6604
▁ದೇಶಿಯ	-6605
▁ನಿದ್ರ	-6606
▁ಅದರಂತೆ	-6607
▁ಉಗ್ರರು	-6608
▁ಒಲಿಂಪಿ	-6609
▁ಚೋಪ್ರಾ	-6610
▁ಮೆಟ್ಟಿ	-6611
▁ಹಾಜರಾಗ	-6612
▁ಹೋಗಿದೆ	-6613
▁ಹೋಟೆಲ್	-6614
▁ಆಟಗಾರರು	-6615
▁ಕಿಡಿಕಾರ	-6616
▁ಮಗುವಿಗೆ	-6617
▁ಸಚಿವರಾದ	-6618
▁ಹಣಕಾಸಿನ	-6619
ಿಯಲ್ಲಿರುವ	-6620
ಿಸಿಕೊಂಡರು	-6621
▁ಇನ್ನೊಬ್ಬ	-6622
▁ಗುಣಲಕ್ಷಣ	-6623
▁ನೀಡಿತ್ತು	-6624
▁ಅಂತಿಮವಾಗಿ	-6625
▁ರಾಷ್ಟ್ರಗಳ	-6626
▁ವಿಶ್ರಾಂತಿ	-6627
ಿಕೊಳ್ಳುವುದು	-6628
▁ಗ್ರಾಮದಲ್ಲಿ	-6629
▁ಸಾಧ್ಯತೆಯಿದೆ	-6630
▁ಹಿಂಭಾಗದಲ್ಲಿ	-6631
▁ಆರೋಪಿಸಿದ್ದಾರೆ	-6632
▁ಕಾರ್ಯಕ್ರಮವನ್ನು	-6633
▁ಪಡೆಯುತ್ತಿದ್ದಾರೆ	-6634
ೇಮ	-6635
ಕನು	-6636
ದೇವ	-6637
ಾಜಾ	-6638
ೀನಾ	-6639
▁6:	-6640
nada	-6641
ಕರಾದ	-6642
ತಕ್ಕ	-6643
ನಿಲ್	-6644
ರಿಕಾ	-6645
ಾವತ್	-6646
▁ಜ್ಯ	-6647
▁ದಾಳ	-6648
▁ಪೀಡ	-6649
▁ಸೇತ	-6650
ಗರಿಗೆ	-6651
▁ಅಕ್ಕ	-6652
▁ಆಗಾಗ	-6653
▁ಬಾಲ್	-6654
annada	-6655
್ಯವಸ್ಥ	-6656
▁ಗೆಳೆಯ	-6657
▁ತರಗತಿ	-6658
▁ಬಂದರೆ	-6659
▁ವಿಲಿಯ	-6660
▁ವೆಂಕಟ	-6661
▁ಸಿಗುವ	-6662
▁ಸೈಕಲ್	-6663
ುತ್ತಾಳೆ	-6664
ುತ್ತೀರಾ	-6665
▁ಇದ್ದರೆ	-6666
▁ಚಳಿಗಾಲ	-6667
▁ದಿನಗಳು	-6668
▁ಪಾರ್ಕ್	-6669
▁ಮನೋಹರ್	-6670
▁ಮುಂದೂಡ	-6671
▁ಸುಷ್ಮಾ	-6672
ಗಳಲ್ಲಿಯೂ	-6673
▁ಪಡುಕೋಣೆ	-6674
▁ಸಿಗಲಿದೆ	-6675
▁ನಿವೃತ್ತಿ	-6676
▁ಸುದ್ದಿಗೋ	-6677
▁ಉತ್ತಮವಾಗಿ	-6678
▁ಅರ್ಜಿಯನ್ನು	-6679
▁ನ್ಯೂಯಾರ್ಕ್	-6680
▁ಪರಿಣಾಮಕಾರಿ	-6681
▁ಸಾಂಪ್ರದಾಯಿಕ	-6682
▁ಸೂಚಿಸಿದ್ದಾರೆ	-6683
ಕೌ	-6684
ಡ್ರ	-6685
ಧವ್	-6686
ನಾಗ	-6687
ಮನೆ	-6688
್ರೂ	-6689
▁ಭರ	-6690
ಗಾರ್	-6691
ಡ್ಮಿ	-6692
ತಿನ್	-6693
▁ಅಫ್	-6694
▁ಗುಡ	-6695
▁ದಳದ	-6696
▁ಕೆಜಿ	-6697
▁ಕೊಂಚ	-6698
▁ಸ್ತು	-6699
ಕಾಂಕ್ಷ	-6700
ಾರಿಗಳು	-6701
್ಯಾಕಾಶ	-6702
▁ಕೇರಳದ	-6703
▁ಬಾಲ್ಯ	-6704
▁ವಿಂಗಡ	-6705
▁ಸಂವಹನ	-6706
▁ಹಾಕುವ	-6707
ಬೇಕಾದರೆ	-6708
▁ಉಳಿತಾಯ	-6709
▁ದಾಳಿಗೆ	-6710
▁ಶೌಚಾಲಯ	-6711
ಗೊಂಡಿಲ್ಲ	-6712
▁ಉಪಚುನಾವ	-6713
▁ತೋರಿಸುವ	-6714
ಲ್ಲಿದ್ದಾರೆ	-6715
▁ಬೆಲೆಯಲ್ಲಿ	-6716
▁ಪಂದ್ಯವನ್ನು	-6717
▁ಆತ್ಮಹತ್ಯೆಗೆ	-6718
▁ಅಭಿಪ್ರಾಯಪಟ್ಟ	-6719
▁ನ್ಯಾಯಾಲಯಕ್ಕೆ	-6720
ಮಲ	-6721
ಗರ್	-6722
ಥೆಯ	-6723
ದಾಗ	-6724
ಹೀನ	-6725
ಾಜಪ	-6726
ಾಟ್	-6727
ಲೆಟ್	-6728
ಾಂಚ್	-6729
▁ಪರಾ	-6730
▁ಶತ್	-6731
ಮಾತ್ರ	-6732
ೈಟೆಡ್	-6733
ೊತ್ತಡ	-6734
▁ಆಫರ್	-6735
▁ಇದಾದ	-6736
▁ಉರಿಯ	-6737
▁ಏಕೈಕ	-6738
▁ಕೂದಲ	-6739
▁ದುರದ	-6740
ಪಡಿಸಿದ	-6741
ೊಳಗಿಂದ	-6742
▁ಟೇಬಲ್	-6743
▁ಬೆಚ್ಚ	-6744
▁ಯೋಚನೆ	-6745
▁ವಿಳಾಸ	-6746
▁ಈವರೆಗೂ	-6747
▁ಕಷ್ಟಕರ	-6748
▁ಮಂಡಳಿಯ	-6749
▁ಸೇವಿಸಿ	-6750
▁ಹಾಸಿಗೆ	-6751
▁ಮನಮೋಹನ್	-6752
▁ಸಲಹೆಗಳು	-6753
ಿನಲ್ಲಿರುವ	-6754
ುತ್ತಿದ್ದೆ	-6755
▁ಬ್ರಿಟಿಷ್	-6756
▁ಸಾಕ್ಷಿಗಳು	-6757
▁ಕರೆದುಕೊಂಡು	-6758
▁ಗ್ರಾಮಸ್ಥರು	-6759
▁ಉತ್ತರಪ್ರದೇಶ	-6760
▁ಗುರುತಿಸಲಾಗಿದೆ	-6761
):	-6762
-0	-6763
ಕಾಯ	-6764
ಟಿಯ	-6765
ಳಿನ	-6766
ಶಾಲಿ	-6767
▁ಏಕಾ	-6768
▁ತ್ರ	-6769
ದ್ದೇಶ	-6770
▁ಕೊಂದ	-6771
▁ಕೊಡಿ	-6772
▁ಗೋಡೆ	-6773
▁ಚಾರ್	-6774
▁ತರಲು	-6775
▁ತಾತ್	-6776
▁ನೀಲಿ	-6777
▁ನೆನಸ	-6778
▁ಹಾಳು	-6779
ದ್ದಾಗಿ	-6780
▁ಕಿತ್ತ	-6781
▁ಖರ್ಗೆ	-6782
▁ತಂಡವು	-6783
▁ಬಟ್ಟೆ	-6784
▁ಸದ್ದು	-6785
▁ಸರಣಿಯ	-6786
▁ಅವರಿಗೂ	-6787
▁ಕೊರೊನಾ	-6788
▁ಬಾಲಕಿಯ	-6789
▁ಮೋದಿಗೆ	-6790
▁ರಿಲೀಸ್	-6791
▁ಪ್ರಾಚೀನ	-6792
▁ಬಗೆಹರಿಸ	-6793
▁ಬುದ್ಧಿವ	-6794
▁ಬ್ರಿಟನ್	-6795
▁ಹೊಸದಾಗಿ	-6796
▁ಅಂದುಕೊಂಡ	-6797
▁ದುರದೃಷ್ಟ	-6798
▁ಪ್ರವೃತ್ತ	-6799
▁ಮಹೀಂದ್ರಾ	-6800
▁ಸಿಲಿಂಡರ್	-6801
▁ಮಂದಿಯನ್ನು	-6802
▁ಏರಿಕೆಯಾಗಿದೆ	-6803
▁ಪ್ರಶ್ನಿಸಿದ್ದಾರೆ	-6804
ಬರ	-6805
ಯೆ	-6806
ore	-6807
ಭಾಷ	-6808
▁ಟೊ	-6809
ಕಾಂಡ	-6810
ತಿಕ್	-6811
ಧ್ಯೆ	-6812
ಹಾಗೆ	-6813
ಾಜ್ಞ	-6814
ಿದವು	-6815
ಮಾಡಲು	-6816
ಷಿಕ್ತ	-6817
▁ಅವಘಡ	-6818
▁ಆಪಲ್	-6819
▁ಪುರಾ	-6820
▁ಬ್ಲೂ	-6821
▁ವಾಲ್	-6822
▁ಸಿನೆ	-6823
▁ಸಿನ್	-6824
▁ಹದಗೆ	-6825
▁ಹಿಂಸ	-6826
ಂಗ್ಟನ್	-6827
▁ಮಧುಮೇ	-6828
▁ಹಾಗಂತ	-6829
ದ್ದರಿಂದ	-6830
ನೊಂದಿಗೆ	-6831
▁ಅಲ್ಪಸಂ	-6832
▁ಇಂದಿರಾ	-6833
▁ಗುಣಮುಖ	-6834
▁ತಂದಿದೆ	-6835
▁ಮತ್ತಾಯ	-6836
▁ರಸ್ತೆಯ	-6837
▁ಅಬ್ರಹಾಮ	-6838
▁ಉತ್ತೇಜನ	-6839
▁ತಿಳಿಯಲು	-6840
▁ಶೀಘ್ರವೇ	-6841
▁ಸ್ಥಿತಿಯ	-6842
▁ಅಭಿನಂದನೆ	-6843
▁ಗೊತ್ತಿದೆ	-6844
▁ದ್ವಿಚಕ್ರ	-6845
▁ಸ್ಥಾನಮಾನ	-6846
▁ಇಂಟರ್ನೆಟ್	-6847
▁ತಿಳಿವಳಿಕೆ	-6848
▁ತೀರ್ಪನ್ನು	-6849
ಗೊಳ್ಳುತ್ತದೆ	-6850
▁ವ್ಯಕ್ತಿಗಳು	-6851
▁ನಡೆಸುತ್ತಿದೆ	-6852
ಯದ	-6853
ಂಕೆ	-6854
ಂದೇ	-6855
ವಚನ	-6856
▁1/	-6857
▁ತಳ	-6858
ಹೊಂದ	-6859
▁ಒಡೆ	-6860
ದ್ಯೋಗ	-6861
ುವುದರ	-6862
▁ಗಾಯಕ	-6863
▁ಜೂನ್	-6864
▁ಬ್ಯು	-6865
▁ರೋಗದ	-6866
▁ರೋಮಾ	-6867
▁ಲಿಂಗ	-6868
ಿಸಿದವು	-6869
▁ಅನುಮತ	-6870
▁ತಾಲೂಕ	-6871
▁ಬೆಳ್ಳ	-6872
▁ಮನರಂಜ	-6873
▁ಸ್ಮಾರ	-6874
▁ಗೊತ್ತೇ	-6875
▁ಸಂಘರ್ಷ	-6876
▁ಅವಳನ್ನು	-6877
▁ಒಂದೊಂದು	-6878
▁ಒದಗಿಸುವ	-6879
▁ಇರುತ್ತವೆ	-6880
▁ತಿಳಿದಿದೆ	-6881
▁ವಿಚಾರಣೆಗೆ	-6882
▁ಹೆಚ್ಚಿಸಲು	-6883
ವಾಗುವುದಿಲ್ಲ	-6884
▁ಆದಿತ್ಯನಾಥ್	-6885
▁ರಕ್ತದೊತ್ತಡ	-6886
▁ನಂಬಿಕೆಯನ್ನು	-6887
▁ಮಾತ್ರವಲ್ಲದೆ	-6888
.1	-6889
ಡರ	-6890
ಭಾ	-6891
್ನ	-6892
▁a	-6893
ವರಾ	-6894
ಹುತ	-6895
್ವನ	-6896
ಗ್ಗಿ	-6897
ಪಯೋಗ	-6898
ರುವೆ	-6899
ಲಾತಿ	-6900
ಾಂಶು	-6901
▁ಒಡಿ	-6902
▁ದಂತ	-6903
ಿನಂತೆ	-6904
▁ಎಣ್ಣ	-6905
▁ಔಷಧಿ	-6906
▁ಗೌರಿ	-6907
▁ಠಾಣಾ	-6908
▁ನದಿಯ	-6909
▁ಫಿಲ್	-6910
▁ಶೇಕಡ	-6911
ಸ್ತಿಗೆ	-6912
ೋದಿಲ್ಲ	-6913
▁ಆಚರಣೆ	-6914
▁ತಯಾರಕ	-6915
▁ನೇಮಕಾ	-6916
▁ಮನ್ನಾ	-6917
▁ಶಿಖರ್	-6918
▁ಸೇನೆಯ	-6919
▁ಕಾರ್ಪೊ	-6920
▁ಗಮನಿಸಿ	-6921
▁ಭರವಸೆಯ	-6922
▁ಕಾನೂನಿನ	-6923
▁ತಿಮೊಥೆಯ	-6924
▁ಸರಕಾರವು	-6925
ಕಾಂಗ್ರೆಸ್	-6926
▁ಬೆಳಿಗ್ಗೆ	-6927
▁ಹಾರ್ದಿಕ್	-6928
▁ಅವಕಾಶವನ್ನು	-6929
▁ಬಂದಿದ್ದಾರೆ	-6930
▁ಆಯ್ಕೆಗಳನ್ನು	-6931
▁ನೀಡುವುದಿಲ್ಲ	-6932
▁ಮಹಾರಾಷ್ಟ್ರದಲ್ಲಿ	-6933
ಕಮ	-6934
ಗಡ	-6935
ಖಿತ	-6936
ಾಭಿ	-6937
ೆಯಾ	-6938
ೇನೂ	-6939
▁ಒಲ	-6940
ೀಪರ್	-6941
▁ಬಿಎ	-6942
▁ಸರೋ	-6943
ವುಗಳು	-6944
▁ಅಗರ್	-6945
▁ಉದ್ಧ	-6946
▁ಕರುಣ	-6947
▁ನೋಟು	-6948
▁ಪೂರಕ	-6949
▁ಭಾಗದ	-6950
ನವನ್ನು	-6951
▁ಕಪಿಲ್	-6952
▁ತಿಳುವ	-6953
▁ಪುನರ್	-6954
▁ಪ್ರಭು	-6955
▁ಬೇಗನೆ	-6956
ಕ್ಟೋಬರ್	-6957
ಿನಿಂದಲೂ	-6958
▁ಅಂಬಾನಿ	-6959
▁ದಾಖಲಾಗ	-6960
▁ಬ್ಲಾಕ್	-6961
▁ಮುಚ್ಚಿ	-6962
▁ವಿವರಣೆ	-6963
ಭಿವೃದ್ಧಿ	-6964
▁ಕುಡಿಯಲು	-6965
▁ಕೊಟ್ಟನು	-6966
▁ತಂಡದಲ್ಲಿ	-6967
▁ದಿನಾಚರಣೆ	-6968
▁ನಿರ್ಮಾಪಕ	-6969
▁ಯುನೈಟೆಡ್	-6970
▁ಯೋಜನೆಗಳು	-6971
▁ವಲಯದಲ್ಲಿ	-6972
▁ಸಲ್ಲಿಸಲು	-6973
▁ಹೊಂದಿಲ್ಲ	-6974
▁ಮಲ್ಲಿಕಾರ್	-6975
▁ಲೇಖನದಲ್ಲಿ	-6976
▁ಸಂಬಂಧವನ್ನು	-6977
▁ಸೆಪ್ಟೆಂಬರ್	-6978
▁ಚಿತ್ರಗಳಲ್ಲಿ	-6979
▁ನಿರ್ಮಾಣಕ್ಕೆ	-6980
MP	-6981
ಷೆ	-6982
,99	-6983
ಹೇಳ	-6984
▁ಚರ	-6985
▁ನಕ	-6986
ಶ್ರೀ	-6987
ಾವಂತ	-6988
ುವರು	-6989
▁ಅಹಮ	-6990
▁ಚಿರ	-6991
▁ಜಗದ	-6992
▁ಯುಗ	-6993
▁ವೀರ	-6994
▁ಸುಧ	-6995
ವಿಂದ್	-6996
ಿದಾಯಕ	-6997
▁ಇಳಿಯ	-6998
▁ಜಿಬಿ	-6999
▁ಭುವನ	-7000
▁ವಿವೇ	-7001
▁ಕೊಂಡು	-7002
▁ಗಾಂಧೀ	-7003
▁ಬಿತ್ತ	-7004
▁ಸಲ್ಲಿ	-7005
ರೀಕ್ಷಿತ	-7006
▁ಆಗಮಿಸಿ	-7007
▁ಇದನ್ನೇ	-7008
▁ಗಳಿಸಿದ	-7009
▁ಪುರುಷರ	-7010
▁ಬೆಳಗ್ಗೆ	-7011
▁ಮಾಡಲಿದೆ	-7012
▁ಮೋದಿಯವರ	-7013
ಗೊಂಡಿತ್ತು	-7014
▁ಅಧಿಕಾರಿಯ	-7015
▁ಕ್ರೆಡಿಟ್	-7016
▁ವಸ್ತುಗಳು	-7017
ಿಯಾಗುತ್ತದೆ	-7018
▁ಬಾಹ್ಯಾಕಾಶ	-7019
▁ಮಾಡಿದ್ದೇವೆ	-7020
▁ವಿಚಾರವನ್ನು	-7021
▁ಸ್ಥಳಗಳಲ್ಲಿ	-7022
▁ಅದೃಷ್ಟವಶಾತ್	-7023
▁ಮಾಡುತ್ತಿಲ್ಲ	-7024
▁ಸಿಗುತ್ತಿಲ್ಲ	-7025
▁ಹೆಚ್ಚಿಸುತ್ತದೆ	-7026
ic	-7027
ವಳಿ	-7028
ೂಲಿ	-7029
▁Re	-7030
ಜಾನ್	-7031
▁ಆಲಿ	-7032
▁ಏರಿ	-7033
▁ಕೋರ	-7034
▁ತೋಟ	-7035
▁ಮ್ಯ	-7036
ರತ್ತು	-7037
▁ಒಗ್ಗ	-7038
▁ಟ್ರಾ	-7039
▁ಡಿಸಿ	-7040
▁ದಲಿತ	-7041
▁ಶರೀರ	-7042
▁ಸಾರಿ	-7043
▁ಸುಳಿ	-7044
▁ಸ್ಪಿ	-7045
ಸ್ಪೂನ್	-7046
▁ಅಷ್ಟೆ	-7047
▁ಒತ್ತಿ	-7048
▁ನೀತಿಯ	-7049
▁ಮೀಡಿಯ	-7050
▁ಶಿಲ್ಪ	-7051
▁ಹರಿದು	-7052
▁ಅಧ್ಯಾಯ	-7053
▁ಅನಾಹುತ	-7054
▁ಕುಸಿದು	-7055
▁ಬ್ರೇಕ್	-7056
▁ರವರೆಗೆ	-7057
▁ದತ್ತಾಂಶ	-7058
▁ನವೆಂಬರ್	-7059
▁ಪ್ರಪಂಚದ	-7060
▁ವ್ಯಾಖ್ಯ	-7061
▁ಸಾಧಿಸಲು	-7062
▁ಹೆಂಡತಿಯ	-7063
ಘಾನಿಸ್ತಾನ	-7064
▁ನೀಡುವುದು	-7065
▁ಮೆರವಣಿಗೆ	-7066
▁ಸಮಸ್ಯೆಗಳ	-7067
▁ಸಮಸ್ಯೆಗೆ	-7068
▁ಸತ್ಯವನ್ನು	-7069
▁ವರದಿಯಾಗಿದೆ	-7070
▁ಮನಸ್ಸಿನಲ್ಲಿ	-7071
▁ಬದಲಾವಣೆಗಳನ್ನು	-7072
(_	-7073
80	-7074
ತಿಥ	-7075
ಾಜನ	-7076
ಿಸದ	-7077
ೋಷ್	-7078
▁44	-7079
▁ಯಜ	-7080
ಂಬರಿ	-7081
ಾಗಳು	-7082
▁ವಂಶ	-7083
ರ್ಮನ್	-7084
▁ಅಖಿಲ	-7085
▁ಅಣ್ಣ	-7086
▁ಕಾಪಾ	-7087
▁ಗ್ಯಾ	-7088
▁ಫಾರ್	-7089
▁ಮುಂಗ	-7090
▁ಸಿಂಹ	-7091
▁ಸ್ನಾ	-7092
▁ಹಮ್ಮ	-7093
ಂನಲ್ಲಿ	-7094
ಿರಲಿದೆ	-7095
▁ಅರಿವು	-7096
▁ಕಿರಿಯ	-7097
▁ತ್ಯಾಗ	-7098
▁ಯುವತಿ	-7099
ವಿಲ್ಲದೆ	-7100
▁ಆಗಲಿದೆ	-7101
▁ಕೊಟ್ಟು	-7102
▁ಕ್ರಮಕೈ	-7103
▁ಗ್ರೂಪ್	-7104
▁ತೃಪ್ತಿ	-7105
▁ನಿತಿನ್	-7106
▁ಮಧುಮೇಹ	-7107
▁ಸ್ಮಿತ್	-7108
ಾಗುತ್ತವೆ	-7109
ೊಂದರಲ್ಲಿ	-7110
▁ಆಗಮಿಸಿದ	-7111
▁ಕಟ್ಟುನಿ	-7112
▁ಮಾಡುತ್ತ	-7113
▁ಯೋಜನೆಗೆ	-7114
▁ದೀರ್ಘಕಾಲ	-7115
▁ರೂಪದಲ್ಲಿ	-7116
▁ಸಿಗಲಿಲ್ಲ	-7117
▁ಸ್ಪಷ್ಟನೆ	-7118
▁ಹೆಚ್ಚಿದೆ	-7119
▁ಮಾರ್ಗದರ್ಶ	-7120
▁ಸಂಚಾರಕ್ಕೆ	-7121
▁ಸಲ್ಲಿಸಿದರು	-7122
▁ಹೆಸರಿನಲ್ಲಿ	-7123
▁ಪಂದ್ಯಗಳನ್ನು	-7124
▁ಮಾರುಕಟ್ಟೆಗೆ	-7125
ಿಸಬೇಕಾಗುತ್ತದೆ	-7126
ವಳು	-7127
ಶುವ	-7128
ಷಾರ	-7129
ಿಕೋ	-7130
ಿನಾ	-7131
▁65	-7132
▁ಮಳ	-7133
▁ಲಸ	-7134
▁ಷಾ	-7135
ಜೀವಿ	-7136
▁-19	-7137
▁ಬಾವ	-7138
▁ಬೈಕ	-7139
▁ಮೆಡ	-7140
▁ಸರಾ	-7141
ಮಂದಿರ	-7142
▁ಆರಾಮ	-7143
▁ಕೋರಿ	-7144
▁ಗಾಳಿ	-7145
▁ಜೇನು	-7146
ಿಕೆಗಳು	-7147
▁ಅವಮಾನ	-7148
▁ಎಂಎಸ್	-7149
▁ಕೀಪರ್	-7150
▁ಗಣನೀಯ	-7151
▁ನೆನಪಿ	-7152
▁ವಿಮೋಚ	-7153
▁ಹಿತಾಸ	-7154
ಗಳಿಗಿಂತ	-7155
ರೆಯನ್ನು	-7156
ಿದ್ದಂತೆ	-7157
ಿದ್ದೀರಾ	-7158
▁ಆಗಸ್ಟ್	-7159
▁ದುಬಾರಿ	-7160
▁ಪರಮೇಶ್	-7161
▁ಹೋಯಿತು	-7162
ಬಹುದೆಂದು	-7163
▁ಕರೆದೊಯ್ಯ	-7164
▁ಜಾರ್ಖಂಡ್	-7165
▁ವಹಿಸಬೇಕು	-7166
▁ವಿಷಯವಾಗಿ	-7167
ವಾಗಿರಲಿಲ್ಲ	-7168
▁ನಿಮ್ಮಲ್ಲಿ	-7169
▁ವಿಚಾರವಾಗಿ	-7170
▁ವಿರೋಧವಾಗಿ	-7171
▁ಸುತ್ತಮುತ್ತ	-7172
▁ಹುಟ್ಟುಹಬ್ಬ	-7173
▁ಟೂರ್ನಿಯಲ್ಲಿ	-7174
▁ಮುಂಭಾಗದಲ್ಲಿ	-7175
ಿಸುತ್ತಿದ್ದೇವೆ	-7176
ಿಸಿಕೊಳ್ಳಲಾಗಿದೆ	-7177
▁ಕಾರ್ಯಕ್ರಮಗಳನ್ನು	-7178
ಧು	-7179
ಮೋನ	-7180
ರ್ಹ	-7181
ವೆಯ	-7182
ೀತು	-7183
ೀನಿ	-7184
ೋಕೆ	-7185
ಭಾಗಿ	-7186
ರಂತೆ	-7187
ರನ್ನ	-7188
ೇರಿತ	-7189
▁ತೊಡ	-7190
▁ಸ್ತ	-7191
ಜಿಂಗ್	-7192
ಿಗಾಗಿ	-7193
▁2015	-7194
▁ನಿರು	-7195
▁ರಾಯ್	-7196
▁ವಲಸೆ	-7197
▁ಸಿಹಿ	-7198
ಕ್ಕೊಳಗ	-7199
ಡುವಂತೆ	-7200
▁ಧಾನ್ಯ	-7201
▁ಮಾತುಕ	-7202
▁ಯುವಜನ	-7203
▁ಶಿವಸೇ	-7204
ಕೊಂಡಿದೆ	-7205
ಾಂಶುಪಾಲ	-7206
▁ಅಂತರ್ಜ	-7207
▁ಐಗುಪ್ತ	-7208
▁ಓದುತ್ತ	-7209
▁ನಮ್ಮದು	-7210
▁ನಿತೀಶ್	-7211
▁ಪದ್ಧತಿ	-7212
▁ಮಂದಿಗೆ	-7213
▁ಮಹಾನಗರ	-7214
▁ವಿಗ್ರಹ	-7215
ಬೇಕಾಯಿತು	-7216
▁ಬೇಕಾದರೂ	-7217
▁ಮನೆಯಿಂದ	-7218
▁ಆಗಿದ್ದರು	-7219
▁ಕಾರ್ಯಗಳು	-7220
▁ನಿರ್ಣಾಯಕ	-7221
▁ಬಂದಿತ್ತು	-7222
▁ವಿರೋಧಿಸಿ	-7223
▁ಸಹಾಯದಿಂದ	-7224
ಿಸಿಕೊಂಡಿದೆ	-7225
▁ಕಾರ್ಮಿಕರು	-7226
▁ನೋಡಿಕೊಳ್ಳ	-7227
▁ಪಾರ್ಕಿಂಗ್	-7228
▁ವ್ಯಾಖ್ಯಾನ	-7229
▁ಹಂಚಿಕೊಳ್ಳ	-7230
▁ಅನುಗುಣವಾಗಿ	-7231
▁ಉತ್ಪಾದಿಸುವ	-7232
▁ಬಿಜೆಪಿಯವರು	-7233
▁ದಾಖಲಾಗಿತ್ತು	-7234
▁ಎನ್ನುವುದನ್ನು	-7235
ಡ್ನ	-7236
ಮೂಲ	-7237
ವಿಯ	-7238
ಾಮಾ	-7239
▁ಡು	-7240
ಎಂಕೆ	-7241
ಕಾರದ	-7242
ಡ್ಡು	-7243
ಬಿಡಿ	-7244
ಲ್ಯೂ	-7245
▁ಹೊಲ	-7246
ಬಹುದೇ	-7247
ಹೊಮ್ಮ	-7248
ಾಜಪೇಯ	-7249
ಿದೆಯೋ	-7250
ೂರಿಗೆ	-7251
▁ಅಬ್ಬ	-7252
▁ಇವನು	-7253
▁ಒಡೆಯ	-7254
▁ವಾಗ್	-7255
▁ವಾಸ್	-7256
▁ವಿಮೆ	-7257
ಬಾಕ್ಸ್	-7258
▁ಕುಳಿತ	-7259
▁ತೆರೆದ	-7260
▁ಪುರಾವ	-7261
▁ಅದನ್ನೇ	-7262
▁ಕೊರಿಂಥ	-7263
▁ಸಹೋದರಿ	-7264
▁ಸ್ಯಾಮ್	-7265
▁ಹಂಚಿಕೆ	-7266
▁ಉಳಿದಿದೆ	-7267
▁ಯಾರಾದರೂ	-7268
▁ವಹಿವಾಟು	-7269
ಿಕೊಂಡಿರುವ	-7270
▁ಇತ್ತೀಚೆಗ	-7271
▁ಕಾರಣದಿಂದ	-7272
▁ಕೆಲವರಿಗೆ	-7273
▁ಕೈಗಾರಿಕೆ	-7274
▁ಬದಲಾವಣೆಯ	-7275
▁ರಾಷ್ಟ್ರದ	-7276
▁ಸಾಧಿಸಿದೆ	-7277
▁ಪಡೆಯಬಹುದು	-7278
▁ವಾರ್ತೆಗಳು	-7279
▁ಉತ್ಪನ್ನಗಳು	-7280
▁ಭಯೋತ್ಪಾದನೆ	-7281
▁ಯಶಸ್ವಿಯಾಗಿ	-7282
▁ಹೊರತುಪಡಿಸಿ	-7283
▁ಸ್ಥಿತಿಯಲ್ಲಿ	-7284
▁ಅಂತರಾಷ್ಟ್ರೀಯ	-7285
▁ಅಭ್ಯರ್ಥಿಯಾಗಿ	-7286
▁ತಿಳಿದುಬಂದಿಲ್ಲ	-7287
▁ದಾಖಲಿಸಿಕೊಂಡಿರುವ	-7288
ಕೇ	-7289
ರಸ	-7290
ೇಣ	-7291
ಂಚು	-7292
ಗೋಳ	-7293
ಜಿಯ	-7294
ಣಾಮ	-7295
ನಿಜ	-7296
ಾದೆ	-7297
ೇತನ	-7298
್ತಾ	-7299
▁4,	-7300
ಕಲ್ಪ	-7301
ನೋವು	-7302
ನ್ಯಾ	-7303
ಭರಿತ	-7304
ಹಾರ್	-7305
▁ತಾವ	-7306
▁ಬಾಣ	-7307
▁ಮುಹ	-7308
ಸ್ಥಿರ	-7309
▁ಕುದು	-7310
▁ಗುಪ್	-7311
▁ಘಟನಾ	-7312
▁ಜುಲೈ	-7313
▁ಪುಲ್	-7314
▁ಫೀಲ್	-7315
▁ಮೇಲೂ	-7316
▁ಸಂಶಯ	-7317
▁ಸೆಕೆ	-7318
▁ಸ್ಟೆ	-7319
ಣವನ್ನು	-7320
▁ಆನಂತರ	-7321
▁ಏನಿದೆ	-7322
▁ಗ್ಯಾಲ	-7323
▁ದೀಪಕ್	-7324
▁ರಫ್ತು	-7325
▁ಲಿಖಿತ	-7326
▁ಸಾಮೂಹ	-7327
▁ಅಂತೆಯೇ	-7328
▁ಅಂದ್ರೆ	-7329
▁ಒಕ್ಕೂಟ	-7330
▁ಗ್ರಾಮದ	-7331
▁ಚಾರ್ಜ್	-7332
▁ಜಾರ್ಜ್	-7333
▁ಪೋರ್ಟ್	-7334
▁ಪ್ರಾಣಿ	-7335
▁ಮೇಲ್ಮನ	-7336
▁ಸಂಸದೀಯ	-7337
▁ಸಹಭಾಗಿ	-7338
▁ಸುನಿಲ್	-7339
▁ಹುಡುಗಿ	-7340
ರುತ್ತೇನೆ	-7341
▁ಇತರರಿಗೆ	-7342
▁ಕೈಗೆತ್ತ	-7343
▁ದರದಲ್ಲಿ	-7344
▁ದಿನದಿಂದ	-7345
▁ಪುನರುತ್	-7346
▁ಪ್ರಾಯೋಗ	-7347
▁ಮಹೇಂದ್ರ	-7348
▁ಅಕ್ಟೋಬರ್	-7349
▁ಅಭಿಷಿಕ್ತ	-7350
▁ಕಡಿಮೆಯಾಗ	-7351
▁ಬಂಧನಕ್ಕೆ	-7352
▁ಮಗುವನ್ನು	-7353
▁ಹೊರಹೊಮ್ಮ	-7354
▁ಕ್ಷೇತ್ರಗಳ	-7355
▁ನಿಧಾನವಾಗಿ	-7356
▁ವೈಜ್ಞಾನಿಕ	-7357
▁ಅಭಿವೃದ್ಧಿಯ	-7358
▁ಆರಂಭವಾಗಿದೆ	-7359
▁ಆರೋಗ್ಯಕ್ಕೆ	-7360
▁ಗಾಯಗಳಾಗಿವೆ	-7361
▁ಜಿಲ್ಲಾಡಳಿತ	-7362
▁ತಮಿಳುನಾಡಿನ	-7363
▁ನೀಡುತ್ತಿದೆ	-7364
▁ವ್ಯವಸ್ಥಾಪಕ	-7365
▁ಹೇಳಿಕೆಯನ್ನು	-7366
▁ಚಿಕಿತ್ಸೆಗಾಗಿ	-7367
▁ತೆಗೆದುಕೊಳ್ಳಿ	-7368
▁ಮಲ್ಲಿಕಾರ್ಜುನ	-7369
ಪೇ	-7370
ವೆನ	-7371
ಿಮೆ	-7372
ುದೇ	-7373
▁ಈಶ	-7374
▁ಚೊ	-7375
ಗೇಟು	-7376
ಗೊಳಗ	-7377
ಾಲೋಚ	-7378
▁ಅಯೋ	-7379
▁ಮೇಘ	-7380
▁ರೇಖ	-7381
ಲನ್ನು	-7382
ವನಲ್ಲ	-7383
ಹಳ್ಳಿ	-7384
ಾನಿಕ್	-7385
▁ಪುಣೆ	-7386
▁ಬಿಗ್	-7387
▁ಶಾರು	-7388
▁ಸ್ಪೆ	-7389
್ಮೆಂಟ್	-7390
▁ಕೊಡಲು	-7391
▁ಕ್ರಿಮ	-7392
▁ಕ್ಲಬ್	-7393
▁ತೆರಳಿ	-7394
▁ದರ್ಶನ	-7395
▁ಬೆಳಕು	-7396
▁ವರ್ಮಾ	-7397
▁ಸುಲಭವ	-7398
▁ಸೇವನೆ	-7399
ಡಿನಲ್ಲಿ	-7400
▁ಆಧರಿಸಿ	-7401
▁ಕೋರ್ಸ್	-7402
▁ಠಾಕ್ರೆ	-7403
▁ಸಹಕರಿಸ	-7404
▁ತಕ್ಕಂತೆ	-7405
▁ತಕ್ಕೊಂಡ	-7406
▁ಪ್ರತಿಫಲ	-7407
▁ಮಾತ್ರವೇ	-7408
▁ಹತ್ತಿರದ	-7409
▁ಅವುಗಳಿಗೆ	-7410
▁ಪಂಚಾಯಿತಿ	-7411
▁ವೃತ್ತಿಪರ	-7412
▁ವೋಲ್ಟೇಜ್	-7413
▁ಸಲ್ಲಿಸುವ	-7414
▁ಸ್ನೇಹಿತರ	-7415
▁ಹಣ್ಣುಗಳು	-7416
▁ಕೊನೆಯಲ್ಲಿ	-7417
▁ವರದಿಯನ್ನು	-7418
▁ವ್ಯಕ್ತಿಗಳ	-7419
▁ಇಟ್ಟುಕೊಳ್ಳ	-7420
▁ದ್ವಿಪಕ್ಷೀಯ	-7421
▁ಪ್ರಾಂಶುಪಾಲ	-7422
▁ತೋರಿಸುತ್ತದೆ	-7423
▁ಪ್ರಶಸ್ತಿಯನ್ನು	-7424
is	-7425
ಡೊ	-7426
ಫ್ರ	-7427
ಸಾಹ	-7428
ಎಂಪಿ	-7429
ಷೇಕ್	-7430
ಿಕ್ಕ	-7431
▁ದಶಕ	-7432
ಂತೆಯೂ	-7433
▁ಅಂಡ್	-7434
▁ಅನಿಲ	-7435
▁ಕೆರೆ	-7436
▁ಅಭಿವೃ	-7437
▁ಗಾಯಗಳ	-7438
▁ಜೀರ್ಣ	-7439
▁ತರಕಾರ	-7440
▁ಮೂತ್ರ	-7441
▁ವೇಳಾಪ	-7442
▁ಸಮ್ಮಿ	-7443
▁ಹೊಡೆಯ	-7444
ಗಳಿಂದಲೂ	-7445
▁ಅವುಗಳು	-7446
▁ಕ್ರಿಯೆ	-7447
▁ನಿಗದಿತ	-7448
▁ಬ್ಯಾಕ್	-7449
▁ಮಾಡಲಾಗ	-7450
▁ಮೆಮೊರಿ	-7451
▁ವಾಜಪೇಯ	-7452
▁ಸಹಕಾರಿ	-7453
▁ಸಾವಿಗೆ	-7454
▁ಹೀಗಿದೆ	-7455
▁ರಾಜಧಾನಿ	-7456
▁ವೈವಿಧ್ಯ	-7457
▁ಸದುಪಯೋಗ	-7458
▁ಸಮೀಕ್ಷೆ	-7459
▁ಸ್ವೀಕಾರ	-7460
▁ಹುಡುಕಾಟ	-7461
ಿಯಾಗಿತ್ತು	-7462
▁ಉಚಿತವಾಗಿ	-7463
▁ಎಂಬುದಾಗಿ	-7464
▁ನೋಡಬಹುದು	-7465
▁ಪ್ರತಿಪಾದ	-7466
▁ಸಿಸಿಟಿವಿ	-7467
▁ಕ್ವಾರ್ಟರ್	-7468
▁ಬೆಳವಣಿಗೆಯ	-7469
ಮುಖ್ಯಮಂತ್ರಿ	-7470
▁ನಿಯಂತ್ರಿಸಲು	-7471
▁ಬಿಜೆಪಿಯನ್ನು	-7472
▁ವ್ಯಕ್ತಿಯನ್ನು	-7473
▁ಕಾರಣವಾಗುತ್ತದೆ	-7474
▁ಸಾಧ್ಯವಾಗಲಿಲ್ಲ	-7475
!"	-7476
ಗೀ	-7477
,""	-7478
ಯುತ	-7479
▁39	-7480
▁5.	-7481
ಕೋಟಿ	-7482
ವುದೇ	-7483
ಾರೋಪ	-7484
▁ಕರೀ	-7485
▁ಚೌಕ	-7486
▁ಜಲಾ	-7487
▁ದಾಸ	-7488
▁ಪರದ	-7489
▁ಮರಾ	-7490
ಂತಿವೆ	-7491
ಂತ್ವನ	-7492
ವೊಂದು	-7493
▁ಆವರಣ	-7494
▁ಇಸ್ಲ	-7495
▁ಒಮ್ಮ	-7496
▁ಕಳವಳ	-7497
▁ಗ್ರಾ	-7498
▁ನಿಗಮ	-7499
▁ಪಡುವ	-7500
▁ಪುಷ್	-7501
▁ಫೋರ್	-7502
▁ಸೆಲೆ	-7503
▁ಹಿಂಪ	-7504
▁ಹಿಮಾ	-7505
ಬೇಕೆಂದ	-7506
ುವಲ್ಲಿ	-7507
▁ಅಕಾಡೆ	-7508
▁ಜಾಧವ್	-7509
▁ಪ್ಯಾರ	-7510
▁ಬೌಲರ್	-7511
▁ವಂಚನೆ	-7512
▁ವಿಷಾದ	-7513
▁ಸಂಸತ್	-7514
▁ಹಾರೈಸ	-7515
ವಿಶ್ವಾಸ	-7516
▁ಉಪಕ್ರಮ	-7517
▁ಪ್ಲಾಸ್	-7518
▁ಬಲಿಷ್ಠ	-7519
▁ಬ್ರಹ್ಮ	-7520
▁ಯುನಿಟ್	-7521
ಂಜಿನಿಯರ್	-7522
ವೊಂದನ್ನು	-7523
▁ಪ್ರಸಕ್ತ	-7524
▁ಮಾಡುವಾಗ	-7525
▁ಸರಬರಾಜು	-7526
▁ಸಾಂತ್ವನ	-7527
▁ತಿರುಗೇಟು	-7528
▁ಪರಿಗಣಿಸಿ	-7529
▁ಎಂದಿದ್ದರು	-7530
▁ನಿರ್ದೇಶಕರು	-7531
▁ಇಲ್ಲಿಯವರೆಗೆ	-7532
▁ಆಗ್ರಹಿಸಿದ್ದಾರೆ	-7533
ಬೂ	-7534
ವದ	-7535
ತಂಡ	-7536
ಪಲ್	-7537
ಸಂಪ	-7538
▁ತಲ	-7539
ಂಡರಿ	-7540
▁ಎಮ್	-7541
▁ಜಸ್	-7542
▁ಸಿಎ	-7543
ತ್ತೆಯ	-7544
ನಾದರೂ	-7545
ಬಿದ್ದ	-7546
ವಾಗಲು	-7547
▁ಅನುಪ	-7548
▁ಕಮಲ್	-7549
▁ಕರಣ್	-7550
▁ಬೀದಿ	-7551
▁ಮುಂಜ	-7552
▁ಉಳಿದು	-7553
▁ಎತ್ತು	-7554
▁ಎಲ್ಲೂ	-7555
▁ತೆರವು	-7556
▁ಪವಾರ್	-7557
▁ಮ್ಯಾನ	-7558
▁ಸರೋವರ	-7559
▁ಸಿಆರ್	-7560
▁ಹೃದಯದ	-7561
▁ಕಾರುಗಳ	-7562
▁ಬೆರೆಸಿ	-7563
▁ಮಹಾತ್ಮ	-7564
▁ಯಾವುದೆ	-7565
▁ಸಿನ್ಹಾ	-7566
ಿಸಬೇಕಿದೆ	-7567
▁ಇವರಲ್ಲಿ	-7568
▁ಗಮನಕ್ಕೆ	-7569
▁ದೂರವಾಣಿ	-7570
▁ದೇವಾಲಯದ	-7571
▁ನವೀಕರಿಸ	-7572
▁ನುಡಿದರು	-7573
▁ಅವಲಂಬಿಸಿ	-7574
▁ನನ್ನಲ್ಲಿ	-7575
▁ಹಿಂದಿರುಗ	-7576
▁ಆಗಿರಲಿಲ್ಲ	-7577
▁ಆಧಾರದಲ್ಲಿ	-7578
▁ಕಂಡುಹಿಡಿಯ	-7579
▁ಕಾಣುತ್ತದೆ	-7580
▁ಬೀರುತ್ತದೆ	-7581
▁ಹೋಗುತ್ತದೆ	-7582
ಿಯಾಗಿದ್ದಾನೆ	-7583
▁ಒಪ್ಪಂದಕ್ಕೆ	-7584
▁ಹೇಳುತ್ತೇನೆ	-7585
▁ಸ್ಥಾನದಲ್ಲಿದೆ	-7586
▁ಪ್ರತಿಭಟನಾಕಾರರು	-7587
ಂಡೆ	-7588
ರ್ಣ	-7589
ಾಗೋ	-7590
ಟಿಗೆ	-7591
ದೆಯೇ	-7592
ಯನೀಯ	-7593
ರಹಿತ	-7594
ರ್ತಿ	-7595
ಾಲಯದ	-7596
▁800	-7597
▁ಆಲಯ	-7598
▁ಚಕಮ	-7599
▁ದೀನ	-7600
▁ನೈಜ	-7601
▁ಮೀರ	-7602
▁ಶಮಿ	-7603
ಮಾಡಿದ	-7604
▁ಉಪ್ಪ	-7605
▁ಕ್ಷಿ	-7606
▁ಟ್ರೋ	-7607
▁ವಾಗಿ	-7608
▁ಷೇರು	-7609
ಟ್ಟಾಗಿ	-7610
▁ಆದರ್ಶ	-7611
▁ಆರೋಪದ	-7612
▁ಕಿಂಗ್	-7613
▁ಕೀರ್ತ	-7614
▁ತುತ್ತ	-7615
▁ಬಾರಿಯ	-7616
▁ಬಿಡುವ	-7617
▁ಅಮಾನತು	-7618
▁ಅಮೇರಿಕ	-7619
▁ಉದ್ಯಮಿ	-7620
▁ಗಂಗೂಲಿ	-7621
▁ಪಾರ್ಟಿ	-7622
▁ಪೂಜಾರಿ	-7623
▁ಬಂಗಾಳದ	-7624
▁ಸಂಸದರು	-7625
▁ಹೆಗ್ಗಳ	-7626
ಮ್ಯಾಟಿಕ್	-7627
ಿದೆಯೆಂದು	-7628
▁ಐಶ್ವರ್ಯ	-7629
▁ಕೇಳಿದರು	-7630
▁ಕೋವಿಂದ್	-7631
▁ಚರ್ಚೆಗೆ	-7632
▁ಯೆಹೂದ್ಯ	-7633
▁ಸಮಯಕ್ಕೆ	-7634
▁ಸಮಸ್ಯೆಯ	-7635
▁ಕೊಂಡೊಯ್ಯ	-7636
▁ಬಿಹೆಚ್ಪಿ	-7637
▁ವಿದ್ಯಮಾನ	-7638
▁ವಿಮಾನಯಾನ	-7639
▁ಸರಳವಾಗಿದೆ	-7640
▁ಹಾಗಿದ್ದರೂ	-7641
▁ಉದಾಹರಣೆಗಳು	-7642
▁b	-7643
ರೆಸ	-7644
ಾಕೂ	-7645
▁42	-7646
▁ಆಭ	-7647
▁ರಮ	-7648
ಡಿಯು	-7649
ಪ್ಪಾ	-7650
ಪ್ರಸ	-7651
ಪ್ಸ್	-7652
ರೋಪ್	-7653
ವೆಲ್	-7654
ವ್ಯಾ	-7655
▁ಅಂಜ	-7656
▁ಎಕ್	-7657
▁ಕೋಶ	-7658
▁ಬೆರ	-7659
▁ಮಗನ	-7660
▁ಶೈಲ	-7661
▁ಸುಬ	-7662
ವರಿಂದ	-7663
ಿಸ್ತು	-7664
▁ಪ್ರಜ	-7665
▁ಫೋಟೊ	-7666
▁ಶೈಲಿ	-7667
▁ಸಾಲು	-7668
ಗೋಪಾಲ್	-7669
ಬಿಜೆಪಿ	-7670
ವಿದ್ದು	-7671
▁ಆಗಿವೆ	-7672
▁ನೆಲೆಸ	-7673
▁ಶ್ರೀರ	-7674
▁ಸಂಹಿತ	-7675
▁ಸೆಮಿಫ	-7676
ಗೊಂಡಿವೆ	-7677
ಡಿಯನ್ನು	-7678
▁ಇಂಗ್ಲೀ	-7679
▁ಉತ್ತರಾ	-7680
▁ಕಿತ್ತು	-7681
▁ಗುಪ್ತಾ	-7682
▁ಜಾಸ್ತಿ	-7683
▁ನಾಯ್ಡು	-7684
▁ಪ್ರಜ್ಞ	-7685
▁ಮುಂಭಾಗ	-7686
▁ಮ್ಯಾನು	-7687
▁ಅಭಿಷೇಕ್	-7688
▁ಎಲ್ಲಿಯೂ	-7689
▁ಎಸ್ಯುವಿ	-7690
▁ಬರುವುದು	-7691
▁ಸರಿಯಲ್ಲ	-7692
ವಾಗುತ್ತವೆ	-7693
ಿಕೆಯಾಗಿದೆ	-7694
▁ಅಷ್ಟಕ್ಕೂ	-7695
▁ಕಂಪನಿಗಳು	-7696
▁ವಿಸ್ತರಣೆ	-7697
▁ಹೇಳಬಹುದು	-7698
ಪಡಿಸುತ್ತದೆ	-7699
ಿರುವುದರಿಂದ	-7700
▁ಅಭಿಮಾನಿಗಳ	-7701
▁ಪ್ರಾಮಾಣಿಕ	-7702
▁ಭಯೋತ್ಪಾದಕ	-7703
▁ಚಿಕಿತ್ಸೆಗೆ	-7704
▁ಪ್ರಮಾಣಪತ್ರ	-7705
▁ಮಾಡಲಿದ್ದಾರೆ	-7706
ೋಲ	-7707
ಂಧಿ	-7708
ಐಟಿ	-7709
ಕರೆ	-7710
ಗುಲ	-7711
ಾರೂ	-7712
ಾವರ	-7713
▁ಯಥ	-7714
ವಾಹಕ	-7715
ಹಾರಿ	-7716
▁ಭವನ	-7717
▁ರಾಣ	-7718
▁ವರು	-7719
▁ಸಂಜ	-7720
▁ಸಭಾ	-7721
ಾಗ್ರಹ	-7722
▁ಟ್ರಿ	-7723
▁ದೇವ್	-7724
ಂಜರ್ಸ್	-7725
▁ಬೌದ್ಧ	-7726
▁ಮಾನವನ	-7727
ನಿರ್ದೇಶ	-7728
▁ಕನ್ನಡಿ	-7729
▁ಗಣ್ಯರು	-7730
▁ಮರುದಿನ	-7731
▁ರಾಜೇಶ್	-7732
▁ವಿಜೇತರ	-7733
▁ಸುಟ್ಟು	-7734
ಲಿದ್ದೇವೆ	-7735
ವಾಗುವಂತೆ	-7736
▁ಬೆಳಕಿಗೆ	-7737
▁ವಿಪತ್ತು	-7738
▁ಸಂಬಂಧಿತ	-7739
▁ಸಮುದಾಯದ	-7740
▁ಸಾಕ್ಷ್ಯ	-7741
ವೊಂದರಲ್ಲಿ	-7742
▁ಅನುಕೂಲಕರ	-7743
▁ಅಷ್ಟೊಂದು	-7744
▁ಗ್ರಾಹಕರು	-7745
▁ನಡೆಸಬೇಕು	-7746
▁ಪ್ರಾಂತ್ಯ	-7747
▁ಬದಲಾಗಿದೆ	-7748
▁ಸೇರ್ಪಡೆಯ	-7749
▁ಪದಾಧಿಕಾರಿ	-7750
▁ಭಾಗವಹಿಸುವ	-7751
▁ಒಪ್ಪಿಕೊಳ್ಳ	-7752
▁ಲೋಕಸಭೆಯಲ್ಲಿ	-7753
30	-7754
ಶೈ	-7755
ಸದ	-7756
ತಾರ	-7757
ನಾಶ	-7758
ಬೀಳ	-7759
ಯೆಹ	-7760
ರಣಿ	-7761
ತೆಯೂ	-7762
ಾಮುಖ	-7763
ಿಸಲೇ	-7764
▁ಆಕ್	-7765
▁ಉರು	-7766
▁ಏನ್	-7767
▁ಗಲಾ	-7768
ಕರ್ಮಿ	-7769
ಕಾಂತ್	-7770
ಧಾರಿತ	-7771
ನಿನ್ನ	-7772
ಿತಿಯು	-7773
▁ಅಧೀನ	-7774
▁ಅಸ್ತ	-7775
▁ಕಿಲೋ	-7776
▁ಜನರೇ	-7777
▁ಡ್ಯು	-7778
▁ತೆಂಗ	-7779
▁ಹಳದಿ	-7780
ನೆಯಿಂದ	-7781
▁ಉಮೇಶ್	-7782
▁ಎದುರಾ	-7783
▁ದೂರಿನ	-7784
▁ನೇಪಾಳ	-7785
▁ಪಡೆದಿ	-7786
▁ಸೆನ್ಸ	-7787
▁ಹೋರಾಡ	-7788
ವಾಗಬೇಕು	-7789
▁ಈಶಾನ್ಯ	-7790
▁ಚೇತರಿಸ	-7791
▁ಬುದ್ಧಿ	-7792
▁ಮಾತಿಗೆ	-7793
▁ವೇಳೆಗೆ	-7794
▁ಸ್ಕೂಲ್	-7795
ಾಗಿದ್ದವು	-7796
▁ಎಲ್ಲೆಡೆ	-7797
▁ಒಂದೆರಡು	-7798
▁ಕೊಡಬೇಕು	-7799
▁ನೇಮಕಾತಿ	-7800
▁ಪಕ್ಷೇತರ	-7801
▁ಭಾಗವಾಗಿ	-7802
▁ಸಹೋದರರು	-7803
▁ಸಾಮೂಹಿಕ	-7804
▁ಮುಖಂಡರಾದ	-7805
▁ಸಮ್ಮಿಶ್ರ	-7806
▁ಸ್ಕ್ರೀನ್	-7807
▁ನಡೆಯಲಿರುವ	-7808
▁ಮೊದಲಾದವರು	-7809
▁ಶ್ರೀನಿವಾಸ	-7810
▁ಆರೋಪಿಸಿದರು	-7811
▁ಮಳೆಯಿಂದಾಗಿ	-7812
▁ಸಂದೇಶವನ್ನು	-7813
▁ದಾಖಲೆಗಳನ್ನು	-7814
▁ನಡೆಯುತ್ತಿವೆ	-7815
12	-7816
il	-7817
▁p	-7818
ಮೆಣ	-7819
ಲಾಂ	-7820
▁ಅಣ	-7821
▁ನಯ	-7822
ಗಿರಿ	-7823
ವೇನೂ	-7824
ಾರ್ಪ	-7825
▁ತೇಜ	-7826
▁ನಾಲ	-7827
▁ಪರವ	-7828
ಗಿದ್ದ	-7829
ದಾರರು	-7830
ಬಲ್ಲಿ	-7831
ಲೀಸರು	-7832
ವರಲ್ಲ	-7833
ಿದ್ದೇ	-7834
ುತ್ತರ	-7835
ೂರಾವ್	-7836
▁ಆಮದು	-7837
▁ಕಾಲ್	-7838
▁ಗೇಮ್	-7839
▁ಜನತಾ	-7840
▁ಮುನ್	-7841
▁ಮುಷ್	-7842
▁ಮೇಲು	-7843
▁ಸಾಬೀ	-7844
ಪರಿಣಾಮ	-7845
ೆಯನ್ನೂ	-7846
▁ಆಶ್ರಯ	-7847
▁ಏರ್ಪಡ	-7848
▁ತಲೆಕೆ	-7849
▁ನಾಗರಿ	-7850
▁ನಿಲುವ	-7851
▁ನೆರೆಯ	-7852
▁ಸ್ವಾಮ	-7853
▁ಉಸಿರಾಟ	-7854
▁ಎಐಸಿಸಿ	-7855
▁ಸಂಚಾರಿ	-7856
▁ಹೀಗಿವೆ	-7857
ನ್ನೆಲ್ಲಾ	-7858
▁ಸಂಯುಕ್ತ	-7859
ದಲ್ಲಿದ್ದು	-7860
ಾಗಿದ್ದೇನೆ	-7861
▁ನೀಡಲಿಲ್ಲ	-7862
▁ಭಾರತೀಯರು	-7863
▁ಮಾತನಾಡುವ	-7864
▁ಹುದ್ದೆಗೆ	-7865
ಿಸುವುದಕ್ಕೆ	-7866
▁	-7867
್	-7868
ಿ	-7869
ರ	-7870
ು	-7871
ದ	-7872
ಾ	-7873
ನ	-7874
ೆ	-7875
ತ	-7876
ಲ	-7877
ಕ	-7878
ವ	-7879
ಗ	-7880
ಸ	-7881
ಯ	-7882
ಮ	-7883
ಂ	-7884
.	-7885
ಪ	-7886
ಳ	-7887
ಡ	-7888
ಬ	-7889
ೇ	-7890
ಹ	-7891
ಟ	-7892
ಅ	-7893
ೂ	-7894
ೀ	-7895
ೊ	-7896
ಜ	-7897
ೋ	-7898
ಚ	-7899
ಶ	-7900
ಇ	-7901
ಆ	-7902
ಣ	-7903
ಷ	-7904
ಎ	-7905
,	-7906
ಧ	-7907
ಭ	-7908
ಥ	-7909
ೈ	-7910
ಈ	-7911
ಖ	-7912
ಉ	-7913
ಒ	-7914
?	-7915
0	-7916
1	-7917
ಫ	-7918
ೃ	-7919
"	-7920
:	-7921
2	-7922
ಏ	-7923
ೌ	-7924
-	-7925
ಘ	-7926
5	-7927
(	-7928
)	-7929
3	-7930
ಐ	-7931
ಠ	-7932
’	-7933
4	-7934
‘	-7935
9	-7936
6	-7937
'	-7938
8	-7939
7	-7940
“	-7941
!	-7942
”	-7943
ಞ	-7944
ಓ	-7945
‍	-7946
a	-7947
e	-7948
o	-7949
i	-7950
n	-7951
s	-7952
ಛ	-7953
r	-7954
/	-7955
t	-7956
—	-7957
ಢ	-7958
ಃ	-7959
m	-7960
⁠	-7961
–	-7962
ಊ	-7963
l	-7964
d	-7965
ಔ	-7966
S	-7967
I	-7968
[	-7969
]	-7970
ಝ	-7971
A	-7972
h	-7973
P	-7974
C	-7975
c	-7976
u	-7977
M	-7978
R	-7979
%	-7980
p	-7981
N	-7982
_	-7983
B	-7984
­	-7985
G	-7986
D	-7987
`	-7988
g	-7989
|	-7990
T	-7991
H	-7992
b	-7993
E	-7994
v	-7995
