<pad>	0
<unk>	0
<s>	0
</s>	0
▁t	-0
he	-1
▁a	-2
in	-3
re	-4
▁the	-5
on	-6
er	-7
is	-8
▁s	-9
at	-10
▁w	-11
nd	-12
en	-13
▁o	-14
ed	-15
▁c	-16
es	-17
it	-18
an	-19
▁p	-20
▁b	-21
▁f	-22
ar	-23
or	-24
▁h	-25
▁T	-26
as	-27
al	-28
ou	-29
▁in	-30
ing	-31
▁d	-32
▁of	-33
▁to	-34
▁m	-35
▁and	-36
ic	-37
ion	-38
il	-39
▁I	-40
▁S	-41
le	-42
▁The	-43
▁is	-44
▁th	-45
ent	-46
▁n	-47
om	-48
▁be	-49
ot	-50
▁A	-51
id	-52
ve	-53
▁re	-54
▁B	-55
▁M	-56
▁l	-57
ad	-58
st	-59
▁C	-60
ct	-61
ol	-62
▁g	-63
▁e	-64
am	-65
▁P	-66
▁H	-67
ver	-68
ut	-69
ow	-70
ur	-71
im	-72
et	-73
▁W	-74
ro	-75
ay	-76
el	-77
▁for	-78
ir	-79
ist	-80
▁on	-81
▁R	-82
us	-83
ation	-84
▁he	-85
▁st	-86
ill	-87
ly	-88
ak	-89
od	-90
▁ha	-91
▁al	-92
▁are	-93
ra	-94
ce	-95
res	-96
▁was	-97
ch	-98
ig	-99
▁D	-100
▁y	-101
ere	-102
▁that	-103
▁K	-104
▁has	-105
ers	-106
▁N	-107
▁not	-108
▁G	-109
ul	-110
▁it	-111
ment	-112
ith	-113
▁an	-114
▁you	-115
her	-116
un	-117
ri	-118
hat	-119
est	-120
▁have	-121
ld	-122
and	-123
os	-124
ia	-125
▁con	-126
pp	-127
▁with	-128
▁J	-129
▁de	-130
▁this	-131
""	-132
nt	-133
▁will	-134
if	-135
▁Ind	-136
th	-137
ain	-138
▁as	-139
▁at	-140
▁1	-141
op	-142
ice	-143
▁It	-144
ate	-145
▁com	-146
ag	-147
hi	-148
um	-149
▁ne	-150
▁Th	-151
▁se	-152
▁sh	-153
▁pro	-154
▁F	-155
▁v	-156
ter	-157
▁sa	-158
ab	-159
art	-160
▁L	-161
▁by	-162
ho	-163
▁go	-164
▁He	-165
rom	-166
se	-167
ess	-168
ort	-169
ong	-170
ies	-171
▁been	-172
▁E	-173
▁k	-174
ant	-175
ht	-176
▁do	-177
ore	-178
ac	-179
▁r	-180
our	-181
ah	-182
pe	-183
ity	-184
▁su	-185
ould	-186
▁ex	-187
em	-188
▁But	-189
▁said	-190
▁were	-191
so	-192
qu	-193
iv	-194
▁This	-195
▁le	-196
▁from	-197
ud	-198
▁2	-199
▁O	-200
▁wor	-201
▁ch	-202
up	-203
inist	-204
ress	-205
ction	-206
▁India	-207
are	-208
ard	-209
▁his	-210
▁all	-211
▁also	-212
ive	-213
▁pol	-214
ure	-215
all	-216
ust	-217
ime	-218
ome	-219
one	-220
cc	-221
ial	-222
▁we	-223
ok	-224
▁no	-225
▁Y	-226
ang	-227
▁What	-228
ian	-229
▁V	-230
▁can	-231
inister	-232
ight	-233
very	-234
▁or	-235
▁(	-236
ry	-237
ase	-238
vern	-239
ous	-240
▁ag	-241
ident	-242
ind	-243
ther	-244
▁pl	-245
▁lo	-246
▁There	-247
▁had	-248
ated	-249
▁Ch	-250
▁U	-251
▁ab	-252
out	-253
▁me	-254
ire	-255
av	-256
ric	-257
ap	-258
▁j	-259
▁How	-260
vernment	-261
▁inc	-262
ep	-263
▁wh	-264
▁res	-265
▁pe	-266
▁so	-267
JP	-268
ef	-269
ik	-270
▁us	-271
▁We	-272
▁Pr	-273
▁BJP	-274
▁In	-275
ake	-276
▁Sh	-277
pl	-278
▁their	-279
ast	-280
▁im	-281
▁them	-282
ople	-283
ell	-284
▁ar	-285
ff	-286
▁sp	-287
ble	-288
und	-289
ide	-290
▁man	-291
aj	-292
▁Minister	-293
ost	-294
▁your	-295
▁they	-296
00	-297
ue	-298
▁part	-299
ew	-300
▁fil	-301
ame	-302
wo	-303
ater	-304
▁up	-305
age	-306
▁They	-307
▁police	-308
ple	-309
ount	-310
"""	-311
▁un	-312
▁ad	-313
▁off	-314
▁reg	-315
▁one	-316
▁int	-317
▁government	-318
ult	-319
▁should	-320
oug	-321
ary	-322
▁dis	-323
ge	-324
ever	-325
ine	-326
▁people	-327
ild	-328
▁St	-329
ered	-330
ish	-331
▁pr	-332
▁other	-333
port	-334
▁again	-335
▁who	-336
ays	-337
ect	-338
▁out	-339
▁tr	-340
now	-341
▁en	-342
▁there	-343
ongress	-344
ail	-345
."	-346
ans	-347
▁cont	-348
hen	-349
end	-350
ach	-351
ont	-352
▁work	-353
ath	-354
ions	-355
ence	-356
li	-357
▁Congress	-358
ace	-359
▁about	-360
ctor	-361
ack	-362
▁pres	-363
▁acc	-364
▁did	-365
▁film	-366
ound	-367
▁him	-368
▁am	-369
ree	-370
ical	-371
du	-372
▁te	-373
ations	-374
▁case	-375
ank	-376
pt	-377
▁qu	-378
▁any	-379
▁what	-380
▁time	-381
▁"	-382
▁Mod	-383
ich	-384
▁need	-385
▁3	-386
▁our	-387
arm	-388
▁Rs	-389
▁app	-390
▁know	-391
orm	-392
og	-393
hed	-394
ug	-395
esh	-396
fter	-397
hy	-398
▁per	-399
ife	-400
▁God	-401
ings	-402
ci	-403
▁over	-404
irst	-405
per	-406
ck	-407
ose	-408
ance	-409
ord	-410
ons	-411
able	-412
▁against	-413
▁Modi	-414
▁new	-415
ear	-416
ted	-417
▁Indian	-418
ren	-419
▁its	-420
▁lead	-421
▁two	-422
ber	-423
cial	-424
▁ser	-425
vel	-426
ition	-427
ade	-428
ass	-429
▁und	-430
ally	-431
other	-432
..	-433
▁No	-434
ign	-435
mit	-436
▁As	-437
ond	-438
arn	-439
▁first	-440
ely	-441
▁Al	-442
▁under	-443
we	-444
ious	-445
ough	-446
▁att	-447
old	-448
▁her	-449
ov	-450
▁state	-451
▁Je	-452
ash	-453
▁cl	-454
▁ev	-455
▁count	-456
amil	-457
▁pre	-458
cted	-459
aw	-460
reat	-461
▁5	-462
▁spe	-463
▁more	-464
oll	-465
ai	-466
ory	-467
▁You	-468
oh	-469
▁which	-470
hief	-471
▁Jeho	-472
vah	-473
▁"""	-474
▁Jehovah	-475
ents	-476
ens	-477
▁ra	-478
▁inv	-479
ub	-480
▁comp	-481
ates	-482
▁child	-483
▁br	-484
▁That	-485
▁happ	-486
▁-	-487
ied	-488
▁So	-489
▁tak	-490
▁Pol	-491
ood	-492
▁dec	-493
ark	-494
ile	-495
ital	-496
▁would	-497
▁sc	-498
▁An	-499
iz	-500
▁And	-501
▁ro	-502
red	-503
iff	-504
rit	-505
oy	-506
▁20	-507
oin	-508
▁after	-509
▁lik	-510
▁She	-511
ie	-512
▁However	-513
▁ele	-514
ru	-515
umar	-516
oth	-517
ible	-518
ise	-519
▁gr	-520
▁some	-521
ational	-522
ha	-523
here	-524
▁very	-525
▁pers	-526
▁diff	-527
▁rec	-528
▁into	-529
▁Is	-530
▁Police	-531
ob	-532
ces	-533
han	-534
form	-535
ick	-536
▁4	-537
▁hel	-538
mer	-539
▁my	-540
▁get	-541
iss	-542
aus	-543
▁Prime	-544
▁Man	-545
▁bec	-546
ities	-547
ourt	-548
▁Its	-549
▁but	-550
eng	-551
▁every	-552
▁water	-553
▁cro	-554
▁sec	-555
ndra	-556
igh	-557
▁many	-558
ne	-559
ward	-560
▁how	-561
ful	-562
act	-563
▁fe	-564
ved	-565
▁fl	-566
▁being	-567
▁bet	-568
▁regist	-569
med	-570
▁stud	-571
osp	-572
ip	-573
▁Raj	-574
▁mat	-575
rict	-576
▁good	-577
ness	-578
▁dist	-579
itu	-580
▁tra	-581
les	-582
▁such	-583
ink	-584
vers	-585
ased	-586
ced	-587
ody	-588
▁made	-589
▁country	-590
alth	-591
▁help	-592
▁does	-593
lic	-594
lud	-595
▁De	-596
own	-597
ite	-598
▁Go	-599
▁Un	-600
▁Sing	-601
▁these	-602
▁life	-603
har	-604
▁day	-605
▁registered	-606
▁rem	-607
▁bl	-608
▁Re	-609
▁med	-610
▁co	-611
▁take	-612
▁present	-613
ures	-614
hip	-615
ospital	-616
akh	-617
als	-618
▁Why	-619
▁Kumar	-620
ged	-621
gr	-622
▁taken	-623
ower	-624
▁rel	-625
▁offic	-626
▁act	-627
▁Singh	-628
▁when	-629
cy	-630
tain	-631
▁here	-632
der	-633
▁Ar	-634
▁includ	-635
get	-636
▁she	-637
▁like	-638
me	-639
▁wom	-640
ict	-641
▁children	-642
man	-643
▁only	-644
uring	-645
ool	-646
way	-647
▁Com	-648
fore	-649
▁Gand	-650
▁dont	-651
▁add	-652
ured	-653
▁famil	-654
arendra	-655
▁invest	-656
▁well	-657
ctions	-658
▁too	-659
▁than	-660
▁Narendra	-661
▁just	-662
oss	-663
▁incident	-664
▁cent	-665
▁Del	-666
uch	-667
▁Se	-668
blem	-669
velop	-670
▁say	-671
▁comm	-672
elf	-673
used	-674
▁world	-675
ited	-676
ments	-677
▁inj	-678
urn	-679
▁bo	-680
▁car	-681
▁meet	-682
▁giv	-683
pport	-684
▁Gandhi	-685
ann	-686
aug	-687
▁report	-688
istan	-689
▁Delhi	-690
ather	-691
▁come	-692
▁differe	-693
▁Ad	-694
rest	-695
▁play	-696
ween	-697
▁dire	-698
▁problem	-699
▁ac	-700
▁between	-701
ote	-702
▁then	-703
▁three	-704
ern	-705
hes	-706
ating	-707
ollow	-708
ject	-709
ised	-710
▁cons	-711
▁hospital	-712
▁inter	-713
▁mov	-714
▁Do	-715
ting	-716
▁lakh	-717
▁thr	-718
▁For	-719
▁6	-720
▁All	-721
ors	-722
▁quest	-723
▁happen	-724
▁dem	-725
xt	-726
its	-727
ause	-728
▁Chr	-729
ision	-730
ya	-731
umb	-732
▁Pak	-733
ove	-734
▁polit	-735
uth	-736
ng	-737
ave	-738
▁iss	-739
cess	-740
▁ind	-741
▁want	-742
led	-743
eep	-744
▁Chief	-745
▁party	-746
mb	-747
chool	-748
▁person	-749
air	-750
alk	-751
ared	-752
▁arrest	-753
▁New	-754
▁crore	-755
pect	-756
▁make	-757
rib	-758
▁""	-759
▁must	-760
oc	-761
ady	-762
uk	-763
ution	-764
▁exam	-765
▁prov	-766
wn	-767
ange	-768
▁win	-769
▁place	-770
."""	-771
▁see	-772
ee	-773
▁Christ	-774
▁ear	-775
▁ent	-776
esus	-777
▁fin	-778
▁health	-779
▁Rah	-780
ics	-781
▁10	-782
▁Pakistan	-783
ts	-784
▁produ	-785
▁family	-786
▁minister	-787
ib	-788
aka	-789
▁ask	-790
▁Jesus	-791
▁resp	-792
ala	-793
▁imp	-794
▁right	-795
▁investig	-796
▁mem	-797
ty	-798
▁ph	-799
hing	-800
▁Karn	-801
ral	-802
▁8	-803
oun	-804
ural	-805
▁even	-806
▁serv	-807
▁disc	-808
▁start	-809
▁could	-810
▁set	-811
▁if	-812
▁hand	-813
▁7	-814
▁way	-815
plain	-816
▁import	-817
▁col	-818
▁follow	-819
▁Ram	-820
▁those	-821
gan	-822
▁done	-823
▁av	-824
▁year	-825
▁accused	-826
▁conf	-827
▁des	-828
ission	-829
▁Mah	-830
ataka	-831
ought	-832
ular	-833
...	-834
ual	-835
▁call	-836
▁different	-837
▁others	-838
▁district	-839
ars	-840
ix	-841
▁develop	-842
ats	-843
▁Karnataka	-844
▁sm	-845
▁vis	-846
▁most	-847
ouse	-848
▁through	-849
ven	-850
▁tem	-851
▁On	-852
▁yet	-853
▁regard	-854
resident	-855
▁num	-856
ets	-857
rol	-858
amp	-859
thing	-860
ft	-861
ener	-862
▁look	-863
▁Rahul	-864
▁back	-865
▁arrested	-866
▁prot	-867
▁Hind	-868
ases	-869
▁much	-870
▁same	-871
▁official	-872
▁given	-873
ided	-874
ific	-875
adesh	-876
ves	-877
▁201	-878
ility	-879
▁team	-880
ata	-881
▁love	-882
uss	-883
▁eff	-884
▁kill	-885
oney	-886
▁reas	-887
▁home	-888
▁bu	-889
▁sur	-890
olog	-891
▁shall	-892
▁occ	-893
▁before	-894
armers	-895
▁during	-896
▁sy	-897
oor	-898
▁leaders	-899
▁ter	-900
▁power	-901
▁took	-902
),	-903
iew	-904
▁President	-905
uru	-906
▁president	-907
sw	-908
▁end	-909
▁det	-910
▁cur	-911
▁high	-912
▁mar	-913
▁chief	-914
▁pass	-915
ried	-916
▁12	-917
▁mon	-918
▁var	-919
▁number	-920
ages	-921
imes	-922
▁school	-923
▁contin	-924
▁exp	-925
engal	-926
▁Government	-927
▁bus	-928
ock	-929
▁const	-930
▁pri	-931
▁court	-932
▁students	-933
▁PM	-934
▁Every	-935
ret	-936
amm	-937
ana	-938
ins	-939
▁cap	-940
,""	-941
aking	-942
▁ben	-943
▁injured	-944
▁loc	-945
▁'	-946
rick	-947
▁ass	-948
▁rele	-949
ss	-950
▁situ	-951
▁death	-952
day	-953
ately	-954
▁em	-955
▁ob	-956
▁down	-957
ati	-958
aun	-959
ired	-960
ants	-961
▁going	-962
▁Bengal	-963
▁both	-964
▁Khan	-965
▁sub	-966
▁spot	-967
▁important	-968
▁incre	-969
▁Shi	-970
▁action	-971
▁Im	-972
▁fa	-973
ives	-974
ving	-975
▁15	-976
rong	-977
arent	-978
ists	-979
▁run	-980
▁inst	-981
▁cr	-982
▁ve	-983
▁four	-984
▁law	-985
▁Bible	-986
▁Ab	-987
▁support	-988
ax	-989
▁If	-990
▁ann	-991
▁Te	-992
▁won	-993
▁while	-994
▁inform	-995
▁great	-996
▁found	-997
▁Wor	-998
▁eng	-999
cept	-1000
ten	-1001
▁Pro	-1002
▁State	-1003
ived	-1004
▁Court	-1005
app	-1006
▁trans	-1007
rent	-1008
▁partic	-1009
war	-1010
andid	-1011
▁question	-1012
ublic	-1013
▁His	-1014
▁meeting	-1015
▁19	-1016
▁long	-1017
ues	-1018
arma	-1019
▁answ	-1020
▁things	-1021
ning	-1022
ph	-1023
▁matter	-1024
ering	-1025
▁result	-1026
▁where	-1027
con	-1028
▁son	-1029
az	-1030
▁sim	-1031
▁requ	-1032
▁show	-1033
iness	-1034
▁women	-1035
▁Be	-1036
▁unt	-1037
▁sl	-1038
▁days	-1039
▁complain	-1040
▁def	-1041
▁cle	-1042
▁former	-1043
▁Ex	-1044
atch	-1045
▁spir	-1046
▁among	-1047
uc	-1048
ricket	-1049
▁9	-1050
ices	-1051
▁Sab	-1052
▁post	-1053
bers	-1054
▁says	-1055
osed	-1056
wam	-1057
▁dr	-1058
▁never	-1059
000	-1060
ior	-1061
ative	-1062
mitted	-1063
▁second	-1064
ines	-1065
▁cor	-1066
▁char	-1067
▁money	-1068
▁Pradesh	-1069
ivers	-1070
riend	-1071
▁Comm	-1072
ention	-1073
▁may	-1074
▁own	-1075
ey	-1076
▁still	-1077
ands	-1078
▁last	-1079
▁comple	-1080
▁fac	-1081
jay	-1082
▁Who	-1083
▁op	-1084
▁next	-1085
▁At	-1086
▁name	-1087
▁movie	-1088
umbai	-1089
▁Z	-1090
▁social	-1091
▁wife	-1092
▁ins	-1093
aram	-1094
▁Sup	-1095
▁mark	-1096
▁Thats	-1097
omet	-1098
ds	-1099
▁Pe	-1100
▁benef	-1101
▁avail	-1102
ways	-1103
▁decision	-1104
▁leader	-1105
▁another	-1106
▁city	-1107
▁road	-1108
▁died	-1109
iah	-1110
▁protest	-1111
ently	-1112
▁Some	-1113
▁house	-1114
20	-1115
irl	-1116
▁came	-1117
ism	-1118
▁attack	-1119
▁hum	-1120
▁media	-1121
self	-1122
▁ret	-1123
▁Shiv	-1124
▁Mumbai	-1125
▁dep	-1126
ched	-1127
▁lar	-1128
▁each	-1129
▁Tr	-1130
▁When	-1131
▁Sharma	-1132
body	-1133
▁inf	-1134
▁candid	-1135
▁situation	-1136
kar	-1137
ush	-1138
▁away	-1139
▁Bh	-1140
medi	-1141
▁far	-1142
▁writ	-1143
▁Gods	-1144
▁sal	-1145
ull	-1146
▁gl	-1147
ute	-1148
▁progr	-1149
▁ref	-1150
▁These	-1151
▁Shah	-1152
iel	-1153
▁few	-1154
ince	-1155
oot	-1156
▁ed	-1157
ashm	-1158
▁ext	-1159
▁appro	-1160
▁rep	-1161
▁Then	-1162
erest	-1163
▁talk	-1164
▁station	-1165
arents	-1166
uj	-1167
▁rece	-1168
ality	-1169
▁list	-1170
▁Christian	-1171
▁sk	-1172
▁Cent	-1173
▁Mar	-1174
▁Me	-1175
stem	-1176
▁used	-1177
ples	-1178
▁use	-1179
▁farmers	-1180
▁eas	-1181
▁remain	-1182
▁poss	-1183
▁Sabha	-1184
▁asked	-1185
▁lot	-1186
ready	-1187
▁later	-1188
▁month	-1189
sh	-1190
ety	-1191
▁sever	-1192
ada	-1193
▁laun	-1194
▁heart	-1195
▁form	-1196
ording	-1197
ctors	-1198
▁&	-1199
▁vide	-1200
els	-1201
pend	-1202
▁immedi	-1203
idd	-1204
▁Dr	-1205
▁gu	-1206
▁several	-1207
▁killed	-1208
na	-1209
▁feat	-1210
ffic	-1211
angal	-1212
▁soon	-1213
▁Eng	-1214
▁big	-1215
▁Am	-1216
▁prom	-1217
▁head	-1218
▁Here	-1219
▁father	-1220
▁body	-1221
▁daug	-1222
not	-1223
▁let	-1224
▁care	-1225
ook	-1226
ued	-1227
ashmir	-1228
▁current	-1229
oint	-1230
outh	-1231
▁why	-1232
BI	-1233
▁got	-1234
▁didnt	-1235
ries	-1236
ament	-1237
▁book	-1238
▁already	-1239
▁members	-1240
▁Le	-1241
▁Wh	-1242
▁adv	-1243
▁elections	-1244
The	-1245
▁Not	-1246
▁beli	-1247
▁aff	-1248
▁called	-1249
▁conc	-1250
▁held	-1251
pped	-1252
▁food	-1253
▁give	-1254
chn	-1255
eth	-1256
▁Int	-1257
▁One	-1258
▁Par	-1259
▁Kashmir	-1260
tle	-1261
▁mod	-1262
LA	-1263
▁available	-1264
▁development	-1265
▁Whats	-1266
▁treat	-1267
ele	-1268
▁lit	-1269
▁chang	-1270
▁friend	-1271
com	-1272
ified	-1273
ually	-1274
▁Jehovahs	-1275
itness	-1276
ccess	-1277
▁Tamil	-1278
▁including	-1279
dom	-1280
osition	-1281
▁exper	-1282
▁special	-1283
edd	-1284
▁del	-1285
▁main	-1286
▁process	-1287
▁hist	-1288
▁think	-1289
▁demand	-1290
▁due	-1291
▁test	-1292
aid	-1293
▁Act	-1294
ani	-1295
▁cannot	-1296
,000	-1297
ina	-1298
▁men	-1299
ished	-1300
▁interest	-1301
ides	-1302
▁To	-1303
angu	-1304
ploy	-1305
ross	-1306
▁art	-1307
▁went	-1308
pected	-1309
ek	-1310
▁11	-1311
conom	-1312
▁Koh	-1313
ended	-1314
▁cond	-1315
▁dri	-1316
▁issue	-1317
gest	-1318
ling	-1319
▁times	-1320
▁keep	-1321
▁occas	-1322
▁reason	-1323
▁National	-1324
semb	-1325
▁investigation	-1326
uty	-1327
▁news	-1328
▁After	-1329
▁World	-1330
▁engine	-1331
▁particip	-1332
▁because	-1333
▁Dont	-1334
▁cases	-1335
▁political	-1336
wood	-1337
▁Kohli	-1338
hic	-1339
▁discuss	-1340
▁Many	-1341
te	-1342
▁fr	-1343
▁MLA	-1344
aras	-1345
▁various	-1346
agar	-1347
▁US	-1348
ized	-1349
br	-1350
▁fire	-1351
▁sent	-1352
▁Lok	-1353
▁complaint	-1354
▁video	-1355
ajor	-1356
▁mus	-1357
▁fore	-1358
▁around	-1359
oup	-1360
▁Ne	-1361
▁true	-1362
▁public	-1363
▁fun	-1364
▁gener	-1365
▁visit	-1366
▁announ	-1367
▁system	-1368
▁alle	-1369
gether	-1370
▁doing	-1371
▁together	-1372
▁sign	-1373
▁organ	-1374
▁tre	-1375
▁become	-1376
▁faith	-1377
▁beh	-1378
▁pur	-1379
▁cricket	-1380
CC	-1381
ination	-1382
▁Dh	-1383
▁Sec	-1384
stand	-1385
▁happened	-1386
▁beg	-1387
urther	-1388
▁mother	-1389
olly	-1390
▁Add	-1391
▁needs	-1392
▁parents	-1393
▁girl	-1394
▁Union	-1395
▁officials	-1396
ror	-1397
▁My	-1398
▁allow	-1399
▁Con	-1400
▁temple	-1401
▁Pat	-1402
ope	-1403
▁Dep	-1404
▁success	-1405
▁dev	-1406
▁compan	-1407
▁nothing	-1408
ale	-1409
▁read	-1410
▁People	-1411
gar	-1412
▁25	-1413
▁bre	-1414
▁heav	-1415
orts	-1416
▁don	-1417
ology	-1418
▁brother	-1419
▁Vir	-1420
▁open	-1421
ner	-1422
▁stand	-1423
▁Mus	-1424
urity	-1425
▁put	-1426
▁occasion	-1427
aul	-1428
▁pop	-1429
▁relig	-1430
pur	-1431
▁project	-1432
pr	-1433
sel	-1434
▁program	-1435
▁order	-1436
ency	-1437
▁cre	-1438
wards	-1439
▁however	-1440
▁Shri	-1441
▁land	-1442
▁rest	-1443
lim	-1444
▁woman	-1445
uthor	-1446
ider	-1447
▁Bank	-1448
▁immediately	-1449
▁started	-1450
sembly	-1451
▁leg	-1452
▁years	-1453
▁respons	-1454
▁prop	-1455
▁rain	-1456
▁seats	-1457
▁Vi	-1458
hter	-1459
ached	-1460
reme	-1461
▁bel	-1462
▁14	-1463
▁Engl	-1464
▁story	-1465
ollywood	-1466
que	-1467
▁Commission	-1468
▁[	-1469
▁pet	-1470
▁earth	-1471
enior	-1472
ience	-1473
icult	-1474
▁dies	-1475
▁known	-1476
▁opp	-1477
ames	-1478
▁More	-1479
▁problems	-1480
abad	-1481
acher	-1482
▁educ	-1483
▁Bengaluru	-1484
nal	-1485
▁pric	-1486
▁truth	-1487
▁commit	-1488
▁Q	-1489
▁tour	-1490
▁actor	-1491
▁reported	-1492
ract	-1493
▁air	-1494
▁oper	-1495
▁spok	-1496
aim	-1497
ird	-1498
▁vill	-1499
▁answer	-1500
▁Isra	-1501
▁Amit	-1502
).	-1503
ait	-1504
vent	-1505
▁respect	-1506
ma	-1507
▁sol	-1508
▁colle	-1509
ails	-1510
▁mot	-1511
▁somet	-1512
ges	-1513
▁50	-1514
▁hard	-1515
htra	-1516
reen	-1517
▁seen	-1518
▁across	-1519
▁bank	-1520
▁cult	-1521
▁left	-1522
erv	-1523
▁Res	-1524
▁job	-1525
▁without	-1526
▁rul	-1527
▁13	-1528
ature	-1529
▁change	-1530
▁grow	-1531
▁vehic	-1532
▁opt	-1533
▁Israel	-1534
par	-1535
ined	-1536
▁find	-1537
eal	-1538
▁ap	-1539
▁belie	-1540
▁Kap	-1541
▁role	-1542
▁learn	-1543
inistry	-1544
angalore	-1545
▁information	-1546
ger	-1547
▁cho	-1548
wal	-1549
▁Pun	-1550
▁val	-1551
retary	-1552
ertain	-1553
▁treatment	-1554
▁18	-1555
▁feel	-1556
▁always	-1557
▁Test	-1558
▁best	-1559
▁event	-1560
▁might	-1561
ither	-1562
era	-1563
▁Kann	-1564
▁major	-1565
artment	-1566
▁econom	-1567
iversity	-1568
less	-1569
▁top	-1570
▁fight	-1571
▁effect	-1572
▁proper	-1573
▁200	-1574
▁che	-1575
▁pay	-1576
▁Ra	-1577
-1	-1578
▁example	-1579
ram	-1580
▁Both	-1581
▁difficult	-1582
ujar	-1583
▁With	-1584
▁King	-1585
▁activ	-1586
▁told	-1587
▁langu	-1588
▁mil	-1589
▁min	-1590
▁sing	-1591
▁along	-1592
oura	-1593
▁election	-1594
▁politics	-1595
▁Sc	-1596
▁Sri	-1597
▁turn	-1598
tar	-1599
▁ri	-1600
▁bat	-1601
▁real	-1602
▁Chand	-1603
▁try	-1604
▁lost	-1605
gy	-1606
▁cost	-1607
▁cele	-1608
arashtra	-1609
ury	-1610
▁Spe	-1611
▁Other	-1612
▁Mal	-1613
▁daughter	-1614
ressed	-1615
ield	-1616
▁Son	-1617
▁Virat	-1618
▁persons	-1619
bs	-1620
orn	-1621
▁condu	-1622
▁Ele	-1623
▁Tel	-1624
▁young	-1625
▁step	-1626
▁Two	-1627
▁Maharashtra	-1628
▁easy	-1629
▁small	-1630
ike	-1631
▁now	-1632
▁join	-1633
▁market	-1634
inal	-1635
ising	-1636
▁thing	-1637
▁Theres	-1638
▁wick	-1639
▁serious	-1640
▁account	-1641
arch	-1642
▁return	-1643
▁100	-1644
▁face	-1645
▁vict	-1646
▁saying	-1647
▁perform	-1648
nce	-1649
ran	-1650
▁old	-1651
ember	-1652
▁Kannada	-1653
▁Hy	-1654
aiah	-1655
ours	-1656
▁area	-1657
aut	-1658
▁met	-1659
▁Supreme	-1660
bh	-1661
uck	-1662
▁CM	-1663
akes	-1664
▁Bollywood	-1665
ams	-1666
▁MP	-1667
gre	-1668
▁Su	-1669
▁near	-1670
▁comes	-1671
ises	-1672
unity	-1673
io	-1674
▁dead	-1675
▁added	-1676
▁Our	-1677
▁jud	-1678
▁Col	-1679
▁mind	-1680
▁runs	-1681
▁unto	-1682
▁five	-1683
▁include	-1684
▁gra	-1685
idence	-1686
▁chall	-1687
▁pray	-1688
▁str	-1689
ium	-1690
▁Mad	-1691
▁kind	-1692
▁released	-1693
ll	-1694
gation	-1695
▁record	-1696
rish	-1697
▁tot	-1698
▁Cor	-1699
▁Form	-1700
▁music	-1701
reng	-1702
▁1.	-1703
wamy	-1704
▁bir	-1705
▁West	-1706
▁further	-1707
▁.	-1708
▁Gujar	-1709
▁really	-1710
ias	-1711
▁el	-1712
▁suff	-1713
▁series	-1714
▁match	-1715
ump	-1716
ship	-1717
▁Home	-1718
▁films	-1719
▁states	-1720
itiz	-1721
▁view	-1722
▁human	-1723
▁peace	-1724
▁received	-1725
▁16	-1726
▁possible	-1727
ork	-1728
ches	-1729
▁vir	-1730
▁caus	-1731
▁equ	-1732
▁hon	-1733
▁national	-1734
tee	-1735
▁Sidd	-1736
▁Are	-1737
▁Aust	-1738
▁following	-1739
▁Acc	-1740
▁Dist	-1741
▁build	-1742
iving	-1743
▁Dire	-1744
▁speak	-1745
my	-1746
adu	-1747
view	-1748
▁accident	-1749
▁High	-1750
▁happy	-1751
usb	-1752
stit	-1753
ena	-1754
iol	-1755
▁currently	-1756
▁San	-1757
▁Ma	-1758
▁Part	-1759
▁hold	-1760
ibility	-1761
▁Vijay	-1762
▁techn	-1763
▁17	-1764
owd	-1765
▁Af	-1766
▁mur	-1767
▁wrong	-1768
▁programme	-1769
▁understand	-1770
▁celebr	-1771
ones	-1772
▁bas	-1773
▁viol	-1774
▁Gujarat	-1775
▁cam	-1776
▁Cl	-1777
ying	-1778
▁level	-1779
lier	-1780
▁Ker	-1781
▁Just	-1782
▁anything	-1783
▁30	-1784
line	-1785
▁final	-1786
▁streng	-1787
▁App	-1788
ration	-1789
▁Ag	-1790
▁sw	-1791
uture	-1792
▁claim	-1793
▁Austral	-1794
▁king	-1795
selves	-1796
▁Where	-1797
▁security	-1798
reed	-1799
▁filed	-1800
ense	-1801
be	-1802
upt	-1803
▁oil	-1804
▁directed	-1805
cle	-1806
ert	-1807
▁IP	-1808
aged	-1809
▁Her	-1810
▁Read	-1811
▁ple	-1812
▁live	-1813
▁South	-1814
▁Former	-1815
▁ey	-1816
▁tell	-1817
▁since	-1818
▁features	-1819
▁education	-1820
duc	-1821
▁poll	-1822
itions	-1823
▁press	-1824
por	-1825
▁Pl	-1826
▁questions	-1827
aring	-1828
▁large	-1829
We	-1830
▁Pri	-1831
▁words	-1832
▁history	-1833
ically	-1834
▁accept	-1835
▁concern	-1836
ammu	-1837
▁Wom	-1838
▁local	-1839
go	-1840
▁continue	-1841
ily	-1842
ointed	-1843
▁train	-1844
▁Can	-1845
▁dra	-1846
▁saf	-1847
▁prices	-1848
OR	-1849
▁Kerala	-1850
▁District	-1851
▁vot	-1852
▁opport	-1853
▁contest	-1854
oper	-1855
▁camp	-1856
▁elect	-1857
▁aw	-1858
▁Pre	-1859
ected	-1860
icide	-1861
▁Hindi	-1862
▁business	-1863
anth	-1864
▁Let	-1865
▁Jammu	-1866
▁ident	-1867
▁price	-1868
itive	-1869
▁gold	-1870
▁group	-1871
▁Pet	-1872
▁service	-1873
▁Or	-1874
▁cust	-1875
▁conne	-1876
▁strong	-1877
▁Bangalore	-1878
usband	-1879
▁priv	-1880
▁move	-1881
▁future	-1882
▁Sa	-1883
ored	-1884
▁short	-1885
▁BS	-1886
▁div	-1887
▁est	-1888
▁fail	-1889
▁free	-1890
▁bring	-1891
inci	-1892
weet	-1893
▁dest	-1894
▁terror	-1895
▁CBI	-1896
▁candidate	-1897
▁relations	-1898
▁sus	-1899
▁crit	-1900
▁gave	-1901
ids	-1902
aswamy	-1903
▁reached	-1904
▁launched	-1905
oon	-1906
▁author	-1907
▁control	-1908
ane	-1909
ession	-1910
▁today	-1911
his	-1912
▁admitted	-1913
ier	-1914
uge	-1915
oad	-1916
aching	-1917
▁coming	-1918
anch	-1919
▁announced	-1920
vi	-1921
▁fall	-1922
liament	-1923
▁needed	-1924
▁spirit	-1925
▁Rav	-1926
▁loss	-1927
▁spiritu	-1928
▁ide	-1929
▁Lord	-1930
▁Moh	-1931
▁deb	-1932
▁supp	-1933
▁blood	-1934
▁Kapoor	-1935
▁simple	-1936
▁Paul	-1937
▁invol	-1938
irm	-1939
read	-1940
▁total	-1941
▁resign	-1942
inisters	-1943
▁everyone	-1944
eddy	-1945
▁clear	-1946
▁third	-1947
oms	-1948
cies	-1949
▁Sal	-1950
▁full	-1951
▁friends	-1952
▁teacher	-1953
mon	-1954
▁making	-1955
▁something	-1956
ttar	-1957
▁Med	-1958
▁ever	-1959
▁week	-1960
▁Intern	-1961
▁decl	-1962
▁impro	-1963
▁ready	-1964
▁connection	-1965
▁suicide	-1966
rah	-1967
amed	-1968
over	-1969
uries	-1970
▁phot	-1971
orth	-1972
▁Fin	-1973
▁side	-1974
▁award	-1975
▁Health	-1976
ians	-1977
▁Air	-1978
▁plac	-1979
▁cause	-1980
▁Stud	-1981
iver	-1982
▁areas	-1983
▁intern	-1984
▁working	-1985
▁everything	-1986
▁upon	-1987
uted	-1988
▁pow	-1989
▁company	-1990
ival	-1991
▁dise	-1992
▁employ	-1993
▁ur	-1994
▁enc	-1995
meric	-1996
▁drink	-1997
▁isnt	-1998
▁Everyone	-1999
cer	-2000
ites	-2001
ourse	-2002
ushed	-2003
▁better	-2004
▁expected	-2005
▁ru	-2006
iron	-2007
int	-2008
▁pati	-2009
▁diesel	-2010
ec	-2011
ners	-2012
▁dam	-2013
▁less	-2014
▁director	-2015
▁JD	-2016
▁Roh	-2017
▁Bo	-2018
▁Ph	-2019
▁six	-2020
itter	-2021
▁countries	-2022
ept	-2023
soci	-2024
▁Bi	-2025
▁Day	-2026
▁aut	-2027
▁details	-2028
oub	-2029
cessary	-2030
▁alleged	-2031
itional	-2032
▁became	-2033
▁congre	-2034
bo	-2035
▁Of	-2036
▁sour	-2037
pper	-2038
▁Har	-2039
▁Yad	-2040
▁hig	-2041
▁mor	-2042
▁Muslim	-2043
▁entire	-2044
▁participated	-2045
tty	-2046
ards	-2047
unic	-2048
▁taking	-2049
▁reasons	-2050
▁workers	-2051
▁husband	-2052
▁thought	-2053
cing	-2054
▁May	-2055
▁Sat	-2056
▁ant	-2057
▁pict	-2058
▁lives	-2059
▁senior	-2060
▁University	-2061
▁cou	-2062
▁popular	-2063
ery	-2064
ift	-2065
ude	-2066
▁led	-2067
ances	-2068
asing	-2069
▁Child	-2070
▁Uttar	-2071
▁front	-2072
ka	-2073
▁behind	-2074
▁brought	-2075
ruct	-2076
▁Jan	-2077
cient	-2078
▁fear	-2079
▁compet	-2080
fort	-2081
ories	-2082
eshwar	-2083
ilar	-2084
ights	-2085
▁though	-2086
▁mean	-2087
▁song	-2088
▁married	-2089
▁Australia	-2090
joy	-2091
rat	-2092
▁exc	-2093
▁Your	-2094
▁prof	-2095
▁doesnt	-2096
▁Director	-2097
▁Dav	-2098
▁bad	-2099
▁pain	-2100
▁Party	-2101
▁attended	-2102
anka	-2103
▁Yadav	-2104
men	-2105
▁demanded	-2106
▁pos	-2107
ences	-2108
▁Ak	-2109
ging	-2110
iance	-2111
▁cant	-2112
ript	-2113
▁hol	-2114
▁lod	-2115
gress	-2116
▁mess	-2117
itizens	-2118
▁played	-2119
▁provide	-2120
▁Kar	-2121
▁par	-2122
▁field	-2123
itnesses	-2124
▁Gr	-2125
▁es	-2126
▁wr	-2127
▁plan	-2128
ORD	-2129
ciety	-2130
▁course	-2131
▁Central	-2132
▁statement	-2133
▁Sr	-2134
▁Joh	-2135
aster	-2136
▁LORD	-2137
▁ones	-2138
▁gone	-2139
▁often	-2140
att	-2141
ize	-2142
ugu	-2143
▁lim	-2144
▁past	-2145
▁term	-2146
▁function	-2147
▁believe	-2148
▁study	-2149
▁ty	-2150
▁Mot	-2151
▁applic	-2152
▁captain	-2153
▁common	-2154
▁meas	-2155
▁phone	-2156
ilities	-2157
alm	-2158
jab	-2159
▁Bl	-2160
▁bro	-2161
▁sold	-2162
▁birth	-2163
▁murder	-2164
▁Tw	-2165
▁means	-2166
▁Telugu	-2167
▁According	-2168
▁X	-2169
ows	-2170
▁camera	-2171
▁Christians	-2172
▁candidates	-2173
ilt	-2174
asth	-2175
▁benefit	-2176
▁getting	-2177
empt	-2178
▁Don	-2179
▁release	-2180
alf	-2181
▁fact	-2182
hys	-2183
oid	-2184
▁sche	-2185
▁Sam	-2186
▁init	-2187
▁based	-2188
▁Indias	-2189
▁consider	-2190
▁Kumaraswamy	-2191
ke	-2192
cent	-2193
▁travel	-2194
ron	-2195
▁tax	-2196
▁Hindu	-2197
▁enjoy	-2198
▁war	-2199
▁Educ	-2200
illion	-2201
▁likely	-2202
▁changed	-2203
rop	-2204
chie	-2205
▁deal	-2206
▁/	-2207
icle	-2208
▁gre	-2209
▁prep	-2210
▁word	-2211
cience	-2212
▁Punjab	-2213
▁nation	-2214
jun	-2215
▁China	-2216
▁motor	-2217
▁petrol	-2218
▁recently	-2219
▁eat	-2220
▁issues	-2221
rif	-2222
▁whe	-2223
▁Bhar	-2224
▁schools	-2225
▁Pand	-2226
▁inde	-2227
▁anyone	-2228
▁himself	-2229
▁product	-2230
▁written	-2231
▁tri	-2232
▁works	-2233
ulation	-2234
ables	-2235
▁ful	-2236
▁clean	-2237
oses	-2238
▁ord	-2239
▁design	-2240
ali	-2241
▁little	-2242
airs	-2243
erson	-2244
▁Kingdom	-2245
uf	-2246
ung	-2247
▁Ah	-2248
abin	-2249
▁Che	-2250
▁Will	-2251
▁reve	-2252
▁Rohit	-2253
hya	-2254
▁Yes	-2255
ained	-2256
▁fell	-2257
▁ways	-2258
ruction	-2259
▁Assembly	-2260
▁provided	-2261
ened	-2262
▁stay	-2263
ancial	-2264
▁according	-2265
ari	-2266
onse	-2267
▁poor	-2268
ID	-2269
ify	-2270
weh	-2271
appa	-2272
ahweh	-2273
▁night	-2274
aps	-2275
▁sil	-2276
▁sons	-2277
rishna	-2278
▁results	-2279
▁necessary	-2280
▁spiritual	-2281
ley	-2282
▁Sp	-2283
▁Develop	-2284
▁increase	-2285
iod	-2286
▁experience	-2287
▁responsibility	-2288
▁Ass	-2289
▁thats	-2290
▁Siddaram	-2291
▁fest	-2292
▁tweet	-2293
▁driver	-2294
▁Station	-2295
come	-2296
▁congregation	-2297
▁ver	-2298
▁game	-2299
50	-2300
cu	-2301
▁miss	-2302
▁achie	-2303
▁class	-2304
▁else	-2305
val	-2306
ivid	-2307
ogra	-2308
ara	-2309
viron	-2310
▁parts	-2311
ks	-2312
erc	-2313
henn	-2314
ream	-2315
▁huge	-2316
▁indust	-2317
▁MLAs	-2318
▁Nobody	-2319
▁single	-2320
oud	-2321
▁21	-2322
▁24	-2323
ason	-2324
ters	-2325
▁trad	-2326
▁rushed	-2327
oles	-2328
▁Amb	-2329
▁Bab	-2330
▁glob	-2331
plement	-2332
▁Yahweh	-2333
▁having	-2334
▁Witnesses	-2335
▁Sm	-2336
riage	-2337
ricult	-2338
▁date	-2339
▁light	-2340
derabad	-2341
▁decided	-2342
ze	-2343
lect	-2344
▁bow	-2345
engers	-2346
▁David	-2347
▁certain	-2348
▁village	-2349
eds	-2350
▁Kh	-2351
▁paid	-2352
▁wait	-2353
▁Rajasth	-2354
▁informed	-2355
▁40	-2356
▁Ran	-2357
▁2020	-2358
▁jour	-2359
▁stat	-2360
ential	-2361
▁personal	-2362
head	-2363
▁Tra	-2364
▁imm	-2365
▁Afric	-2366
▁Hence	-2367
▁Shetty	-2368
▁lodged	-2369
vironment	-2370
▁Siddaramaiah	-2371
▁age	-2372
ledge	-2373
▁redu	-2374
▁Centre	-2375
▁cooper	-2376
▁enough	-2377
aff	-2378
lit	-2379
abinet	-2380
minist	-2381
▁Bihar	-2382
▁language	-2383
ains	-2384
aker	-2385
▁coll	-2386
▁whole	-2387
▁cir	-2388
ively	-2389
▁cast	-2390
▁hit	-2391
▁Also	-2392
▁hous	-2393
pal	-2394
▁mis	-2395
▁eyes	-2396
▁required	-2397
▁Hyderabad	-2398
▁Commissioner	-2399
ika	-2400
▁En	-2401
iful	-2402
▁Dev	-2403
▁purp	-2404
▁begin	-2405
▁super	-2406
▁States	-2407
▁Rajasthan	-2408
side	-2409
▁Ear	-2410
▁Chenn	-2411
▁England	-2412
▁parties	-2413
ops	-2414
rand	-2415
▁arri	-2416
▁fund	-2417
▁pract	-2418
▁Ministry	-2419
▁services	-2420
▁Education	-2421
de	-2422
▁2.	-2423
leep	-2424
eneral	-2425
▁First	-2426
▁Twitter	-2427
▁relationship	-2428
▁Sy	-2429
▁fru	-2430
obile	-2431
of	-2432
▁sac	-2433
▁Development	-2434
nder	-2435
▁ens	-2436
▁shoot	-2437
▁low	-2438
where	-2439
▁office	-2440
▁shared	-2441
▁increased	-2442
▁Parliament	-2443
▁Rao	-2444
▁Sub	-2445
▁ang	-2446
▁couple	-2447
hu	-2448
▁Americ	-2449
▁injuries	-2450
▁Co	-2451
▁po	-2452
anda	-2453
▁IPL	-2454
▁wrote	-2455
▁address	-2456
mi	-2457
▁key	-2458
fully	-2459
abh	-2460
erence	-2461
▁private	-2462
▁Students	-2463
▁challeng	-2464
▁response	-2465
▁vehicles	-2466
amb	-2467
jee	-2468
▁By	-2469
▁HD	-2470
▁Tem	-2471
▁inn	-2472
▁quite	-2473
▁watch	-2474
▁youth	-2475
▁healthy	-2476
DI	-2477
inder	-2478
apur	-2479
owda	-2480
▁John	-2481
▁Nadu	-2482
▁till	-2483
▁medical	-2484
ufact	-2485
▁mult	-2486
▁Water	-2487
▁period	-2488
▁families	-2489
ys	-2490
▁,	-2491
isl	-2492
nel	-2493
chan	-2494
ounc	-2495
▁Sun	-2496
ethod	-2497
▁direct	-2498
rodu	-2499
▁sist	-2500
▁crores	-2501
▁actress	-2502
▁allowed	-2503
▁electric	-2504
▁condition	-2505
ji	-2506
hest	-2507
aries	-2508
atory	-2509
▁resol	-2510
▁within	-2511
▁brothers	-2512
▁Secretary	-2513
▁implement	-2514
▁International	-2515
▁tw	-2516
aught	-2517
▁vari	-2518
atural	-2519
▁School	-2520
▁attend	-2521
▁issued	-2522
ification	-2523
rupt	-2524
oints	-2525
airman	-2526
▁Super	-2527
▁close	-2528
▁disci	-2529
▁expect	-2530
▁Chennai	-2531
▁Hospital	-2532
▁progress	-2533
▁22	-2534
▁Jos	-2535
litre	-2536
▁Take	-2537
sc	-2538
ems	-2539
uti	-2540
play	-2541
▁mom	-2542
▁individ	-2543
▁respond	-2544
▁towards	-2545
99	-2546
gn	-2547
ankar	-2548
iding	-2549
▁able	-2550
▁anim	-2551
▁salt	-2552
▁viral	-2553
▁earlier	-2554
▁international	-2555
▁ill	-2556
▁point	-2557
▁pan	-2558
▁once	-2559
▁star	-2560
▁Offic	-2561
▁began	-2562
▁offer	-2563
▁General	-2564
▁Department	-2565
elt	-2566
work	-2567
▁doub	-2568
▁complet	-2569
▁host	-2570
▁phys	-2571
▁self	-2572
icated	-2573
▁helps	-2574
▁steps	-2575
▁society	-2576
▁constitu	-2577
icy	-2578
char	-2579
▁Yog	-2580
ection	-2581
▁accom	-2582
▁agree	-2583
▁exist	-2584
▁living	-2585
▁contrib	-2586
▁options	-2587
spe	-2588
imum	-2589
▁Most	-2590
▁Women	-2591
▁occur	-2592
▁places	-2593
▁region	-2594
▁Mr	-2595
indra	-2596
▁spread	-2597
▁tor	-2598
▁disp	-2599
hatt	-2600
▁den	-2601
▁using	-2602
autiful	-2603
itation	-2604
▁English	-2605
▁benefits	-2606
pan	-2607
erous	-2608
atives	-2609
It	-2610
▁rese	-2611
▁Colle	-2612
▁visited	-2613
utt	-2614
ient	-2615
▁sto	-2616
illed	-2617
udget	-2618
▁Cont	-2619
▁Such	-2620
▁bless	-2621
▁doctor	-2622
▁attention	-2623
▁conducted	-2624
aled	-2625
▁sure	-2626
▁surv	-2627
▁Farmers	-2628
▁marriage	-2629
hra	-2630
oni	-2631
▁Br	-2632
alls	-2633
ateg	-2634
▁boy	-2635
▁hope	-2636
▁spec	-2637
▁thou	-2638
coming	-2639
▁Reddy	-2640
▁Their	-2641
af	-2642
▁prev	-2643
▁trib	-2644
▁hands	-2645
▁religious	-2646
▁i	-2647
ivil	-2648
▁fav	-2649
▁Army	-2650
▁skin	-2651
▁apost	-2652
▁stars	-2653
▁United	-2654
▁either	-2655
▁disease	-2656
-19	-2657
aur	-2658
sequ	-2659
▁Cup	-2660
▁Over	-2661
▁card	-2662
▁Heres	-2663
agement	-2664
▁months	-2665
aily	-2666
▁ded	-2667
▁Cons	-2668
▁walk	-2669
▁Three	-2670
▁trust	-2671
▁launch	-2672
uki	-2673
alam	-2674
▁dece	-2675
undred	-2676
ousands	-2677
▁worked	-2678
ST	-2679
ees	-2680
rem	-2681
erred	-2682
▁Inst	-2683
▁Deputy	-2684
wami	-2685
▁leave	-2686
▁traffic	-2687
▁economic	-2688
▁arr	-2689
▁warn	-2690
▁trying	-2691
▁Indians	-2692
▁worry	-2693
▁position	-2694
▁?	-2695
olk	-2696
""."	-2697
asad	-2698
vere	-2699
▁Art	-2700
▁Mand	-2701
▁amount	-2702
▁houses	-2703
erve	-2704
▁Suz	-2705
▁ris	-2706
jected	-2707
isation	-2708
▁positive	-2709
rs	-2710
adi	-2711
ator	-2712
fect	-2713
hold	-2714
▁conv	-2715
▁seat	-2716
▁town	-2717
ouncil	-2718
resent	-2719
▁Maruti	-2720
▁member	-2721
▁princi	-2722
▁maintain	-2723
▁officers	-2724
▁bur	-2725
▁built	-2726
▁efforts	-2727
▁manufact	-2728
▁teachers	-2729
▁sex	-2730
▁teams	-2731
▁Another	-2732
ned	-2733
king	-2734
▁sou	-2735
▁rules	-2736
▁points	-2737
▁religion	-2738
bed	-2739
▁neg	-2740
▁stop	-2741
▁whom	-2742
unities	-2743
▁Suzuki	-2744
▁growth	-2745
▁followed	-2746
▁financial	-2747
▁di	-2748
going	-2749
▁norm	-2750
▁aware	-2751
▁Africa	-2752
▁underway	-2753
abl	-2754
aign	-2755
▁Pra	-2756
isions	-2757
ots	-2758
oice	-2759
▁failed	-2760
▁worship	-2761
▁knowledge	-2762
▁activities	-2763
udd	-2764
▁kn	-2765
omes	-2766
▁City	-2767
▁appre	-2768
▁explain	-2769
▁forward	-2770
▁assembly	-2771
▁yourself	-2772
▁committee	-2773
▁secretary	-2774
ison	-2775
▁above	-2776
▁colour	-2777
▁command	-2778
▁general	-2779
▁motorcy	-2780
book	-2781
ceed	-2782
tern	-2783
▁eld	-2784
▁Only	-2785
▁fine	-2786
▁Dhoni	-2787
▁democ	-2788
▁charact	-2789
▁beautiful	-2790
ja	-2791
mpt	-2792
▁Jay	-2793
▁Deep	-2794
▁rate	-2795
▁makes	-2796
▁roads	-2797
▁thank	-2798
▁Children	-2799
the	-2800
then	-2801
▁Best	-2802
ourage	-2803
▁below	-2804
▁request	-2805
▁CO	-2806
▁Des	-2807
▁investigating	-2808
▁Rail	-2809
▁didn	-2810
▁sugar	-2811
▁heaven	-2812
stitution	-2813
▁citizens	-2814
▁personnel	-2815
ogn	-2816
▁nor	-2817
▁thy	-2818
anath	-2819
everal	-2820
▁early	-2821
▁heavy	-2822
▁mag	-2823
▁obs	-2824
▁Russ	-2825
utions	-2826
▁While	-2827
▁sleep	-2828
▁assist	-2829
ton	-2830
uel	-2831
▁pot	-2832
▁stri	-2833
▁polls	-2834
▁Temple	-2835
▁vehicle	-2836
▁themselves	-2837
ators	-2838
▁fast	-2839
▁shot	-2840
▁heard	-2841
▁spoke	-2842
▁quality	-2843
▁produced	-2844
ead	-2845
pir	-2846
▁Rep	-2847
▁Var	-2848
otion	-2849
▁Tata	-2850
▁conn	-2851
▁dang	-2852
▁carry	-2853
▁destro	-2854
▁Several	-2855
▁happens	-2856
▁message	-2857
▁wickets	-2858
▁building	-2859
▁opportunity	-2860
ps	-2861
ney	-2862
▁Roy	-2863
▁defe	-2864
▁daily	-2865
▁central	-2866
quir	-2867
▁Sim	-2868
▁Bang	-2869
othing	-2870
▁surpr	-2871
aterial	-2872
▁percent	-2873
▁Therefore	-2874
asp	-2875
ene	-2876
iers	-2877
ires	-2878
▁Jud	-2879
▁pressure	-2880
▁completely	-2881
ode	-2882
▁1,	-2883
land	-2884
▁Jer	-2885
otees	-2886
▁infl	-2887
▁flood	-2888
▁milit	-2889
ructure	-2890
▁During	-2891
▁ground	-2892
▁passed	-2893
▁reports	-2894
▁ministry	-2895
▁saw	-2896
▁Sena	-2897
▁foot	-2898
▁seven	-2899
▁prophe	-2900
▁victory	-2901
▁campaign	-2902
▁environment	-2903
▁28	-2904
awan	-2905
▁vol	-2906
▁Road	-2907
▁deep	-2908
▁leav	-2909
▁Commit	-2910
▁formed	-2911
▁listen	-2912
▁improve	-2913
by	-2914
ga	-2915
▁TV	-2916
▁Rel	-2917
▁apply	-2918
▁raised	-2919
▁involved	-2920
▁2018	-2921
▁Trump	-2922
▁morning	-2923
▁purpose	-2924
▁administ	-2925
▁gar	-2926
▁lab	-2927
▁sin	-2928
▁Good	-2929
▁Later	-2930
▁alone	-2931
▁wasnt	-2932
▁torque	-2933
▁similar	-2934
▁includes	-2935
▁completed	-2936
▁expressed	-2937
▁authorities	-2938
ama	-2939
ech	-2940
put	-2941
ills	-2942
▁Dis	-2943
▁rev	-2944
▁san	-2945
▁Even	-2946
▁share	-2947
▁belong	-2948
▁sacrif	-2949
▁cultural	-2950
▁strength	-2951
apt	-2952
▁god	-2953
▁data	-2954
▁black	-2955
▁least	-2956
▁Cabinet	-2957
▁attempt	-2958
▁largest	-2959
▁deceased	-2960
▁happening	-2961
▁km	-2962
icial	-2963
▁fans	-2964
mptoms	-2965
▁department	-2966
mp	-2967
add	-2968
▁37	-2969
itude	-2970
▁kept	-2971
▁changes	-2972
▁z	-2973
This	-2974
ique	-2975
▁cut	-2976
▁rains	-2977
▁until	-2978
▁Prasad	-2979
▁technology	-2980
▁ye	-2981
▁cash	-2982
▁holy	-2983
▁named	-2984
▁appear	-2985
▁threat	-2986
erm	-2987
▁Fr	-2988
araj	-2989
dict	-2990
enge	-2991
inem	-2992
onda	-2993
▁online	-2994
▁Special	-2995
▁distrib	-2996
▁districts	-2997
uv	-2998
arr	-2999
racy	-3000
▁500	-3001
▁sat	-3002
▁Have	-3003
▁expl	-3004
▁Salman	-3005
▁global	-3006
▁victim	-3007
▁wanted	-3008
▁officer	-3009
▁resident	-3010
▁Aff	-3011
▁Now	-3012
▁half	-3013
▁exerc	-3014
▁moved	-3015
▁Justice	-3016
▁increasing	-3017
▁Ali	-3018
▁2019	-3019
▁initi	-3020
▁associ	-3021
▁histor	-3022
▁declared	-3023
0.	-3024
gu	-3025
vest	-3026
year	-3027
▁knows	-3028
▁located	-3029
▁prevent	-3030
▁tweeted	-3031
▁sum	-3032
▁port	-3033
▁vote	-3034
akumar	-3035
▁Actor	-3036
▁reach	-3037
▁caused	-3038
▁particular	-3039
▁wel	-3040
urance	-3041
▁break	-3042
▁inaug	-3043
ability	-3044
▁search	-3045
▁claimed	-3046
▁cooperation	-3047
adha	-3048
athi	-3049
▁Yet	-3050
▁hur	-3051
ifted	-3052
osing	-3053
▁smart	-3054
▁Father	-3055
▁instit	-3056
▁created	-3057
▁identified	-3058
▁Ben	-3059
▁Sur	-3060
▁Ven	-3061
▁Swami	-3062
▁cities	-3063
▁playing	-3064
▁signific	-3065
▁strengthen	-3066
▁Def	-3067
▁ODI	-3068
▁foc	-3069
▁emer	-3070
▁avoid	-3071
▁probe	-3072
▁legisl	-3073
▁natural	-3074
▁violence	-3075
hel	-3076
crib	-3077
▁dom	-3078
▁fulf	-3079
▁qual	-3080
▁repl	-3081
▁century	-3082
riculture	-3083
▁festival	-3084
▁represent	-3085
wh	-3086
▁Sw	-3087
avir	-3088
▁wis	-3089
▁Life	-3090
▁ment	-3091
▁sele	-3092
▁prime	-3093
▁governments	-3094
cl	-3095
▁Fil	-3096
▁Mys	-3097
▁Face	-3098
▁anti	-3099
elling	-3100
▁Andhra	-3101
▁moment	-3102
▁introdu	-3103
▁material	-3104
▁ministers	-3105
iy	-3106
avy	-3107
ugg	-3108
▁Mo	-3109
atic	-3110
▁Lets	-3111
▁rail	-3112
▁Watch	-3113
▁basis	-3114
▁medic	-3115
▁roles	-3116
▁consid	-3117
▁Krishna	-3118
utes	-3119
▁Bal	-3120
▁Red	-3121
▁red	-3122
nding	-3123
▁circ	-3124
▁Gowda	-3125
▁stated	-3126
▁express	-3127
▁players	-3128
▁witness	-3129
▁Committee	-3130
to	-3131
VID	-3132
▁Qu	-3133
quiry	-3134
▁draw	-3135
▁safe	-3136
edding	-3137
▁Cricket	-3138
▁stopped	-3139
hav	-3140
▁Sar	-3141
▁bab	-3142
▁North	-3143
▁establ	-3144
▁committed	-3145
▁languages	-3146
▁FI	-3147
rast	-3148
▁From	-3149
cially	-3150
urappa	-3151
▁Bangl	-3152
▁takes	-3153
▁joined	-3154
▁sector	-3155
▁destroy	-3156
▁alliance	-3157
▁remember	-3158
▁sug	-3159
▁scored	-3160
▁regarding	-3161
▁%	-3162
CCI	-3163
▁23	-3164
▁prote	-3165
▁weight	-3166
▁industry	-3167
▁training	-3168
▁discussed	-3169
▁successful	-3170
ares	-3171
eous	-3172
▁cup	-3173
▁Patel	-3174
▁grant	-3175
▁consum	-3176
aya	-3177
▁mer	-3178
▁kids	-3179
▁Ahmed	-3180
▁Nagar	-3181
▁serve	-3182
gations	-3183
▁College	-3184
▁student	-3185
▁research	-3186
ban	-3187
reet	-3188
▁Pad	-3189
▁abs	-3190
▁Brit	-3191
▁Board	-3192
▁ahead	-3193
▁season	-3194
▁therefore	-3195
ler	-3196
▁net	-3197
▁page	-3198
▁sens	-3199
▁value	-3200
ayat	-3201
▁Per	-3202
▁flow	-3203
▁line	-3204
▁wond	-3205
ension	-3206
▁COVID	-3207
▁conduct	-3208
▁passengers	-3209
CT	-3210
ergy	-3211
ties	-3212
▁Arun	-3213
▁separ	-3214
▁wants	-3215
ruption	-3216
▁impact	-3217
▁Election	-3218
▁patients	-3219
▁continued	-3220
rew	-3221
▁goes	-3222
▁link	-3223
▁milk	-3224
▁million	-3225
▁regular	-3226
▁measures	-3227
▁solution	-3228
let	-3229
ubl	-3230
ager	-3231
▁Aut	-3232
▁hot	-3233
▁Does	-3234
▁harm	-3235
▁rise	-3236
▁wind	-3237
▁river	-3238
▁Follow	-3239
▁drinking	-3240
▁seriously	-3241
pes	-3242
back	-3243
▁Fore	-3244
vernor	-3245
▁About	-3246
▁veget	-3247
▁Muslims	-3248
▁inaugur	-3249
▁Facebook	-3250
▁projects	-3251
▁appointed	-3252
▁Constitution	-3253
hib	-3254
▁tal	-3255
usion	-3256
▁Srin	-3257
▁docu	-3258
▁park	-3259
▁Techn	-3260
▁Madhya	-3261
▁mention	-3262
IT	-3263
▁har	-3264
erved	-3265
▁Sush	-3266
▁gets	-3267
person	-3268
reedom	-3269
rovers	-3270
▁review	-3271
▁transf	-3272
▁Medical	-3273
aksh	-3274
▁Goa	-3275
▁joy	-3276
oured	-3277
▁model	-3278
▁prepar	-3279
▁screen	-3280
▁appreci	-3281
▁prepared	-3282
IC	-3283
une	-3284
ayan	-3285
grat	-3286
▁Nar	-3287
▁tit	-3288
▁Love	-3289
▁culture	-3290
▁picture	-3291
▁suggest	-3292
▁application	-3293
▁examination	-3294
iqu	-3295
▁Ud	-3296
▁Ash	-3297
elled	-3298
▁Shar	-3299
▁mass	-3300
esides	-3301
▁banks	-3302
▁Sanjay	-3303
▁extrem	-3304
▁recogn	-3305
▁offered	-3306
▁sources	-3307
▁Everything	-3308
ald	-3309
yal	-3310
▁Av	-3311
▁tar	-3312
avirus	-3313
▁worth	-3314
mission	-3315
▁Affairs	-3316
va	-3317
usal	-3318
▁squ	-3319
ammed	-3320
▁vers	-3321
▁cancer	-3322
▁sports	-3323
▁custody	-3324
▁foreign	-3325
▁justice	-3326
▁looking	-3327
▁opposition	-3328
MP	-3329
▁Ap	-3330
▁Reg	-3331
▁Serv	-3332
▁mist	-3333
▁suffering	-3334
▁60	-3335
▁Ay	-3336
▁Gu	-3337
▁tou	-3338
▁Each	-3339
▁Film	-3340
▁lack	-3341
▁Sonia	-3342
▁Thank	-3343
▁Trans	-3344
▁check	-3345
▁multi	-3346
onavirus	-3347
▁constit	-3348
▁economy	-3349
▁nations	-3350
▁protect	-3351
▁shooting	-3352
oj	-3353
yl	-3354
bhp	-3355
omm	-3356
▁Op	-3357
opal	-3358
rect	-3359
▁orig	-3360
▁mobile	-3361
▁Finance	-3362
▁achieve	-3363
▁Bangladesh	-3364
uly	-3365
hood	-3366
▁sit	-3367
▁Arjun	-3368
▁ensure	-3369
▁letter	-3370
▁rights	-3371
▁congrat	-3372
▁treated	-3373
▁evidence	-3374
ira	-3375
fall	-3376
▁Jag	-3377
▁Law	-3378
▁cal	-3379
▁rich	-3380
▁thee	-3381
inated	-3382
▁creat	-3383
▁affect	-3384
▁custom	-3385
▁higher	-3386
▁products	-3387
Ind	-3388
▁AI	-3389
▁Ke	-3390
salm	-3391
▁ess	-3392
▁Word	-3393
▁charge	-3394
▁turned	-3395
▁display	-3396
▁congratul	-3397
▁democracy	-3398
▁controvers	-3399
▁Ge	-3400
▁Kal	-3401
▁Opp	-3402
▁See	-3403
▁fal	-3404
▁non	-3405
ining	-3406
ouble	-3407
▁Thus	-3408
▁challenge	-3409
▁production	-3410
Nm	-3411
orr	-3412
yle	-3413
▁Ve	-3414
▁Mem	-3415
hters	-3416
ously	-3417
phone	-3418
▁Award	-3419
▁exact	-3420
▁force	-3421
▁scheme	-3422
▁doctors	-3423
▁devotees	-3424
▁upcoming	-3425
▁daughters	-3426
shi	-3427
apan	-3428
▁Adv	-3429
▁Tri	-3430
ports	-3431
▁numb	-3432
▁plays	-3433
▁powder	-3434
▁Council	-3435
▁concerned	-3436
wise	-3437
▁Ban	-3438
▁Nit	-3439
▁vac	-3440
aired	-3441
ushka	-3442
▁farm	-3443
▁staff	-3444
▁Instit	-3445
▁Senior	-3446
CP	-3447
ikh	-3448
ests	-3449
▁rap	-3450
cause	-3451
lease	-3452
▁Bach	-3453
▁Those	-3454
▁liter	-3455
▁instru	-3456
▁construction	-3457
nath	-3458
uary	-3459
enced	-3460
▁Priy	-3461
▁rear	-3462
ternal	-3463
▁physical	-3464
most	-3465
▁Sum	-3466
▁pat	-3467
▁pun	-3468
pping	-3469
▁Bharat	-3470
▁Ramesh	-3471
▁giving	-3472
▁hundred	-3473
▁actually	-3474
▁Ministers	-3475
▁community	-3476
JD	-3477
dra	-3478
egr	-3479
ony	-3480
rab	-3481
ague	-3482
khar	-3483
▁mount	-3484
▁depend	-3485
▁article	-3486
▁organised	-3487
acy	-3488
ighb	-3489
itor	-3490
▁Eur	-3491
▁Rec	-3492
while	-3493
▁News	-3494
▁hair	-3495
▁dream	-3496
▁Anushka	-3497
▁Shankar	-3498
▁highest	-3499
▁leading	-3500
▁rejected	-3501
▁direction	-3502
SS	-3503
la	-3504
ault	-3505
isha	-3506
▁dig	-3507
gment	-3508
▁Zeal	-3509
▁cere	-3510
▁tele	-3511
▁method	-3512
▁supply	-3513
▁Because	-3514
▁Jerusal	-3515
▁matches	-3516
▁31	-3517
▁Car	-3518
▁buy	-3519
▁ten	-3520
imary	-3521
▁Wash	-3522
▁bats	-3523
▁publ	-3524
▁soul	-3525
anning	-3526
▁Honda	-3527
▁minor	-3528
▁plant	-3529
ampions	-3530
▁appeal	-3531
▁helped	-3532
▁revealed	-3533
▁employees	-3534
GB	-3535
ipal	-3536
akash	-3537
ivity	-3538
▁Hary	-3539
▁Team	-3540
▁forg	-3541
▁rule	-3542
▁comfort	-3543
▁celebrated	-3544
lam	-3545
aper	-3546
ring	-3547
▁Four	-3548
▁comb	-3549
▁idea	-3550
▁round	-3551
▁forest	-3552
▁served	-3553
pecially	-3554
▁outside	-3555
ips	-3556
rav	-3557
▁Fe	-3558
▁Baj	-3559
ograp	-3560
▁felt	-3561
▁lock	-3562
encies	-3563
▁Corpor	-3564
▁budget	-3565
▁seized	-3566
▁Zealand	-3567
▁charges	-3568
▁neither	-3569
▁related	-3570
▁examples	-3571
▁presided	-3572
▁constituency	-3573
oes	-3574
▁32	-3575
amin	-3576
gree	-3577
▁Did	-3578
▁Sol	-3579
aging	-3580
▁beat	-3581
▁risk	-3582
▁prior	-3583
▁forget	-3584
▁faithful	-3585
▁extremely	-3586
▁responsible	-3587
wa	-3588
▁:	-3589
▁er	-3590
▁Din	-3591
▁Kam	-3592
▁Lal	-3593
▁Muk	-3594
▁pra	-3595
earch	-3596
▁facing	-3597
▁speech	-3598
▁Haryana	-3599
▁Nothing	-3600
▁someone	-3601
▁programm	-3602
▁righteous	-3603
▁performance	-3604
▁opportunities	-3605
▁Bar	-3606
round	-3607
▁cred	-3608
▁site	-3609
overed	-3610
▁books	-3611
▁agreed	-3612
▁Bachchan	-3613
▁meetings	-3614
DA	-3615
▁26	-3616
miss	-3617
▁150	-3618
▁Bus	-3619
▁upd	-3620
anned	-3621
▁Kolk	-3622
▁Since	-3623
▁talking	-3624
▁whether	-3625
▁offering	-3626
▁Jerusalem	-3627
▁especially	-3628
SR	-3629
iled	-3630
mber	-3631
rain	-3632
▁Nag	-3633
▁aud	-3634
inary	-3635
▁Deve	-3636
▁Vish	-3637
▁unit	-3638
▁Japan	-3639
▁false	-3640
▁gives	-3641
▁difference	-3642
cap	-3643
use	-3644
garh	-3645
roid	-3646
▁autom	-3647
▁categ	-3648
▁voice	-3649
▁offers	-3650
▁policy	-3651
▁recent	-3652
▁target	-3653
▁affected	-3654
▁complete	-3655
▁confidence	-3656
den	-3657
leg	-3658
ukh	-3659
zes	-3660
▁Exp	-3661
▁BCCI	-3662
▁Open	-3663
▁Prot	-3664
elfare	-3665
▁Panch	-3666
▁cinem	-3667
▁space	-3668
▁votes	-3669
▁Kolkata	-3670
▁evening	-3671
▁freedom	-3672
urs	-3673
▁35	-3674
oted	-3675
▁Work	-3676
▁rank	-3677
ayalam	-3678
nament	-3679
▁Peter	-3680
▁speed	-3681
▁access	-3682
▁advant	-3683
▁energy	-3684
▁temper	-3685
▁ceremon	-3686
▁interview	-3687
vey	-3688
enty	-3689
▁Ravi	-3690
▁House	-3691
▁Rajya	-3692
▁shock	-3693
ization	-3694
▁remains	-3695
▁pictures	-3696
▁disciples	-3697
▁motorcycle	-3698
ex	-3699
iab	-3700
resh	-3701
▁firm	-3702
▁wont	-3703
▁Lanka	-3704
▁Which	-3705
igation	-3706
▁disapp	-3707
▁movies	-3708
▁option	-3709
▁wedding	-3710
▁majority	-3711
▁character	-3712
▁facilities	-3713
▁ut	-3714
rate	-3715
▁die	-3716
▁mix	-3717
ashed	-3718
iting	-3719
utive	-3720
▁hear	-3721
angana	-3722
▁crime	-3723
▁demon	-3724
▁fourth	-3725
▁scient	-3726
ological	-3727
▁college	-3728
▁inquiry	-3729
▁reality	-3730
▁require	-3731
roll	-3732
▁born	-3733
▁Under	-3734
▁talks	-3735
▁Script	-3736
▁forces	-3737
▁announce	-3738
▁servants	-3739
▁operation	-3740
▁programmes	-3741
UV	-3742
▁hy	-3743
down	-3744
hand	-3745
odies	-3746
▁Keep	-3747
▁warm	-3748
▁Moses	-3749
▁humans	-3750
▁silver	-3751
▁Priyanka	-3752
▁returned	-3753
▁discussion	-3754
He	-3755
▁Gl	-3756
▁300	-3757
achin	-3758
▁Nath	-3759
▁baby	-3760
ensive	-3761
▁Indust	-3762
▁strugg	-3763
▁capital	-3764
▁independ	-3765
ape	-3766
uman	-3767
▁Dal	-3768
▁Him	-3769
▁cru	-3770
▁quick	-3771
▁Europe	-3772
▁object	-3773
▁included	-3774
▁80	-3775
osal	-3776
▁FIR	-3777
▁Sud	-3778
▁nom	-3779
alled	-3780
endra	-3781
action	-3782
▁favour	-3783
▁neighb	-3784
▁carried	-3785
▁matters	-3786
▁soldiers	-3787
▁Malayalam	-3788
▁Shivakumar	-3789
▁significant	-3790
au	-3791
ici	-3792
▁Look	-3793
▁save	-3794
▁green	-3795
▁sound	-3796
▁inside	-3797
▁source	-3798
▁arrange	-3799
▁describ	-3800
▁journal	-3801
▁considered	-3802
ras	-3803
▁sn	-3804
ably	-3805
ball	-3806
urch	-3807
▁Anil	-3808
▁Mean	-3809
ources	-3810
▁civil	-3811
▁loved	-3812
▁teach	-3813
▁causes	-3814
▁depart	-3815
▁integr	-3816
▁normal	-3817
▁recomm	-3818
▁sister	-3819
▁comment	-3820
▁petition	-3821
▁protests	-3822
▁suffered	-3823
co	-3824
▁SP	-3825
anna	-3826
emic	-3827
rief	-3828
▁Ive	-3829
▁Pal	-3830
inent	-3831
order	-3832
▁Mark	-3833
▁resc	-3834
▁sust	-3835
▁cover	-3836
▁girls	-3837
ication	-3838
▁critic	-3839
.5	-3840
sp	-3841
isf	-3842
ita	-3843
▁Bas	-3844
▁centre	-3845
▁feature	-3846
▁numbers	-3847
▁Az	-3848
▁pick	-3849
▁Adity	-3850
▁damaged	-3851
▁conference	-3852
▁population	-3853
mar	-3854
ott	-3855
▁Bel	-3856
▁Kul	-3857
▁aim	-3858
▁fre	-3859
▁clos	-3860
▁rout	-3861
▁spoken	-3862
▁animals	-3863
▁apostle	-3864
▁convers	-3865
▁ordered	-3866
▁perfect	-3867
▁Mahindra	-3868
▁interesting	-3869
CTV	-3870
ami	-3871
▁27	-3872
▁[]	-3873
arsh	-3874
nces	-3875
oved	-3876
▁fam	-3877
▁lat	-3878
isher	-3879
▁CCTV	-3880
▁thus	-3881
▁rural	-3882
▁shows	-3883
▁songs	-3884
▁innings	-3885
▁winning	-3886
▁symptoms	-3887
▁companies	-3888
jri	-3889
▁Aj	-3890
▁Ent	-3891
▁Loc	-3892
▁bail	-3893
adhaar	-3894
▁enter	-3895
▁Hindus	-3896
▁choose	-3897
▁Prakash	-3898
▁accepted	-3899
▁Opposition	-3900
▁vegetables	-3901
-2	-3902
ini	-3903
▁El	-3904
▁box	-3905
▁board	-3906
▁forth	-3907
▁phase	-3908
▁tried	-3909
▁closed	-3910
▁income	-3911
▁verdict	-3912
▁continues	-3913
pri	-3914
▁Jew	-3915
▁Anand	-3916
▁Author	-3917
▁ceremony	-3918
▁happiness	-3919
▁residents	-3920
▁transport	-3921
for	-3922
▁70	-3923
▁Sk	-3924
▁webs	-3925
▁block	-3926
▁handed	-3927
▁severe	-3928
▁unique	-3929
▁elected	-3930
▁communic	-3931
▁thinking	-3932
▁performed	-3933
nam	-3934
▁Cr	-3935
▁af	-3936
▁Rem	-3937
▁arm	-3938
▁bit	-3939
irmed	-3940
▁feet	-3941
▁seem	-3942
▁doubt	-3943
▁fruit	-3944
▁spokes	-3945
▁worried	-3946
▁tournament	-3947
DP	-3948
hew	-3949
uls	-3950
▁vs	-3951
▁Tim	-3952
▁wid	-3953
orage	-3954
▁Food	-3955
▁coal	-3956
▁lose	-3957
jriwal	-3958
▁focus	-3959
▁legal	-3960
▁white	-3961
▁Associ	-3962
▁expand	-3963
▁Aadhaar	-3964
▁missing	-3965
▁administration	-3966
set	-3967
icro	-3968
load	-3969
ware	-3970
▁Gan	-3971
▁tur	-3972
There	-3973
▁gain	-3974
▁knew	-3975
▁Elect	-3976
▁Sures	-3977
▁stage	-3978
▁users	-3979
▁Public	-3980
▁active	-3981
formation	-3982
▁recorded	-3983
▁challenges	-3984
▁management	-3985
hem	-3986
▁UP	-3987
▁250	-3988
▁Ger	-3989
aches	-3990
▁Pune	-3991
▁cars	-3992
▁duty	-3993
▁none	-3994
▁quar	-3995
▁Patil	-3996
▁names	-3997
▁proud	-3998
▁urged	-3999
▁battle	-4000
▁effort	-4001
▁safety	-4002
rastructure	-4003
ota	-4004
ober	-4005
▁reli	-4006
▁wish	-4007
though	-4008
▁Famil	-4009
▁Rural	-4010
▁games	-4011
▁sense	-4012
▁Suresh	-4013
▁network	-4014
▁suspend	-4015
▁Institute	-4016
uals	-4017
▁War	-4018
▁Group	-4019
▁determ	-4020
▁events	-4021
▁nature	-4022
▁answers	-4023
▁previous	-4024
▁remained	-4025
▁Meanwhile	-4026
▁dedicated	-4027
▁ourselves	-4028
room	-4029
uing	-4030
▁Cle	-4031
▁Cur	-4032
ender	-4033
iring	-4034
kumar	-4035
▁Make	-4036
▁Matt	-4037
▁jail	-4038
▁late	-4039
▁joint	-4040
▁units	-4041
▁bodies	-4042
▁garlic	-4043
▁loving	-4044
▁wicked	-4045
▁meaning	-4046
▁shifted	-4047
▁competition	-4048
IM	-4049
oo	-4050
arya	-4051
imate	-4052
▁Asho	-4053
▁Bill	-4054
▁door	-4055
▁Please	-4056
▁choice	-4057
▁experi	-4058
▁Android	-4059
▁developed	-4060
pril	-4061
eared	-4062
▁wild	-4063
▁spent	-4064
▁trade	-4065
▁Dinesh	-4066
▁awards	-4067
▁denied	-4068
▁groups	-4069
▁opened	-4070
▁connect	-4071
▁session	-4072
▁subject	-4073
▁Kejriwal	-4074
▁commission	-4075
▁implemented	-4076
AP	-4077
bit	-4078
▁Lt	-4079
▁Us	-4080
estic	-4081
inger	-4082
light	-4083
▁capt	-4084
▁photo	-4085
ception	-4086
▁Princi	-4087
▁decide	-4088
▁Article	-4089
▁Earlier	-4090
sequently	-4091
AN	-4092
▁Di	-4093
▁Up	-4094
cles	-4095
▁Nav	-4096
oples	-4097
▁jobs	-4098
▁repe	-4099
▁slow	-4100
▁judge	-4101
▁onion	-4102
▁create	-4103
▁exercise	-4104
▁survived	-4105
▁mentioned	-4106
▁manufacture	-4107
▁3:	-4108
▁Em	-4109
▁MS	-4110
nown	-4111
▁Rai	-4112
icket	-4113
▁Auto	-4114
▁Chop	-4115
▁Prof	-4116
▁rupe	-4117
fortun	-4118
▁brand	-4119
▁sales	-4120
ertific	-4121
▁remark	-4122
▁refused	-4123
▁speaking	-4124
▁beginning	-4125
▁confirmed	-4126
pite	-4127
▁Pay	-4128
▁Rom	-4129
▁fem	-4130
▁reb	-4131
▁mand	-4132
▁pack	-4133
▁prem	-4134
▁grand	-4135
▁Family	-4136
▁levels	-4137
▁notice	-4138
▁status	-4139
unicipal	-4140
▁ancient	-4141
▁critical	-4142
▁villages	-4143
▁Following	-4144
▁dangerous	-4145
App	-4146
▁CP	-4147
haps	-4148
erjee	-4149
speed	-4150
▁Happ	-4151
▁army	-4152
▁Somet	-4153
▁influ	-4154
▁touch	-4155
▁fellow	-4156
▁itself	-4157
▁incidents	-4158
ny	-4159
deep	-4160
road	-4161
▁Cho	-4162
▁Met	-4163
▁Off	-4164
▁Sin	-4165
▁via	-4166
istic	-4167
▁Thak	-4168
▁send	-4169
▁text	-4170
▁rally	-4171
▁British	-4172
▁receive	-4173
▁destroyed	-4174
▁essential	-4175
▁Technology	-4176
MC	-4177
▁Char	-4178
▁Hist	-4179
▁exec	-4180
▁fled	-4181
asting	-4182
ployed	-4183
▁coach	-4184
▁degree	-4185
▁stress	-4186
▁answered	-4187
▁chairman	-4188
▁corruption	-4189
▁Corporation	-4190
emy	-4191
upta	-4192
▁ban	-4193
▁gen	-4194
ondon	-4195
undai	-4196
▁Hard	-4197
▁Vice	-4198
▁arch	-4199
▁stra	-4200
▁vice	-4201
▁Satan	-4202
▁compr	-4203
▁biggest	-4204
▁science	-4205
▁American	-4206
▁Banerjee	-4207
▁Governor	-4208
ask	-4209
hesh	-4210
▁sea	-4211
aximum	-4212
iminal	-4213
▁plans	-4214
▁write	-4215
▁modern	-4216
▁Hyundai	-4217
▁hearing	-4218
▁waiting	-4219
▁addition	-4220
▁effective	-4221
hik	-4222
▁29	-4223
▁Ur	-4224
▁ir	-4225
wide	-4226
▁bar	-4227
▁nut	-4228
cious	-4229
itate	-4230
▁laws	-4231
▁rape	-4232
▁room	-4233
▁soft	-4234
▁April	-4235
▁Ashok	-4236
▁Kings	-4237
▁Motor	-4238
▁acted	-4239
▁lower	-4240
▁German	-4241
▁fruits	-4242
▁wonder	-4243
▁effects	-4244
▁temples	-4245
▁partners	-4246
▁proposal	-4247
▁Telangana	-4248
▁cricketer	-4249
▁everywhere	-4250
ED	-4251
TI	-4252
yer	-4253
hips	-4254
▁fig	-4255
▁lif	-4256
▁pil	-4257
acity	-4258
ipper	-4259
▁Fire	-4260
▁Goog	-4261
▁purs	-4262
▁Psalm	-4263
▁chill	-4264
▁debate	-4265
ervation	-4266
▁growing	-4267
▁storage	-4268
▁movement	-4269
▁allegations	-4270
▁coronavirus	-4271
Ph	-4272
BJP	-4273
ese	-4274
▁KL	-4275
ades	-4276
eful	-4277
iber	-4278
▁Cap	-4279
▁Gold	-4280
▁Heavy	-4281
▁range	-4282
▁table	-4283
▁Sachin	-4284
▁Social	-4285
iversary	-4286
▁powered	-4287
▁composed	-4288
▁property	-4289
▁tourists	-4290
▁Pakistani	-4291
▁preaching	-4292
.1	-4293
NG	-4294
omb	-4295
▁et	-4296
▁ju	-4297
▁Mix	-4298
▁pie	-4299
known	-4300
▁Inde	-4301
▁canc	-4302
▁fair	-4303
▁trees	-4304
▁London	-4305
▁Russia	-4306
▁actors	-4307
▁havent	-4308
▁leaves	-4309
▁satisf	-4310
▁sexual	-4311
▁Defence	-4312
▁deliver	-4313
▁Chairman	-4314
AI	-4315
▁Mam	-4316
▁Use	-4317
▁cry	-4318
▁fat	-4319
agers	-4320
▁file	-4321
▁guid	-4322
ananda	-4323
▁Click	-4324
▁cross	-4325
▁prayer	-4326
▁Rajnath	-4327
▁correct	-4328
▁winners	-4329
gg	-4330
hal	-4331
ils	-4332
ken	-4333
ply	-4334
udi	-4335
aste	-4336
▁Gov	-4337
▁Sah	-4338
after	-4339
agram	-4340
ailed	-4341
ammad	-4342
oking	-4343
oting	-4344
▁Laun	-4345
▁Park	-4346
▁drug	-4347
▁earn	-4348
▁Force	-4349
▁bench	-4350
▁compl	-4351
▁north	-4352
▁pleas	-4353
▁looked	-4354
▁sought	-4355
▁testing	-4356
▁website	-4357
▁teaching	-4358
▁immediate	-4359
.)	-4360
pet	-4361
uri	-4362
▁Ed	-4363
raid	-4364
▁Hel	-4365
▁Job	-4366
▁Net	-4367
▁ago	-4368
India	-4369
ening	-4370
▁Sand	-4371
▁bowl	-4372
isgarh	-4373
▁squad	-4374
▁Invest	-4375
▁Thakur	-4376
▁famous	-4377
▁models	-4378
▁player	-4379
▁toward	-4380
▁Science	-4381
▁internal	-4382
▁importance	-4383
uz	-4384
uke	-4385
▁id	-4386
ancy	-4387
gypt	-4388
ohan	-4389
tery	-4390
▁Has	-4391
▁argu	-4392
▁Power	-4393
▁begun	-4394
▁airport	-4395
▁invited	-4396
▁occurred	-4397
▁Association	-4398
?"	-4399
oke	-4400
unt	-4401
▁GST	-4402
▁wat	-4403
ented	-4404
▁Time	-4405
▁acqu	-4406
▁cell	-4407
ground	-4408
ousand	-4409
▁Royal	-4410
▁Shiva	-4411
▁Google	-4412
ensation	-4413
▁Besides	-4414
▁Parents	-4415
▁encoura	-4416
▁politic	-4417
hattisgarh	-4418
▁throughout	-4419
alt	-4420
ayed	-4421
cher	-4422
iant	-4423
oned	-4424
well	-4425
▁dry	-4426
hered	-4427
oming	-4428
ortem	-4429
pects	-4430
▁shut	-4431
▁equal	-4432
▁tough	-4433
▁whose	-4434
▁Chopra	-4435
▁condem	-4436
▁appropri	-4437
▁provides	-4438
▁presented	-4439
▁thousands	-4440
▁individual	-4441
▁operations	-4442
▁profession	-4443
▁individuals	-4444
▁2:	-4445
▁KP	-4446
ghan	-4447
▁Ltd	-4448
▁sad	-4449
inese	-4450
orrow	-4451
▁Fort	-4452
▁coun	-4453
▁insp	-4454
▁loan	-4455
anagar	-4456
vision	-4457
▁Yeddy	-4458
▁boost	-4459
▁eight	-4460
▁limit	-4461
▁Mangal	-4462
▁afraid	-4463
▁caught	-4464
▁indeed	-4465
▁Deepika	-4466
▁arrived	-4467
▁careful	-4468
▁dispute	-4469
▁seeking	-4470
▁accompan	-4471
▁activity	-4472
▁approved	-4473
▁learning	-4474
▁submitted	-4475
BS	-4476
ili	-4477
▁2,	-4478
akar	-4479
kind	-4480
▁400	-4481
▁hor	-4482
astic	-4483
efore	-4484
▁lies	-4485
▁Never	-4486
▁Rajiv	-4487
▁medal	-4488
▁rates	-4489
▁Indies	-4490
▁Chinese	-4491
▁colours	-4492
▁dismiss	-4493
▁opposed	-4494
▁primary	-4495
▁Thousands	-4496
▁suspended	-4497
▁Additional	-4498
▁infrastructure	-4499
avi	-4500
eph	-4501
iced	-4502
▁ICC	-4503
▁Inc	-4504
▁fee	-4505
▁fix	-4506
▁ball	-4507
▁wins	-4508
▁Egypt	-4509
▁anger	-4510
▁pregn	-4511
▁deaths	-4512
▁believed	-4513
▁Yeddyurappa	-4514
30	-4515
500	-4516
But	-4517
raj	-4518
▁Jh	-4519
▁Od	-4520
eder	-4521
ivas	-4522
▁Mur	-4523
▁Asia	-4524
▁Lead	-4525
▁pros	-4526
charge	-4527
▁score	-4528
▁truck	-4529
▁damage	-4530
▁mental	-4531
▁serving	-4532
▁capacity	-4533
▁detained	-4534
▁multiple	-4535
▁rainfall	-4536
▁remaining	-4537
ume	-4538
win	-4539
▁Ir	-4540
inch	-4541
▁Aam	-4542
▁Arv	-4543
▁Bet	-4544
▁RBI	-4545
ilater	-4546
ishing	-4547
▁Drink	-4548
▁reply	-4549
▁types	-4550
▁demonst	-4551
▁maximum	-4552
▁running	-4553
▁Instagram	-4554
▁additional	-4555
▁conditions	-4556
▁smartphone	-4557
fl	-4558
lip	-4559
▁Ac	-4560
icit	-4561
▁suc	-4562
ially	-4563
▁diet	-4564
▁fort	-4565
ograph	-4566
▁leads	-4567
▁photos	-4568
▁species	-4569
▁sacrifice	-4570
▁undergoing	-4571
▁controversy	-4572
▁resignation	-4573
RC	-4574
bsp	-4575
▁90	-4576
▁Fl	-4577
▁Heb	-4578
▁Sad	-4579
▁Whe	-4580
mohan	-4581
tings	-4582
▁Aksh	-4583
▁Post	-4584
▁gear	-4585
▁plea	-4586
▁tree	-4587
▁Check	-4588
▁Sunil	-4589
▁doesn	-4590
▁elder	-4591
ography	-4592
▁commer	-4593
▁journey	-4594
▁withdra	-4595
▁WhatsApp	-4596
▁produces	-4597
▁appropriate	-4598
oli	-4599
osh	-4600
▁Tod	-4601
▁etc	-4602
▁lay	-4603
gency	-4604
iling	-4605
▁Islam	-4606
▁Polit	-4607
ishment	-4608
▁Before	-4609
▁Mahesh	-4610
▁secret	-4611
▁accounts	-4612
▁Principal	-4613
▁decisions	-4614
▁documents	-4615
▁announcement	-4616
ev	-4617
ta	-4618
enal	-4619
iles	-4620
▁emb	-4621
▁Luck	-4622
▁gift	-4623
▁opin	-4624
▁type	-4625
▁wise	-4626
▁Abrah	-4627
▁south	-4628
▁Engine	-4629
▁honour	-4630
▁taught	-4631
▁Further	-4632
▁presence	-4633
▁hospitals	-4634
▁leadership	-4635
▁Chhattisgarh	-4636
ols	-4637
?"""	-4638
▁Bad	-4639
▁Dan	-4640
▁eye	-4641
acted	-4642
▁Tour	-4643
▁dark	-4644
▁Judah	-4645
▁Petrol	-4646
▁Second	-4647
▁Amitabh	-4648
▁usually	-4649
▁specific	-4650
▁recovered	-4651
▁distributed	-4652
PF	-4653
een	-4654
pro	-4655
▁4.	-4656
lied	-4657
▁1.5	-4658
▁Abd	-4659
▁Out	-4660
▁SUV	-4661
▁fif	-4662
anged	-4663
▁2017	-4664
▁basic	-4665
▁birds	-4666
▁Arvind	-4667
▁Dhawan	-4668
▁Mamata	-4669
▁advice	-4670
▁Teacher	-4671
▁awarded	-4672
▁selected	-4673
▁allegedly	-4674
▁coalition	-4675
▁interested	-4676
▁protection	-4677
vt	-4678
rap	-4679
abor	-4680
lymp	-4681
time	-4682
▁cop	-4683
venue	-4684
▁Tend	-4685
itamin	-4686
▁Assam	-4687
▁Mahat	-4688
▁funds	-4689
▁Donald	-4690
▁cinema	-4691
▁posted	-4692
▁skipper	-4693
▁thousand	-4694
▁Panchayat	-4695
che	-4696
rog	-4697
▁5.	-4698
▁125	-4699
▁Ste	-4700
achal	-4701
adium	-4702
inals	-4703
▁Sind	-4704
▁Step	-4705
▁Well	-4706
▁Yoga	-4707
▁Olymp	-4708
▁ended	-4709
▁hasnt	-4710
▁seems	-4711
▁Janata	-4712
▁easily	-4713
▁reduce	-4714
▁strict	-4715
▁strike	-4716
▁Actress	-4717
▁Officer	-4718
▁Railway	-4719
▁becomes	-4720
▁chaired	-4721
▁courage	-4722
▁birthday	-4723
▁compared	-4724
▁diseases	-4725
▁sometimes	-4726
▁introduced	-4727
▁temperature	-4728
EO	-4729
aly	-4730
sec	-4731
▁adj	-4732
ields	-4733
orial	-4734
ratic	-4735
▁BJPs	-4736
▁York	-4737
▁note	-4738
▁path	-4739
imated	-4740
▁Apart	-4741
▁overs	-4742
▁teasp	-4743
▁Mother	-4744
▁Mysore	-4745
▁career	-4746
▁circum	-4747
ilateral	-4748
▁learned	-4749
▁sisters	-4750
▁Business	-4751
▁practice	-4752
▁advantage	-4753
▁supported	-4754
ius	-4755
▁Bu	-4756
aced	-4757
iday	-4758
illa	-4759
▁Ver	-4760
▁bal	-4761
▁ign	-4762
▁ste	-4763
▁Were	-4764
▁amaz	-4765
▁prec	-4766
▁seek	-4767
▁Imran	-4768
▁defin	-4769
▁lakhs	-4770
▁Motors	-4771
▁defeat	-4772
▁ruling	-4773
▁anybody	-4774
▁counsel	-4775
▁limited	-4776
▁prophet	-4777
▁studies	-4778
▁Consider	-4779
▁deployed	-4780
▁requires	-4781
rial	-4782
uled	-4783
▁Gur	-4784
▁cat	-4785
based	-4786
▁Swar	-4787
▁goal	-4788
▁dance	-4789
▁whats	-4790
▁Assist	-4791
standing	-4792
ulations	-4793
▁commits	-4794
▁greater	-4795
▁managed	-4796
▁mankind	-4797
▁military	-4798
▁powerful	-4799
▁Otherwise	-4800
▁Adityanath	-4801
▁generation	-4802
SC	-4803
bar	-4804
ixt	-4805
off	-4806
ura	-4807
inth	-4808
raft	-4809
veer	-4810
▁202	-4811
▁Dem	-4812
▁Mon	-4813
▁mid	-4814
oring	-4815
▁Vill	-4816
▁cold	-4817
▁hurt	-4818
atform	-4819
itable	-4820
▁Gupta	-4821
▁March	-4822
▁desire	-4823
▁nearby	-4824
▁assault	-4825
▁succeed	-4826
▁promises	-4827
▁published	-4828
"",	-4829
▁fit	-4830
▁Show	-4831
▁weak	-4832
▁Bajaj	-4833
▁Price	-4834
▁costs	-4835
▁lived	-4836
▁Akshay	-4837
▁Control	-4838
▁approach	-4839
▁judicial	-4840
▁Mangaluru	-4841
▁Agriculture	-4842
za	-4843
equ	-4844
rad	-4845
▁(1	-4846
▁SC	-4847
anga	-4848
▁Ant	-4849
▁Rag	-4850
▁broke	-4851
▁faced	-4852
▁loans	-4853
▁Afghan	-4854
▁almost	-4855
▁female	-4856
▁attacks	-4857
▁demands	-4858
▁railway	-4859
▁facility	-4860
▁customers	-4861
▁investment	-4862
'.	-4863
▁4:	-4864
▁5:	-4865
more	-4866
▁Vik	-4867
ander	-4868
▁Music	-4869
▁Youth	-4870
▁Ganesh	-4871
▁Tendul	-4872
▁nobody	-4873
▁wisdom	-4874
▁contact	-4875
▁instead	-4876
▁reading	-4877
▁Research	-4878
▁Security	-4879
▁approval	-4880
▁resigned	-4881
▁Authority	-4882
▁Champions	-4883
▁reportedly	-4884
▁anniversary	-4885
▁compensation	-4886
▁understanding	-4887
ris	-4888
▁1:	-4889
▁3.	-4890
▁36	-4891
awar	-4892
ults	-4893
▁Dig	-4894
▁Lim	-4895
▁cas	-4896
anced	-4897
▁Gree	-4898
▁Jait	-4899
▁Rukh	-4900
▁bear	-4901
▁slog	-4902
▁Among	-4903
▁Start	-4904
▁stone	-4905
▁terms	-4906
stances	-4907
▁comput	-4908
▁longer	-4909
▁priced	-4910
▁America	-4911
▁prayers	-4912
▁stories	-4913
▁IN	-4914
▁IT	-4915
▁199	-4916
▁Oct	-4917
▁Ser	-4918
▁Vin	-4919
aling	-4920
antly	-4921
▁2016	-4922
▁Play	-4923
▁Qual	-4924
▁Yogi	-4925
▁bike	-4926
▁evil	-4927
▁quit	-4928
iction	-4929
ructed	-4930
▁League	-4931
▁assign	-4932
▁Mahatma	-4933
▁driving	-4934
▁entered	-4935
▁becoming	-4936
▁domestic	-4937
▁extended	-4938
▁priority	-4939
▁separate	-4940
▁recommend	-4941
jan	-4942
pic	-4943
▁33	-4944
▁cy	-4945
▁Neh	-4946
▁Know	-4947
▁Phot	-4948
▁bill	-4949
▁exch	-4950
▁mere	-4951
atures	-4952
▁Speaker	-4953
▁kingdom	-4954
▁writing	-4955
▁questioned	-4956
▁Information	-4957
AL	-4958
ava	-4959
raz	-4960
▁3,	-4961
▁BSP	-4962
▁Big	-4963
▁Get	-4964
▁Jio	-4965
▁Kan	-4966
▁Sho	-4967
▁rej	-4968
▁Prem	-4969
▁Happy	-4970
▁image	-4971
▁juice	-4972
▁sanct	-4973
endment	-4974
eshwara	-4975
▁begins	-4976
▁credit	-4977
▁theres	-4978
▁transl	-4979
▁wicket	-4980
▁Chandra	-4981
▁emotion	-4982
▁Mohammed	-4983
▁fighting	-4984
▁Transport	-4985
▁0	-4986
iya	-4987
run	-4988
▁370	-4989
eness	-4990
iddle	-4991
▁Nirm	-4992
▁Pict	-4993
▁bapt	-4994
▁load	-4995
arters	-4996
▁Prabh	-4997
▁fully	-4998
▁seeds	-4999
ossible	-5000
▁gather	-5001
▁Section	-5002
▁appeared	-5003
▁certific	-5004
▁honoured	-5005
▁planning	-5006
▁confident	-5007
▁assistance	-5008
In	-5009
rim	-5010
▁DK	-5011
▁bi	-5012
anas	-5013
auty	-5014
yond	-5015
▁Leg	-5016
▁Tax	-5017
▁sun	-5018
ients	-5019
▁Sund	-5020
▁burn	-5021
▁prin	-5022
▁sort	-5023
▁extra	-5024
▁glory	-5025
▁holds	-5026
▁spend	-5027
▁Pandey	-5028
▁device	-5029
▁govern	-5030
▁manner	-5031
Congress	-5032
▁Abraham	-5033
▁Similar	-5034
▁welcome	-5035
▁Manmohan	-5036
▁instance	-5037
▁shortage	-5038
▁situated	-5039
▁parliament	-5040
▁spokesperson	-5041
4,	-5042
▁_	-5043
▁GB	-5044
▁Na	-5045
▁Det	-5046
▁MPs	-5047
▁flu	-5048
lying	-5049
oward	-5050
▁hero	-5051
▁tbsp	-5052
araman	-5053
mortem	-5054
▁scene	-5055
▁tests	-5056
▁elders	-5057
▁finally	-5058
▁peoples	-5059
▁Citizens	-5060
▁attitude	-5061
▁Tendulkar	-5062
10	-5063
IS	-5064
aji	-5065
rup	-5066
itch	-5067
▁Sain	-5068
▁Whos	-5069
▁cool	-5070
▁Ambed	-5071
▁style	-5072
▁track	-5073
▁Indira	-5074
▁prizes	-5075
▁vision	-5076
▁Jaitley	-5077
▁granted	-5078
▁mission	-5079
▁reduced	-5080
▁contesting	-5081
▁institutions	-5082
▁respectively	-5083
AT	-5084
gred	-5085
orge	-5086
▁Hes	-5087
▁Jai	-5088
▁flag	-5089
▁fuel	-5090
▁luck	-5091
▁symb	-5092
▁Asian	-5093
▁absol	-5094
▁flesh	-5095
▁harass	-5096
▁locals	-5097
▁overse	-5098
▁contain	-5099
▁sitting	-5100
▁version	-5101
▁anointed	-5102
▁surround	-5103
▁particularly	-5104
IP	-5105
gin	-5106
hab	-5107
ila	-5108
oda	-5109
▁--	-5110
They	-5111
What	-5112
idge	-5113
▁Vid	-5114
▁bed	-5115
▁Bhag	-5116
▁East	-5117
▁Iran	-5118
vation	-5119
▁Manoh	-5120
▁arent	-5121
▁vital	-5122
▁Action	-5123
▁Econom	-5124
▁Sports	-5125
▁acting	-5126
▁fields	-5127
▁myself	-5128
▁relief	-5129
inations	-5130
▁payment	-5131
▁prepare	-5132
▁struggle	-5133
▁described	-5134
▁protesters	-5135
▁terrorists	-5136
4.	-5137
AM	-5138
sy	-5139
son	-5140
▁8.	-5141
▁Ba	-5142
alli	-5143
otal	-5144
rack	-5145
▁Min	-5146
iabet	-5147
▁Conf	-5148
▁KPCC	-5149
▁Once	-5150
▁cris	-5151
▁rare	-5152
▁Krish	-5153
▁Pandya	-5154
▁latest	-5155
▁memory	-5156
▁Bharati	-5157
▁Current	-5158
▁History	-5159
▁defence	-5160
▁colleges	-5161
▁platform	-5162
▁Everybody	-5163
▁Mangalore	-5164
▁constructed	-5165
CB	-5166
xy	-5167
yan	-5168
▁45	-5169
▁il	-5170
gend	-5171
▁Set	-5172
▁lie	-5173
▁tom	-5174
Phone	-5175
igence	-5176
▁Earth	-5177
▁Mohan	-5178
▁flour	-5179
▁Joseph	-5180
▁Swaraj	-5181
▁apolog	-5182
▁lesson	-5183
▁signed	-5184
▁warned	-5185
▁worlds	-5186
▁Manohar	-5187
▁opening	-5188
▁Moreover	-5189
▁changing	-5190
▁criminal	-5191
▁certainly	-5192
▁explained	-5193
▁principles	-5194
ER	-5195
bir	-5196
box	-5197
hus	-5198
ipur	-5199
lies	-5200
mosp	-5201
▁CEO	-5202
▁unf	-5203
ester	-5204
▁Brah	-5205
▁Very	-5206
▁lear	-5207
lights	-5208
▁Apple	-5209
▁Bhatt	-5210
▁Modis	-5211
▁calls	-5212
▁frequ	-5213
▁fresh	-5214
▁illeg	-5215
▁loyal	-5216
ression	-5217
▁Candid	-5218
▁altern	-5219
▁rather	-5220
▁batsman	-5221
▁promised	-5222
▁awareness	-5223
▁encourage	-5224
▁differences	-5225
ela	-5226
iet	-5227
asts	-5228
mark	-5229
ster	-5230
▁Jad	-5231
▁Jon	-5232
▁Val	-5233
▁anx	-5234
▁emp	-5235
▁rum	-5236
ashes	-5237
iment	-5238
rench	-5239
▁govt	-5240
▁hath	-5241
▁rock	-5242
▁Class	-5243
▁buses	-5244
▁drive	-5245
▁homes	-5246
▁purch	-5247
▁sight	-5248
▁virus	-5249
vention	-5250
▁Odisha	-5251
▁border	-5252
▁delive	-5253
▁learnt	-5254
▁Matthew	-5255
▁content	-5256
▁divided	-5257
▁victims	-5258
▁judgment	-5259
▁established	-5260
▁investigations	-5261
ilty	-5262
▁Any	-5263
▁Gad	-5264
▁Vis	-5265
▁Gaur	-5266
▁Pric	-5267
▁pref	-5268
▁wash	-5269
elines	-5270
ikanth	-5271
ounded	-5272
▁lands	-5273
▁title	-5274
▁placed	-5275
▁consult	-5276
▁factors	-5277
▁section	-5278
gredients	-5279
▁potential	-5280
▁providing	-5281
▁properties	-5282
▁discussions	-5283
9.	-5284
arh	-5285
▁Ja	-5286
gery	-5287
ooth	-5288
phas	-5289
rant	-5290
▁Mil	-5291
▁esc	-5292
eless	-5293
inate	-5294
▁Book	-5295
ancing	-5296
▁Human	-5297
▁Paduk	-5298
▁noted	-5299
▁Method	-5300
▁atmosp	-5301
▁chance	-5302
▁simply	-5303
▁trains	-5304
▁fathers	-5305
▁follows	-5306
▁carrying	-5307
▁delivered	-5308
▁resources	-5309
▁congratulated	-5310
.,	-5311
▁IC	-5312
dess	-5313
▁AAP	-5314
▁hop	-5315
▁rob	-5316
arily	-5317
ellow	-5318
idamb	-5319
▁Arab	-5320
▁Five	-5321
▁Rain	-5322
▁Sith	-5323
▁Venk	-5324
▁clar	-5325
▁clot	-5326
▁forms	-5327
▁looks	-5328
▁sport	-5329
▁uncle	-5330
▁Around	-5331
▁Others	-5332
▁undert	-5333
▁delight	-5334
▁measure	-5335
▁removed	-5336
▁sharing	-5337
▁willing	-5338
▁Srinivas	-5339
▁estimated	-5340
▁standards	-5341
▁Afghanistan	-5342
▁conversation	-5343
You	-5344
bel	-5345
▁48	-5346
▁7.	-5347
▁Um	-5348
▁10.	-5349
▁NCP	-5350
▁RSS	-5351
▁Saf	-5352
icted	-5353
reams	-5354
uddin	-5355
▁Mall	-5356
▁size	-5357
▁James	-5358
▁Woman	-5359
▁micro	-5360
▁resur	-5361
▁sides	-5362
▁beyond	-5363
▁amazing	-5364
▁minimum	-5365
▁ongoing	-5366
▁opinion	-5367
▁Ambedkar	-5368
▁Internet	-5369
▁lockdown	-5370
▁negative	-5371
▁numerous	-5372
▁straight	-5373
▁terrorism	-5374
▁Sitharaman	-5375
TM	-5376
het	-5377
lus	-5378
tha	-5379
▁UN	-5380
ahar	-5381
▁tea	-5382
inner	-5383
rated	-5384
▁heat	-5385
▁sell	-5386
porary	-5387
▁Organ	-5388
▁Timot	-5389
▁crowd	-5390
▁Chandr	-5391
▁highly	-5392
▁resist	-5393
▁stands	-5394
▁welcom	-5395
▁concept	-5396
▁Although	-5397
▁Padukone	-5398
▁historic	-5399
▁internet	-5400
▁agriculture	-5401
▁participate	-5402
▁contribution	-5403
▁circumstances	-5404
ih	-5405
cul	-5406
mes	-5407
met	-5408
thy	-5409
▁kg	-5410
aken	-5411
chol	-5412
ruck	-5413
▁Aug	-5414
▁Eat	-5415
▁Inf	-5416
▁dog	-5417
craft	-5418
▁2015	-5419
▁Vive	-5420
▁mach	-5421
▁magn	-5422
▁mish	-5423
▁Games	-5424
▁hours	-5425
arkhand	-5426
lasting	-5427
▁France	-5428
▁Theyre	-5429
▁guilty	-5430
▁remove	-5431
eptember	-5432
▁complex	-5433
▁forever	-5434
▁imposed	-5435
▁systems	-5436
▁warning	-5437
▁Official	-5438
▁audience	-5439
▁directly	-5440
▁infection	-5441
▁employment	-5442
▁independent	-5443
▁constitution	-5444
TC	-5445
▁u	-5446
upi	-5447
▁6.	-5448
▁Ko	-5449
vert	-5450
▁Ann	-5451
▁Pan	-5452
iders	-5453
itect	-5454
right	-5455
vious	-5456
▁Fund	-5457
▁west	-5458
tained	-5459
vendra	-5460
▁Still	-5461
▁Udupi	-5462
▁shown	-5463
▁waste	-5464
▁booked	-5465
▁crisis	-5466
▁factor	-5467
▁plenty	-5468
▁organis	-5469
▁produce	-5470
▁comments	-5471
▁contains	-5472
▁distance	-5473
▁sustained	-5474
▁tradition	-5475
▁commercial	-5476
▁journalist	-5477
▁arrangements	-5478
pay	-5479
uff	-5480
eler	-5481
hara	-5482
hore	-5483
star	-5484
▁Pul	-5485
▁bag	-5486
enger	-5487
▁laug	-5488
▁tank	-5489
▁Sinha	-5490
▁alert	-5491
▁mouth	-5492
▁prize	-5493
▁casual	-5494
▁perman	-5495
▁plants	-5496
▁priest	-5497
▁proced	-5498
▁Limited	-5499
▁Ranveer	-5500
▁Welfare	-5501
▁feeling	-5502
▁mistake	-5503
▁quarter	-5504
idambaram	-5505
▁attacked	-5506
▁feelings	-5507
▁agreement	-5508
▁atmosphere	-5509
▁transferred	-5510
2.	-5511
Is	-5512
enn	-5513
▁Po	-5514
pass	-5515
ruit	-5516
▁Kas	-5517
▁Nep	-5518
▁fra	-5519
aving	-5520
erted	-5521
▁Jain	-5522
▁Like	-5523
▁imag	-5524
▁pieces	-5525
▁reward	-5526
▁showed	-5527
▁summer	-5528
▁Narayan	-5529
▁massive	-5530
▁promise	-5531
▁Services	-5532
▁inspired	-5533
▁standard	-5534
▁Chidambaram	-5535
AD	-5536
AS	-5537
▁Ka	-5538
ache	-5539
hens	-5540
lict	-5541
wadi	-5542
▁Mir	-5543
▁amb	-5544
▁mir	-5545
ronic	-5546
▁Cult	-5547
▁Lank	-5548
▁adop	-5549
▁prob	-5550
▁sick	-5551
onding	-5552
▁Found	-5553
▁Vivek	-5554
▁caste	-5555
▁falls	-5556
▁motiv	-5557
illions	-5558
olution	-5559
▁Ambani	-5560
▁Compan	-5561
▁Jadhav	-5562
▁Manish	-5563
▁Mysuru	-5564
▁banned	-5565
▁deputy	-5566
▁excell	-5567
▁headed	-5568
▁mishap	-5569
▁rising	-5570
▁Foreign	-5571
▁Nirmala	-5572
▁attract	-5573
▁killing	-5574
▁patient	-5575
▁servant	-5576
▁trouble	-5577
▁bilateral	-5578
▁insurance	-5579
▁Scriptures	-5580
▁electricity	-5581
2-	-5582
ato	-5583
▁CR	-5584
ixel	-5585
▁Jac	-5586
▁Bhat	-5587
▁laid	-5588
▁toll	-5589
ashion	-5590
garwal	-5591
▁Civil	-5592
▁Sindhu	-5593
▁beauty	-5594
▁belief	-5595
▁breath	-5596
▁pepper	-5597
▁please	-5598
▁Doctors	-5599
▁Shikhar	-5600
▁exactly	-5601
▁helping	-5602
▁Ravindra	-5603
▁achieved	-5604
▁standing	-5605
▁stations	-5606
▁dismissed	-5607
▁expensive	-5608
aud	-5609
eum	-5610
hek	-5611
wan	-5612
▁Tal	-5613
▁mal	-5614
akers	-5615
eting	-5616
izing	-5617
▁Cong	-5618
▁pand	-5619
intend	-5620
▁Aamir	-5621
▁Const	-5622
▁bound	-5623
▁debut	-5624
▁indic	-5625
▁stood	-5626
▁unity	-5627
▁writer	-5628
▁Kuldeep	-5629
▁Timothy	-5630
▁collaps	-5631
▁resolve	-5632
▁slogans	-5633
▁tourist	-5634
▁creation	-5635
▁kindness	-5636
▁Elections	-5637
▁Jharkhand	-5638
▁Sometimes	-5639
▁principal	-5640
▁investigated	-5641
▁!	-5642
new	-5643
ula	-5644
▁wa	-5645
ione	-5646
rary	-5647
▁Far	-5648
▁Rat	-5649
▁Shr	-5650
▁Vaj	-5651
▁dro	-5652
▁fle	-5653
grees	-5654
▁June	-5655
▁Sche	-5656
▁poet	-5657
▁tend	-5658
ipment	-5659
▁Chall	-5660
▁Green	-5661
▁Verma	-5662
▁older	-5663
actions	-5664
▁Should	-5665
▁animal	-5666
▁Service	-5667
▁depends	-5668
▁category	-5669
▁existing	-5670
▁properly	-5671
▁teaspoon	-5672
▁thoughts	-5673
▁authority	-5674
▁entertain	-5675
▁receiving	-5676
▁regularly	-5677
▁wonderful	-5678
▁inaugurated	-5679
▁partnership	-5680
0-	-5681
1,	-5682
Ch	-5683
MK	-5684
▁Ha	-5685
That	-5686
▁Bag	-5687
▁Mag	-5688
▁Nir	-5689
▁gun	-5690
abled	-5691
▁List	-5692
▁Sang	-5693
▁blue	-5694
▁cook	-5695
▁Avoid	-5696
▁Black	-5697
▁Karan	-5698
▁oppos	-5699
▁shout	-5700
▁truly	-5701
▁Hardik	-5702
▁asking	-5703
▁filled	-5704
▁firing	-5705
▁honest	-5706
▁iPhone	-5707
▁pandemic	-5708
▁Candidates	-5709
▁competitions	-5710
ba	-5711
▁75	-5712
▁Ro	-5713
dule	-5714
wali	-5715
wara	-5716
▁Aar	-5717
▁Hol	-5718
▁Was	-5719
▁shr	-5720
cript	-5721
▁Come	-5722
▁Mahe	-5723
▁Main	-5724
▁sale	-5725
aution	-5726
▁Laksh	-5727
▁Willi	-5728
▁angry	-5729
▁sheep	-5730
▁theat	-5731
▁French	-5732
▁Hebrew	-5733
▁broken	-5734
▁territ	-5735
▁degrees	-5736
▁promote	-5737
▁unknown	-5738
▁Mohammad	-5739
▁finished	-5740
▁architect	-5741
▁cancelled	-5742
▁fulfilled	-5743
▁producing	-5744
▁responded	-5745
▁villagers	-5746
▁impossible	-5747
gap	-5748
gen	-5749
▁Er	-5750
inar	-5751
vant	-5752
▁Mer	-5753
▁ast	-5754
▁Amaz	-5755
▁Govt	-5756
▁Kore	-5757
▁Saul	-5758
▁obey	-5759
▁Great	-5760
▁crops	-5761
▁goals	-5762
captain	-5763
▁handle	-5764
▁scared	-5765
▁Protest	-5766
▁reflect	-5767
▁heavenly	-5768
▁household	-5769
▁surprised	-5770
▁terrorist	-5771
▁accompanied	-5772
7,	-5773
oi	-5774
unk	-5775
▁6:	-5776
▁ec	-5777
athy	-5778
face	-5779
ikar	-5780
like	-5781
ovid	-5782
tage	-5783
▁Dub	-5784
▁MoU	-5785
▁Mor	-5786
owing	-5787
▁Sure	-5788
hishek	-5789
ixture	-5790
▁Major	-5791
▁inher	-5792
▁manif	-5793
charged	-5794
▁Though	-5795
▁injury	-5796
▁origin	-5797
▁rivers	-5798
▁symbol	-5799
▁worshi	-5800
▁actions	-5801
▁holding	-5802
▁keeping	-5803
▁quickly	-5804
▁anywhere	-5805
▁defeated	-5806
▁sections	-5807
▁unfortun	-5808
▁welcomed	-5809
▁Assistant	-5810
▁increases	-5811
▁technical	-5812
▁associated	-5813
▁constituencies	-5814
2,	-5815
gi	-5816
▁$	-5817
yas	-5818
iger	-5819
iter	-5820
▁Att	-5821
▁Gar	-5822
▁Ins	-5823
▁Tur	-5824
▁nab	-5825
▁Need	-5826
▁Writ	-5827
▁fish	-5828
▁vent	-5829
▁chair	-5830
▁pione	-5831
▁prove	-5832
▁Person	-5833
▁emphas	-5834
▁floods	-5835
▁illust	-5836
▁rupees	-5837
▁tables	-5838
▁Corinth	-5839
▁ability	-5840
▁conclud	-5841
▁crucial	-5842
▁leaving	-5843
▁polling	-5844
intendent	-5845
▁Abhishek	-5846
▁Independ	-5847
▁Teachers	-5848
▁transform	-5849
▁ingredients	-5850
SP	-5851
iri	-5852
▁Ty	-5853
cell	-5854
▁Gen	-5855
▁Thr	-5856
▁mut	-5857
▁yes	-5858
itely	-5859
ooter	-5860
ource	-5861
▁Devi	-5862
▁Lear	-5863
▁roll	-5864
▁toss	-5865
▁Death	-5866
▁Money	-5867
▁bread	-5868
▁honor	-5869
▁raise	-5870
▁stock	-5871
certain	-5872
iabetes	-5873
▁Mandya	-5874
▁inspir	-5875
▁onions	-5876
▁voters	-5877
quarters	-5878
▁consequ	-5879
▁schemes	-5880
▁Railways	-5881
▁Republic	-5882
▁repeated	-5883
▁watching	-5884
ricultural	-5885
▁Bharatiya	-5886
▁connected	-5887
▁medicines	-5888
▁prominent	-5889
▁everlasting	-5890
▁expectations	-5891
rel	-5892
rid	-5893
▁9.	-5894
▁Mu	-5895
acle	-5896
▁Som	-5897
▁kil	-5898
▁sem	-5899
▁Gund	-5900
▁Nove	-5901
▁Port	-5902
itizen	-5903
▁Press	-5904
▁Vehic	-5905
▁guest	-5906
▁marks	-5907
▁views	-5908
▁Rajesh	-5909
▁Sushma	-5910
▁moving	-5911
▁praise	-5912
▁suffer	-5913
▁survey	-5914
▁Traffic	-5915
▁accompl	-5916
ibilities	-5917
▁External	-5918
▁aircraft	-5919
▁Currently	-5920
▁militants	-5921
▁communication	-5922
1.	-5923
80	-5924
OS	-5925
aks	-5926
atha	-5927
▁Bir	-5928
▁Tom	-5929
▁cul	-5930
▁mig	-5931
inton	-5932
▁Head	-5933
▁Star	-5934
▁aver	-5935
▁meat	-5936
▁tips	-5937
▁toil	-5938
▁wide	-5939
iverse	-5940
▁Could	-5941
▁Creat	-5942
▁Kamal	-5943
▁Today	-5944
▁attra	-5945
▁depos	-5946
imately	-5947
▁annual	-5948
▁passes	-5949
▁resurre	-5950
▁November	-5951
▁original	-5952
▁Municipal	-5953
▁September	-5954
▁Similarly	-5955
▁permanent	-5956
▁qualities	-5957
▁background	-5958
▁complaints	-5959
▁foundation	-5960
▁organisation	-5961
9,	-5962
ox	-5963
asc	-5964
ero	-5965
▁1/	-5966
alys	-5967
eras	-5968
hern	-5969
peat	-5970
▁kid	-5971
odhya	-5972
overy	-5973
ullah	-5974
▁Bhuv	-5975
▁Free	-5976
▁dual	-5977
▁wall	-5978
▁Babyl	-5979
▁Kapil	-5980
▁Nepal	-5981
▁Pawar	-5982
▁broad	-5983
▁imper	-5984
▁shops	-5985
▁taste	-5986
▁abroad	-5987
▁prison	-5988
▁rescue	-5989
▁retire	-5990
▁tested	-5991
▁values	-5992
▁Ayodhya	-5993
▁Various	-5994
▁consist	-5995
▁flowers	-5996
▁fulfill	-5997
▁illegal	-5998
▁parking	-5999
▁privile	-6000
▁controll	-6001
▁countrys	-6002
▁approached	-6003
▁resolution	-6004
40	-6005
▁ep	-6006
unal	-6007
▁Heg	-6008
▁Kat	-6009
▁Men	-6010
▁Rad	-6011
▁sky	-6012
anand	-6013
▁Acad	-6014
▁Mary	-6015
▁base	-6016
▁race	-6017
ington	-6018
▁Greek	-6019
▁entry	-6020
▁floor	-6021
▁ideas	-6022
▁likes	-6023
▁litre	-6024
▁paper	-6025
orthern	-6026
▁Budget	-6027
▁Nitish	-6028
▁images	-6029
▁Project	-6030
▁appoint	-6031
▁assured	-6032
▁clearly	-6033
▁finance	-6034
▁markets	-6035
▁mixture	-6036
▁greatest	-6037
▁Ahmedabad	-6038
▁selection	-6039
▁historical	-6040
▁literature	-6041
▁applications	-6042
▁IS	-6043
▁Sl	-6044
▁Ti	-6045
itha	-6046
oure	-6047
pher	-6048
rits	-6049
▁12.	-6050
▁Das	-6051
▁Div	-6052
▁Eli	-6053
▁Kov	-6054
▁Mov	-6055
▁NDA	-6056
▁Yed	-6057
athan	-6058
icles	-6059
itage	-6060
umber	-6061
▁Sams	-6062
▁Talk	-6063
▁bond	-6064
▁dele	-6065
▁fool	-6066
▁trig	-6067
orough	-6068
▁White	-6069
▁aband	-6070
▁alive	-6071
▁fifth	-6072
▁foods	-6073
▁gradu	-6074
▁marry	-6075
▁proof	-6076
▁Repeat	-6077
▁butter	-6078
▁orders	-6079
▁starts	-6080
▁Details	-6081
▁October	-6082
▁Swamiji	-6083
▁charged	-6084
▁despite	-6085
▁encount	-6086
▁variant	-6087
▁weather	-6088
▁apostles	-6089
▁excellent	-6090
▁followers	-6091
▁mandatory	-6092
▁statements	-6093
AR	-6094
ns	-6095
ti	-6096
coh	-6097
ief	-6098
▁Ob	-6099
anti	-6100
dden	-6101
hana	-6102
▁Bre	-6103
▁egg	-6104
▁hom	-6105
▁isn	-6106
▁tsp	-6107
acker	-6108
lands	-6109
▁Jews	-6110
▁July	-6111
▁Soon	-6112
▁chap	-6113
▁hate	-6114
▁hits	-6115
▁leng	-6116
▁liqu	-6117
▁murd	-6118
▁narr	-6119
▁scam	-6120
▁Param	-6121
▁cards	-6122
▁items	-6123
▁stake	-6124
gapixel	-6125
▁August	-6126
▁behold	-6127
▁flight	-6128
▁wealth	-6129
inikanth	-6130
▁January	-6131
▁clothes	-6132
▁emerged	-6133
▁Mahendra	-6134
▁Speaking	-6135
▁location	-6136
▁referred	-6137
▁resolved	-6138
▁whatever	-6139
▁activists	-6140
▁relatives	-6141
▁supporting	-6142
▁departments	-6143
▁manufacturer	-6144
▁righteousness	-6145
ext	-6146
ima	-6147
ora	-6148
arty	-6149
aves	-6150
ores	-6151
osen	-6152
▁Bah	-6153
▁Bum	-6154
▁Kod	-6155
▁Oil	-6156
▁Ret	-6157
akshi	-6158
orted	-6159
rophy	-6160
▁dear	-6161
▁mine	-6162
▁seed	-6163
▁subs	-6164
overty	-6165
▁Inter	-6166
▁Patna	-6167
▁Tests	-6168
▁adequ	-6169
▁chann	-6170
▁meant	-6171
▁occup	-6172
▁pride	-6173
▁raped	-6174
▁Daniel	-6175
▁Isaiah	-6176
▁claims	-6177
▁legend	-6178
▁Babylon	-6179
▁advance	-6180
▁causing	-6181
▁centuries	-6182
▁reporters	-6183
▁requested	-6184
▁provisions	-6185
LC	-6186
UR	-6187
imb	-6188
▁5,	-6189
▁Fa	-6190
keep	-6191
▁Ref	-6192
▁Ter	-6193
▁gas	-6194
askar	-6195
atoes	-6196
emies	-6197
level	-6198
ockey	-6199
verbs	-6200
▁diss	-6201
▁rice	-6202
▁wear	-6203
▁Hegde	-6204
▁Nitin	-6205
▁Solom	-6206
▁Yediy	-6207
▁rapid	-6208
▁upset	-6209
▁Forest	-6210
▁branch	-6211
▁brings	-6212
▁script	-6213
▁Stadium	-6214
▁couldnt	-6215
▁digital	-6216
▁proceed	-6217
▁variety	-6218
▁younger	-6219
▁argument	-6220
▁influence	-6221
▁worldwide	-6222
▁beneficial	-6223
▁developing	-6224
▁university	-6225
▁Rajinikanth	-6226
ES	-6227
▁2-	-6228
▁BM	-6229
▁TH	-6230
ucle	-6231
wama	-6232
▁Bat	-6233
▁IPC	-6234
▁Jaw	-6235
▁Rev	-6236
apers	-6237
cohol	-6238
pline	-6239
▁Manj	-6240
▁Sant	-6241
▁Year	-6242
▁caut	-6243
▁Feder	-6244
▁Smith	-6245
▁kings	-6246
▁solve	-6247
ressing	-6248
▁Launch	-6249
▁Prices	-6250
▁chosen	-6251
▁corpor	-6252
▁hearts	-6253
▁master	-6254
▁ticket	-6255
ployment	-6256
▁Society	-6257
▁affairs	-6258
▁billion	-6259
▁blessed	-6260
▁gearbox	-6261
▁computer	-6262
▁designed	-6263
▁observed	-6264
▁thorough	-6265
▁confusion	-6266
▁emotional	-6267
▁procedure	-6268
AA	-6269
yn	-6270
oga	-6271
▁Ev	-6272
▁Gh	-6273
▁du	-6274
iran	-6275
izes	-6276
unch	-6277
uous	-6278
▁800	-6279
▁Raf	-6280
▁bul	-6281
enant	-6282
ipped	-6283
ption	-6284
verse	-6285
▁Glob	-6286
▁Hero	-6287
▁Mish	-6288
rupted	-6289
▁Produ	-6290
▁apart	-6291
▁sched	-6292
▁trail	-6293
▁trend	-6294
▁Kovind	-6295
▁cultiv	-6296
▁extend	-6297
▁sudden	-6298
▁batting	-6299
▁cameras	-6300
▁equipment	-6301
▁interests	-6302
▁manufacturing	-6303
▁organisations	-6304
.'	-6305
MS	-6306
oe	-6307
,99	-6308
xic	-6309
▁5-	-6310
▁II	-6311
itya	-6312
▁jew	-6313
▁log	-6314
▁sam	-6315
eding	-6316
igarh	-6317
match	-6318
otten	-6319
tower	-6320
▁Budd	-6321
▁dial	-6322
▁peak	-6323
▁sins	-6324
anguly	-6325
cember	-6326
▁Quest	-6327
▁Think	-6328
▁blast	-6329
▁burnt	-6330
▁catch	-6331
▁grief	-6332
▁ruled	-6333
▁saved	-6334
▁schol	-6335
▁sword	-6336
theless	-6337
▁Applic	-6338
▁Bumrah	-6339
▁Mishra	-6340
▁chilli	-6341
▁eating	-6342
▁losing	-6343
▁Pulwama	-6344
▁chopped	-6345
▁citizen	-6346
▁counter	-6347
▁devices	-6348
▁Interest	-6349
▁Proverbs	-6350
▁peaceful	-6351
▁untoward	-6352
▁initiated	-6353
▁witnessed	-6354
anj	-6355
ray	-6356
▁mo	-6357
kari	-6358
▁Due	-6359
▁Ish	-6360
▁Mat	-6361
▁Sil	-6362
▁fel	-6363
▁mos	-6364
essor	-6365
▁2014	-6366
▁Adam	-6367
▁Ajay	-6368
▁Babu	-6369
▁Isnt	-6370
▁Last	-6371
▁Mess	-6372
▁cove	-6373
▁rose	-6374
▁vacc	-6375
▁weap	-6376
▁Benef	-6377
▁Chris	-6378
▁Count	-6379
▁Joshi	-6380
▁Mayor	-6381
▁River	-6382
▁brief	-6383
▁greet	-6384
▁moral	-6385
▁posts	-6386
▁trial	-6387
▁weeks	-6388
▁Change	-6389
▁Diwali	-6390
▁artist	-6391
▁behalf	-6392
▁church	-6393
▁phones	-6394
▁videos	-6395
▁youths	-6396
▁Hundred	-6397
▁Instead	-6398
▁battery	-6399
▁enemies	-6400
▁engines	-6401
▁failure	-6402
▁tablesp	-6403
▁trained	-6404
▁welfare	-6405
▁Electric	-6406
▁blessing	-6407
▁cautious	-6408
▁manifest	-6409
▁accidents	-6410
▁blessings	-6411
▁carefully	-6412
▁demanding	-6413
▁structure	-6414
▁characters	-6415
▁permission	-6416
▁television	-6417
▁Yediyurappa	-6418
▁celebrations	-6419
NI	-6420
mm	-6421
col	-6422
oti	-6423
▁65	-6424
▁BR	-6425
adra	-6426
avan	-6427
ffee	-6428
gent	-6429
icon	-6430
wing	-6431
▁Ang	-6432
▁Meh	-6433
▁Ras	-6434
▁kne	-6435
adeja	-6436
andra	-6437
utely	-6438
▁Alia	-6439
▁Next	-6440
▁Pass	-6441
▁Spir	-6442
▁Tell	-6443
▁soil	-6444
▁Covid	-6445
▁Media	-6446
▁Shami	-6447
▁files	-6448
▁innov	-6449
▁notes	-6450
▁store	-6451
ackeray	-6452
▁conven	-6453
▁danger	-6454
▁middle	-6455
▁submit	-6456
▁useful	-6457
▁Ganguly	-6458
▁Without	-6459
▁revenue	-6460
▁Srinagar	-6461
▁document	-6462
▁starting	-6463
▁addressed	-6464
▁collapsed	-6465
▁everybody	-6466
▁Governments	-6467
▁association	-6468
▁investigate	-6469
3.	-6470
SD	-6471
jit	-6472
mas	-6473
▁4,	-6474
▁Id	-6475
▁UK	-6476
aidu	-6477
aved	-6478
grim	-6479
▁Hon	-6480
▁JDS	-6481
▁SBI	-6482
▁Try	-6483
▁dia	-6484
umble	-6485
▁Exec	-6486
▁Heat	-6487
▁Help	-6488
▁Khar	-6489
▁Name	-6490
▁Note	-6491
▁Rana	-6492
▁Rish	-6493
▁calm	-6494
▁stre	-6495
▁tong	-6496
ickets	-6497
▁Clean	-6498
▁Jacob	-6499
▁mercy	-6500
▁signs	-6501
▁Amazon	-6502
▁bright	-6503
▁larger	-6504
▁collect	-6505
▁illness	-6506
▁perhaps	-6507
▁remarks	-6508
megapixel	-6509
▁Rajkumar	-6510
▁producer	-6511
▁restrict	-6512
▁transfer	-6513
▁Thackeray	-6514
▁favourite	-6515
▁pollution	-6516
▁Washington	-6517
▁scientific	-6518
▁preparations	-6519
▁subsequently	-6520
60	-6521
zz	-6522
aha	-6523
▁AB	-6524
cuit	-6525
life	-6526
▁Jam	-6527
▁Pur	-6528
▁Rak	-6529
▁sed	-6530
adise	-6531
chers	-6532
▁Cham	-6533
▁Give	-6534
▁Pant	-6535
▁Vict	-6536
▁drop	-6537
▁fill	-6538
▁grew	-6539
▁task	-6540
anging	-6541
ifying	-6542
▁Aaron	-6543
▁Again	-6544
▁Gopal	-6545
▁Umesh	-6546
▁fixed	-6547
▁ideal	-6548
▁magaz	-6549
▁stret	-6550
▁twice	-6551
unately	-6552
▁Jadeja	-6553
▁Office	-6554
▁seeing	-6555
▁centres	-6556
▁enjoyed	-6557
▁experts	-6558
▁shocked	-6559
▁voltage	-6560
▁hundreds	-6561
▁exception	-6562
▁integrity	-6563
▁Israelites	-6564
▁thereafter	-6565
▁experienced	-6566
▁possibility	-6567
▁headquarters	-6568
25	-6569
75	-6570
FC	-6571
RS	-6572
▁|	-6573
cha	-6574
nes	-6575
▁Oh	-6576
rees	-6577
▁CPI	-6578
▁Nay	-6579
▁Sir	-6580
▁Sug	-6581
▁Top	-6582
▁ble	-6583
▁rad	-6584
anasi	-6585
idden	-6586
payee	-6587
ushan	-6588
▁Answ	-6589
▁Phil	-6590
▁Tele	-6591
▁asks	-6592
▁boys	-6593
▁busy	-6594
▁ends	-6595
▁hill	-6596
▁nine	-6597
▁oath	-6598
▁uses	-6599
ighter	-6600
▁Naidu	-6601
▁Nehru	-6602
▁Would	-6603
▁balls	-6604
▁deter	-6605
▁kills	-6606
▁pages	-6607
▁taluk	-6608
ciences	-6609
▁Ashwin	-6610
▁Common	-6611
▁length	-6612
▁Company	-6613
▁Reserve	-6614
▁Solomon	-6615
▁cabinet	-6616
▁inherit	-6617
▁records	-6618
▁Reliance	-6619
▁elements	-6620
▁Officials	-6621
▁intention	-6622
▁Watchtower	-6623
▁surprising	-6624
▁unfortunate	-6625
pa	-6626
jah	-6627
pex	-6628
▁La	-6629
▁NE	-6630
aked	-6631
asks	-6632
inse	-6633
riya	-6634
▁Gal	-6635
▁der	-6636
▁tab	-6637
evers	-6638
force	-6639
thern	-6640
using	-6641
▁Cels	-6642
▁Fans	-6643
▁Lakh	-6644
▁Saif	-6645
▁Yash	-6646
▁east	-6647
▁isol	-6648
▁unve	-6649
▁wasn	-6650
apuram	-6651
friend	-6652
▁Gauri	-6653
▁Malik	-6654
▁Samaj	-6655
▁exhib	-6656
▁faces	-6657
▁lying	-6658
▁react	-6659
▁shalt	-6660
lection	-6661
▁Church	-6662
▁lawyer	-6663
▁limits	-6664
▁manage	-6665
▁skills	-6666
▁united	-6667
▁waters	-6668
▁Russian	-6669
▁prosper	-6670
▁underst	-6671
▁European	-6672
▁examined	-6673
▁identify	-6674
▁opposite	-6675
▁studying	-6676
▁Executive	-6677
▁Financial	-6678
▁scheduled	-6679
▁suspected	-6680
▁Foundation	-6681
▁collection	-6682
▁continuing	-6683
▁friendship	-6684
▁guidelines	-6685
▁photograph	-6686
▁protestors	-6687
▁traditional	-6688
▁Superintendent	-6689
15	-6690
90	-6691
As	-6692
ael	-6693
cyl	-6694
isc	-6695
law	-6696
▁0.	-6697
imal	-6698
ming	-6699
▁mob	-6700
apped	-6701
mical	-6702
▁Code	-6703
▁None	-6704
▁Prov	-6705
▁Warn	-6706
▁culp	-6707
▁debt	-6708
akhand	-6709
▁escap	-6710
▁goods	-6711
▁urban	-6712
ections	-6713
▁mostly	-6714
▁parent	-6715
▁statue	-6716
▁winter	-6717
▁Academy	-6718
▁Airport	-6719
▁Celsius	-6720
▁aspects	-6721
▁engaged	-6722
▁install	-6723
▁passing	-6724
▁Himachal	-6725
▁Hundreds	-6726
▁involves	-6727
▁proposed	-6728
▁resulted	-6729
▁policemen	-6730
▁travelling	-6731
▁alternative	-6732
▁appreciated	-6733
%.	-6734
3,	-6735
OC	-6736
ux	-6737
bal	-6738
ajan	-6739
iser	-6740
ogue	-6741
poll	-6742
▁...	-6743
▁Han	-6744
▁Ill	-6745
▁PTI	-6746
▁Win	-6747
▁aid	-6748
arden	-6749
▁Card	-6750
▁Kund	-6751
▁reci	-6752
iments	-6753
▁color	-6754
neshwar	-6755
▁Deepak	-6756
▁except	-6757
▁forced	-6758
▁fought	-6759
cylinder	-6760
▁context	-6761
▁pending	-6762
▁pilgrim	-6763
▁poverty	-6764
▁Varanasi	-6765
▁bringing	-6766
▁collabor	-6767
▁concerns	-6768
▁mountain	-6769
▁gathering	-6770
▁eventually	-6771
▁inaugurate	-6772
▁punishment	-6773
▁threatened	-6774
▁Citizenship	-6775
▁Corinthians	-6776
▁challenging	-6777
▁legislators	-6778
St	-6779
hee	-6780
itt	-6781
nan	-6782
aman	-6783
orry	-6784
oyal	-6785
ront	-6786
▁11.	-6787
▁14.	-6788
▁15,	-6789
▁Cal	-6790
▁Mas	-6791
▁Raw	-6792
▁dil	-6793
▁gri	-6794
board	-6795
▁Fest	-6796
▁Kare	-6797
▁Prad	-6798
▁Sard	-6799
▁Sikh	-6800
▁Thir	-6801
▁Trib	-6802
▁Vide	-6803
▁auto	-6804
▁gate	-6805
▁user	-6806
▁util	-6807
istics	-6808
▁Anant	-6809
▁Apply	-6810
▁Gundu	-6811
▁facts	-6812
▁paste	-6813
▁route	-6814
▁valid	-6815
▁wheat	-6816
▁Choose	-6817
▁Friend	-6818
▁Mukesh	-6819
▁System	-6820
▁afford	-6821
▁dreams	-6822
▁enthus	-6823
▁talked	-6824
▁Brother	-6825
▁Lucknow	-6826
▁Siddhar	-6827
▁average	-6828
▁falling	-6829
▁footage	-6830
▁surgery	-6831
▁Symptoms	-6832
▁patience	-6833
▁variants	-6834
▁childhood	-6835
▁religions	-6836
▁salvation	-6837
▁connectivity	-6838
6,	-6839
So	-6840
bre	-6841
iar	-6842
oul	-6843
rep	-6844
uja	-6845
ule	-6846
vals	-6847
word	-6848
▁Bib	-6849
▁Hig	-6850
▁Toy	-6851
▁rid	-6852
ategy	-6853
icken	-6854
igade	-6855
uting	-6856
▁Diff	-6857
▁Luke	-6858
▁code	-6859
▁doll	-6860
▁iron	-6861
▁Stand	-6862
▁Vishw	-6863
▁fever	-6864
▁relax	-6865
▁slave	-6866
▁Venkat	-6867
▁compon	-6868
▁condol	-6869
▁ginger	-6870
▁intell	-6871
▁reform	-6872
rogation	-6873
▁harmony	-6874
▁rescued	-6875
▁strange	-6876
▁Administ	-6877
▁Recently	-6878
▁download	-6879
▁entirely	-6880
▁mistakes	-6881
▁strategy	-6882
▁surprise	-6883
▁buildings	-6884
▁Management	-6885
▁engineering	-6886
▁personality	-6887
EL	-6888
SO	-6889
bru	-6890
bur	-6891
ham	-6892
omi	-6893
ona	-6894
wad	-6895
whe	-6896
▁XI	-6897
....	-6898
ahal	-6899
lers	-6900
pura	-6901
▁13.	-6902
▁Ask	-6903
▁Nal	-6904
▁Sav	-6905
▁gat	-6906
▁hat	-6907
▁lic	-6908
▁pac	-6909
gowda	-6910
iable	-6911
▁1.5-	-6912
▁Girl	-6913
▁Hall	-6914
▁Town	-6915
▁True	-6916
▁glad	-6917
▁gods	-6918
▁legs	-6919
▁sett	-6920
▁trip	-6921
ateful	-6922
uction	-6923
▁Local	-6924
▁coast	-6925
▁remem	-6926
▁subst	-6927
▁Cooper	-6928
▁Scheme	-6929
▁agency	-6930
▁allows	-6931
▁height	-6932
▁window	-6933
▁Perhaps	-6934
▁Vitamin	-6935
▁balance	-6936
▁circuit	-6937
▁methods	-6938
▁totally	-6939
▁univers	-6940
▁December	-6941
▁visiting	-6942
▁highlight	-6943
▁residence	-6944
▁violation	-6945
▁Australian	-6946
▁absolutely	-6947
▁definitely	-6948
▁initiative	-6949
▁politician	-6950
▁Environment	-6951
TR	-6952
mod	-6953
nav	-6954
urt	-6955
▁Cy	-6956
▁SS	-6957
▁ji	-6958
aded	-6959
fast	-6960
▁Gul	-6961
▁bra	-6962
▁sup	-6963
▁typ	-6964
arian	-6965
asure	-6966
iesel	-6967
▁2021	-6968
▁Jasp	-6969
▁Raja	-6970
▁Shak	-6971
▁absc	-6972
▁Enter	-6973
▁Total	-6974
▁Venug	-6975
▁discl	-6976
▁drugs	-6977
▁eager	-6978
▁inhab	-6979
▁saith	-6980
▁sweet	-6981
▁tempt	-6982
▁veter	-6983
▁George	-6984
▁Ranjan	-6985
▁nearly	-6986
▁pretty	-6987
▁singer	-6988
▁struck	-6989
▁subsid	-6990
▁yellow	-6991
▁Agarwal	-6992
▁Goddess	-6993
▁Marathi	-6994
▁Members	-6995
▁council	-6996
▁dropped	-6997
▁felicit	-6998
▁pattern	-6999
▁scooter	-7000
▁studied	-7001
▁Vajpayee	-7002
▁appealed	-7003
▁baptized	-7004
▁diabetes	-7005
▁heritage	-7006
▁automatic	-7007
▁condemned	-7008
▁notification	-7009
PS	-7010
hil	-7011
ria	-7012
vis	-7013
▁BE	-7014
comm	-7015
olen	-7016
▁194	-7017
▁Kis	-7018
▁LED	-7019
▁NRC	-7020
▁Naw	-7021
▁Sid	-7022
▁Tej	-7023
▁bot	-7024
▁spr	-7025
▁swe	-7026
acter	-7027
enses	-7028
ifies	-7029
▁Must	-7030
▁Nand	-7031
▁Priv	-7032
▁dign	-7033
▁glor	-7034
▁mort	-7035
▁semi	-7036
▁zeal	-7037
ardhan	-7038
bruary	-7039
▁Being	-7040
▁Dubai	-7041
▁Manoj	-7042
▁Prash	-7043
▁Soura	-7044
▁coord	-7045
▁fault	-7046
▁heads	-7047
▁lemon	-7048
▁lines	-7049
▁newsp	-7050
▁yield	-7051
▁Commer	-7052
▁Street	-7053
▁intens	-7054
▁proved	-7055
▁shares	-7056
▁solved	-7057
▁speaks	-7058
▁stayed	-7059
▁transp	-7060
▁Picture	-7061
▁alcohol	-7062
▁Economic	-7063
▁adequate	-7064
▁creating	-7065
▁exchange	-7066
▁millions	-7067
▁pregnant	-7068
▁punished	-7069
▁Venugopal	-7070
▁champions	-7071
▁encounter	-7072
▁harassment	-7073
▁Bhuvneshwar	-7074
▁Engineering	-7075
▁educational	-7076
▁motorcycles	-7077
▁registration	-7078
hta	-7079
odi	-7080
▁ce	-7081
▁ly	-7082
ashi	-7083
live	-7084
▁198	-7085
▁Cut	-7086
▁Dil	-7087
▁Gir	-7088
▁Yam	-7089
▁tim	-7090
▁ult	-7091
ayana	-7092
ocate	-7093
water	-7094
▁Aish	-7095
▁CRPF	-7096
▁Expo	-7097
▁Poll	-7098
▁Prat	-7099
▁acts	-7100
▁icon	-7101
▁shar	-7102
lusion	-7103
▁Brahm	-7104
▁Dharm	-7105
▁Smart	-7106
▁dwell	-7107
▁flock	-7108
▁guard	-7109
▁penal	-7110
▁volun	-7111
ikarjun	-7112
▁Global	-7113
▁courts	-7114
▁divine	-7115
▁listed	-7116
▁mechan	-7117
▁picked	-7118
▁preach	-7119
▁remind	-7120
▁stable	-7121
▁stolen	-7122
▁surely	-7123
▁tongue	-7124
▁unable	-7125
▁voting	-7126
fficient	-7127
▁Express	-7128
▁Indones	-7129
▁Sushant	-7130
▁closely	-7131
▁highway	-7132
▁laboure	-7133
▁machine	-7134
▁starred	-7135
▁updated	-7136
▁conflict	-7137
▁detailed	-7138
▁distress	-7139
▁shouldnt	-7140
▁Amendment	-7141
▁emergency	-7142
▁provision	-7143
▁expression	-7144
▁professional	-7145
▁parliamentary	-7146
DR	-7147
NA	-7148
Pak	-7149
lal	-7150
arti	-7151
▁Box	-7152
▁pal	-7153
▁ric	-7154
▁tro	-7155
▁van	-7156
arant	-7157
▁Ajit	-7158
▁Back	-7159
▁Dutt	-7160
▁Exam	-7161
▁Hous	-7162
▁ODIs	-7163
▁Wind	-7164
▁idol	-7165
ellery	-7166
ouring	-7167
▁Times	-7168
▁Treat	-7169
▁brain	-7170
▁incon	-7171
▁knock	-7172
▁union	-7173
atively	-7174
▁Harish	-7175
▁Samuel	-7176
▁crying	-7177
▁demise	-7178
▁digest	-7179
▁fallen	-7180
▁sovere	-7181
▁wishes	-7182
▁compass	-7183
▁heavens	-7184
▁possess	-7185
▁priests	-7186
▁shepher	-7187
▁Olympics	-7188
▁Remember	-7189
▁appearance	-7190
▁categories	-7191
▁encouraged	-7192
▁communities	-7193
▁Investigation	-7194
▁recommendations	-7195
',	-7196
If	-7197
chi	-7198
key	-7199
▁44	-7200
▁51	-7201
cast	-7202
gram	-7203
oons	-7204
oram	-7205
▁Dam	-7206
▁Dec	-7207
▁cov	-7208
▁ton	-7209
▁vig	-7210
adeep	-7211
ading	-7212
arkar	-7213
arted	-7214
ppers	-7215
ulate	-7216
▁apex	-7217
▁bath	-7218
▁bott	-7219
▁stir	-7220
▁wine	-7221
igious	-7222
member	-7223
▁Photo	-7224
▁abund	-7225
▁clash	-7226
▁horse	-7227
▁showc	-7228
▁stick	-7229
iciency	-7230
ologies	-7231
▁Rajput	-7232
▁double	-7233
▁excess	-7234
▁merely	-7235
▁reveal	-7236
▁Germany	-7237
▁classes	-7238
▁excited	-7239
▁holiday	-7240
▁knowing	-7241
▁offices	-7242
▁selling	-7243
▁gathered	-7244
▁identity	-7245
▁recovery	-7246
▁schedule	-7247
▁temporary	-7248
▁Industries	-7249
▁celebration	-7250
▁constituted	-7251
▁felicitated	-7252
▁participants	-7253
▁implementation	-7254
SRO	-7255
fit	-7256
itc	-7257
▁6,	-7258
born	-7259
ibly	-7260
iety	-7261
uses	-7262
▁Naz	-7263
▁ash	-7264
anges	-7265
iture	-7266
maker	-7267
quake	-7268
razil	-7269
under	-7270
▁coin	-7271
▁hasn	-7272
▁hike	-7273
▁impl	-7274
▁rend	-7275
▁scen	-7276
▁ties	-7277
andran	-7278
▁Grand	-7279
▁Pawan	-7280
▁Right	-7281
▁Shast	-7282
▁kinds	-7283
▁panch	-7284
uration	-7285
▁10,000	-7286
▁compre	-7287
▁farmer	-7288
▁losses	-7289
▁manual	-7290
▁persec	-7291
▁powers	-7292
▁smooth	-7293
▁Finally	-7294
▁Lankesh	-7295
▁Pradeep	-7296
▁Sandeep	-7297
▁calling	-7298
▁suspect	-7299
▁captured	-7300
▁covenant	-7301
▁disaster	-7302
▁Insurance	-7303
▁Political	-7304
▁initially	-7305
▁objective	-7306
▁organized	-7307
▁highlights	-7308
▁Mallikarjun	-7309
▁comfortable	-7310
▁preparation	-7311
8,	-7312
ida	-7313
ppa	-7314
ube	-7315
▁34	-7316
▁Kn	-7317
aces	-7318
ught	-7319
▁17.	-7320
▁350	-7321
▁Abh	-7322
anded	-7323
arked	-7324
ental	-7325
ounds	-7326
warya	-7327
▁Atal	-7328
▁Dhan	-7329
▁Real	-7330
▁Rich	-7331
▁crop	-7332
▁lots	-7333
▁mild	-7334
▁pair	-7335
▁pure	-7336
▁shel	-7337
keeper	-7338
▁cells	-7339
▁mated	-7340
▁toler	-7341
esterol	-7342
ocratic	-7343
▁Ranbir	-7344
▁Sourav	-7345
▁adjust	-7346
▁angels	-7347
▁bridge	-7348
▁festiv	-7349
▁talent	-7350
▁Creator	-7351
▁Gadkari	-7352
▁Jasprit	-7353
▁banking	-7354
▁besides	-7355
▁fashion	-7356
▁involve	-7357
▁partner	-7358
▁preside	-7359
▁survive	-7360
▁contract	-7361
▁football	-7362
▁guidance	-7363
▁precious	-7364
▁commanded	-7365
▁fundament	-7366
▁contribute	-7367
▁situations	-7368
▁certificate	-7369
▁requirements	-7370
▁successfully	-7371
▁consideration	-7372
abi	-7373
lex	-7374
uts	-7375
▁Ep	-7376
▁FC	-7377
opic	-7378
▁Gog	-7379
▁Put	-7380
▁uns	-7381
owned	-7382
raman	-7383
▁""",	-7384
▁Acts	-7385
▁Amar	-7386
▁Chat	-7387
▁Mant	-7388
▁Rest	-7389
▁club	-7390
▁virt	-7391
orable	-7392
uclear	-7393
ulated	-7394
▁Abdul	-7395
▁Birth	-7396
▁Mount	-7397
▁arise	-7398
▁decor	-7399
▁diagn	-7400
▁newly	-7401
▁quiet	-7402
▁reign	-7403
▁turbo	-7404
▁walls	-7405
▁worse	-7406
▁Jaipur	-7407
▁Sharad	-7408
▁Toyota	-7409
▁analys	-7410
▁explos	-7411
▁linked	-7412
▁medium	-7413
▁paying	-7414
▁silent	-7415
▁Kareena	-7416
▁Manipur	-7417
▁applied	-7418
▁brigade	-7419
▁confirm	-7420
▁covered	-7421
▁decades	-7422
▁elderly	-7423
▁harvest	-7424
▁impress	-7425
▁benefici	-7426
▁culprits	-7427
▁grateful	-7428
▁inconven	-7429
▁visitors	-7430
▁Aishwarya	-7431
▁establish	-7432
▁pregnancy	-7433
▁Chandigarh	-7434
▁challenged	-7435
▁convention	-7436
▁Challengers	-7437
▁consequences	-7438
▁Parliamentary	-7439
):	-7440
ms	-7441
200	-7442
iti	-7443
uce	-7444
▁64	-7445
▁ED	-7446
▁ID	-7447
▁Sn	-7448
aria	-7449
▁Aad	-7450
▁Cam	-7451
▁RJD	-7452
▁Vas	-7453
avour	-7454
icing	-7455
nagar	-7456
redit	-7457
▁Bomb	-7458
▁Noah	-7459
▁Same	-7460
▁acad	-7461
▁elim	-7462
▁pace	-7463
▁tack	-7464
▁upro	-7465
finals	-7466
igible	-7467
minton	-7468
rative	-7469
▁Prote	-7470
▁Sride	-7471
▁Urban	-7472
▁Video	-7473
▁decre	-7474
▁drawn	-7475
▁feels	-7476
▁scale	-7477
▁solid	-7478
▁tells	-7479
ensions	-7480
iveness	-7481
▁Income	-7482
▁Search	-7483
▁escape	-7484
▁prayed	-7485
▁worker	-7486
▁batsmen	-7487
▁climate	-7488
▁delayed	-7489
▁escaped	-7490
▁flights	-7491
▁overall	-7492
▁regions	-7493
▁telling	-7494
▁trailer	-7495
▁visible	-7496
▁February	-7497
▁Memorial	-7498
▁governor	-7499
▁software	-7500
▁spending	-7501
▁strongly	-7502
▁conducting	-7503
▁resurrection	-7504
▁representatives	-7505
8.	-7506
IA	-7507
No	-7508
akk	-7509
apse	-7510
hary	-7511
olit	-7512
rage	-7513
riti	-7514
umph	-7515
urag	-7516
▁19.	-7517
▁End	-7518
▁Fad	-7519
▁spl	-7520
▁ven	-7521
aited	-7522
field	-7523
otted	-7524
▁Blue	-7525
▁Find	-7526
▁Jere	-7527
▁Sudh	-7528
▁teen	-7529
▁trem	-7530
icious	-7531
ultane	-7532
▁Clear	-7533
▁Paris	-7534
▁Pauls	-7535
▁alloc	-7536
▁delay	-7537
▁error	-7538
▁owner	-7539
▁trigg	-7540
jection	-7541
▁Brazil	-7542
▁Design	-7543
▁Leader	-7544
▁Vikram	-7545
▁approx	-7546
▁button	-7547
▁closer	-7548
▁slight	-7549
akrishna	-7550
▁Capital	-7551
▁Pradhan	-7552
▁Premier	-7553
▁Through	-7554
▁anxiety	-7555
▁anymore	-7556
olesterol	-7557
president	-7558
▁medicine	-7559
▁shoulder	-7560
▁listening	-7561
▁operating	-7562
▁addressing	-7563
▁casualties	-7564
▁complained	-7565
▁dedication	-7566
▁retirement	-7567
▁Uttarakhand	-7568
▁Nevertheless	-7569
ME	-7570
ON	-7571
-20	-7572
ICS	-7573
ahe	-7574
urb	-7575
▁85	-7576
▁Lo	-7577
anta	-7578
eter	-7579
olic	-7580
▁10:	-7581
▁BMW	-7582
▁Deb	-7583
▁Eff	-7584
▁arg	-7585
▁fan	-7586
▁hun	-7587
erves	-7588
igent	-7589
place	-7590
rates	-7591
venth	-7592
▁band	-7593
▁nice	-7594
▁obed	-7595
ducing	-7596
rition	-7597
▁Banks	-7598
▁Mally	-7599
▁Saudi	-7600
▁Trust	-7601
▁Vinay	-7602
▁Youre	-7603
▁aspir	-7604
▁click	-7605
▁grown	-7606
inating	-7607
▁Diesel	-7608
▁Shahid	-7609
▁bigger	-7610
▁coffee	-7611
▁convin	-7612
▁exists	-7613
▁medals	-7614
▁refuge	-7615
▁trials	-7616
Pakistan	-7617
rigation	-7618
▁Despite	-7619
▁Mission	-7620
▁Process	-7621
▁artists	-7622
▁concent	-7623
▁edition	-7624
▁fastest	-7625
▁premium	-7626
▁protein	-7627
▁replace	-7628
▁rumours	-7629
▁segment	-7630
▁setting	-7631
▁strateg	-7632
▁Benefits	-7633
▁attending	-7634
▁mountains	-7635
▁preparing	-7636
▁presently	-7637
▁determined	-7638
▁maintained	-7639
▁scientists	-7640
▁experiences	-7641
▁suggestions	-7642
▁Parameshwara	-7643
▁appreciation	-7644
▁disappointed	-7645
▁distribution	-7646
6.	-7647
nis	-7648
yam	-7649
SRTC	-7650
amps	-7651
care	-7652
days	-7653
ingu	-7654
oked	-7655
soon	-7656
▁12:	-7657
▁16.	-7658
▁195	-7659
▁Dur	-7660
▁Haz	-7661
▁Hot	-7662
▁Lad	-7663
▁Lev	-7664
▁Tir	-7665
▁USA	-7666
▁Yuv	-7667
▁ran	-7668
addha	-7669
apura	-7670
pread	-7671
▁Miss	-7672
▁Naik	-7673
▁Thar	-7674
▁meal	-7675
astern	-7676
▁Steve	-7677
▁enemy	-7678
▁incor	-7679
▁quant	-7680
▁rupee	-7681
▁Kharge	-7682
▁Safety	-7683
▁Sardar	-7684
▁Select	-7685
▁Shivam	-7686
▁bought	-7687
▁breast	-7688
▁consec	-7689
▁extent	-7690
▁golden	-7691
▁lights	-7692
▁metres	-7693
▁pursue	-7694
▁reject	-7695
▁sacred	-7696
▁salary	-7697
▁update	-7698
▁Rishabh	-7699
▁belongs	-7700
▁recover	-7701
▁sectors	-7702
▁sustain	-7703
▁walking	-7704
▁Devendra	-7705
▁obtained	-7706
▁pleasure	-7707
▁register	-7708
▁replaced	-7709
▁sentence	-7710
▁celebrate	-7711
▁collision	-7712
▁disrupted	-7713
▁municipal	-7714
▁practices	-7715
▁Fortunately	-7716
▁achievement	-7717
▁cholesterol	-7718
▁inheritance	-7719
▁spiritually	-7720
▁difficulties	-7721
▁instructions	-7722
▁organization	-7723
▁transmission	-7724
ni	-7725
nu	-7726
gon	-7727
iva	-7728
nov	-7729
nty	-7730
pre	-7731
▁9,	-7732
▁Vs	-7733
icip	-7734
osis	-7735
rina	-7736
wari	-7737
ilipp	-7738
navis	-7739
rants	-7740
▁Cook	-7741
▁Drav	-7742
▁Full	-7743
▁Guru	-7744
▁Resp	-7745
▁bron	-7746
▁flat	-7747
▁genu	-7748
▁lake	-7749
▁male	-7750
▁sets	-7751
▁valu	-7752
▁wood	-7753
ending	-7754
▁Basav	-7755
▁Karth	-7756
▁Nawaz	-7757
▁Young	-7758
▁accur	-7759
▁divor	-7760
▁fraud	-7761
▁honey	-7762
▁troub	-7763
adually	-7764
hensive	-7765
▁Advani	-7766
▁Ananth	-7767
▁Rather	-7768
▁distin	-7769
▁easier	-7770
▁enable	-7771
▁resear	-7772
▁titled	-7773
▁widely	-7774
▁Philipp	-7775
▁Shastri	-7776
▁advised	-7777
▁examine	-7778
▁planned	-7779
▁theatre	-7780
idespread	-7781
▁magazine	-7782
▁murdered	-7783
▁purposes	-7784
▁comprises	-7785
▁practical	-7786
▁satisfied	-7787
▁solutions	-7788
▁understood	-7789
BC	-7790
HI	-7791
eral	-7792
miah	-7793
owed	-7794
uram	-7795
▁10,	-7796
▁Key	-7797
▁RAM	-7798
▁era	-7799
▁nam	-7800
▁shi	-7801
awati	-7802
rison	-7803
ulous	-7804
▁Care	-7805
▁Cele	-7806
▁Cost	-7807
▁Mart	-7808
▁Mich	-7809
▁Pran	-7810
▁Pray	-7811
▁arms	-7812
▁fake	-7813
▁plus	-7814
▁pred	-7815
idents	-7816
liness	-7817
▁Joint	-7818
▁haven	-7819
▁inspe	-7820
▁panel	-7821
▁sworn	-7822
▁theme	-7823
▁voted	-7824
ailable	-7825
aughter	-7826
▁Bethel	-7827
▁Legisl	-7828
▁Prizes	-7829
▁Regist	-7830
▁Romans	-7831
▁Secret	-7832
▁adults	-7833
▁aspect	-7834
▁detail	-7835
ruitment	-7836
▁Captain	-7837
▁Katrina	-7838
▁chapter	-7839
▁conspir	-7840
▁initial	-7841
▁putting	-7842
▁secured	-7843
▁wounded	-7844
▁Fadnavis	-7845
▁Jeremiah	-7846
▁Officers	-7847
▁agencies	-7848
▁attempts	-7849
▁devotion	-7850
▁expanded	-7851
▁explains	-7852
▁Indonesia	-7853
▁generally	-7854
▁labourers	-7855
▁occasions	-7856
▁Scriptural	-7857
▁constantly	-7858
▁destination	-7859
▁destruction	-7860
▁initiatives	-7861
▁architecture	-7862
▁independence	-7863
▁entertainment	-7864
HO	-7865
iny	-7866
raf	-7867
▁55	-7868
▁6-	-7869
▁DC	-7870
ifts	-7871
qual	-7872
▁15.	-7873
▁18.	-7874
▁Boy	-7875
▁Cro	-7876
▁Dar	-7877
▁Lab	-7878
▁Sit	-7879
▁THE	-7880
▁duo	-7881
▁eth	-7882
erent	-7883
ignty	-7884
ivery	-7885
▁Bell	-7886
▁Case	-7887
▁Chik	-7888
▁Gang	-7889
▁Iyer	-7890
▁Mult	-7891
▁Puls	-7892
▁apps	-7893
▁bird	-7894
▁feed	-7895
▁hast	-7896
▁hour	-7897
▁neck	-7898
▁vess	-7899
▁yoga	-7900
asters	-7901
▁	-7902
e	-7903
a	-7904
t	-7905
i	-7906
o	-7907
n	-7908
s	-7909
r	-7910
h	-7911
d	-7912
l	-7913
c	-7914
u	-7915
m	-7916
p	-7917
f	-7918
.	-7919
g	-7920
w	-7921
y	-7922
b	-7923
v	-7924
,	-7925
k	-7926
T	-7927
I	-7928
S	-7929
A	-7930
P	-7931
M	-7932
B	-7933
C	-7934
H	-7935
"	-7936
W	-7937
R	-7938
D	-7939
j	-7940
?	-7941
J	-7942
0	-7943
N	-7944
K	-7945
G	-7946
1	-7947
-	-7948
x	-7949
:	-7950
2	-7951
L	-7952
F	-7953
E	-7954
'	-7955
O	-7956
q	-7957
V	-7958
5	-7959
U	-7960
Y	-7961
z	-7962
(	-7963
)	-7964
3	-7965
4	-7966
9	-7967
6	-7968
8	-7969
7	-7970
!	-7971
/	-7972
Z	-7973
&	-7974
%	-7975
Q	-7976
[	-7977
]	-7978
X	-7979
_	-7980
$	-7981
+	-7982
|	-7983
@	-7984
#	-7985
`	-7986
*	-7987
>	-7988
{	-7989
}	-7990
=	-7991
\	-7992
<	-7993
~	-7994
^	-7995
