<pad>	0
<unk>	0
<sos>	0
<eos>	0
ಲ್	-0
ತ್	-1
▁ಮ	-2
▁ಸ	-3
ಿದ	-4
ನ್	-5
▁ಕ	-6
ಲ್ಲ	-7
▁ನ	-8
ಾರ	-9
▁ಅ	-10
▁ಪ	-11
ಂದ	-12
ಾಗ	-13
್ರ	-14
ನು	-15
ರು	-16
ತ್ತ	-17
▁ಹ	-18
ಿಸ	-19
▁ಬ	-20
ಗಳ	-21
ಕ್	-22
ರ್	-23
್ಯ	-24
▁ವ	-25
ಗೆ	-26
▁ಇ	-27
ನ್ನು	-28
▁ಆ	-29
ಲ್ಲಿ	-30
್ದ	-31
ಿಯ	-32
▁ಎ	-33
ಸ್	-34
▁ತ	-35
ೆಯ	-36
ಿದ್ದ	-37
ರಿ	-38
ವು	-39
▁ಪ್ರ	-40
ಿದೆ	-41
್ಟ	-42
ಿಕ	-43
ದು	-44
▁ರ	-45
ುತ್ತ	-46
▁ದ	-47
▁ಮಾ	-48
ಾಗಿ	-49
ಕ್ಕ	-50
ತ್ತು	-51
ಂದು	-52
▁ಜ	-53
ಂತ	-54
▁ಅವ	-55
ಂಡ	-56
ರೆ	-57
▁ವಿ	-58
ಾನ	-59
▁ಯ	-60
ುವ	-61
ಿನ	-62
▁ಗ	-63
▁ಈ	-64
ನ್ನ	-65
ಾದ	-66
ಾಯ	-67
ಾರೆ	-68
▁ನಿ	-69
ಗಳು	-70
ಿತ	-71
▁ಶ	-72
▁ಮತ್ತು	-73
▁ಭ	-74
▁ಮಾಡ	-75
ದಲ್ಲಿ	-76
ಕ್ಷ	-77
▁ಚ	-78
ಿಲ್ಲ	-79
ಿಗೆ	-80
್ಮ	-81
ಿದ್ದಾರೆ	-82
ಟ್ಟ	-83
▁ಉ	-84
ಲು	-85
▁ಒ	-86
ಂಗ	-87
ಂಬ	-88
ನೆ	-89
ದೆ	-90
ತ್ರ	-91
ಕ್ಕೆ	-92
ಷ್ಟ	-93
▁ಸ್	-94
▁ನೀ	-95
ತಿ	-96
ಾವ	-97
ಿಂದ	-98
ವೆ	-99
ೇಕ	-100
▁ಮು	-101
▁ಆದ	-102
ಟ್	-103
ಾಲ	-104
ಾಗಿದೆ	-105
ಮ್ಮ	-106
ಗಳನ್ನು	-107
ಡೆ	-108
▁ಎಂದು	-109
ೇಶ	-110
ೊಳ	-111
ವನ್ನು	-112
ಚ್	-113
▁ಇದ	-114
ಾಮ	-115
ಾರ್	-116
ಡಿ	-117
ೇಳ	-118
್ಳ	-119
ಾಜ	-120
▁ಸಂ	-121
ರುವ	-122
ವಾಗಿ	-123
ರಿಸ	-124
ೊಂಡ	-125
ವುದ	-126
▁ನಾ	-127
ಪ್	-128
▁ಬಿ	-129
▁ಲ	-130
▁ಹೆ	-131
ಚ್ಚ	-132
ಬೇಕ	-133
▁ಹೊ	-134
▁1	-135
▁ಕೆ	-136
▁ಕಾರ	-137
ವಾ	-138
ಡ್	-139
ಕಾರ	-140
ವಿ	-141
▁ಆದರೆ	-142
ಲೆ	-143
್ಯಾ	-144
ತ್ಯ	-145
ರಣ	-146
▁ಹಾಗ	-147
ಬ್	-148
ತೆ	-149
▁ಏ	-150
ಾಣ	-151
▁ಹೇಳ	-152
ೊಳ್ಳ	-153
ಲಿ	-154
ಿಸಿ	-155
▁ಅವರು	-156
▁ಕು	-157
ಧ್ಯ	-158
ೋಗ	-159
ನಾ	-160
▁ಅದ	-161
▁ಸಿ	-162
▁ಸಮ	-163
ಟಿ	-164
▁ಸಾ	-165
▁ಇದು	-166
ಿದರು	-167
ಿಳ	-168
ುತ್ತದೆ	-169
ಡು	-170
▁ಸು	-171
ಗ್	-172
ವರ	-173
ರಿಗೆ	-174
ದ್	-175
▁ಭಾರ	-176
▁ಅವರ	-177
▁ಬೆ	-178
▁ರಾಜ	-179
ನಿ	-180
ಹು	-181
ೆಯಲ್ಲಿ	-182
ಬ್ಬ	-183
ೀಯ	-184
ಪಿ	-185
ಶ್	-186
▁ನೀಡ	-187
ಕೆ	-188
▁ಭಾರತ	-189
▁ಕೊ	-190
ದ್ದ	-191
▁ಮೂ	-192
ಗಳಲ್ಲಿ	-193
ಂಧ	-194
ತಿಯ	-195
▁ಆಗ	-196
ರಾ	-197
▁2	-198
ವುದು	-199
ದಿ	-200
▁ಫ	-201
ಲೀ	-202
▁ಟ	-203
ಂತೆ	-204
ಬೇಕು	-205
ನ್ಯ	-206
ಿಸಲ	-207
ಿದ್ದರು	-208
▁ಹೆಚ್ಚ	-209
ದ್ಧ	-210
ಾರಿ	-211
▁ಹಾಗೂ	-212
▁ಚಿ	-213
▁ನಿರ್	-214
▁ಕಾ	-215
ತು	-216
▁ಸೇ	-217
ಮಾ	-218
ರೂ	-219
ಾಸ	-220
ಿಕೆ	-221
ಜೆ	-222
▁ನಡೆ	-223
▁ಸ್ಥ	-224
▁ಆರ	-225
ರಿಂದ	-226
ಸ್ಥ	-227
ಿತು	-228
ಿರ	-229
▁ಕೆಲ	-230
ಪ್ಪ	-231
ಧಾನ	-232
ವಾದ	-233
ಂಗ್	-234
▁ಯಾ	-235
ವಾಗ	-236
ಿವ	-237
""	-238
▁ಮೇ	-239
▁ಸಹ	-240
ಂದ್ರ	-241
ಿದ್ದು	-242
▁ತಿಳ	-243
ೆಯನ್ನು	-244
▁ಕ್ರ	-245
▁ಪೊ	-246
▁ಖ	-247
ಗ್ಗೆ	-248
ೆಗೆ	-249
▁ಎಲ್ಲ	-250
▁(	-251
▁ಒಂದು	-252
ಡೆಯ	-253
ವರು	-254
▁ಪೊಲೀ	-255
▁ಬಗ್ಗೆ	-256
▁ಜನ	-257
ಖ್ಯ	-258
ೊಂದ	-259
ಾಕ	-260
▁ಮೊ	-261
ಾರು	-262
ಿಸುತ್ತ	-263
ವೇ	-264
▁ಪ್ರಕ	-265
▁ವ್ಯ	-266
▁ಇಲ್ಲ	-267
▁ಎಂದ	-268
ಿಸುವ	-269
▁ದಾ	-270
ಕ್ತ	-271
ಣೆ	-272
▁ದೇ	-273
▁ಪರಿ	-274
ಜಿ	-275
್ರೆ	-276
▁ಸರ್	-277
ರುತ್ತ	-278
▁ಬಳ	-279
ಿಸಿದ	-280
▁ನಾನು	-281
▁ಗು	-282
ಸಿ	-283
ಂತರ	-284
▁ಕೋ	-285
ಷ್ಟು	-286
ಗೂ	-287
ಂಕ	-288
ಗಳಿಗೆ	-289
ಿಕೊಂಡ	-290
▁ಅಭ	-291
ಬಹು	-292
ದಿಂದ	-293
▁ಕೇ	-294
▁ಮಹ	-295
ಣ್	-296
ುವುದ	-297
ದಲ	-298
▁ಕೂ	-299
▁ಕಾರ್ಯ	-300
ಿರುವ	-301
▁ಡ	-302
ಪಡ	-303
ೂರ್	-304
ನ್ನೂ	-305
▁ನಾವು	-306
ಿಕೊಳ್ಳ	-307
▁ಬಿಜೆ	-308
ಪ್ರ	-309
ಜ್	-310
ುವುದು	-311
ತ್ರಿ	-312
ಿಸಿದ್ದಾರೆ	-313
▁ಚಿತ್ರ	-314
▁ನೋ	-315
▁ನಮ್ಮ	-316
▁ಪು	-317
ತನ	-318
ಷ್	-319
ಳು	-320
▁ಎಂಬ	-321
ಧಿಕ	-322
ಲಿಲ್ಲ	-323
ರಿಯ	-324
▁ರಾ	-325
ಂಭ	-326
▁ಮೋ	-327
ವನ	-328
▁ಗೆ	-329
ರ್ಥ	-330
ಿಸ್	-331
ಸ್ತ	-332
ವಾಗಿದೆ	-333
ಳೆ	-334
▁ಪಾ	-335
ಲೇ	-336
▁ಸರ್ಕಾರ	-337
▁ಮೂಲ	-338
▁‘	-339
▁ಉತ್ತ	-340
ಚಾರ	-341
ನೆಯ	-342
ಿಯಲ್ಲಿ	-343
▁ಧ	-344
ದೇಶ	-345
00	-346
ಗೊಂಡ	-347
ಲಾ	-348
▁ರಾಜ್ಯ	-349
▁ಯಾವುದ	-350
ಕಾ	-351
ಕರ	-352
▁ಘ	-353
▁ಬೇ	-354
ಲಾಗಿದೆ	-355
▁ಅನು	-356
ಾಹ	-357
ದ್ಯ	-358
▁ಕ್	-359
ಿಸಿದರು	-360
ಣ್ಣ	-361
ೆಹ	-362
ಸರು	-363
ಬಹುದು	-364
ದುಕ	-365
▁ದಾಖ	-366
ಿಸಲು	-367
ರೀ	-368
ಳ್ಳ	-369
▁ರೂ	-370
▁ಮೇಲೆ	-371
▁ಮುಖ್ಯ	-372
▁ಹೊಂದ	-373
ುಂಬ	-374
ಸ್ಯ	-375
ೇನೆ	-376
ಕ್ರ	-377
ಲಾಗ	-378
▁ಹೇ	-379
ಂಟ	-380
ಮಾನ	-381
▁ನಿಮ್ಮ	-382
್ರೆಸ್	-383
ನೇ	-384
ಂಪ	-385
▁ಪ್ರಧಾನ	-386
ಟ್ಟು	-387
▁ದೇಶ	-388
ಿತಿ	-389
ಂಗ್ರೆಸ್	-390
▁“	-391
▁ಕೂಡ	-392
▁ಸ್ವ	-393
▁ದಿನ	-394
▁ಐ	-395
▁ಹಿ	-396
▁ನಡೆಸ	-397
▁ಯಾವುದೇ	-398
▁ಬಿಜೆಪಿ	-399
ಡುವ	-400
ಡಿಯ	-401
▁ಪ್ರಕರಣ	-402
▁ಕಾಂಗ್ರೆಸ್	-403
▁ಎರ	-404
▁ಅದು	-405
ರಲ್ಲಿ	-406
▁3	-407
▁ಕೈ	-408
▁ನಲ್ಲಿ	-409
▁ಬಂದ	-410
▁ತನ್ನ	-411
▁ಅಧಿಕ	-412
ಿವೆ	-413
▁ವೈ	-414
ಸೆ	-415
ೊಂದಿಗೆ	-416
▁ನೆ	-417
▁.	-418
ುತ್ತಿದೆ	-419
▁ನೀವು	-420
▁ಆಯ	-421
ಷ್ಟ್ರ	-422
▁ವಿದ	-423
ರೇ	-424
ಮೆ	-425
ಿಯನ್ನು	-426
ಾನ್	-427
▁ಶಿ	-428
ಳಿ	-429
ೊಂದು	-430
ೋಜ	-431
▁ಕಾರಣ	-432
ಗಾಗಿ	-433
ೇವೆ	-434
ಲ್ಪ	-435
▁ಮನ	-436
ಾಪ	-437
▁ಪ್ರತಿ	-438
▁ಅಧ್ಯ	-439
ಂಚ	-440
ೀರ್	-441
▁ಶ್ರ	-442
▁ಅನ	-443
▁ವರ್	-444
ಗೊಳ	-445
..	-446
ಲಿದೆ	-447
ಕ್ಷಣ	-448
ಸು	-449
ರೆಯ	-450
ತರ	-451
▁ವಿರು	-452
ತ್ವ	-453
▁ಯಾವ	-454
▁ಸ್ಪ	-455
ುನ	-456
▁ಹೀ	-457
▁ತಮ್ಮ	-458
▁ಸಚ	-459
▁ಸಂಬ	-460
▁ಹು	-461
▁ಮುಂದ	-462
ರೋ	-463
▁ಪೊಲೀಸರು	-464
ಬಿ	-465
▁ಅಲ್ಲ	-466
ಎಸ್	-467
ಮ್	-468
▁ಉಪ	-469
ಿಯಾ	-470
ಾಯಕ	-471
ಾಂ	-472
▁ನ್ಯ	-473
▁ಕೆಲಸ	-474
▁ಪ್ರಯ	-475
▁ಸ್ಥಳ	-476
▁ಅಗ	-477
ಾಯಿತು	-478
▁ವಿರುದ್ಧ	-479
▁ಏನು	-480
ವಹ	-481
▁ಸಾಮ	-482
▁ಅಪ	-483
▁ಹೇಗೆ	-484
ೂರು	-485
ಗಿ	-486
▁ನನ	-487
ಫ್	-488
ಾನೆ	-489
▁ಸಂಬಂಧ	-490
ಾರ್ಥ	-491
▁ಜೀ	-492
▁ನಂತರ	-493
▁ಸಾಧ್ಯ	-494
ದಲ್ಲ	-495
▁ಓ	-496
ಮಗೆ	-497
▁ಇಲ್ಲಿ	-498
▁""	-499
▁ವಿಷ	-500
ಕು	-501
ೋಷ	-502
▁ಮತ್ತ	-503
▁ಸೂ	-504
▁”	-505
ಲ್ಯ	-506
ಿತ್ತು	-507
▁ಪ್ರಮ	-508
ಿನಲ್ಲಿ	-509
ಸ್ಪ	-510
▁ಅಥ	-511
▁ಗ್ರ	-512
▁ಸಂಪ	-513
▁ಅಂತ	-514
ಡ್ಡ	-515
ರೆಗೆ	-516
▁ಹಿಂದ	-517
▁ಮೋದಿ	-518
▁ಮೂಲಕ	-519
ೂರ	-520
▁ಹೋಗ	-521
ಿಸಿದೆ	-522
▁ಮಕ್ಕ	-523
ಿಸಲಾಗಿದೆ	-524
▁ಹೊಸ	-525
▁ಪಡೆ	-526
▁5	-527
ರ್ಶ	-528
▁ಮೊದಲ	-529
ಂತ್ರ	-530
ಿನಿ	-531
ತ್ಮ	-532
▁ವಿಶ್	-533
▁ಪಕ್ಷ	-534
▁ತೆ	-535
▁ಘಟ	-536
▁ಮಾತ	-537
ಾಲಯ	-538
▁ಇದೆ	-539
ದೇ	-540
▁ಸರ	-541
▁ಕುರಿ	-542
ಮಿ	-543
▁ಹೆಚ್ಚು	-544
▁,	-545
ಿರು	-546
ವೂ	-547
▁ರೈ	-548
▁ನಡೆಯ	-549
▁ವಿಷಯ	-550
ರಿಕ	-551
▁ಅಥವಾ	-552
▁ಕೇಂದ್ರ	-553
ೃತ	-554
▁ಕ್ಷ	-555
ೋದ	-556
ಲೂ	-557
▁ಕರ್	-558
▁ದೊ	-559
▁ಹೊರ	-560
▁ಅಧ್ಯಕ್ಷ	-561
▁ಸೆ	-562
▁ರೀ	-563
ಿಗಳು	-564
ರನ್ನು	-565
▁ಭಾಗ	-566
ರುತ್ತದೆ	-567
ಂತ್ರಿ	-568
▁ವಿದ್ಯ	-569
ರವ	-570
ಕರ್	-571
▁ಜೊ	-572
▁ಎಂದರು	-573
ಟರ್	-574
ಹಾರ	-575
▁ಹಲ	-576
ಕ್ಕೂ	-577
▁ಆರೋ	-578
ೀರ	-579
ಗು	-580
ರೀಕ್ಷ	-581
▁ಬಾ	-582
▁ಯೆಹ	-583
▁ನನ್ನ	-584
▁ತಂಡ	-585
▁4	-586
ಿದು	-587
ಾಯಿ	-588
ಜ್ಞ	-589
ಕ್ಕಾಗಿ	-590
ುವುದಿಲ್ಲ	-591
▁ಗಳ	-592
ುನಾವ	-593
▁ನನಗೆ	-594
▁ಸಚಿವ	-595
▁20	-596
ಗರ	-597
ಂದರೆ	-598
▁ಅತ್ಯ	-599
▁ಡಿ	-600
▁ದಾಖಲ	-601
▁ದು	-602
▁ಅವರಿಗೆ	-603
ಕ್ರಮ	-604
ತೆಯ	-605
ವಿಲ್ಲ	-606
▁ಮೆ	-607
▁ಅದನ್ನು	-608
."	-609
▁ತುಂಬ	-610
ಧಾರ	-611
▁ಅವನ	-612
▁ಅಗತ್ಯ	-613
▁-	-614
▁ಚುನಾವ	-615
ರಿನ	-616
ಡುಗ	-617
▁ಬ್ಯಾ	-618
▁ಸಂದ	-619
▁ಎಸ್	-620
▁ಪ್ರಶ್	-621
ೋಗ್ಯ	-622
▁ಗಾ	-623
▁ರಾಷ್ಟ್ರ	-624
▁ಕೇಳ	-625
▁ಜೊತೆ	-626
ಂದಿ	-627
▁ಕ್ರಮ	-628
ಂಜ	-629
ುದ	-630
▁ಸಂಗ	-631
ೇಶ್	-632
ಗಾರ	-633
ಿಸ್ತ	-634
▁ಕಾಲ	-635
ಭವ	-636
ವರ್	-637
ಾಗಿತ್ತು	-638
ುತ್ತಾರೆ	-639
ಂಥ	-640
ಂಗಳ	-641
ಿಯಾಗ	-642
ಾರಾ	-643
▁ಸಮಯ	-644
▁ಇದನ್ನು	-645
ಿಸುತ್ತದೆ	-646
▁ಇದರಿಂದ	-647
ಟ್ರ	-648
ೀಕ	-649
▁ಸೋ	-650
ಮನ	-651
▁ಹಾಕ	-652
ೂರ್ಣ	-653
▁ಜಿಲ್ಲ	-654
▁ಯೆಹೋ	-655
ಾಸ್	-656
▁ನೇ	-657
▁ಪ್ರಧಾನಿ	-658
ಗೊಳ್ಳ	-659
ಮಂತ್ರಿ	-660
ಿಸಿಕೊಂಡ	-661
▁ಬದಲ	-662
▁ನ್ಯಾಯ	-663
▁ಇದ್ದ	-664
▁ಆರಂಭ	-665
▁ಕುಮ	-666
ಂಡ್	-667
ಕ್ತಿ	-668
ುತ್ತಿದ್ದ	-669
▁ಹೇಳಿದರು	-670
▁ನಾಯಕ	-671
▁ಯಾರ	-672
▁ವಿಚಾರ	-673
▁ಮಿ	-674
ಎಂ	-675
▁ಮಾತ್ರ	-676
▁ಹೋ	-677
▁ಅರ್	-678
▁ಪೊಲೀಸ್	-679
▁ಅವರನ್ನು	-680
▁ಏನ	-681
▁ನೋಡ	-682
ಿತ್	-683
ವ್	-684
ುಖ	-685
▁ಪರ	-686
ೋರ್	-687
▁ಬಹ	-688
▁ಶ್ರೀ	-689
▁ವಿಶ್ವ	-690
▁ಹಣ	-691
ಗಳಿಂದ	-692
ದ್ದು	-693
▁ಸಮಸ್ಯ	-694
ೊಬ್ಬ	-695
ಾತ	-696
▁ಭಾರತದ	-697
▁ಮಾಹ	-698
▁ಎಲ್ಲಾ	-699
▁ವಿಶ	-700
ಖೆ	-701
▁ಸ್ಟ	-702
▁ಅದರ	-703
▁ತೆಗೆ	-704
▁ನಡೆದ	-705
▁ಒಳ	-706
▁"""	-707
ವಿದೆ	-708
ಪು	-709
ಕಿ	-710
ರಿದ	-711
▁ಎರಡು	-712
▁ಬೈ	-713
ಾಷ	-714
ೇಷ	-715
▁ಸದ	-716
▁ಲಕ್ಷ	-717
▁ಈಗ	-718
ಷ್ಠ	-719
ತಾ	-720
ತ್ನ	-721
ೇತ್ರ	-722
▁ನಿಯ	-723
▁ಇಂಡ	-724
▁ಮಹಿಳ	-725
ಕಾಶ	-726
▁ಸಿನಿ	-727
▁ಗೊ	-728
▁ಕೆಲವು	-729
ಾಲಿ	-730
ೆಯೇ	-731
ರ್ಭ	-732
▁ಕಿ	-733
▁ಆಯ್	-734
▁ಸಭ	-735
ಶಸ್	-736
ಾಡ	-737
▁ಕಾಣ	-738
ವಸ್ಥ	-739
▁ಆರೋಗ್ಯ	-740
ರ್ಮ	-741
▁ಸ್ಥಾನ	-742
▁ಮಕ್ಕಳ	-743
ದರ್ಶ	-744
▁ತನಿ	-745
▁ಲೋ	-746
ಚಿ	-747
▁'	-748
▁ಆಸ್ಪ	-749
ರಾಗ	-750
ಕೀಯ	-751
ಲಿಯ	-752
ಬೇ	-753
ಸಭ	-754
▁ಬಂಧ	-755
▁ನಟ	-756
ಕರು	-757
▁ಶು	-758
▁ಉತ್ತರ	-759
▁ತೋ	-760
▁ಭಾರತೀಯ	-761
▁ಕುರಿತು	-762
▁ಇರ	-763
▁ಬಹು	-764
▁ಕಂಡ	-765
▁ಠ	-766
▁ಪ್ರದೇಶ	-767
ಕ್ಸ್	-768
▁ತಿ	-769
ಿಗಳ	-770
▁ಇದರ	-771
ಷ್ಯ	-772
▁ಪ್ರತ	-773
▁ಉತ್ತಮ	-774
ಿಸಿದ್ದ	-775
▁ಮಾಡಿ	-776
ಂತಹ	-777
ೃದ್ಧ	-778
▁ಅವು	-779
▁ಒಬ್ಬ	-780
▁ಎಂ	-781
ಿಸಿಕೊಳ್ಳ	-782
▁ಇನ್ನ	-783
ಳೆಯ	-784
▁ಪಿ	-785
ೀತ	-786
▁ಯೋಜ	-787
▁ಇಬ್ಬ	-788
▁ಒಂದ	-789
▁ವಿದ್ಯಾರ್ಥ	-790
▁6	-791
▁ದೇವರ	-792
▁ಅನೇಕ	-793
ಂದ್ಯ	-794
▁ಹೇಳಿದ್ದಾರೆ	-795
ಟ್ಟಿ	-796
▁ಇದಕ್ಕೆ	-797
▁ದೊಡ್ಡ	-798
್ರಹ	-799
▁ರೀತಿಯ	-800
▁ನಿರ್ಮ	-801
▁ಆರ್	-802
▁ಪಂದ್ಯ	-803
ೆಯು	-804
▁ಬಿಡುಗ	-805
▁ಅಲ್ಲಿ	-806
▁ಗೋ	-807
▁ಅನ್ನು	-808
▁ಹೆಚ್ಚಿನ	-809
▁ಅಧಿಕಾರಿ	-810
▁ಇನ್ನೂ	-811
್ರಿಯ	-812
▁ಸಾಧ	-813
▁ಮಾಡುವ	-814
ಾಂತ	-815
▁:	-816
▁ಕ್ಷೇತ್ರ	-817
ತ್ಪ	-818
ಸ್ಟ್	-819
ೀನ	-820
▁ಯು	-821
▁ಎರಡ	-822
ಿಯಾಗಿ	-823
▁ಕೋಟಿ	-824
ಮಾಡ	-825
▁ಉಳ	-826
▁ತಪ್ಪ	-827
ಿಸಲಾಗ	-828
ಿದ್	-829
ಟುಂಬ	-830
ದುಕೊಂಡ	-831
▁ಮಾರ್	-832
▁ಬಳಿಕ	-833
ರ್ಯ	-834
▁ಕಾರ್ಯಕ್ರಮ	-835
▁ನಿರ್ದೇಶ	-836
ುತ್ತಿದ್ದಾರೆ	-837
ವಾಸ	-838
ರುವುದ	-839
ಂಟ್	-840
▁ಪಡೆಯ	-841
ದುಕೊಳ್ಳ	-842
ೋಧ	-843
▁ಸಂಸ್ಥ	-844
▁ನಡುವ	-845
ರೇಂದ್ರ	-846
▁ಸಿಂಗ್	-847
▁ಗಾಯ	-848
್ಯೂ	-849
▁ಇತರ	-850
ೃಷ್ಟ	-851
▁ಬೇಕ	-852
▁ಮಾತನಾ	-853
ಿಸಿದ್ದರು	-854
ನೆಗೆ	-855
▁ಮಾಹಿತಿ	-856
ಟಕ	-857
▁ಭೇ	-858
▁ನಂಬ	-859
▁ಮುಖ	-860
▁ವರ್ಷ	-861
ವರಿಗೆ	-862
▁ಕುಟುಂಬ	-863
▁ಕೃ	-864
ಿಕೆಟ್	-865
ಜನ	-866
▁ಪ್ರಮುಖ	-867
▁ಆಟ	-868
▁ವೆ	-869
▁ಒಪ್ಪ	-870
▁ಮಾಜಿ	-871
▁ಸಾವ	-872
್ರಿ	-873
▁ಬಹಳ	-874
▁ಅವನು	-875
ಿಯೂ	-876
▁ಗಾಂಧ	-877
ಿಯು	-878
▁ನಿಜ	-879
▁ಜೀವನ	-880
ಾನ್ಯ	-881
ಹ್	-882
▁ಮಾಡಿದ	-883
▁ನಮಗೆ	-884
ರಿಸಿ	-885
ರ್ಚ	-886
ೀಲ	-887
▁ನಗರ	-888
ಿತರ	-889
▁ಠಾಣ	-890
▁ನರೇಂದ್ರ	-891
▁ಸರಕಾರ	-892
ರಣೆ	-893
ಿಣ	-894
▁ಕಡಿ	-895
ನ್ಸ್	-896
▁ಆತನ	-897
▁ಜನರು	-898
ಾಳ	-899
▁ಪದ	-900
▁ಟಿ	-901
▁ಚುನಾವಣ	-902
▁ಪರಿಸ	-903
▁ಮಾಡಲು	-904
ಕೋ	-905
▁ಫೋ	-906
ಿಸಬೇಕು	-907
▁ವಿಶೇಷ	-908
▁ಮೈ	-909
▁ವೇಳ	-910
ಿಕೆಯ	-911
▁ಗೊತ್ತ	-912
ಕ್ಕಿ	-913
▁ವೇ	-914
ಿದ್ಧ	-915
▁ಮುಖ್ಯಮಂತ್ರಿ	-916
▁ಆತ	-917
ವಲ್ಲ	-918
▁ವಾ	-919
▁ಗಮನ	-920
▁ಸಂತ	-921
▁ಸಲ್ಲ	-922
ೆಲ್ಲ	-923
▁10	-924
▁ಸಹಾಯ	-925
ಾಗಿದ್ದ	-926
▁ವಿಧಾನ	-927
▁ಜೆ	-928
▁ತಿಳಿಸಿದ್ದಾರೆ	-929
▁ಭಾಷ	-930
ರಳ	-931
▁ಕುಮಾರ್	-932
▁ಸಂದರ್ಭ	-933
ದ್ರ	-934
▁’	-935
▁ಆರೋಪ	-936
▁ಸಮಸ್ಯೆ	-937
▁ತರ	-938
▁ಸೌ	-939
▁ಅಭಿವ	-940
ವಲ	-941
▁ಬೀ	-942
ಸಾ	-943
▁ವರ	-944
▁ಬಳಸ	-945
▁ಪ್ರತಿಭ	-946
▁7	-947
▁ತೀ	-948
▁ಎದು	-949
▁ಪರಿಣ	-950
ಲಭ	-951
▁ಗೌ	-952
ಜು	-953
ರೋಧ	-954
▁ವ್ಯಾ	-955
▁ಎನ್	-956
▁ಚೆ	-957
▁ಸೈ	-958
ಕೊಂಡ	-959
▁ತಂದ	-960
▁8	-961
▁—	-962
▁ಕಳೆ	-963
ಾದರೂ	-964
ಗಿನ	-965
▁ಜಿ	-966
▁ಪರೀಕ್ಷ	-967
ೊಡ	-968
▁ಕಂಪ	-969
ಿಸ್ತಾನ	-970
ಸ್ಕ	-971
▁ಭೂ	-972
ನಲ್ಲಿ	-973
ಶ್ರ	-974
▁ಬರ	-975
▁ಮುಂದು	-976
ಪಟ್ಟ	-977
ವರೆ	-978
▁ಪಾತ್ರ	-979
▁ಏಕೆ	-980
▁ಸೂಚ	-981
▁ಸದಸ್ಯ	-982
ಿರಿ	-983
ಿಕಿತ್	-984
▁ವ್ಯಕ್ತ	-985
▁ವಿವಿ	-986
▁ಇನ್ನು	-987
ಣಿ	-988
್ಟ್	-989
▁ಪ್ರಯತ್ನ	-990
ಂಕ್	-991
ಬಾರ	-992
▁ಆಸ್ಪತ್	-993
▁ಲೋಕ	-994
▁ಆಯ್ಕೆ	-995
▁ವಾಹ	-996
▁ಅವಕಾಶ	-997
ಕ್ತಿಯ	-998
▁ಪಾಕ	-999
...	-1000
ಾನಿ	-1001
ಾಟ	-1002
▁ರೂಪ	-1003
▁ಘಟನೆ	-1004
▁?	-1005
▁ಇದೇ	-1006
▁ಅಭಿ	-1007
ಂಶ	-1008
ಲಿನ	-1009
ವೀ	-1010
▁ಮಾನ	-1011
▁ಬೆಂಗಳ	-1012
ೋಚ	-1013
ೋಹ	-1014
▁ಟ್ರ	-1015
ೃತ್ತ	-1016
ಾನೂ	-1017
▁ಸೇರಿದ	-1018
▁ಮಧ್ಯ	-1019
ಾಯ್	-1020
ಹುಲ್	-1021
▁ವ್ಯವಸ್ಥ	-1022
▁ಕೊಡ	-1023
▁ಯೆಹೋವನ	-1024
ಯ್ಯ	-1025
▁ಹೈ	-1026
▁ತನಿಖೆ	-1027
▁ದೇವ	-1028
ರಾದ	-1029
▁ಎನ್ನು	-1030
▁ಶಾಲ	-1031
ಕೊಳ್ಳ	-1032
ೇಖ	-1033
▁ಮಾತು	-1034
▁ಅದಕ್ಕೆ	-1035
▁ಪಡೆದ	-1036
▁ವಿವಿಧ	-1037
ುತ್ತಿರುವ	-1038
ರಿಗೂ	-1039
ವನು	-1040
▁ಬಿಜೆಪ	-1041
▁ವಹ	-1042
▁ಸಾಕ	-1043
▁ರಾಜಕೀಯ	-1044
ೇನು	-1045
▁ಹಲವು	-1046
▁ಮೀ	-1047
▁ಕಲ	-1048
ದಲು	-1049
ಾಮಿ	-1050
▁ಪರಿಣಾಮ	-1051
▁ಮಗ	-1052
▁ಆಡ	-1053
▁ರಾಹುಲ್	-1054
▁ವಾಹನ	-1055
▁ಪ್ರಮಾಣ	-1056
ಲ್ಲೂ	-1057
▁ಸಂಖ್ಯ	-1058
ಜ್ಞಾನ	-1059
ನಾಟಕ	-1060
▁ಅಭಿವೃದ್ಧ	-1061
▁ಬಿಡುಗಡೆ	-1062
▁"	-1063
▁ಟೆ	-1064
▁ಚಿಕಿತ್	-1065
▁ಗಾಂಧಿ	-1066
ವಾರ	-1067
▁ನಿನ್ನ	-1068
▁ದೇಶದ	-1069
▁ಯೇ	-1070
▁ಬಲ	-1071
ಸ್ಸ	-1072
▁ಹೊಂದಿದೆ	-1073
ಾಂಶ	-1074
ಿದ್ದೇನೆ	-1075
▁ಉತ್ಪ	-1076
ಿದ್ದೇವೆ	-1077
▁ವೇಳೆ	-1078
ಯ್	-1079
ಾರಂಭ	-1080
ೆಂದು	-1081
▁ಅರ್ಥ	-1082
ಯೂ	-1083
ಮಾರು	-1084
ಲ್ಪಟ್ಟ	-1085
▁ನಾಲ್	-1086
▁ಹೀಗೆ	-1087
ಸರ್	-1088
ಷ್ಟೇ	-1089
ೆಗಳು	-1090
▁ವಿಧ	-1091
▁ವೈದ್ಯ	-1092
▁ಕರ್ನಾಟಕ	-1093
▁ಉದ್ದ	-1094
▁ಮಾತನಾಡ	-1095
▁ತುಂಬಾ	-1096
್ದರಿಂದ	-1097
ಲಾಗುತ್ತದೆ	-1098
▁ಮತ	-1099
ಸ್ತು	-1100
▁ಮೂರು	-1101
▁ಕೇವಲ	-1102
▁ಉದ್ಯ	-1103
▁ಅಭ್ಯ	-1104
ಟೆ	-1105
▁ಕಾರ್	-1106
ಾದ್	-1107
▁ಯುವ	-1108
▁ನಿಮಗೆ	-1109
▁ತು	-1110
▁ವಿಭ	-1111
▁ಶಾಸ	-1112
▁ಪ್ರತಿಭಟ	-1113
ಗ್ರ	-1114
ರ್ಧ	-1115
▁ಎಂಬುದ	-1116
▁ಮಾರು	-1117
ರಿಕೆ	-1118
▁201	-1119
▁ಪಾಕಿಸ್ತಾನ	-1120
▁ಬೆಳ	-1121
▁ನೀರು	-1122
▁ಯಾರು	-1123
▁ಪ್ರೀ	-1124
ಕೂ	-1125
ುವಂತೆ	-1126
ೆಯಿಂದ	-1127
▁ಚರ್ಚ	-1128
▁ಸಲ	-1129
▁ಅಂದ	-1130
▁ಮಂದಿ	-1131
▁ಬೇರೆ	-1132
ಗಳಿವೆ	-1133
▁ಅಭ್ಯರ್ಥ	-1134
▁ಸಿದ್ಧ	-1135
▁ಆದ್ದರಿಂದ	-1136
ಳಿತ	-1137
ಾಗುತ್ತದೆ	-1138
▁ಬಯ	-1139
▁ಪೆ	-1140
▁ಪ್ರಶ್ನೆ	-1141
▁ಕಂಡು	-1142
▁12	-1143
▁ಆಗಿದೆ	-1144
ಿಸುವುದು	-1145
▁ದಿ	-1146
ುತ್ತಿಲ್ಲ	-1147
▁ಮುಂಬ	-1148
▁ವಿರೋಧ	-1149
ಾಗಲೇ	-1150
▁ಗ್ರಾಮ	-1151
▁15	-1152
▁ಮಾಡಿದ್ದಾರೆ	-1153
▁ಫಲ	-1154
ಚಿತ	-1155
▁ಕಾರು	-1156
▁ಒಳ್ಳ	-1157
ಿರಿಯ	-1158
▁ಪಟ್ಟ	-1159
ರೆದ	-1160
ಭಾವ	-1161
▁ಭೇಟಿ	-1162
್ಥ	-1163
▁ಮಾರ್ಗ	-1164
▁ಆತ್ಮ	-1165
▁ನಡುವೆ	-1166
▁ಒತ್ತ	-1167
▁ರೋಗ	-1168
▁ಬೇಡ	-1169
▁ಜನರ	-1170
▁ದೂರ	-1171
▁ಸಿಗ	-1172
ಾಮ್	-1173
▁ಜೀವ	-1174
▁ನೀಡಿ	-1175
ದಾರ	-1176
▁ಮುಂದೆ	-1177
▁ಟೀ	-1178
▁ಸಾಮಾನ್ಯ	-1179
▁ಕಾಯ	-1180
ೀಪ	-1181
ರ್ಕ	-1182
▁ಬು	-1183
▁ಕಡಿಮೆ	-1184
▁ಪರಿಸ್ಥ	-1185
▁ಸೇವ	-1186
ಬಲ್	-1187
ಾಲ್	-1188
ಿರಲಿಲ್ಲ	-1189
ುತ್ತೇನೆ	-1190
ಶ್ಯ	-1191
ನೂ	-1192
ಕೆಯ	-1193
ುದು	-1194
▁ಮುಂದಿನ	-1195
▁ಸುಮಾರು	-1196
▁ಕೈಗೊಳ್ಳ	-1197
▁ಕೆಳ	-1198
ಾಗಿರುವ	-1199
ಬಾರದು	-1200
▁ಆಹಾರ	-1201
▁ಸಾಕಷ್ಟು	-1202
▁ರಾಷ್ಟ್ರೀಯ	-1203
▁ಇಲಾ	-1204
▁ಜೊತೆಗೆ	-1205
▁ಶಾ	-1206
▁ಅತ್ಯಂತ	-1207
▁ಸೇರಿದಂತೆ	-1208
ುತ್ತವೆ	-1209
▁ಬಾರಿ	-1210
▁ಅತಿ	-1211
ಹಿ	-1212
▁ಚೆನ್ನ	-1213
ಟು	-1214
ಾಮೆ	-1215
ಗಳಿ	-1216
▁ತಾ	-1217
▁ಕನ್ನ	-1218
ಿಯೇ	-1219
▁ಸಂಪೂರ್ಣ	-1220
▁ಆಸ್ಪತ್ರೆಗೆ	-1221
ತೆಗೆ	-1222
▁ಮೃತ	-1223
▁ದೆಹ	-1224
▁ತೋರಿಸ	-1225
▁ಕಾನೂ	-1226
▁ಸರಿಯ	-1227
ಆರ್	-1228
▁ಸತ್ಯ	-1229
▁ಅಮೆ	-1230
▁ಇಷ್ಟ	-1231
▁ಅಧಿಕಾರ	-1232
▁ಸ್ಪರ್ಧ	-1233
ವಾರು	-1234
ಮ್ಮೆ	-1235
▁ಗುರು	-1236
▁ರಿ	-1237
▁ಜಿಲ್ಲಾ	-1238
ವ್ರ	-1239
▁ಇಬ್ಬರು	-1240
▁ಜಯ	-1241
ಗೋ	-1242
▁19	-1243
▁ಮಹಿಳೆಯ	-1244
▁ಜೋ	-1245
ವರೆಗೆ	-1246
▁ಮಾದ	-1247
▁ರು	-1248
▁9	-1249
▁ಠಾಣೆಯಲ್ಲಿ	-1250
▁ಉಂಟ	-1251
▁ರಚ	-1252
ಿದ್ದರೆ	-1253
ಶೀಲ	-1254
ಿಯಿಂದ	-1255
▁ಟ್	-1256
▁ಬೆಂಬ	-1257
▁ಆರೋಪಿ	-1258
▁ಇವೆ	-1259
ವಾಹ	-1260
▁ಅನುಭವ	-1261
▁ಪ್ರಸ	-1262
ಾರ್ವ	-1263
▁ತಯ	-1264
▁ಸಿನಿಮಾ	-1265
▁ಕಟ್ಟ	-1266
ಗ್ಗ	-1267
ಣ್ಣು	-1268
▁ಲಭ	-1269
▁ಇಂಡಿಯಾ	-1270
▁ತಿಳಿಸಿದರು	-1271
▁ಭಯ	-1272
▁ಸದ್ಯ	-1273
▁ಶೇ	-1274
▁ಪ್ರತಿಯ	-1275
▁ವ್ಯಕ್ತಪಡ	-1276
▁ಸಂದರ್ಭದಲ್ಲಿ	-1277
▁ಹೆಸ	-1278
ೋರ್ಟ್	-1279
ಾಜ್	-1280
ನ್ನೆ	-1281
▁ಸ್ಮ	-1282
ಕಟ್ಟ	-1283
▁ಹಾ	-1284
▁ನಾವ	-1285
▁ಇರುವ	-1286
▁ಸಂಘ	-1287
ೋಲ್	-1288
ಿಯಾದ	-1289
▁ರೆ	-1290
▁ಬೆಲೆ	-1291
ಳ್ಳಿ	-1292
ಧಿ	-1293
▁ಉದ	-1294
▁ಅಮ	-1295
▁ತೀವ್ರ	-1296
▁ಡಾ	-1297
ಹಾಸ	-1298
ಲಯ	-1299
▁ಖಾನ್	-1300
ೀರಿ	-1301
ಾಜಿಕ	-1302
▁ಮಂಡ	-1303
▁ವಿವ	-1304
▁ಹಿರಿಯ	-1305
ಾರಿಗೆ	-1306
▁ಶಿಕ್ಷ	-1307
ಟೋ	-1308
▁ಲಾ	-1309
▁ಶಿವ	-1310
▁ಗುಣ	-1311
▁ಪ್ರತಿಕ	-1312
▁ಯೋಜನೆ	-1313
▁ಶಿಕ್ಷಣ	-1314
ನ್ನೇ	-1315
▁ಮನೆ	-1316
▁ವಿಜ	-1317
ದಲ್ಲೇ	-1318
▁ಮತ್ತೆ	-1319
▁ಮಟ್ಟ	-1320
ಿಕಾ	-1321
▁ಅಸ	-1322
▁ಬ್ಯಾಂಕ್	-1323
ಿನಿಂದ	-1324
ುತ್ತೇವೆ	-1325
ತ್ಮಕ	-1326
▁ಕಷ್ಟ	-1327
▁ನಿರೀಕ್ಷ	-1328
ಲೋ	-1329
ತೆಯನ್ನು	-1330
▁ತೀರ್	-1331
▁ಗಳು	-1332
▁ಚಿಕಿತ್ಸೆ	-1333
▁ನೋಡಿ	-1334
▁ಬೆಂಬಲ	-1335
▁ನವ	-1336
▁ಸಾಮಾಜಿಕ	-1337
ಶಿ	-1338
▁ತಿಳಿದು	-1339
▁ಸ್ಪಷ್ಟ	-1340
▁ಕ್ಯ	-1341
▁ಸಾರ್ವ	-1342
ತ್ಸ	-1343
▁ಹಿಂದೆ	-1344
▁ನಿರ್ವಹ	-1345
ಷಿ	-1346
ಲನ	-1347
▁ಪೊಲೀಸ	-1348
▁ಕನ್ನಡ	-1349
▁ಕೊಟ್ಟ	-1350
ಲಿದ್ದಾರೆ	-1351
▁ಆರ್ಥ	-1352
ದಿಯ	-1353
▁ಪ್ರಕಾರ	-1354
ರುವುದು	-1355
▁ಪ್ರಶಸ್	-1356
ವಾಗಿತ್ತು	-1357
▁ಸುದ್ದ	-1358
▁ಸೇವೆ	-1359
▁ಹೀಗಾಗಿ	-1360
▁ಹಲವಾರು	-1361
▁ಸಂಪರ್ಕ	-1362
ಡುವುದ	-1363
▁ಬಣ್ಣ	-1364
▁ಜಾಗ	-1365
ಗಣ	-1366
▁ಈಗಾಗಲೇ	-1367
ಜನಿಕ	-1368
▁ಪಕ್ಷದ	-1369
▁ಘೋಷ	-1370
▁ದೂರು	-1371
▁ಸುರ	-1372
ಾಗಿಲ್ಲ	-1373
▁ಹಂತ	-1374
ರಲಿಲ್ಲ	-1375
▁ಕ್ಯಾ	-1376
▁ಆರ್ಥಿಕ	-1377
▁ಭಾವ	-1378
▁ಪುನ	-1379
▁ಲೈ	-1380
ಯನ	-1381
▁ರಸ್	-1382
ಿಸಬೇಕ	-1383
ಹೆ	-1384
ಿದ್ದಾನೆ	-1385
ೀಕರಿಸ	-1386
ಕಾಲ	-1387
ಭು	-1388
▁ದ್	-1389
000	-1390
▁ಊ	-1391
▁ಹಾಗೆ	-1392
▁ಅಧಿಕಾರಿಗಳು	-1393
ರ್ಟ್	-1394
ಷ್ಣ	-1395
ಿನ್ನ	-1396
▁ಚಾಲ	-1397
▁ಯಶಸ್	-1398
▁ಸಿನಿಮ	-1399
ಲಾಯಿತು	-1400
▁ಜ್	-1401
▁ಇದರಲ್ಲಿ	-1402
▁ಎಚ್ಚ	-1403
ುತ್ತಾ	-1404
▁ನಿರ್ಮಾಣ	-1405
ನೆಯನ್ನು	-1406
▁ಸ್ವಲ್ಪ	-1407
▁ತೆಗೆದುಕೊಳ್ಳ	-1408
▁ಭಾಗವಹ	-1409
▁ಇಂತಹ	-1410
ಾರಾಷ್ಟ್ರ	-1411
▁ಆದರೂ	-1412
ಬೇಡಿ	-1413
ದಗ	-1414
▁ಆಸ್	-1415
▁ನಾಗ	-1416
ಸ್ರ	-1417
ೋಣ	-1418
▁ನೀಡಿದ್ದಾರೆ	-1419
ಜಾ	-1420
ಯೇ	-1421
ವುಡ್	-1422
▁ಸಿಕ್ಕ	-1423
ೆಗಳ	-1424
▁ನಿರ್ಧಾರ	-1425
ಂತ್	-1426
▁ಅಂಗ	-1427
ೀಡ	-1428
▁ತಮ	-1429
ಡಿಯೋ	-1430
▁ಉದ್ದೇಶ	-1431
▁ಇತ್ತ	-1432
ೃಹ	-1433
▁ಅಭಿವೃದ್ಧಿ	-1434
▁ಗೌರವ	-1435
▁ಪ್ರತಿಕ್ರಿಯ	-1436
▁ಮೊದಲು	-1437
▁ಸಂಸ	-1438
▁ನೆರ	-1439
),	-1440
▁ಪೈ	-1441
ಕಾರಿ	-1442
▁ಮೌ	-1443
ವೇಶ	-1444
ೆಯೂ	-1445
20	-1446
ೀಚ	-1447
▁ಗಳನ್ನು	-1448
ವನ್ನೂ	-1449
ಾಲಿವುಡ್	-1450
▁ಭಾರತದಲ್ಲಿ	-1451
ಥ್	-1452
▁ಸಾಲ	-1453
ಬ್ದ	-1454
ೇರಿ	-1455
▁ರಸ್ತೆ	-1456
▁ಬಯಸ	-1457
▁ಅಮೆರಿಕ	-1458
▁ಆಧ	-1459
ದಾನ	-1460
▁ಸರ್ಕಾರದ	-1461
ಾದರೆ	-1462
▁ಪರಿಹಾರ	-1463
ತ್ವದ	-1464
▁ಧರ್ಮ	-1465
▁ಸಂಭವ	-1466
▁ವಿಮಾನ	-1467
ಾದಲ್ಲಿ	-1468
▁ವ್ಯಕ್ತಿ	-1469
▁ಗಂಭ	-1470
ವಾಗುತ್ತದೆ	-1471
▁ದಾಖಲಾಗಿದೆ	-1472
▁ಕಡೆ	-1473
▁ಅದೇ	-1474
ತಿಹಾಸ	-1475
▁ಎಂಬುದು	-1476
▁ಮಕ್ಕಳು	-1477
▁ಮಾಡಬೇಕು	-1478
▁ಪಾಲ	-1479
▁ಲಿ	-1480
ಾವಣೆ	-1481
ರಾಟ	-1482
ಿಸುವುದ	-1483
ಘಾತ	-1484
▁ಪ್ರಯಾಣ	-1485
ೂರ್ವ	-1486
▁ಮುಂಬೈ	-1487
ಯೋಗ	-1488
ಹಿತ	-1489
▁ಒದಗ	-1490
▁ನೀರಿನ	-1491
▁ಗಣ	-1492
ಿಮ	-1493
ಎಲ್	-1494
ಿಸಿತು	-1495
▁ಲಭ್ಯ	-1496
▁ರೈತ	-1497
ಕನ	-1498
▁ಚಿತ್ರದ	-1499
▁ಬೆಂಗಳೂರು	-1500
▁ಇಡ	-1501
▁ಪೋ	-1502
ಕ್ಷಿಣ	-1503
ಕದ	-1504
▁ಸಹೋದ	-1505
▁ನಿಂದ	-1506
▁ಪತ್ರ	-1507
▁ಮನು	-1508
▁ಸಾಕ್ಷ	-1509
▁ಸಾರ್ವಜನಿಕ	-1510
▁ನಿಯಮ	-1511
▁ವೀ	-1512
ರಾಗಿ	-1513
ನೋ	-1514
ೇಲ್	-1515
▁ಕ್ರಿಕೆಟ್	-1516
▁ಹೃ	-1517
ುವಿನ	-1518
▁ಸೀ	-1519
ಲ್ಲಾ	-1520
ಸ್ವ	-1521
ೆಯಾಗ	-1522
▁ಯಾವಾಗ	-1523
ರ್ಜ	-1524
▁ಆಫ್	-1525
ಿಯನ್	-1526
--	-1527
▁ಹೂ	-1528
▁ಮದು	-1529
▁ಕಾನೂನು	-1530
ಾರಾಟ	-1531
ಬಹುದ	-1532
ೇಟ್	-1533
▁ಮಾಡಿದೆ	-1534
ೀಸ್	-1535
▁ಇವು	-1536
▁ಮಾಡಿಕೊಳ್ಳ	-1537
▁ಅಂಶ	-1538
ತಿಕ	-1539
▁ಉತ್ಪಾದ	-1540
▁ಮಾರುಕಟ್ಟ	-1541
▁ಚುನಾವಣೆ	-1542
ಯು	-1543
▁ಬದುಕ	-1544
▁ಎಲ್ಲಿ	-1545
▁ಸಾಧ್ಯವಿಲ್ಲ	-1546
▁ತಮಿಳ	-1547
▁ಸಂಬಂಧಿಸಿದ	-1548
▁ಔ	-1549
▁ಯಾಕೆ	-1550
ರದ	-1551
▁ಗಂಭೀರ	-1552
ಿಸಬಹುದು	-1553
▁ಕೊಹ್	-1554
▁ಖಂಡ	-1555
▁ಪಾಲ್	-1556
ವರನ್ನು	-1557
▁ಒಟ್ಟು	-1558
▁ಎಂಜಿ	-1559
ನಲ್	-1560
ಚ್ಛ	-1561
▁ಅಭಿನ	-1562
▁11	-1563
ಸಭಾ	-1564
▁ಪ್ರಶಸ್ತಿ	-1565
▁ಪೂರ್ಣ	-1566
▁ರನ್	-1567
▁ಅರ	-1568
▁ಪ್ರಾ	-1569
▁ತಯಾರ	-1570
ಕ್ಕಿಂತ	-1571
ವ್ಯ	-1572
ದಯ	-1573
▁ಬೆಳೆ	-1574
ಚಿತ್ರ	-1575
ಲ್ಲೇ	-1576
▁ಉದಾಹ	-1577
ಪ್ಪು	-1578
▁ಹೆಸರು	-1579
▁ಪ್	-1580
ಪ್ರೀ	-1581
ಶ್ಮ	-1582
▁ಸಿಬ್ಬ	-1583
▁ಸುಲಭ	-1584
ಗೊಂಡಿದೆ	-1585
ವೃತ್ತ	-1586
▁ದಕ್ಷಿಣ	-1587
▁ಕುರಿತ	-1588
▁ಜಾ	-1589
▁ಪ್ರಕಟ	-1590
ೇಜ	-1591
ವಾಸಿ	-1592
▁ನಿಯಂತ್ರ	-1593
ನಿಗೆ	-1594
್ರಾ	-1595
ಡಿಎಸ್	-1596
▁ಕಳೆದ	-1597
▁ರಾಜ್ಯದ	-1598
▁ಬಾಲಿವುಡ್	-1599
▁ಪ್ರದರ್ಶ	-1600
ನೆಯಲ್ಲಿ	-1601
ತ್ಯೆ	-1602
▁ಪೌ	-1603
ಸೂ	-1604
▁ಗಾಯಗೊಂಡ	-1605
ರುವುದಿಲ್ಲ	-1606
▁ಸಂಗೀತ	-1607
ಿದ್ದೆ	-1608
ರಿಸಲು	-1609
ಲಾಗುವುದು	-1610
▁ಸಂತೋಷ	-1611
▁ಪ್ರವೇಶ	-1612
▁ನ್ಯಾಯಾಲಯ	-1613
▁ಭದ್ರ	-1614
▁ಯೇಸು	-1615
▁ವ್ಯಾಪ	-1616
▁ಕಥ	-1617
▁ಜೈ	-1618
ಾಚಾರ	-1619
▁ಮಾಡಿಕೊಂಡ	-1620
▁ಮನುಷ್ಯ	-1621
▁ಸ್ಥಳೀಯ	-1622
ತಿಯನ್ನು	-1623
▁ಕರೆ	-1624
▁[	-1625
▁ಎಷ್ಟು	-1626
▁ಒಳ್ಳೆಯ	-1627
▁ಉಳಿದ	-1628
ಹಾಕ	-1629
ಬು	-1630
ಕತೆ	-1631
ಾಸ್ತ್ರ	-1632
ಗೇ	-1633
ನದ	-1634
▁ಆಡಳಿತ	-1635
▁ಉಪಸ್ಥ	-1636
▁ಯಾರೂ	-1637
▁ದೃ	-1638
▁ಕಡ	-1639
ೀಕರಣ	-1640
ಾದ್ಯ	-1641
▁ಮಾರಾಟ	-1642
ಿರುವುದ	-1643
▁25	-1644
ನ್ಮ	-1645
▁ಪರಿಶೀಲ	-1646
ಲೆಯಲ್ಲಿ	-1647
▁ಪರಿಗಣ	-1648
ುತ್ತಾನೆ	-1649
▁ವರದಿ	-1650
▁ಸಂಕ	-1651
ಪ್ತ	-1652
▁ಜ್ಞ	-1653
ವಿದ	-1654
▁ಪರಿಸ್ಥಿತಿ	-1655
▁ಇಳ	-1656
▁ಮಾಡಲಾಗಿದೆ	-1657
▁ಹೌ	-1658
▁ಕೊಹ್ಲಿ	-1659
▁ತಂತ್ರ	-1660
▁ಆದೇಶ	-1661
ಿಸಿರುವ	-1662
▁–	-1663
▁ಸಣ್ಣ	-1664
▁14	-1665
ನಾದ	-1666
▁ನೀಡಿದ	-1667
▁ತಲೆ	-1668
▁ಬರುತ್ತ	-1669
ದಲ್ಲಿರುವ	-1670
▁ವಿಭಾಗ	-1671
ಲಾಗುತ್ತಿದೆ	-1672
▁ತಮಿಳು	-1673
▁ಸುತ್ತ	-1674
▁ಅಳ	-1675
ಣಿಗೆ	-1676
ಾಗಿದ್ದಾರೆ	-1677
ಧಿಕಾರಿ	-1678
ನನ್ನು	-1679
▁ರಾಮ	-1680
ಿಕ್	-1681
ೇಯ	-1682
▁ಹೃದಯ	-1683
▁ದೇವರು	-1684
▁ಎಂಬುದನ್ನು	-1685
ರಾಜ	-1686
▁ಇಸ್ರ	-1687
▁ತಿಳಿಯ	-1688
▁ನಾನ	-1689
▁ಸರಣ	-1690
ಬಂದ	-1691
ರಿಸುವ	-1692
ತೀ	-1693
▁ನಿರಾ	-1694
್ಮಿಕ	-1695
▁ಸಾಗ	-1696
▁ಮುನ್ನ	-1697
▁—⁠	-1698
ಾರ್ಟ್	-1699
ಾಂಗ	-1700
ಾಂತರ	-1701
▁ರೀತಿ	-1702
▁ತಿಳಿದ	-1703
ರ್ಪ	-1704
ಿದನು	-1705
▁ವಶ	-1706
ೂರಿನ	-1707
▁ಸೂಕ್ತ	-1708
▁ಶೆ	-1709
▁ಎರಡೂ	-1710
▁ಆಸ	-1711
▁ಸುಪ್ರೀ	-1712
▁ಅಲ್ಲದೆ	-1713
▁ಸಾವು	-1714
▁ಇಂಗ್	-1715
ಕ್ಕು	-1716
ನ್ವ	-1717
ಪ್ರಾಯ	-1718
▁ಮುಖಂಡ	-1719
ಲೆಂಡ್	-1720
ಲ್ಪಡ	-1721
ಟಿಂಗ್	-1722
▁ನೀನು	-1723
▁ರಕ್ತ	-1724
▁ಸ್ನೇ	-1725
ಂಕಿ	-1726
▁ಜಗ	-1727
▁ಸಂಖ್ಯೆ	-1728
▁ಪ್ರಾಣ	-1729
▁ಪ್ರಕ್ರಿಯ	-1730
▁ಕರ್ತ	-1731
▁ಸ್ಥಳಕ್ಕೆ	-1732
ೇಲ	-1733
▁ಅನುಮ	-1734
ವಾಗಿಲ್ಲ	-1735
▁ಎಂಜಿನ್	-1736
▁ಇತ್ತೀಚ	-1737
▁ಸುದ್ದಿ	-1738
▁ಬಾಲ	-1739
ಧ್ಯಕ್ಷ	-1740
▁ತೊಂದ	-1741
▁ರಕ್ಷ	-1742
▁ಕಾಶ್ಮ	-1743
,000	-1744
▁ನೈ	-1745
▁ನಟಿ	-1746
▁ವರ್ಗ	-1747
▁ಫೋನ್	-1748
▁ತಿರು	-1749
▁ಕೋರ್ಟ್	-1750
▁ಶೀ	-1751
ಗಳಾಗಿ	-1752
ಬೆ	-1753
▁ಕ್ರೈ	-1754
▁ಎಂದಿದ್ದಾರೆ	-1755
ನಿರ್	-1756
ಿಸಿದ್ದು	-1757
ಪುರ	-1758
▁ಮನೆಯ	-1759
ಿಗಳಿಗೆ	-1760
ರುಷ	-1761
ಿಸಿತ್ತು	-1762
ಸಂ	-1763
್ವ	-1764
ಗಳೂ	-1765
▁ನಮ	-1766
▁ಉಪಸ್ಥಿತರ	-1767
▁ನೇಮ	-1768
ಷೇ	-1769
▁ಸಮಯದಲ್ಲಿ	-1770
ವಾಗಿಯೂ	-1771
ೀಲ್	-1772
ವಾಯಿತು	-1773
ೇತ	-1774
ಿಸುತ್ತಾರೆ	-1775
ಧ್ಯಮ	-1776
▁13	-1777
▁ಸಮುದ	-1778
▁ಇವರ	-1779
ರ್ಮಾ	-1780
▁ಎರಡನೇ	-1781
ಂಪು	-1782
ೈಲ್	-1783
ಬಾದ್	-1784
▁ದರ	-1785
▁ಒಂದೇ	-1786
ಿತಾಂಶ	-1787
▁ಮಳೆ	-1788
▁ಪತ್ತ	-1789
ಳಿಗೆ	-1790
▁ಕೊರ	-1791
▁ವೈರ	-1792
ಗಿಂತ	-1793
▁ಯೆಹೋವನು	-1794
▁ಪೂ	-1795
▁ಹುಡು	-1796
▁50	-1797
ಂಡು	-1798
ಿಸು	-1799
▁ಲೀ	-1800
▁ಪ್ರಾರಂಭ	-1801
ೋಜನ	-1802
▁ಉಪಸ್ಥಿತರಿದ್ದರು	-1803
ರಾವ	-1804
▁ಸಾವಿರ	-1805
▁ನಿಗ	-1806
▁ಬಳಕೆ	-1807
▁ಕಾರ್ಯದರ್ಶ	-1808
▁ಚಿತ್ರದಲ್ಲಿ	-1809
▁ಗುರುತ	-1810
ಶ್ಚ	-1811
▁ಮಂದ	-1812
ಸೆಲ್	-1813
▁ಮುಂದುವರ	-1814
ಮು	-1815
▁ಸಿದ್ದ	-1816
▁ನಾಲ್ಕು	-1817
▁ಕರೆಯ	-1818
ಾಗುವ	-1819
▁ಹಾಗಾಗಿ	-1820
▁ಹಂಚ	-1821
▁ಪ್ರತಿಭಟನೆ	-1822
ದಂತೆ	-1823
ಿಸಿಲ್ಲ	-1824
▁ಕುಮಾರ	-1825
▁ಅಡ	-1826
▁ಇಲಾಖೆ	-1827
▁18	-1828
▁ನಡೆದಿದೆ	-1829
ೊಮ್ಮೆ	-1830
▁ಉದ್ಯೋಗ	-1831
▁ನಿಲ್ಲ	-1832
▁ಜಾಲ	-1833
ಲಾದ	-1834
ರಷ್ಟು	-1835
ೀಗ	-1836
▁ಅರ್ಜಿ	-1837
▁ಟೆಸ್ಟ್	-1838
▁ದೇವಾಲಯ	-1839
▁ಫಲಿತಾಂಶ	-1840
▁ನ್ಯೂ	-1841
▁ಸಮಾಜ	-1842
ರಾಧ	-1843
▁ಸ್ವಾ	-1844
▁ವಿಡಿಯೋ	-1845
▁ಹೇಳಿಕೆ	-1846
ರ್ಥ್ಯ	-1847
▁ಜೆಡಿಎಸ್	-1848
▁ಪುಸ್ತ	-1849
ಲ್ಕ	-1850
▁ಪೂರ	-1851
▁/	-1852
▁ಹೋರಾಟ	-1853
ರಾಟ್	-1854
ಬಲ	-1855
ಬಲ್ಲ	-1856
▁ತಕ್ಷಣ	-1857
ಡ್ಡಿ	-1858
ಕ್ಯ	-1859
▁ಅಪಾಯ	-1860
▁ಕಾಶ್ಮೀರ	-1861
▁ಹೀಗ	-1862
▁ಸೃಷ್ಟ	-1863
▁ಎನ್ನ	-1864
ೆಯಾಗಿದೆ	-1865
ರುತ್ತವೆ	-1866
▁ವಿದೇಶ	-1867
▁ಪ್ರಶ್ನ	-1868
▁ವಾರ್	-1869
▁ನೆನ	-1870
▁ಉಲ್ಲ	-1871
▁ಬಗೆ	-1872
ೃತಿ	-1873
▁ತನಿಖ	-1874
ಲಾಗಿತ್ತು	-1875
▁ಸಭೆಯಲ್ಲಿ	-1876
ತ್ತರ	-1877
▁ಇತಿಹಾಸ	-1878
▁ಸಾಮರ್ಥ್ಯ	-1879
ಂಸ	-1880
▁ಯೋಚ	-1881
▁ವಾರ	-1882
▁ಆಟಗಾರ	-1883
▁ಸುರಕ್ಷ	-1884
▁ಅನಿ	-1885
▁ಜನರಿಗೆ	-1886
▁ಹಾಜ	-1887
ರ್ಸ್	-1888
ನಾನು	-1889
▁ಪ್ರೇ	-1890
▁ಸೇರಿ	-1891
▁ತಂಡದ	-1892
ವರೆಗೂ	-1893
ಪಾ	-1894
▁ಲೆ	-1895
ಿದ್ದವು	-1896
▁ಬೈಬಲ್	-1897
ಜೀ	-1898
ೆಗಳಲ್ಲಿ	-1899
▁ಅಧ್ಯಯನ	-1900
▁ವಿದ್ಯಾರ್ಥಿಗಳು	-1901
▁ವಿರಾಟ್	-1902
ರಾಮ	-1903
▁ಹಿನ್ನೆ	-1904
▁ಆಫ	-1905
ಿಕೆಯನ್ನು	-1906
▁ಶರ್ಮಾ	-1907
▁ಕಾಮ	-1908
▁ಸರಳ	-1909
ಥಮ	-1910
▁ದಾಖಲಿಸಿಕೊಂಡ	-1911
▁ಭರವ	-1912
▁ಹತ್ತ	-1913
▁ಇವರು	-1914
▁ನು	-1915
▁ವಾಸ	-1916
▁ಸಂಶ	-1917
್ಯು	-1918
▁ಎಲ್	-1919
▁ಬಸ್	-1920
▁ಕ್ರೈಸ್ತ	-1921
ಿಸಲಾಯಿತು	-1922
ಲೈ	-1923
▁ಆನ	-1924
ಾಗ್ಯೂ	-1925
ಾದ್ಯಂತ	-1926
▁ಶಾಂತ	-1927
ೇಸ್	-1928
▁ಕೌ	-1929
ಎನ್	-1930
ತ್ನಿ	-1931
▁ಪೆಟ್ರ	-1932
▁ಆಚ	-1933
▁ಎಚ್	-1934
ಮಾರ್	-1935
▁ಬದಲಾವಣೆ	-1936
▁ಎಲ್ಲರೂ	-1937
▁ಜ್ಞಾನ	-1938
▁ನನ್ನನ್ನು	-1939
▁ಇಲ್ಲಿದೆ	-1940
▁ನೀಡಿದರು	-1941
▁ರಕ್ಷಣ	-1942
▁16	-1943
▁ನೀಡಿದೆ	-1944
▁ಖಾ	-1945
ನ್ಯಾಸ	-1946
ಳುಹ	-1947
▁ವಸ್ತು	-1948
ಿಕವಾಗಿ	-1949
▁ಓದಿ	-1950
ಾರ್ಕ್	-1951
▁ಮಾಡಿದರು	-1952
▁ಸಹೋದರ	-1953
▁ಮಾಡುತ್ತದೆ	-1954
ಿಸುತ್ತಿದ್ದಾರೆ	-1955
ಾಳೆ	-1956
ಿಸುತ್ತೇನೆ	-1957
ವಿಧಾನ	-1958
ೀರಾ	-1959
▁ಬರುವ	-1960
▁ಕರ್ತನ	-1961
ೆಂಬ	-1962
▁ವಿಚಾರಣೆ	-1963
ನ್ವಯ	-1964
▁ದೇಹ	-1965
▁ವಿವರ	-1966
▁ಪ್ರಧಾನಮಂತ್ರಿ	-1967
ಪತಿ	-1968
ರಿಸಿದ	-1969
ಿಸಿದನು	-1970
▁ರೀತಿಯಲ್ಲಿ	-1971
▁ಸೊ	-1972
▁ಅದರಲ್ಲಿ	-1973
▁ಮೃತಪಟ್ಟ	-1974
ಘ್ರ	-1975
ಷನ್	-1976
▁ಗೆದ್ದ	-1977
ನಿಯ	-1978
▁ಬಿಟ್ಟು	-1979
▁ಪತ್ನಿ	-1980
ುತ್ತಮ	-1981
▁200	-1982
ೊಟ್ಟ	-1983
▁ಸಿಬಿ	-1984
▁ಪೋಷ	-1985
▁ಪ್ರಯೋಜನ	-1986
▁ಇರಲಿಲ್ಲ	-1987
▁ಮೌಲ್ಯ	-1988
▁ಕಪ	-1989
ಸ್ವಾಮಿ	-1990
▁ಕಳುಹ	-1991
▁ದೆಹಲಿ	-1992
▁ಇಡೀ	-1993
▁ಥ	-1994
▁ಬ್ರ	-1995
▁ಇನ್	-1996
ಮೇ	-1997
ಂತು	-1998
▁ಟ್ವೀ	-1999
ಡಿದ	-2000
▁ದೀಪ	-2001
ೀನ್	-2002
▁ಉಗ್ರ	-2003
ಾಗ್	-2004
▁ಸಚಿ	-2005
▁ಸರಿ	-2006
▁ಶೀಘ್ರ	-2007
▁ಹರ	-2008
▁ಖರೀ	-2009
▁ಬರೆದ	-2010
▁ಮರು	-2011
ಫೋ	-2012
ಾಚ	-2013
▁ಕೂಡಾ	-2014
▁ಮಾಧ್ಯಮ	-2015
▁ರಾಜ್ಯದಲ್ಲಿ	-2016
▁ಆಶ	-2017
▁ಖು	-2018
▁ಸಾಂ	-2019
ಪ್ರದೇಶ	-2020
▁ಚುನಾವಣೆಯಲ್ಲಿ	-2021
▁ರೋ	-2022
ವರಿ	-2023
▁ವೆಚ್ಚ	-2024
▁ಅತ್ಯುತ್ತಮ	-2025
▁ಯುದ್ಧ	-2026
▁ಕಾಯ್ದ	-2027
ಕಾಸ	-2028
▁ಆಧಾರ	-2029
ಸಭೆ	-2030
▁ಪುತ್ರ	-2031
▁ಆದಾಗ್ಯೂ	-2032
▁ಏರ್	-2033
ತೃ	-2034
ಣೆಯ	-2035
▁ಬಿಜೆಪಿಯ	-2036
▁ಹೌದು	-2037
▁ಬೈಕ್	-2038
ಾಶ	-2039
ುತ್ತಿದ್ದರು	-2040
▁ನೀಡುವ	-2041
ಿಕೊಂಡು	-2042
ೈಸ	-2043
▁ಅಂದರೆ	-2044
▁ಬಂದಿದೆ	-2045
▁ಅಷ್ಟ	-2046
ಲ್ಯಾ	-2047
▁ಭೂಮ	-2048
ಳ್ಳು	-2049
▁ವಯ	-2050
ಬೇಕೆಂದು	-2051
▁100	-2052
▁ಚಂದ್ರ	-2053
▁ಸಹಕಾರ	-2054
▁ಒಟ್ಟ	-2055
▁ಆತನು	-2056
ಮೊ	-2057
▁ತಲು	-2058
ಜರಾ	-2059
ೆಗಳನ್ನು	-2060
▁ಅಂತಿಮ	-2061
▁ಪ್ರತ್ಯ	-2062
ಮಿತ್	-2063
▁ಚೆನ್ನಾಗಿ	-2064
▁ಮುಗ	-2065
▁ಚಿಕ್ಕ	-2066
ಿಲ್	-2067
▁ಸಂಚಾರ	-2068
▁ಮಹಾರಾಷ್ಟ್ರ	-2069
▁ಸಂಘಟ	-2070
ಳಿಯ	-2071
▁ಪಡ	-2072
▁ಕುಡಿಯ	-2073
▁ಇಂಥ	-2074
▁ಬಡ	-2075
ಿಸಲಾಗಿತ್ತು	-2076
ಿಸಲ್ಪಟ್ಟ	-2077
ಂಡರ್	-2078
▁ಅಂತರ	-2079
▁ಮಾನವ	-2080
▁ಪುಸ್ತಕ	-2081
ಫಲ	-2082
▁ಕಾರ್ಯಾ	-2083
ಾತ್ಮಕ	-2084
ಲುವು	-2085
▁ವ್ಯಕ್ತಿಯ	-2086
▁ಗೃಹ	-2087
▁ಅಪಘಾತ	-2088
ಪಾಲ	-2089
▁ತಂದೆ	-2090
▁ಸಿಎಂ	-2091
ನಾಥ್	-2092
▁ನಿರ್ದೇಶಕ	-2093
▁ದಾಳಿ	-2094
▁ತಪ್ಪು	-2095
▁ಅಧ	-2096
▁ಪ್ರತಿಯೊಬ್ಬ	-2097
▁17	-2098
▁ಹಾಕಿ	-2099
▁ಹಣಕಾಸ	-2100
▁ವಿಸ್ತ	-2101
ುತ್ತಿತ್ತು	-2102
▁ಅವನಿಗೆ	-2103
ಎಫ್	-2104
ಡುಗೆ	-2105
▁ಹೋದ	-2106
ೂರ್ತಿ	-2107
▁ಛ	-2108
▁ಕುಸ	-2109
▁ಅಭಿಪ್ರಾಯ	-2110
ಿದ್ದರೂ	-2111
▁ಗುಜರಾ	-2112
▁ನಾಯ	-2113
▁ಮ್ಯಾ	-2114
ಿತಿಯನ್ನು	-2115
▁ಹೊಂದಿರುವ	-2116
▁ಹಿಂದೂ	-2117
▁ಕೂಡಲೇ	-2118
ಿಸುವಂತೆ	-2119
▁ವೇಗ	-2120
▁ಫೈ	-2121
▁ಬೇಕು	-2122
ರ್ವ	-2123
▁ಆಸ್ಟ್ರ	-2124
▁ತಿಂ	-2125
ೂಹ	-2126
ಡಾ	-2127
▁ಆಕೆ	-2128
ಂಟರ್	-2129
ಾಣಿ	-2130
▁ಸಿಬ್ಬಂದಿ	-2131
ೂಕ	-2132
▁ಕತ್ತ	-2133
▁ಸಂಸ್ಕ	-2134
▁ಎಫ್	-2135
▁ಖಾಸ	-2136
▁ಇದೊಂದು	-2137
▁ವಾಸ್ತ	-2138
▁ಇಸ್ರಾಯ	-2139
▁ಅಪ್	-2140
▁ಸಂಸದ	-2141
▁ಮಿಶ್ರ	-2142
▁ಯೆ	-2143
▁ತೆರಿಗೆ	-2144
ವಿಡ್	-2145
▁ಅಗತ್ಯವಿದೆ	-2146
ನೀ	-2147
▁ಕೊಲೆ	-2148
ಪಕ್ಷ	-2149
ದರಿಂದ	-2150
▁ಅಮಿತ್	-2151
ನೆಗಳು	-2152
▁ಮಾಡಬಹುದು	-2153
ೌಡ	-2154
▁ಬಿಡ	-2155
▁ಸ್ಥಾಪ	-2156
▁ಟ್ವೀಟ್	-2157
ಾಯು	-2158
▁ಕೆಳಗಿನ	-2159
ಕರಿಸ	-2160
▁ಕಣ	-2161
ಿತಿಯ	-2162
▁ಕಾರ್ಯಕರ್	-2163
ಬಾ	-2164
▁ಏಕ	-2165
▁ಪ್ರಾರ್ಥ	-2166
ೋತ್ಸ	-2167
▁30	-2168
▁ಮನವಿ	-2169
ಪರ್	-2170
▁ಪೆಟ್ರೋಲ್	-2171
▁ಅದ್	-2172
▁ಶುಭ	-2173
▁ಸಂಭ	-2174
▁ಫೋಟೋ	-2175
ಿರುವುದು	-2176
▁ಡೆ	-2177
ೇಂದ್ರ	-2178
ಮಟ್ಟ	-2179
▁ಏನೂ	-2180
▁ಕಾರ್ಯದರ್ಶಿ	-2181
▁ದೃಷ್ಟ	-2182
▁ಮರಣ	-2183
▁ನೂ	-2184
▁ಮಾದರಿಯ	-2185
▁ಬಂಧನ	-2186
▁ಮರ	-2187
▁ಬಾರ	-2188
್ತ	-2189
▁ರಾಜೀನ	-2190
▁ಆತ್ಮಹ	-2191
▁ಅವಳ	-2192
ೋಪ	-2193
ರಿತ	-2194
▁ವ್ಯವಹ	-2195
▁ವಿದ್ಯು	-2196
ಗಳನ್ನೂ	-2197
ಟುವ	-2198
ಗಳಾದ	-2199
▁ಒತ್ತಾಯ	-2200
▁ಕೈಗೊಂಡ	-2201
▁ದಾಖಲೆ	-2202
ಕ್ಸ	-2203
ದೆಹ	-2204
▁ಕೇರಳ	-2205
▁ಕಪೂರ್	-2206
ುತ್ತಿವೆ	-2207
ಿಗೂ	-2208
▁ತಂತ್ರಜ್ಞಾನ	-2209
ವಾಗಲಿದೆ	-2210
▁ದೇಶದಲ್ಲಿ	-2211
▁ಚುನಾವಣಾ	-2212
ಡುವುದು	-2213
ಿಂಗ್	-2214
ೈಲ	-2215
ಗಾ	-2216
ಪ್ರಿಯ	-2217
▁ಪೂರ್ವ	-2218
▁ಉದ್	-2219
▁ಲಾಭ	-2220
▁ನಿರ	-2221
▁ತಲುಪ	-2222
▁ಪರೀಕ್ಷೆ	-2223
ಚ್ಚು	-2224
▁ವೃತ್ತ	-2225
▁ಚಿಂತ	-2226
▁ಸುಧಾರ	-2227
ಕೂಲ	-2228
ಾಗಿದ್ದು	-2229
▁ಬಿಡುಗಡೆಯ	-2230
▁ಆಸ್ಪತ್ರ	-2231
▁ಮನೆಯಲ್ಲಿ	-2232
▁ಹೈಕ	-2233
▁ಮುಖ್ಯಸ್ಥ	-2234
ೊಡಗ	-2235
▁ತೆಗೆದುಕೊಂಡ	-2236
ಂಟಿ	-2237
▁ಭಾರೀ	-2238
▁ಹಬ್ಬ	-2239
ಲಭ್ಯ	-2240
ೂಲ	-2241
ಲ್ದ	-2242
▁ಮೂಡ	-2243
ವೇನು	-2244
▁ವ್ಯವಸ್ಥೆ	-2245
ಮ್ಮು	-2246
▁ಪ್ರದರ್ಶನ	-2247
ರವಾಗಿ	-2248
▁ತಾಯಿ	-2249
▁ಅವುಗಳನ್ನು	-2250
ಹಾ	-2251
▁ಸಾಧ್ಯತೆ	-2252
▁ಸಂಶೋಧ	-2253
▁ವರ್ಷದ	-2254
▁ಮೂರ	-2255
▁ಕಲ್ಪ	-2256
ಿಸ್ಟ	-2257
ದಲ್ಲಿದೆ	-2258
ತಿಯಲ್ಲಿ	-2259
▁ಬಳಿ	-2260
▁ಒಪ್ಪಂದ	-2261
ಸಾಧ್ಯ	-2262
▁ವಿಶ್ವಾಸ	-2263
▁ಪ್ರೀತಿ	-2264
▁ಗೊತ್ತಿಲ್ಲ	-2265
▁ನಿರ್ಧ	-2266
▁ಸಲಹೆ	-2267
ಂಟು	-2268
▁ಶತ	-2269
ರೂಪ	-2270
▁ಶೆಟ್ಟಿ	-2271
▁ನೀಡಲಾಗಿದೆ	-2272
▁ಆಗ್ರಹ	-2273
▁ಆಳ	-2274
ಯಲ್ಲಿ	-2275
▁ಭಾರತಕ್ಕೆ	-2276
▁ನಿಟ್ಟ	-2277
▁ನೇತೃ	-2278
ಮಂತ್ರ	-2279
▁ಹೇಳಿದ	-2280
▁ಶಕ್ತಿ	-2281
▁ಅಭಿಮಾನ	-2282
▁ಡೀ	-2283
ಲ್ಲದೆ	-2284
ಭೂ	-2285
▁ವಿಕೆಟ್	-2286
ಿಸುವುದಿಲ್ಲ	-2287
▁ಕನ	-2288
▁ಆಲ	-2289
ಂಪ್	-2290
ಿತಾ	-2291
▁ಅಲ	-2292
▁ಯೋಗ	-2293
▁ಬಂಗ	-2294
ತ್ರಿಕ	-2295
▁ಔಷ	-2296
▁ತರಬೇ	-2297
ಹೋಗ	-2298
▁ಮತ್ತೊಂದು	-2299
▁ಆನಂದ	-2300
▁ನಗ	-2301
▁ಮೂವರು	-2302
▁ಹಾರ	-2303
▁ಡೇ	-2304
ಾವರಣ	-2305
▁ವಿಷಯದಲ್ಲಿ	-2306
ಿಸಲಾಗುತ್ತದೆ	-2307
ಮಾನ್	-2308
ವಿದ್ಯ	-2309
▁ಅಂಕ	-2310
▁ಲೇಖ	-2311
▁1.	-2312
▁ಕೆಲವ	-2313
ಮೇಶ್	-2314
▁ತಡೆ	-2315
▁ಕಾರ್ಯಾಚ	-2316
ನ್ನಿ	-2317
ರುತ್ತಾರೆ	-2318
▁ಮಾಡುವುದು	-2319
▁ಚೀ	-2320
ಶ್ಚಿ	-2321
▁ಸಂಗ್ರಹ	-2322
ಬೇಕಿದೆ	-2323
ೆಲ್ಲಾ	-2324
▁ಆದ್ರೆ	-2325
▁ಮಹಿಳಾ	-2326
▁ಎಲೆ	-2327
ಿಯಾಗಿದೆ	-2328
▁ಸಂಬಂಧಿಸಿದಂತೆ	-2329
▁ಬೌ	-2330
ವೆಂದು	-2331
ವಾಬ್ದ	-2332
▁ವೈದ್ಯಕೀಯ	-2333
▁ಕ್ಯಾಮೆ	-2334
▁ಅಸ್	-2335
▁ಪ್ರವಾಸ	-2336
▁ನವದೆಹ	-2337
ೀಪ್	-2338
▁ಗಿ	-2339
ಿಗಳನ್ನು	-2340
▁ಸ್ಮಾರ್ಟ್	-2341
▁ಸೌಲಭ್ಯ	-2342
▁ಅವಧ	-2343
▁ವಾಸ್ತವ	-2344
▁ಪಟ್ಟಣ	-2345
ಶು	-2346
ೋನ	-2347
▁ಮನಸ್ಸ	-2348
▁ಭಿನ್ನ	-2349
ಿದೆಯ	-2350
▁ಪಡೆದುಕೊಂಡ	-2351
ಸ್ತುತ	-2352
ಿತವಾಗಿ	-2353
ಭುತ	-2354
▁ಖಾಸಗಿ	-2355
ವಿಷ್ಯ	-2356
ಿವೇಶ	-2357
▁ಚಿನ್ನ	-2358
▁ಅಂತಹ	-2359
▁ನಿರ್ದೇಶನ	-2360
▁ಐದು	-2361
▁ನಷ್ಟ	-2362
ಾಧ	-2363
▁ವಿವಾದ	-2364
ಿಸಿವೆ	-2365
▁ಸಂಸ್ಥೆ	-2366
ಸನ್	-2367
▁ವಲಯ	-2368
▁ಯಾವುದು	-2369
▁ಪಾರ	-2370
▁ಎಲ್ಲರಿಗೂ	-2371
▁!	-2372
▁ನಿಟ್ಟಿನಲ್ಲಿ	-2373
ಕರಿಗೆ	-2374
ಿಗ	-2375
▁ಮೇಲ್	-2376
ೇಜ್	-2377
▁ಗ್ರಾಹ	-2378
ಲೆಯ	-2379
ಲ್ಲಿದ್ದ	-2380
ಸ್ಲಿ	-2381
-1	-2382
▁ಭವಿಷ್ಯ	-2383
▁ಪ್ರೀತ	-2384
ೊಳಗೆ	-2385
▁ರೋಹ	-2386
▁ಕ್ರೀಡ	-2387
▁ಕಾರ್ಯನಿರ್	-2388
▁ಸೇರಿಸಿ	-2389
▁ಯಾದ	-2390
▁ಸೇರ	-2391
ಾರ್ಹ	-2392
▁ಸಭೆ	-2393
▁ಇನ್ನೊಂದು	-2394
▁ಕೀರ್	-2395
ರಾಗಿದ್ದಾರೆ	-2396
▁ವ್ಯವಹಾರ	-2397
ವಣಿಗೆ	-2398
▁ಪಾವ	-2399
ಟುವಟ	-2400
▁ಹಾಗೆಯೇ	-2401
▁ಸಾರ	-2402
ಗಳೊಂದಿಗೆ	-2403
▁ರೈತರ	-2404
▁ಉಪಯೋಗ	-2405
▁ಹೂಡ	-2406
▁ನಿಯಂತ್ರಣ	-2407
ಟಾ	-2408
ಿರುತ್ತದೆ	-2409
▁ಎದುರಿಸ	-2410
▁ಅನ್ನ	-2411
▁ಒತ್ತಡ	-2412
▁ಮಹಾ	-2413
▁ರಾಜೀನಾಮೆ	-2414
ವೋ	-2415
▁ಇರುತ್ತದೆ	-2416
▁ರೂಪಾಯಿ	-2417
▁ಕಳ	-2418
▁ಪಾಲ್ಗೊಂಡ	-2419
ಕರಣ	-2420
▁ಕುಟುಂಬದ	-2421
▁ಜನಪ್ರಿಯ	-2422
▁ಜತೆ	-2423
▁ಗೆಲುವು	-2424
ಲ್ಲಿದೆ	-2425
▁ತನ	-2426
ರಾಮಯ್ಯ	-2427
▁ತೊ	-2428
ಗೌಡ	-2429
▁ಇತ್ತು	-2430
▁ಪ್ರಸ್ತುತ	-2431
▁ನೀಡಲು	-2432
ವಾಗಿದ್ದು	-2433
ಟ್ಸ್	-2434
▁ತೊಂದರೆ	-2435
▁ಅನ್ವಯ	-2436
ಲಿರುವ	-2437
▁ಪುರುಷ	-2438
▁ಕೃಷಿ	-2439
▁ಜವಾಬ್ದ	-2440
▁ಹುದ್ದ	-2441
ರ್ಷ	-2442
▁ರೈಲು	-2443
▁ಗುಜರಾತ್	-2444
▁ಸಾಮಾನ್ಯವಾಗಿ	-2445
▁ಬೆಳವಣಿಗೆ	-2446
▁ದೈ	-2447
ಲ್ಸ್	-2448
▁ನಡೆಯುತ್ತಿದೆ	-2449
‍ನ	-2450
▁ಅವಳು	-2451
▁ಮಳೆಯ	-2452
▁ಅಭಿನಯ	-2453
▁ಸ್ಥಿತಿ	-2454
▁ಸಮ್ಮ	-2455
▁ಕಠ	-2456
▁ಕೆಟ್ಟ	-2457
▁ಸುಂದ	-2458
ಶಾ	-2459
▁ಹೋಗಿ	-2460
▁ಪಂಚ	-2461
▁ನಿರ್ಣ	-2462
▁ಆಗಮ	-2463
ದಲ್ಲೂ	-2464
ಬೈಲ್	-2465
ಿಸುತ್ತಿದೆ	-2466
ತಾಣ	-2467
▁ತೀರ್ಮಾನ	-2468
▁ಕಚ	-2469
▁ಸಿಬಿಐ	-2470
▁ಬೇಸ	-2471
▁ಬ್	-2472
▁ಕೊಂಡ	-2473
▁ವಿದ್ಯುತ್	-2474
▁ಪೊಲೀಸರಿಗೆ	-2475
▁ವಿಶ್ವವಿದ್ಯ	-2476
▁ನೂತನ	-2477
ಕ್ಷನ್	-2478
▁ಅದ್ಭುತ	-2479
▁ಗಳಲ್ಲಿ	-2480
▁ವಿಜ್ಞಾನ	-2481
ಬರ್	-2482
▁ಬಂದು	-2483
▁ಹುಟ್ಟ	-2484
ರಬೇಕು	-2485
▁ಎಲ್ಲವೂ	-2486
▁ಯಾವಾಗಲೂ	-2487
ಬಂಧ	-2488
ಶ್ವ	-2489
▁ಚಟುವಟ	-2490
್ರಮ	-2491
▁ಧಾರ	-2492
▁ಫಿ	-2493
▁ಪ್ರತಿಕ್ರಿಯೆ	-2494
▁ನಿನ	-2495
▁`	-2496
ವಿರುವ	-2497
▁ರಕ್ಷಣಾ	-2498
ಕವಾಗಿ	-2499
್ಯಾಸ	-2500
▁ನಡೆಸಿದ	-2501
ಿಸುತ್ತೇವೆ	-2502
▁ಆ್ಯ	-2503
▁ಕುಮಾರಸ್ವಾಮಿ	-2504
ಕುಮಾರ್	-2505
▁ಕೆಲವರು	-2506
ೇಕೆ	-2507
▁ಸಂಚ	-2508
▁ಇಂದು	-2509
▁ಯಾರಿ	-2510
ಶ್ಚಿಮ	-2511
ಟ್ಟೆ	-2512
ಬೇಕಾದ	-2513
▁ಉದಾಹರಣ	-2514
▁ಹಕ್ಕು	-2515
▁ಹಾಗು	-2516
▁ಲಕ್ಷಣ	-2517
ುಟ	-2518
▁ಚಾ	-2519
▁ಗೆಲ್ಲ	-2520
▁ಜಾಲತಾಣ	-2521
ವಾನ	-2522
▁ಸೇರಿಸ	-2523
▁ಜಿಲ್ಲೆಯ	-2524
▁ಕಾರ್ಯಕ್ರಮದಲ್ಲಿ	-2525
▁ಸರ್ಕಾರಿ	-2526
▁ಪಂದ್ಯದಲ್ಲಿ	-2527
▁ಎಂದೂ	-2528
ಕಾರಣ	-2529
▁ತಕ್ಕ	-2530
▁ಮಾಡಿಲ್ಲ	-2531
ಡುವುದಿಲ್ಲ	-2532
ಕರ್ಷ	-2533
ಲ್ದಾಣ	-2534
▁ಇಲಾಖ	-2535
ೇಶನ್	-2536
ಿಸಲಾಗುವುದು	-2537
▁ಅಧಿಕೃತ	-2538
ಂಕಾ	-2539
▁ಜಮ್ಮು	-2540
ರ್ಗ	-2541
ಚ್ಚಿ	-2542
▁ನಮ್ಮನ್ನು	-2543
ಫಿ	-2544
▁ಅನುಕೂಲ	-2545
ಿಸಲಿದೆ	-2546
▁ಮೈತ್ರಿ	-2547
▁ಯೇಸ	-2548
▁ಹಿನ್ನೆಲೆಯಲ್ಲಿ	-2549
▁ಡೀಸೆಲ್	-2550
▁ಆದಾಯ	-2551
ೀಕ್ಷ	-2552
ನ್ನತ	-2553
▁ಪ್ರಸ್ತ	-2554
ಲ್ಲು	-2555
ದಾ	-2556
▁ಅವಶ್ಯ	-2557
ಸ್ಥಾನ	-2558
▁ಆತಂಕ	-2559
ದೊಂದಿಗೆ	-2560
▁ಜಲ	-2561
ವಾಲ್	-2562
▁ಸುಪ್ರೀಂ	-2563
▁ಸಚಿವಾಲಯ	-2564
▁ಲೋಕಸಭಾ	-2565
▁ಬರೆಯ	-2566
▁ಪ್ರಗ	-2567
▁ಪಶ್ಚಿಮ	-2568
ವರೂ	-2569
me	-2570
▁ಶಾಸಕ	-2571
▁ಗೂ	-2572
▁ಮಾಡಿದ್ದ	-2573
▁ಮಕ್ಕಳಿಗೆ	-2574
▁ವಿನ್ಯಾಸ	-2575
▁ಒಳಗೊಂಡ	-2576
ವನ್ನ	-2577
ಶಾಸ್ತ್ರ	-2578
▁ಕೊನೆಯ	-2579
▁ಸಿದ್ದರಾಮಯ್ಯ	-2580
▁ವಿತ	-2581
▁ಸಂಪುಟ	-2582
ವಾಗಿರುವ	-2583
▁ಪ್ರೊ	-2584
▁ಅಹ	-2585
▁ಅಷ್ಟೇ	-2586
▁ನಾಯಕರು	-2587
▁ಹಣಕಾಸು	-2588
▁ಮಾದರಿ	-2589
▁ಪ್ರವಾಸಿ	-2590
ರೇನು	-2591
ಯಾ	-2592
್ರು	-2593
ೋತ್ಪ	-2594
ಲ್ಡ್	-2595
ಲಿಕ	-2596
▁ಕರ	-2597
▁ಮಾಡುವುದ	-2598
▁ವೈಯ	-2599
▁ಖಚಿತ	-2600
▁ರೇ	-2601
▁ಸಾಧ್ಯವಾಗ	-2602
▁ಅವನನ್ನು	-2603
ೆವು	-2604
▁ನೌ	-2605
▁ಹೈಕೋರ್ಟ್	-2606
▁ಮುಂಚ	-2607
ವಡ	-2608
ಿಸಿಸಿ	-2609
▁ಸ್ವೀಕರಿಸ	-2610
ತನೆ	-2611
▁ಮುಸ್ಲಿ	-2612
▁ಖರೀದ	-2613
▁)	-2614
▁ಸ್ವಾತ	-2615
▁ವ್ಯತ್ಯ	-2616
▁ಪುಟ	-2617
ಿನಿಯ	-2618
▁ಅಲ್ಲದೇ	-2619
▁ಮಾರುಕಟ್ಟೆಯಲ್ಲಿ	-2620
▁ಸಮಿತಿ	-2621
▁ಗೇ	-2622
▁ವಶಕ್ಕೆ	-2623
▁ಜನರನ್ನು	-2624
ೀರ್ಘ	-2625
▁ನಡುವಿನ	-2626
▁ನಿಲ್ದಾಣ	-2627
▁ಫ್ರ	-2628
▁ಬಿದ್ದ	-2629
▁ಪ್ರಚಾರ	-2630
▁24	-2631
▁ಪುರ	-2632
▁ಚಲ	-2633
▁ಬಿಜೆಪಿಗೆ	-2634
▁ರೈಲ್	-2635
▁ಚಲನ	-2636
ಿಯೋ	-2637
▁ಮೊಬೈಲ್	-2638
▁ಅರಸ	-2639
▁ಕಲಿಯ	-2640
ಕ್ತಿಕ	-2641
▁ನಿಂತ	-2642
50	-2643
▁ಚರ್ಚೆ	-2644
▁ದಿನಗಳಲ್ಲಿ	-2645
ನಿಕ	-2646
▁ಗುಂಡ	-2647
ಜ್ಜ	-2648
▁ಶಕ್ತಿಯ	-2649
ೇನ	-2650
ರಿಸಿದರು	-2651
ೇಜು	-2652
ನದಲ್ಲಿ	-2653
ಸ್ತ್ರ	-2654
▁ವಿಶ್ವದ	-2655
▁ಮದುವೆ	-2656
▁ಸ್ವತ	-2657
▁ಆಯು	-2658
ಾವ್	-2659
▁ಕೀ	-2660
▁ಸದಸ್ಯರು	-2661
▁ಟೀಂ	-2662
▁ತೆಲು	-2663
▁ನಿಷೇ	-2664
▁ಭೇಟ	-2665
▁ಅನುಸ	-2666
▁ಕಟ್ಟಡ	-2667
▁ಹೆಚ್ಚುವ	-2668
▁ಇನ್ನಷ್ಟು	-2669
▁ಕರ್ತನು	-2670
▁ಏಕೆಂದರೆ	-2671
▁ಅಂಥ	-2672
▁ಎತ್ತ	-2673
▁ತಡೆಯ	-2674
▁ಮೇಲಿನ	-2675
▁21	-2676
ಬಹುದಾಗಿದೆ	-2677
ಕೊ	-2678
ಿರಂಗ	-2679
▁ಅವುಗಳ	-2680
ಕ್ರಿಯ	-2681
ಂಕು	-2682
▁ವಾದ	-2683
▁ತಿಂಗಳ	-2684
▁ಕಣ್ಣ	-2685
ತೇಕ	-2686
▁ಎಕ್ಸ್	-2687
▁ಯಾದವ್	-2688
ಸ್ಸು	-2689
ೊಬ್ಬರು	-2690
▁ನಡೆಸಿ	-2691
ದನ	-2692
▁ಯಶಸ್ವ	-2693
ಿಸುತ್ತವೆ	-2694
▁ಪ್ಯಾ	-2695
▁ನಂಬಿಕೆ	-2696
ವಂತ	-2697
▁ಪ್ರಭಾವ	-2698
ಟಲ್	-2699
ಭಾರ	-2700
▁ನವದೆಹಲಿ	-2701
ಂಜಾ	-2702
▁ಮದುವ	-2703
▁ಕೇಳಿ	-2704
▁ರಾಜ್	-2705
▁ಬಂದಿಲ್ಲ	-2706
▁ಮೃ	-2707
▁ನಿಷೇಧ	-2708
ಲಿಗೆ	-2709
ಲಿಕ್	-2710
ಮ್ಸ್	-2711
▁ಕಠಿಣ	-2712
▁40	-2713
ಕ್ಟ್ರ	-2714
▁ಪ್ರಯಾಣಿಕ	-2715
▁ನಿಧ	-2716
▁ದೃಢ	-2717
▁ನಡೆಸಿದ್ದಾರೆ	-2718
▁ರೋಹಿತ್	-2719
▁ಷ	-2720
▁ವರದ	-2721
▁ವಿಕ	-2722
▁ಪೀ	-2723
▁ಬಹುತೇಕ	-2724
ಕ್ರೋ	-2725
ಗೊಳಿಸಲು	-2726
ೌನ್	-2727
ರಿಷ್ಠ	-2728
▁ಆಯೋಗ	-2729
ಂತ್ರ್ಯ	-2730
▁ಕಾರ್ಯನಿರ್ವಹ	-2731
▁ಅರಿ	-2732
▁ಟ್ವಿ	-2733
ವಳ	-2734
▁ಕ್ಷೇತ್ರದಲ್ಲಿ	-2735
ಂತ್ಯ	-2736
▁ಪೈಕಿ	-2737
ಿಸಿದರೆ	-2738
▁ಮಾತ್ರವಲ್ಲ	-2739
▁ಬ್ರಿ	-2740
▁ಹಿಂದಿ	-2741
ಲಕ್ಷ	-2742
▁ಇಂದ	-2743
▁ವ್ಯಾಪಾರ	-2744
ಲ್ಲೆ	-2745
▁ಆಕರ್ಷ	-2746
▁ಸಂಪೂರ್ಣವಾಗಿ	-2747
ದಾಗಿ	-2748
ಲದ	-2749
▁ಬೆಂಕಿ	-2750
ಗಳಿಗಾಗಿ	-2751
ತ್ತಿನ	-2752
ಾಮೀ	-2753
▁ಬೆಂಗಳೂರಿನ	-2754
▁ಬೆಳೆಯ	-2755
ಾದಿ	-2756
ಲಿವೆ	-2757
▁ಹಿಂದಿನ	-2758
▁ಆಟೋ	-2759
▁ಭರವಸೆ	-2760
ಣಾ	-2761
▁ಮೂರನೇ	-2762
▁ಮುಕ್ತ	-2763
ಕೊಂಡು	-2764
▁ಆಗಿತ್ತು	-2765
▁ಹತ್ತಿರ	-2766
▁ಇದ್ದಾರೆ	-2767
▁ಧೋ	-2768
▁ರೈತರು	-2769
ಮಚ	-2770
ಮಾಡುವ	-2771
▁ಬಿಎಸ್	-2772
ನಾಗಿ	-2773
ಸಿಕ	-2774
▁ಕಾರ್ಡ್	-2775
▁ಜತೆಗೆ	-2776
▁ಮಂಜ	-2777
▁ವಿನ	-2778
ದನ್ನು	-2779
ನರ್	-2780
▁ಕಂಪನ	-2781
▁ಪ್ರತ್ಯೇಕ	-2782
ಾಧ್ಯಕ್ಷ	-2783
ೋತ್ಪಾದ	-2784
▁ಯೋಜನೆಯ	-2785
▁ಅಳವಡ	-2786
▁ಸುವ	-2787
▁ಶ್ರೇ	-2788
ೆಯಾಗಿ	-2789
▁ಯೂ	-2790
▁ಬದಲಾಯ	-2791
▁ಅಂಬ	-2792
್ಯಾತ	-2793
▁ಹತ್ಯೆ	-2794
▁ನಾಯಕರ	-2795
▁ದಿನಗಳ	-2796
ಾಗೆ	-2797
▁ಸಂವಿಧಾನ	-2798
ರಾಷ್ಟ್ರ	-2799
▁ಮುಂದುವ	-2800
▁ಕೃಷ್ಣ	-2801
▁ವರೆಗೆ	-2802
▁ಹೊಡೆ	-2803
▁ನೀತಿ	-2804
▁ಕಾರ್ಮಿಕ	-2805
ವಿತ್ರ	-2806
▁ಕಡಿಮ	-2807
ಗೊಳಿಸುವ	-2808
▁ದಯ	-2809
▁22	-2810
▁ನಿರ್ಧರಿಸ	-2811
▁ಮಧ್ಯೆ	-2812
▁ಮನೋ	-2813
▁ಆವ	-2814
ನ್ಸ	-2815
ರೊಂದಿಗೆ	-2816
ಾಂಕ	-2817
▁ಪ್ರಾಮ	-2818
▁ಕಥೆ	-2819
▁ಟೈ	-2820
▁ದಾವ	-2821
▁ಸರಿಯಾದ	-2822
▁ಪರಿಸರ	-2823
▁ಸಾಧನೆ	-2824
ಿಸಲಿದ್ದಾರೆ	-2825
▁ಜಾರಿ	-2826
▁ಉತ್ಪನ್ನ	-2827
ೂರಪ್ಪ	-2828
▁ಇದೀಗ	-2829
▁ಮಂಗಳ	-2830
▁ಯಾವು	-2831
ಖ್	-2832
▁ಚೌ	-2833
▁ಮನೆಗೆ	-2834
ಿಕೆಯಲ್ಲಿ	-2835
▁ಸ್ವಾತಂತ್ರ್ಯ	-2836
ಣೆಗೆ	-2837
▁ಇದರಿಂದಾಗಿ	-2838
▁ಅಗ್	-2839
▁ಮಾರ	-2840
▁ಪ್ರಕರಣದ	-2841
▁ಮಾಡುತ್ತಿದ್ದ	-2842
▁ಐಪಿ	-2843
ಾಂತ್	-2844
▁ಸ್ನೇಹಿತ	-2845
ೆಂದರೆ	-2846
▁ವ್ಯತ್ಯಾಸ	-2847
▁ವಿವಾಹ	-2848
▁ಬಹಿರಂಗ	-2849
▁ಸಮಾರಂಭ	-2850
ಡಿಯೂರಪ್ಪ	-2851
ಟೆಡ್	-2852
ುರ	-2853
▁ಎನ್ನಲಾಗಿದೆ	-2854
ಟೊ	-2855
▁ಇಂಗ್ಲೆಂಡ್	-2856
ಮೂರ್ತಿ	-2857
▁ರಾಯ	-2858
▁ವಿಮ	-2859
▁ವಾತ	-2860
▁ಶಾಲಾ	-2861
▁ಬಾರಿಗೆ	-2862
▁ಮೊತ್ತ	-2863
▁ಆಫ್ರ	-2864
▁ಇದ್ದರು	-2865
▁ಹೇಳಿದೆ	-2866
ಿಕೊಂಡಿದ್ದಾರೆ	-2867
▁ಮೋದಿಯ	-2868
▁ಸೂಪರ್	-2869
▁ವೈರಲ್	-2870
▁ಇಸ್ರಾಯೇ	-2871
▁ಭಯೋತ್ಪಾದ	-2872
▁ಸುಳ್ಳು	-2873
ನಿಂದ	-2874
▁ದೊರೆಯ	-2875
▁ನಗರದ	-2876
▁ದಾಖಲಿಸಲಾಗಿದೆ	-2877
ೇವ	-2878
ಸಿನ	-2879
▁ಕ್ರಿಸ್	-2880
▁ಪಾಕ್	-2881
▁ನಿರ್ಣಯ	-2882
▁ಅಭ್ಯರ್ಥಿ	-2883
▁ಎನ್ನುವ	-2884
▁ಸಾವನ್ನ	-2885
▁ಪಡೆದುಕೊಳ್ಳ	-2886
an	-2887
▁ಪಂಜಾ	-2888
▁ಹೋಲ	-2889
ಕೆಯನ್ನು	-2890
ೇಲಿಯಾ	-2891
ತೆಯಲ್ಲಿ	-2892
▁ತೆಲುಗು	-2893
▁ಆನ್	-2894
▁ಕಂಪನಿ	-2895
▁ಯಾರಿಗೂ	-2896
▁ಪೇ	-2897
▁ಉಚಿತ	-2898
ರ್ತ	-2899
▁ಚಲನಚಿತ್ರ	-2900
ಸ್ಪರ	-2901
▁ಯಡಿಯೂರಪ್ಪ	-2902
▁ಇತ್ತೀಚೆಗೆ	-2903
ಟನ್	-2904
▁ಔಷಧ	-2905
ಾನ್ಸ್	-2906
▁ಚಟುವಟಿಕೆ	-2907
▁ಅಂತ್ಯ	-2908
ವಾಗಿವೆ	-2909
▁ಮಂತ್ರಿ	-2910
▁ಪ್ರತಿನಿ	-2911
▁ಹೆಚ್ಚಾಗಿ	-2912
ತೆಗಳು	-2913
ಗಟ್ಟ	-2914
▁ಗುರಿ	-2915
▁ತಮಿಳುನಾ	-2916
ಿಕೊಳ್ಳಲು	-2917
▁ರದ್ದು	-2918
ೂನ್	-2919
ಸ್ಕೃತ	-2920
▁ಪಟ್ಟಿ	-2921
▁ರವಿ	-2922
▁ಆವೃತ್ತ	-2923
ಾಗಿಯೇ	-2924
ಚನ	-2925
ಯನ್ನು	-2926
‍ನಲ್ಲಿ	-2927
▁ಸಮುದಾಯ	-2928
▁ನಡೆಯಿತು	-2929
ಿಸುತ್ತಿದ್ದ	-2930
ದಿನ	-2931
▁ಆಕೆಯ	-2932
▁ಭಾಷಣ	-2933
▁ಹೆಚ್ಚಳ	-2934
▁ಪರಸ್ಪರ	-2935
▁ಇದಕ್ಕಾಗಿ	-2936
ಟಿಕ್	-2937
▁ಮಹಿಳೆ	-2938
ಪ್ರದ	-2939
▁ಅಕ್ಷ	-2940
▁ಶೈ	-2941
▁ತೆಗೆದು	-2942
▁ವಾತಾವರಣ	-2943
▁ಯೋಧ	-2944
ಬೇಕಾಗಿದೆ	-2945
▁ಸರಿಯಾಗಿ	-2946
▁ಅಪರಾಧ	-2947
ನೆಗಳನ್ನು	-2948
▁ದಂಡ	-2949
▁ತರಬೇತಿ	-2950
▁ಪ್ರದೇಶದ	-2951
ಿಕೊಳ್ಳುವ	-2952
ದಿಲ್ಲ	-2953
▁ನೋವು	-2954
ಲೊ	-2955
▁ಹೈದ	-2956
ಾರಾಷ್ಟ್ರೀಯ	-2957
ಪೋ	-2958
▁ಬೋಧ	-2959
▁ಫೆ	-2960
▁ಆರು	-2961
ಸಿಯ	-2962
▁ಉದಾಹರಣೆ	-2963
▁ಅಗ್ನಿ	-2964
▁ನಡೆಸುತ್ತಿದ್ದಾರೆ	-2965
ೆನು	-2966
ದಿಷ್ಟ	-2967
ನನ್ನ	-2968
▁ನಿಮ್ಮನ್ನು	-2969
ವಾಗುವ	-2970
▁ತಿಂಗಳು	-2971
ನ್ಸರ್	-2972
▁ಶೋ	-2973
▁ನಾಗರಿಕ	-2974
▁ಪರಿಶೀಲನೆ	-2975
▁ಹಿಡ	-2976
▁ಅವರಿ	-2977
▁ಸಂದೇಶ	-2978
▁ಸಚಿವರ	-2979
▁ನಾಶ	-2980
▁ಕಳೆದುಕೊಂಡ	-2981
▁ಬಂಡ	-2982
ಪದ	-2983
▁ಆಯ್ಕೆಯ	-2984
▁ತಾನು	-2985
▁ಜಾಗತಿಕ	-2986
▁ರಿಂದ	-2987
▁ಸಂಗತಿ	-2988
▁ಊಟ	-2989
ತರು	-2990
▁ಘಟನೆಯ	-2991
ರಿದ್ದರು	-2992
ಲಾಗಿದ್ದು	-2993
▁ಎಂದರೆ	-2994
▁ಎನ್ನುತ್ತ	-2995
ೋದು	-2996
▁ಸಂಸ್ಥೆಯ	-2997
▁ಉನ್ನತ	-2998
ವಾಡ	-2999
▁ಮಧ	-3000
ಾನದ	-3001
▁ಆತನನ್ನು	-3002
▁ಮತ್ತಷ್ಟು	-3003
▁ಸಮಾನ	-3004
▁ಅಂತಾರಾಷ್ಟ್ರೀಯ	-3005
▁ವಿಫಲ	-3006
ದಿರುವ	-3007
ವಾಗತ	-3008
▁ಎಲೆಕ್ಟ್ರ	-3009
ಮತ	-3010
▁ನಡ	-3011
▁ನೋಟ	-3012
▁ಚೀನಾ	-3013
ಣ್ಣೆ	-3014
▁ಮಾರುತಿ	-3015
▁ದುರ	-3016
▁ಅತ್ಯಾಚಾರ	-3017
ಬಿಟ್ಟ	-3018
▁ಫೇಸ್	-3019
▁ಮಾತುಕತೆ	-3020
▁ಹಾಸ	-3021
ವೈ	-3022
▁ಮೋಟ	-3023
▁ಉಂಟು	-3024
ಚಯ	-3025
▁ಇಲ್ಲದ	-3026
ಗಳನ್ನ	-3027
▁ವೈಯಕ್ತಿಕ	-3028
▁ಪಟ	-3029
▁ಪವಿತ್ರ	-3030
ಂಘ	-3031
ಂಭಾಗ	-3032
ಹೊ	-3033
▁ಡ್ರ	-3034
▁ಪ್ರದೇಶದಲ್ಲಿ	-3035
ಭಾಗ	-3036
▁ಆತ್ಮಹತ್ಯೆ	-3037
▁ನಿರಂತರ	-3038
▁ಕಾಣಿಸಿಕೊಂಡ	-3039
ವನ್	-3040
▁ತೊಡಗ	-3041
ಾಗಿದ್ದರು	-3042
ಗಳಾಗಿವೆ	-3043
ಜೆಟ್	-3044
▁ಇರಬೇಕು	-3045
▁ಕನಿ	-3046
▁ಉದ್ಘ	-3047
▁ಇಬ್ಬರೂ	-3048
▁ಮಾತನಾಡಿದ	-3049
ಯೋಜ	-3050
▁‘‘	-3051
▁ಕಾಯಿ	-3052
▁ಪ್ರಕ್ರಿಯೆ	-3053
▁ಹೆಚ್ಚುವರಿ	-3054
▁ಬರೆ	-3055
▁ನೀಡುತ್ತದೆ	-3056
▁ಕೃತ್ಯ	-3057
▁ಪ್ರೀತಿಯ	-3058
in	-3059
ಂಕರ್	-3060
ಮೀ	-3061
▁ನಿನಗೆ	-3062
▁ಅಭಿನಂದ	-3063
▁ಸೋನ	-3064
▁ಆಸ್ಟ್ರೇಲಿಯಾ	-3065
ಗಾರಿ	-3066
▁ಪ್ರಥಮ	-3067
▁ವಾಗ	-3068
ಡೇ	-3069
▁ಅರಣ	-3070
▁ದೇವಸ್ಥ	-3071
ದಕ್ಕೆ	-3072
▁ಹೇಗ	-3073
▁ಪಾಕಿಸ್ತಾನದ	-3074
▁ವಿಶ್ವವಿದ್ಯಾಲಯ	-3075
▁ಬಿಟ್ಟ	-3076
▁ಮೇಲ	-3077
▁ದುರ್	-3078
▁ಸಾಹಿ	-3079
ಜ್ಯ	-3080
▁ಅಪ್ಪ	-3081
ಮ್ಮದ್	-3082
▁ಹಸಿ	-3083
▁ನಿರಾಕರಿಸ	-3084
ಂಧ್ರ	-3085
▁ದೃಶ್ಯ	-3086
▁ಉದ್ಘಾಟ	-3087
▁ಸ್ಥಳದಲ್ಲಿ	-3088
▁ಲೈನ್	-3089
ಿಕೆಗೆ	-3090
▁ಘಟಕ	-3091
▁ತಾಣ	-3092
▁ಚಮಚ	-3093
▁ಗುರಿಯ	-3094
▁ದೀರ್ಘ	-3095
ಿಸುತ್ತಿರುವ	-3096
▁ಕಾಲೇಜು	-3097
▁ಎನ್ನುವುದು	-3098
▁ಮಾಡುತ್ತ	-3099
▁ದಿನದ	-3100
ರಂಗ	-3101
▁ಪ್ರತಿಯೊಂದು	-3102
99	-3103
ಪ್ಟ	-3104
▁ಕಾಳ	-3105
▁ಏರಿಕೆ	-3106
▁ಮಾಡುತ್ತಿದ್ದಾರೆ	-3107
▁ಇಲ್ಲಿನ	-3108
▁ರಾಜಕಾರಣ	-3109
▁2020	-3110
ಂಡಿ	-3111
ಿರಬೇಕು	-3112
▁ಭ್ರ	-3113
ವಾಗಿರುತ್ತದೆ	-3114
▁ಸಾವನ್ನಪ್ಪ	-3115
▁ಆಸ್ಪತ್ರೆಯಲ್ಲಿ	-3116
ಸ್ಕರ	-3117
ಜಯ್	-3118
▁ಬಹುಮಾನ	-3119
▁ನಿರ್ದಿಷ್ಟ	-3120
▁ಮುಂದುವರೆ	-3121
▁ನಿಜವಾಗಿಯೂ	-3122
ಸೇ	-3123
▁ಸ್ವಾಗತ	-3124
▁ಕಾಮಗಾರಿ	-3125
▁ಕ್ಷಣ	-3126
ೀರ್ಣ	-3127
▁ಹೈದರಾ	-3128
▁ಅಷ್ಟು	-3129
▁ಹರಿಯ	-3130
ಲನು	-3131
▁ಧನ್ಯ	-3132
▁ಇಂಟರ್	-3133
▁ಸ್ಟಾರ್	-3134
ಪಾಡ	-3135
▁ದೋಷ	-3136
ಲರ್	-3137
▁ಭಕ್ತ	-3138
▁ಪ್ರಶ	-3139
▁ಸಹಜ	-3140
ತರೆ	-3141
▁ಆಲ್	-3142
▁ಬಲಿ	-3143
▁ಖಂಡಿತ	-3144
▁ಉಪ್ಪು	-3145
▁ಎಲ್ಲರ	-3146
▁ಬೆಳೆಸ	-3147
▁ಟ್ರಂಪ್	-3148
▁ಭಾಗವಹಿಸಿದ್ದರು	-3149
▁ವಿಭಿನ್ನ	-3150
ಲುವ	-3151
▁ಘೋಷಣೆ	-3152
▁ಕೊನೆ	-3153
ಕ್ಟರ್	-3154
▁ವಿಜಯ	-3155
ತಿಗೆ	-3156
▁ಕೋವಿಡ್	-3157
▁ಚಿತ್ರಕ್ಕೆ	-3158
▁ವೀಕ್ಷ	-3159
▁ಪಂಜಾಬ್	-3160
▁ಮಲ	-3161
▁ತಾಯ	-3162
▁ದ್ವಿ	-3163
▁R	-3164
ರುಗ	-3165
▁ವಾಕ್ಯ	-3166
▁ತಲಾ	-3167
▁ಭಾರಿ	-3168
▁ಮುಂತ	-3169
▁ಬೀಳ	-3170
ಮಾಡಿ	-3171
▁ಅರ್ಜ	-3172
▁ಸವ	-3173
▁ಹಾನ	-3174
▁ಸಮುದ್ರ	-3175
▁ನಿಮ	-3176
▁ಖಾತೆ	-3177
▁ಓದು	-3178
ನಗರ	-3179
ಪ್ರಭು	-3180
ವಾಮ	-3181
▁ಕಿರು	-3182
▁ಫ್	-3183
▁ನಿಖ	-3184
ಗೈ	-3185
▁ಮತ್ತಿತರ	-3186
▁ಫೈನಲ್	-3187
▁ಉದಾಹರಣೆಗೆ	-3188
ಪ್ರದಾಯ	-3189
ಂತೂ	-3190
▁ರಾತ್ರಿ	-3191
ಗ್ರಹ	-3192
▁ಬೇಗ	-3193
ಮಯ	-3194
▁ವೈದ್ಯರು	-3195
▁ಮಹಿಳೆಯರು	-3196
▁ಮತದಾನ	-3197
▁ಚೆನ್ನೈ	-3198
▁ರಿಯ	-3199
▁ಮಿಶ್ರಣ	-3200
ಾಟಾ	-3201
▁ಸಲ್	-3202
ಶಿಷ್ಟ	-3203
ಪೂರ್ಣ	-3204
▁ಶೂ	-3205
▁ಸಚಿವರು	-3206
?"	-3207
▁ಹೇಳಿ	-3208
ಕರನ್ನು	-3209
▁ಪರಿಚಯ	-3210
ಾನಂದ	-3211
▁ಬಹಳಷ್ಟು	-3212
▁ಹೊರಗೆ	-3213
▁ಒಳಗೊಂಡಿದೆ	-3214
▁ಸ್ವಚ್ಛ	-3215
▁ವ್ಯಾಪ್	-3216
▁ಸುಜು	-3217
▁ಪ್ರಕರಣಗಳು	-3218
▁ತೊಳ	-3219
▁ತೆರಳ	-3220
▁ಅರಣ್ಯ	-3221
▁ನೇಮಕ	-3222
▁ತಾವು	-3223
▁ವೇದ	-3224
▁ಕೋಟ	-3225
ಿತಿಯಲ್ಲಿ	-3226
▁ಲೆಕ್ಕ	-3227
ಕಪ್	-3228
ಲಂಬ	-3229
▁ನೀಡಬೇಕು	-3230
▁ಬಜೆಟ್	-3231
▁ಗಂಡ	-3232
ಸಿಸಿ	-3233
ಫ್ಟ್	-3234
▁ಅಪಾರ	-3235
▁ಅಗತ್ಯವಿಲ್ಲ	-3236
ನಾಂಗ	-3237
ಕ್ಷೇ	-3238
▁ಕಾಪಾಡ	-3239
▁ಕಣ್ಣು	-3240
ಸ್ಟ	-3241
ಗಳಿಗೂ	-3242
ಕರ್ಯ	-3243
▁ಐಪಿಎಲ್	-3244
▁ಗುಣಮಟ್ಟ	-3245
▁ತಿಳಿಸಿದೆ	-3246
▁ಗಳಿಗೆ	-3247
ೀವ್	-3248
ಗಳೇ	-3249
▁ವಿಜಯ್	-3250
▁ನೇತೃತ್ವದ	-3251
ಫಾರ	-3252
▁ಧ್ವ	-3253
ಿದರೆ	-3254
▁ತೆರೆ	-3255
▁ರಸ್ತ	-3256
▁ಉಲ್ಲೇಖ	-3257
ಗಿತ	-3258
ಿಯಾಗಿದ್ದಾರೆ	-3259
▁ಭೀ	-3260
▁ಹಾಡ	-3261
ಿಸುತ್ತಾನೆ	-3262
ನೆಂದು	-3263
▁ನೆಲೆ	-3264
▁ನೆನಪ	-3265
▁ಸುಂದರ	-3266
ಗರು	-3267
್ಯಾನ	-3268
▁ಚರ್ಮ	-3269
ಪೆ	-3270
ವೊಂದ	-3271
ಳದ	-3272
▁ಪ್ರವಾಹ	-3273
▁ಬಳಕೆದಾರ	-3274
▁ಕೊಡುವ	-3275
▁ಎಷ್ಟ	-3276
ನಾಗಿದ್ದ	-3277
▁ಸಾಹಿತ್ಯ	-3278
▁ಶ್ರಮ	-3279
▁ಹೈದರಾಬಾದ್	-3280
▁ಗರ್ಭ	-3281
▁ಕ್ಯಾಮೆರಾ	-3282
▁I	-3283
▁ಒಳ್ಳೇ	-3284
▁ಸಂರ	-3285
▁ಚಿತ್ರವನ್ನು	-3286
▁ಅವರೊಂದಿಗೆ	-3287
ಣೆಯನ್ನು	-3288
ಾಗಲಿದೆ	-3289
▁37	-3290
▁ತರುವ	-3291
ದರ	-3292
ಿಯವರು	-3293
▁ಪೊಲೀಸರ	-3294
ಾದರು	-3295
▁ವಾಯು	-3296
▁ಲೀಟರ್	-3297
▁ಗುಂಪು	-3298
▁ಹೆತ್ತ	-3299
▁ಮಾಡಿದ್ದರು	-3300
ಾಗುತ್ತಿದೆ	-3301
ಸ್ಟರ್	-3302
▁ಸಿಸಿ	-3303
▁ಮಾತಾಡ	-3304
▁ಹಾಡು	-3305
▁ಹುಡುಕ	-3306
re	-3307
▁ಇತರೆ	-3308
▁ಶುಲ್ಕ	-3309
▁ಅಂದನು	-3310
▁ಹೋಗುವ	-3311
ಕಾರ್	-3312
▁23	-3313
ಿದಿದೆ	-3314
▁ಪಂಚಾಯ	-3315
ರ್ಜಿ	-3316
▁ಕರೆದ	-3317
▁ಸನ್ನ	-3318
▁1,	-3319
▁ದ್ರ	-3320
▁''	-3321
▁ಸಕ್ಕ	-3322
▁ಸ್ಪೀ	-3323
ರಾಷ್ಟ್ರೀಯ	-3324
▁ಬೇಡಿಕೆ	-3325
▁ಪ್ರಿಯಾ	-3326
ಶಃ	-3327
▁ತೈಲ	-3328
▁ಪದಕ	-3329
▁ಕಡೆಗೆ	-3330
ಿರಬಹುದು	-3331
▁ಉಳಿಯ	-3332
▁ಆಗಿಲ್ಲ	-3333
್ಮಿ	-3334
▁ಎಚ್ಚರಿಕೆ	-3335
▁ಶಾಂತಿ	-3336
▁ಅದಕ್ಕಾಗಿ	-3337
ಬೀ	-3338
ೊಡ್ಡ	-3339
▁ಧಾರ್ಮಿಕ	-3340
ಸೆಯ	-3341
ಕ್ಕೇ	-3342
▁ಬುದ್ಧ	-3343
▁ಹಾಗಾದರೆ	-3344
ಿಸಲ್ಪಡ	-3345
ತ್ವದಲ್ಲಿ	-3346
▁ಅರ್ಹ	-3347
▁ದಿವ	-3348
ರಬಹುದು	-3349
ಗಾರಿಕೆ	-3350
▁ದಾವೀ	-3351
▁ಹೆಣ್ಣು	-3352
▁ಭದ್ರತಾ	-3353
ಫೆ	-3354
▁ಹೂಡಿಕೆ	-3355
ನಾತ್ಮಕ	-3356
▁ಶುದ್ಧ	-3357
▁ಆದಿ	-3358
▁ಆಸ್ಪತ್ರೆ	-3359
▁ಪತ್ತೆ	-3360
ೀಣ	-3361
▁ವಯಸ್ಸ	-3362
▁ಹುಡುಗ	-3363
ಬೇಕಾಗುತ್ತದೆ	-3364
▁ನೇರ	-3365
ಬಿಡ	-3366
ಷಿಕ	-3367
ತೆಯಿಂದ	-3368
▁ಮುಚ್ಚ	-3369
▁ಸರಕಾರದ	-3370
ಾರದ	-3371
ಕ್ಸಿ	-3372
▁ಕ್ಯಾನ್ಸರ್	-3373
▁ಯೋ	-3374
▁ಎಡ	-3375
▁ತೀರ್ಪು	-3376
▁ಕೊಡುಗೆ	-3377
▁ಸಮರ್ಪ	-3378
▁ಸಲ್ಮಾನ್	-3379
▁ನೆಲ	-3380
▁ಸುಜುಕಿ	-3381
ಸ್ಕೃತಿಕ	-3382
ನಾನ	-3383
▁ವಿದ್ಯಾರ್ಥಿಗಳಿಗೆ	-3384
ಮಾಪ	-3385
▁ನೀಡಿದ್ದರು	-3386
▁ನಡೆದಿ	-3387
ನ್ನಾ	-3388
▁ಡೌನ್	-3389
ುತ್ತಲೇ	-3390
▁ಕಂಪನಿಯು	-3391
ರಣ್	-3392
▁ಅನುಮೋದ	-3393
▁ವಿದ್ಯಾರ್ಥಿ	-3394
▁ನಡೆಯಲಿದೆ	-3395
ದಲ್ಲಿದ್ದ	-3396
▁ನಾಮ	-3397
▁ಪಾಪ	-3398
▁ಕ್ರಿಯ	-3399
ರಕ	-3400
ಣು	-3401
ೇಶ್ವರ	-3402
▁ಹರಿ	-3403
▁ಇದಲ್ಲದೆ	-3404
▁ಪ್ರಜಾ	-3405
ುತ್ತೆ	-3406
ಹರಿಸ	-3407
▁ಟಾಟಾ	-3408
ಬಹುದಾದ	-3409
▁ವ್ಯಕ್ತಪಡಿಸಿದರು	-3410
▁ಇರುವುದಿಲ್ಲ	-3411
▁ಮಹತ್ವ	-3412
▁ಬಾಲಕ	-3413
▁ಪ್ರಾಯ	-3414
▁ಪಡೆಯಲು	-3415
▁ತಾಳ	-3416
▁2019	-3417
▁ವಾಣಿ	-3418
▁ಕಾರ್ಯಾಚರಣೆ	-3419
▁ಜೀವನದಲ್ಲಿ	-3420
▁ಎಂದರೇನು	-3421
▁ಗಂಭೀರವಾಗಿ	-3422
ಾಕಿ	-3423
▁ಸರ್ಕಾರಕ್ಕೆ	-3424
▁ಹೇಳುವ	-3425
▁ರಾಮ್	-3426
▁ಹೆಸರಿನ	-3427
▁ಭರ್ಜ	-3428
▁ಉಪಾಧ್ಯಕ್ಷ	-3429
▁ರಂಗ	-3430
▁ಹೆಂಡ	-3431
▁500	-3432
▁ಅರು	-3433
▁ಒಳಗ	-3434
▁ಅದರಿಂದ	-3435
ರಲು	-3436
ಿಕಲ್	-3437
▁ಸಾಂಸ್ಕೃತಿಕ	-3438
▁ಸರಣಿ	-3439
▁ಆಕ್ರೋ	-3440
ೈಕೆ	-3441
ಿದ್ದಾಳೆ	-3442
▁ಪಾಂಡ	-3443
▁2.	-3444
▁ಕಮ	-3445
▁ಮೂಲದ	-3446
ಾಧಿಕಾರಿ	-3447
▁ಮಾಡಿರುವ	-3448
ೋತ್ಸವ	-3449
▁ಖರ್ಚ	-3450
ೋದ್ಯ	-3451
ಡಿಗೆ	-3452
▁ಸಂಯೋಜ	-3453
▁28	-3454
▁ವಿಶ್ವಕಪ್	-3455
ಗಾಲ	-3456
▁ಧೋನಿ	-3457
▁ತಿರ	-3458
ಂತಿಲ್ಲ	-3459
ಾವಿ	-3460
ಿಸಿಕೊಳ್ಳಲು	-3461
▁ವೃತ್ತಿ	-3462
ೆಡೆ	-3463
▁ರೈಲ್ವೆ	-3464
▁ಹೊರತು	-3465
▁ಆಹ್	-3466
▁ಏಳು	-3467
▁ವಿರುದ್ಧದ	-3468
▁ಕೆಲವೊಮ್ಮೆ	-3469
ಬ್ರ	-3470
▁ಏಕದ	-3471
▁ಸಮೀಪ	-3472
▁ರಷ್ಟು	-3473
▁ಕುಡಿಯುವ	-3474
ೊನಾ	-3475
▁ಅಡಿಯಲ್ಲಿ	-3476
▁ಸ್ನೇಹ	-3477
▁ಆಪ	-3478
ಾಗ್ರ	-3479
▁ಉತ್ಸ	-3480
▁ಕುತ	-3481
▁ಹೊತ್ತ	-3482
▁ಆಕ್ರೋಶ	-3483
▁ದಿನಾಂಕ	-3484
▁ರಾಷ್ಟ್ರಪತಿ	-3485
▁ಮಂಡಳಿ	-3486
▁ಅಡಿ	-3487
▁ತೂಕ	-3488
ಿಸಲಿಲ್ಲ	-3489
ಂತೆಯೇ	-3490
▁ವಿದ್ಯಾರ್ಥಿಗಳ	-3491
▁ಮೀನು	-3492
▁ಉದ್ಯಮ	-3493
ನಾಥ	-3494
ಹಮ್ಮದ್	-3495
▁ಕಾರಿನ	-3496
▁ರಣ	-3497
ಲಿಯಲ್ಲಿ	-3498
▁ಬಿಹಾರ	-3499
▁ಕರು	-3500
▁ಯೆಹೂ	-3501
▁ಮರೆಯ	-3502
▁ಸಾಯ	-3503
▁ಅವರೇ	-3504
▁ಟೂರ್	-3505
▁ಧನ್ಯವಾದ	-3506
ಕ್ಷಿ	-3507
▁ಬೇರೆಯ	-3508
▁ವಾಣಿಜ್ಯ	-3509
▁ವಿಧಾನಸಭಾ	-3510
▁ಬಂಗಾಳ	-3511
▁ಎಂದಿಗೂ	-3512
▁ವರ್ಷಗಳ	-3513
▁ಪಾಟ	-3514
▁ಘಟನೆಯಲ್ಲಿ	-3515
▁ಅವಧಿಯಲ್ಲಿ	-3516
ವಾಳ	-3517
ಂಗಿಕ	-3518
ರಂದು	-3519
ಾಳು	-3520
▁ಗೊಂದ	-3521
▁ವಿವರಿಸ	-3522
▁ನನಗ	-3523
ುತ್ತಿದ್ದು	-3524
್ಯತೆ	-3525
ರ್ಶನ	-3526
▁ಏಕದಿನ	-3527
▁ವೃದ್ಧ	-3528
▁ಪ್ರಜಾಪ್ರಭು	-3529
▁ಕನಿಷ್ಠ	-3530
ಾಭ	-3531
▁ಸ್ವಂತ	-3532
▁ಸನ್	-3533
▁ಮುಂದುವರಿಯ	-3534
ಇದು	-3535
▁ಮಸೂ	-3536
▁ಆಶೀರ್	-3537
▁ದೇವಸ್ಥಾನ	-3538
ಾಗಿವೆ	-3539
ತಾನ	-3540
▁ತೆರ	-3541
▁N	-3542
▁ಟ್ಯಾ	-3543
▁ಮಸ	-3544
ಷ್ಯಾ	-3545
▁ಪಾದ	-3546
▁ಪತ್ರಿ	-3547
▁ಸ್ಥಾನಕ್ಕೆ	-3548
▁ಕಾಲೇಜ	-3549
▁ನಿತ್ಯ	-3550
▁ಮಕ್ಕಳನ್ನು	-3551
▁ಕಾವ	-3552
▁ಸ್ಕೂ	-3553
ಟರಿ	-3554
ಾರ್ಜ್	-3555
ಲಿಯನ್	-3556
▁ಸುಪ್ರೀಂಕ	-3557
▁ಚಿತ್ರೀಕರಣ	-3558
ಡಿನ	-3559
ವೆಂದರೆ	-3560
ಳಿದ	-3561
ಮ್ಯಾ	-3562
ಾಗಿಯೂ	-3563
▁ಅಂದು	-3564
▁ಕಪ್ಪು	-3565
▁ಜೀವನದ	-3566
▁ದೇವೇ	-3567
್ಯಾರ	-3568
▁ಪ್ಲಾ	-3569
ಸ್ತುವ	-3570
▁ದುಃ	-3571
▁ಹಿಂ	-3572
▁ಅವರಲ್ಲಿ	-3573
ೀಶ	-3574
ರೆಲ್ಲ	-3575
▁ಚಾಂಪ	-3576
▁ಬಾಂಗ್	-3577
ರಾಜ್	-3578
ಾನು	-3579
ಪತ್ರ	-3580
▁ಹಣವನ್ನು	-3581
▁ಮಹತ್ವದ	-3582
ನ್ಸಿ	-3583
▁ಹೊರಡ	-3584
▁ಬರುತ್ತದೆ	-3585
▁ಪೂರೈಸ	-3586
▁ಪದವಿ	-3587
▁ಆಂಧ್ರ	-3588
▁ಹಚ್ಚ	-3589
ನಾವು	-3590
▁H	-3591
ಯುಕ್ತ	-3592
▁ಕಂಡುಬ	-3593
▁ಕಲೆ	-3594
ದಲ್ಲಿನ	-3595
▁ಉಲ್ಲಂಘ	-3596
ವೆಂಬ	-3597
▁ಚೀನ	-3598
ಮುಖ	-3599
ಿದಾಗ	-3600
▁ಮುಂತಾದ	-3601
▁ಮಾಡುತ್ತಾರೆ	-3602
▁ನಿಧನ	-3603
ಂಡಾ	-3604
▁ಭ್ರಷ್ಟ	-3605
ೊಳಗ	-3606
▁ನೆರವು	-3607
ಿಸಿರಿ	-3608
▁ನಿದ	-3609
ಯಿ	-3610
ರಲಿ	-3611
▁ಪ್ರವಾದ	-3612
▁ಸಂಭ್ರಮ	-3613
ವೇಷ	-3614
▁ತ್ಯ	-3615
ಪರ	-3616
▁ಕೀರ್ತನೆ	-3617
▁ಯೇಸುವಿನ	-3618
▁ತಿಳಿದುಬಂದ	-3619
ದಿಂದಾಗಿ	-3620
▁ಮೋಟಾರ್	-3621
▁ಶತಮಾನ	-3622
▁0	-3623
▁ಮಗು	-3624
ಿಕೊಳ್ಳಿ	-3625
ಗಳಿಲ್ಲ	-3626
ಾಗಲಿ	-3627
್ಯದ	-3628
▁ನಡೆಸಿದರು	-3629
▁ಕೊರತೆ	-3630
ಲಿಂಗ್	-3631
▁ರಕ್ಷಣೆ	-3632
್ಯಾತ್ಮ	-3633
▁ಸಾವಿರಾರು	-3634
ಶ್ಚರ್ಯ	-3635
▁ಯತ್ನ	-3636
▁ಮಗುವ	-3637
▁ಮುನ್ನಡೆ	-3638
▁ಕ್ಷೇತ್ರಗಳಲ್ಲಿ	-3639
ುವುದನ್ನು	-3640
ರಾಗಿದ್ದರು	-3641
▁|	-3642
▁ಕ್ಷೇತ್ರದ	-3643
▁ಪಾಲ್ಗೊಂಡಿದ್ದರು	-3644
▁ನೆರವೇ	-3645
▁ವಾಗ್ದ	-3646
▁ಹಿಂದು	-3647
▁ಜನಾಂಗ	-3648
▁ಲೈಂಗಿಕ	-3649
▁ಭರ್ಜರಿ	-3650
▁ಆಚರಿಸ	-3651
ಂಜಿನಿಯ	-3652
▁:⁠	-3653
▁ನಿಜಕ್ಕೂ	-3654
ತೋ	-3655
▁ಹೇಳಿದ್ದ	-3656
ೂಷ	-3657
▁ಆಯೋಜ	-3658
▁ಸ್ಥಗಿತ	-3659
▁ಸಾಧನ	-3660
ಪರಿ	-3661
ಲಿಷ್	-3662
ಗಲ್	-3663
ವಿಕ	-3664
▁ದುಃಖ	-3665
▁ನಿರೀಕ್ಷೆ	-3666
▁ಸಂಗಡ	-3667
▁ಪೋಷಕರು	-3668
▁ಹೇಳುತ್ತಾರೆ	-3669
▁ನೀಡಿಲ್ಲ	-3670
ಿಸಿದಾಗ	-3671
▁ಚೇತ	-3672
▁S	-3673
▁ಕೆಲಸವನ್ನು	-3674
▁ಅಸ್ತಿ	-3675
▁ತ್ರಿ	-3676
ನೀಯ	-3677
▁ಬದ್ಧ	-3678
ವಾಲು	-3679
▁ಇಟ್ಟು	-3680
ೇಷನ್	-3681
▁ತೆರೆಯ	-3682
▁ಸರ್ವ	-3683
▁ಪ್ರಮಾಣದಲ್ಲಿ	-3684
▁ಅವುಗಳಲ್ಲಿ	-3685
ೆರ	-3686
▁ಝ	-3687
▁ವಸ	-3688
▁ಆಜ್ಞ	-3689
ಭಾರತ	-3690
▁ಶಾಸಕರು	-3691
▁ಹೆಸರನ್ನು	-3692
ಿಕೊಡ	-3693
ಾಪ್	-3694
▁ಪೂಜ	-3695
▁ರಹ	-3696
ನೆಯು	-3697
ುನಿಕ	-3698
▁ಹಣ್ಣು	-3699
▁ಪ್ರಮಾಣದ	-3700
ೈರ್ಯ	-3701
▁ಬಂಧಿಸಿದ್ದಾರೆ	-3702
▁ಪ್ರತಿನಿಧ	-3703
▁ಅನ್ಯ	-3704
ುತ್ತೀರಿ	-3705
ರುವುದರಿಂದ	-3706
ಲ್ಯಾಣ	-3707
▁ಬುಕ್	-3708
ಮಾರ	-3709
ಿಂದ್	-3710
ಿಸಲಾಗುತ್ತಿದೆ	-3711
▁ಸ್ಪಷ್ಟಪಡ	-3712
▁ಪ್ರತಿಭಟನಾ	-3713
ಂಗೆ	-3714
▁ಮೀಸ	-3715
ಾಗಳ	-3716
on	-3717
ಾಯ್ತು	-3718
▁ಸುಲಭವಾಗಿ	-3719
▁ಸ್ತ್ರ	-3720
▁ಸ್ಥಿರ	-3721
ಳಿಯಲ್ಲಿ	-3722
▁ಶೋಧ	-3723
▁ಸುಪ್ರೀಂಕೋರ್ಟ್	-3724
▁%	-3725
▁ಯಾಕ	-3726
ಭಯ	-3727
▁ಸಮರ್ಥ	-3728
▁ಸ್ಪಂದ	-3729
▁60	-3730
▁ಪಾಲ್ಗೊಳ್ಳ	-3731
ಿನೆ	-3732
▁ಗೊಂದಲ	-3733
▁ಇಬ್ಬರ	-3734
ವಾಗುತ್ತಿದೆ	-3735
▁ಮಾಡುವುದಿಲ್ಲ	-3736
▁ಜನ್ಮ	-3737
ಾಂತ್ರಿಕ	-3738
▁ವಾಪ	-3739
▁ತಂದೆಯ	-3740
▁ವೈರಸ್	-3741
▁ದಂಪ	-3742
▁ಜಾರ	-3743
▁ಆದು	-3744
▁ನ್ಯಾಯಮೂರ್ತಿ	-3745
ೃತ್ಯ	-3746
▁ವಿಳ	-3747
▁ಪ್ರಸ್ತಾಪ	-3748
▁ಅಶ	-3749
▁ಶ್	-3750
▁ಪವರ್	-3751
▁ಎದುರು	-3752
▁ಸುಮ್ಮ	-3753
▁ತಿಳಿದುಕೊಳ್ಳ	-3754
ತವಾಗಿ	-3755
▁ಭಾಷೆ	-3756
▁ವಂಚ	-3757
ಾಲೆ	-3758
▁ಈಗಲೂ	-3759
▁ಕೆಳಗೆ	-3760
▁ನಿಜವಾದ	-3761
▁ಆಶ್ಚರ್ಯ	-3762
ವಿನ	-3763
ನ್ನಾಗಿ	-3764
▁ರಲ್ಲಿ	-3765
ಾಂತಿ	-3766
▁ಇಟ್ಟ	-3767
ಠಿ	-3768
▁ಕನಸು	-3769
▁ಡಿಸ್	-3770
▁ಸಾರಿಗೆ	-3771
ಡಿಯೊ	-3772
▁ರಸ	-3773
▁ಜವಾಬ್ದಾರಿ	-3774
▁ಒಡ	-3775
▁ಬ್ಯಾಟಿಂಗ್	-3776
ದಿಗೆ	-3777
▁ಹಿತ	-3778
▁ಪ್ರಸಿದ್ಧ	-3779
▁ಸವಾಲು	-3780
ಾಮಕ	-3781
▁ಪ್ರತಿದ	-3782
▁ಆಧ್ಯಾತ್ಮ	-3783
▁ಕಪ್	-3784
▁ಕ್ರಿಸ್ತನ	-3785
▁ಪ್ರಕರಣದಲ್ಲಿ	-3786
▁ಸಕ್ಕರೆ	-3787
▁ಜೋಡ	-3788
▁ಮಹಿಳೆಯರ	-3789
▁ಆರಂಭಿಕ	-3790
▁ಪಡೆದಿದ್ದಾರೆ	-3791
ನನ	-3792
▁ಸೆಲ್	-3793
▁ಬೆನ್ನ	-3794
▁ಕಲ್ಯಾಣ	-3795
▁ಮುಂದುವರಿಸ	-3796
ಂದೂ	-3797
▁ಈರು	-3798
▁ಬಳಸಿ	-3799
▁ಇಮ	-3800
▁ಗಂಗ	-3801
▁ಪ್ರಸಾದ್	-3802
▁ಪಾವತ	-3803
▁ಯಾವುವು	-3804
▁ರಮೇಶ್	-3805
▁ಸೂಚನೆ	-3806
ಾವಳಿ	-3807
ಬ್ಬರ	-3808
ಕ್ಷೇಪ	-3809
▁ಸತ್ತ	-3810
▁ಪ್ರಾಥಮ	-3811
▁ರೈತರಿಗೆ	-3812
ಲ್ಯಾಂಡ್	-3813
▁ಆಲೋಚ	-3814
▁ಸಂಕಷ್ಟ	-3815
▁ನದಿ	-3816
▁ಅಭ್ಯರ್ಥಿಗಳು	-3817
ಮೋ	-3818
▁ಅಲಿ	-3819
▁ವಿಶೇಷವಾಗಿ	-3820
ಪಡಿ	-3821
▁ಸ್ವಯ	-3822
▁ಇಲಾಖೆಯ	-3823
ಮಿತ	-3824
▁ಅಕ್ರಮ	-3825
▁ಸನ್ನಿವೇಶ	-3826
▁ವಿವೇಕ	-3827
ಿಸುವಲ್ಲಿ	-3828
▁ಜಾರಿಗೆ	-3829
ರಿಯಾ	-3830
▁ಹ್ಯಾ	-3831
▁ನೋಡೋಣ	-3832
ದ್ದೇ	-3833
▁ಪತಿ	-3834
ೀಶ್	-3835
▁ಮಾನಸಿಕ	-3836
▁ಪ್ರಯೋಗ	-3837
▁ಮೂಲಗಳು	-3838
ಲಿಕ್ಕಾಗಿ	-3839
▁ಕುತೂಹ	-3840
ಕಿನ	-3841
ಗೂಡ	-3842
▁ಆರಾಧ	-3843
ೋ	-3844
್ಮೆ	-3845
ಟದ	-3846
▁ಪಾಠ	-3847
ಂಡ್ರ	-3848
ುತ್ತಿದ್ದೇವೆ	-3849
ಜುನ್	-3850
▁ಸಿಬ್ಬಂದ	-3851
▁ನಮ್ಮಲ್ಲಿ	-3852
▁ಏರಿಕ	-3853
▁ರಾಜಸ್ಥಾನ	-3854
▁ಹೊತ್ತು	-3855
ಂಗ್ಸ್	-3856
▁ಕಚೇರಿ	-3857
▁ಇಲ್ಲಿಗೆ	-3858
▁ಚಾಲನೆ	-3859
▁ತಿದ್ದು	-3860
ರಂಜ	-3861
▁2018	-3862
▁ಪಡೆದು	-3863
ಪಾಲ್	-3864
ಂತಾಗಿದೆ	-3865
▁ಪಟ್ಟಿಯಲ್ಲಿ	-3866
▁ಅರ್ಪ	-3867
▁ಕ್ಷಮ	-3868
▁ಅತೀ	-3869
▁ಭೂಮಿಯ	-3870
▁ಸಿನಿಮಾದಲ್ಲಿ	-3871
ೈನ್	-3872
▁ಹಸ್ತ	-3873
▁ಸಭೆಯ	-3874
▁ಆಪ್	-3875
▁ಓರ್ವ	-3876
▁ಶ್ರೇಷ್ಠ	-3877
ಬೇಡ	-3878
ಿಸಿಸಿಐ	-3879
ದೆಂದು	-3880
▁ನಗದು	-3881
▁ಅರ್ಧ	-3882
▁ಕಂಪೆ	-3883
ಪ್ಪಿ	-3884
▁ಸಹಾಯಕ	-3885
▁ಅನುಮತಿ	-3886
▁32	-3887
▁ಕ್ರಿಕೆ	-3888
▁ಆಯುಕ್ತ	-3889
▁ವೈಶಿಷ್ಟ	-3890
ಸೂರು	-3891
▁ಟಿವಿ	-3892
▁ಮಟ್ಟದ	-3893
▁ಶಸ್ತ್ರ	-3894
ೋತ್ಸಾಹ	-3895
▁ಆದುದರಿಂದ	-3896
▁ಸಕ್ರಿಯ	-3897
▁ಸಿನಿಮಾದ	-3898
ಸಭೆಯಲ್ಲಿ	-3899
▁ನಿವೃತ್ತ	-3900
ಮೆಂಟ್	-3901
).	-3902
ಕ್ಟ್	-3903
ಾವನ್ನು	-3904
ವಿತ್ತು	-3905
ಾನೇ	-3906
▁ಕ್ಲ	-3907
▁ಕಾಣಿಸಿಕೊಳ್ಳ	-3908
▁ಕೆಂಪು	-3909
▁ಆರೋಗ್ಯದ	-3910
▁ಬಂತು	-3911
▁ಅದೃಷ್ಟ	-3912
▁ಸೇನಾ	-3913
’’	-3914
ಪೂರ್ವ	-3915
▁ಬಿಸಿ	-3916
▁ಓಡ	-3917
▁ಪೌರ	-3918
▁ಆಹ್ವಾನ	-3919
▁ಜಪ	-3920
ಪಡಿಸಿ	-3921
▁ಬಿಡುಗಡೆಗೊಳ	-3922
▁ನಾರ	-3923
▁ಇಂಧ	-3924
▁ಚಾಲಕ	-3925
▁ಮಾರ್ಗದರ್ಶ	-3926
ೆಲ್	-3927
▁ನೀಡಿದ್ದ	-3928
ೇತರ	-3929
▁ಕಾಡ	-3930
▁ಅನುಮಾನ	-3931
▁ಪ್ರಾಥಮಿಕ	-3932
ಲುಕ	-3933
▁ಹಗ	-3934
▁ಕೃತ	-3935
▁ಕಲಾವ	-3936
▁ವಕ	-3937
▁31	-3938
▁ತಂಡಗಳು	-3939
▁ತಿರುಗ	-3940
ad	-3941
ಭಾಯ	-3942
▁ನೂರ	-3943
▁ಸಾವಿನ	-3944
▁ವಿದೇಶಾಂಗ	-3945
▁ಆರೋಪಿಗಳನ್ನು	-3946
ರಿಂಗ್	-3947
ೃಷ್ಣ	-3948
▁ವಿಚಾರದಲ್ಲಿ	-3949
ಣೆಯಲ್ಲಿ	-3950
ಲಕ್ಷಣ	-3951
▁ಗ್	-3952
▁ಗ್ರಾಮೀಣ	-3953
▁ಮನ್	-3954
ಲಿದ್ದು	-3955
▁ಬರ್	-3956
▁26	-3957
▁ಸೇರ್ಪ	-3958
▁ಕುಸಿತ	-3959
▁ಬೇಕಾದ	-3960
▁ಮಾಹಿತಿಯನ್ನು	-3961
at	-3962
▁ಗಂಟ	-3963
ವರಾಜ್	-3964
▁ಕ್ರೀ	-3965
▁ಪಾಲು	-3966
ಿಯರು	-3967
▁ನಾವೆಲ್ಲ	-3968
▁ಪಟೇಲ್	-3969
▁ಹೊರತ	-3970
▁ಅಲ್	-3971
▁ಪ್ಲೇ	-3972
▁ನಡೆಸಲು	-3973
▁ಹಾಜರಿದ್ದರು	-3974
▁ಉಡು	-3975
▁ತ್ವ	-3976
▁ಹೇಳಿದ್ದು	-3977
▁ಎನ	-3978
▁ಧೈರ್ಯ	-3979
ಲಾರ	-3980
▁ಶಿಫಾರ	-3981
▁ಸ್ಫೋ	-3982
ೇಡ್	-3983
▁ಸಮಾ	-3984
er	-3985
▁ಮೆಣ	-3986
▁ಮುಖ್ಯಮಂತ್ರ	-3987
▁27	-3988
ಫೈ	-3989
ಾಯಾಮ	-3990
▁ತಾಲ	-3991
▁ಪ್ರೋತ್ಸಾಹ	-3992
▁ನಂದ	-3993
ಡ್ಡಾಯ	-3994
▁ತಾರ	-3995
ಗಳಲ್ಲೂ	-3996
▁ಶ್ರೀಲ	-3997
▁ಹಳೆಯ	-3998
▁ಪ್ರಶ್ನೆಗೆ	-3999
▁ಸೋಲು	-4000
ಮಿಯ	-4001
▁ಅಲ್ಪ	-4002
▁ದೊರೆ	-4003
ಾಶ್	-4004
▁ಶಾಸಕರ	-4005
ಫೋನ್	-4006
▁ಪೋಸ್ಟ್	-4007
ುಖ್ಯ	-4008
▁ಗಾಯಗೊಂಡಿದ್ದಾರೆ	-4009
▁ನೀರನ್ನು	-4010
▁ತನಕ	-4011
▁ನ್ನು	-4012
▁ಇವರಿಗೆ	-4013
▁ದೆಹಲಿಯ	-4014
▁ಶೇಕ	-4015
▁ಸದಾ	-4016
▁ಶ್ರೀಮ	-4017
▁ವರೆ	-4018
ವನ್ನೇ	-4019
▁ತೃ	-4020
▁ಹೊಣೆ	-4021
▁ಬೋ	-4022
▁ಪಾರ್	-4023
ಣ್ಯ	-4024
▁ಮುಖಂಡರು	-4025
▁ಕುತೂಹಲ	-4026
▁ಕಡತ	-4027
ಾಗಬೇಕು	-4028
▁ನೀಡಿರುವ	-4029
ುವಾಗ	-4030
▁ಕಡ್ಡಾಯ	-4031
▁ಸೋನಿಯಾ	-4032
▁ಕರ್ತವ್ಯ	-4033
ದಲ್ಲಿಯೇ	-4034
▁ಅಪೊ	-4035
ಿಸುತ್ತಾ	-4036
▁ತಿರಸ್ಕ	-4037
▁ಅತಿಥ	-4038
▁ಅನುಮೋದನೆ	-4039
ಂು	-4040
▁C	-4041
▁ಸಲಹ	-4042
ದೋ	-4043
▁ಫು	-4044
▁ಭದ್ರತೆ	-4045
ಕಲ್	-4046
▁ನಿಭಾಯ	-4047
▁ನಿವಾರ	-4048
ಧಿಕಾರ	-4049
▁ನರ	-4050
▁ಇಲ್ಲವೆ	-4051
ಾಶಯ	-4052
▁ಗುಂಪ	-4053
▁ನ್ಯಾಯಾಂಗ	-4054
▁ಸ್ಪರ್ಧೆ	-4055
ಶೇಖ	-4056
▁ಜಾತಿ	-4057
ಿಸಿಕೊಂಡು	-4058
▁35	-4059
ನ್ಮೂಲ	-4060
▁ಟಾರ್ಕ್	-4061
▁ಸ್ವತಃ	-4062
▁ನೋಡಲು	-4063
▁ಜರುಗ	-4064
ಗಿರುವ	-4065
ೇರಿಯ	-4066
▁ಸೋಲ	-4067
ಿಸಲಾದ	-4068
▁ಗರಿಷ್ಠ	-4069
▁ಮಾತನಾಡಿ	-4070
ುವಿ	-4071
▁ಕ್ರಮಗಳನ್ನು	-4072
ಸ್ಕಾರ	-4073
▁ಕಾರಣಗಳು	-4074
▁ಅಖ	-4075
▁ರೆಡ್ಡಿ	-4076
▁ವಿಷಯಗಳನ್ನು	-4077
▁ಹಿಡಿದು	-4078
▁ಆರೋಪಿಗಳ	-4079
▁ನಾನೇ	-4080
▁ಗೆದ್ದು	-4081
▁ತಜ್ಞ	-4082
▁ಅಚ್ಚ	-4083
▁ಗಾತ್ರ	-4084
▁ಹಿನ್ನ	-4085
ವಾಣಿ	-4086
▁ಎನ್ನುವುದ	-4087
ಮ್ಯ	-4088
ಾಪಕ	-4089
ಪಾತ	-4090
▁ಗಾಯಾಳು	-4091
▁ಮಾಡಬೇಕ	-4092
▁ಪ್ರಾಮುಖ್ಯ	-4093
▁ಈರುಳ್ಳಿ	-4094
ಮನ್	-4095
▁ಒಣ	-4096
▁ಅನುದಾನ	-4097
ವಿತ	-4098
▁ಜು	-4099
▁ಕಾರ್ಯಕರ್ತರು	-4100
▁ಮಾಡಿದ್ದು	-4101
ಯಲ್	-4102
▁ಬೃಹ	-4103
ಿಷ್ಟ	-4104
ಿಕೊಟ್ಟ	-4105
ಶುದ್ಧ	-4106
ಮಾಧಾನ	-4107
▁ಚಾಂಪಿಯನ್	-4108
▁ಹಾನಿ	-4109
▁ಗೊತ್ತು	-4110
▁ದೊರಕ	-4111
▁ಪೌಲನು	-4112
ಕ್ಷ್ಮ	-4113
▁ಸಮಗ್ರ	-4114
▁ಸದ್ಯಕ್ಕೆ	-4115
▁ಇರುತ್ತ	-4116
▁ವರ್ಣ	-4117
ರಿಗಾಗಿ	-4118
▁ಶಿಕ್ಷೆ	-4119
ತ್ತಿ	-4120
▁ವಕೀಲ	-4121
▁ಸಿಪಿ	-4122
▁ಶಿಷ್ಯ	-4123
ಳೆದ	-4124
▁ಡಿಸ	-4125
ಸೈ	-4126
▁ಲಕ್ಷಣಗಳು	-4127
▁ಅಲ್ಲಿಂದ	-4128
▁ಗ್ರಹ	-4129
▁ಅಧಿವೇಶ	-4130
ಾಳಿ	-4131
▁ಬೊ	-4132
ುತ್ತಿರಲಿಲ್ಲ	-4133
▁150	-4134
ಗುಣ	-4135
▁ವೆಬ್	-4136
▁ಶಾಸ್ತ್ರ	-4137
▁ಅಂದಾಜ	-4138
ಕೈ	-4139
▁ಆತನಿಗೆ	-4140
▁ಓದ	-4141
▁ಬೆದ	-4142
▁ಸಂಸ್ಕೃತಿ	-4143
ಡಿಯಲ್ಲಿ	-4144
▁ಹಿಡಿಯ	-4145
ಾಜ್ಯ	-4146
▁ಬಳಿಗೆ	-4147
ತಿಯು	-4148
▁ಚು	-4149
▁ವಿಪ	-4150
ತೆಯು	-4151
▁ಇದುವರೆಗೂ	-4152
▁ಬದುಕು	-4153
▁ಕಸ	-4154
ಪಡಿಸಿಕೊಳ್ಳ	-4155
▁ವಿಷಯವನ್ನು	-4156
ದಲ್ಲಿದ್ದಾರೆ	-4157
▁ಪುನಃ	-4158
▁ಚಿನ್ನದ	-4159
ನಮ್ಮ	-4160
ಗೊಳಿಸಿ	-4161
▁ಐತಿಹಾಸ	-4162
▁ಕ್ಲಿಕ್	-4163
ನಾಯಕ	-4164
▁ಕೊಳ್ಳ	-4165
ುತ್ತಿದ್ದೇನೆ	-4166
ಎಚ್	-4167
▁ಅಮ್ಮ	-4168
ಿಸಲಾಗಿದ್ದು	-4169
▁ಅಜ	-4170
▁ಅಡ್	-4171
▁ದೌ	-4172
▁ಇತ್ಯ	-4173
▁ಪ್ರತಿದಿನ	-4174
▁ನಿರ್ಬಂಧ	-4175
▁ನಿನ್ನನ್ನು	-4176
▁ಅರ್ಜುನ್	-4177
▁ದಶ	-4178
▁ಮೋಹ	-4179
▁300	-4180
▁ಚುನಾವಣೆಗೆ	-4181
ಕ್ಟ	-4182
▁ಆಂತ	-4183
▁ಸೇರಿವೆ	-4184
ೆಂಬರ್	-4185
▁ಚಿತ್ರರಂಗ	-4186
ಿಕೊ	-4187
▁ದಾರಿ	-4188
▁ಏನೇ	-4189
ಿಯಾಗಿದ್ದ	-4190
▁ಆಧಾರ್	-4191
▁ಅಭ್ಯಾಸ	-4192
▁ತನಿಖೆಗೆ	-4193
▁ಮಧ್ಯಪ್ರದೇಶ	-4194
ಕೋಶ	-4195
▁ಇಂಧನ	-4196
▁ಇಂಡಿಯನ್	-4197
▁ಕಿವಿ	-4198
▁ಜಿಲ್ಲೆಯಲ್ಲಿ	-4199
▁ಬಾಹ	-4200
ಪಡಿಸಲು	-4201
ಸೌ	-4202
ಲೀಸ್	-4203
▁ಮತ್ತೊಮ್ಮೆ	-4204
▁ಪ್ರಚ	-4205
ಣಿಯ	-4206
▁ಅಧಿಕಾರಿಗಳ	-4207
▁ಕರ್ನಾಟಕದ	-4208
ಸ್ತಿ	-4209
▁ಕೌಶ	-4210
▁ನಾಲ್ವರು	-4211
ಪಂಚ	-4212
ತ್ರೆ	-4213
ಪಡಿಸುವ	-4214
▁ಮಾಡಲಾಗುತ್ತದೆ	-4215
▁ಬಾಗಿ	-4216
ರಿದ್ದಾರೆ	-4217
ಾರ್ಡ್	-4218
▁A	-4219
▁ಅಗ್ನಿಶ	-4220
▁ಲಭ್ಯವಿದೆ	-4221
▁ಶಾಲೆ	-4222
▁ಜೇ	-4223
▁ಪಾತ್ರದಲ್ಲಿ	-4224
▁ಹೇಳಿದ್ದರು	-4225
▁ಶವ	-4226
▁ಅಮೆರಿಕದ	-4227
ಷ್ಕಾ	-4228
▁ಕೋಪ	-4229
▁ಅಸಮಾಧಾನ	-4230
ದೀಪ್	-4231
▁ಆಫ್ರಿಕಾ	-4232
▁ಎಚ್ಚರಿಕ	-4233
▁ಎಲ್ಲವನ್ನೂ	-4234
▁ತೀರ್ಪ	-4235
...]	-4236
▁[...]	-4237
▁ಗಡಿ	-4238
▁ಕಾರ್ಯಕ್ರಮದ	-4239
ಪೊ	-4240
▁ಟಿಕೆಟ್	-4241
▁ಎಸೆ	-4242
▁ಗಣ್ಯ	-4243
▁ಸೈನಿಕ	-4244
▁ಸೆರೆ	-4245
▁ಲೋಕಸಭೆ	-4246
▁ಸಚಿವೆ	-4247
▁ಅಪೊಸ್ತ	-4248
▁ಇಲ್ಲಿಯ	-4249
▁ಕೈಗೆ	-4250
▁ಪ್ರದೇಶಗಳಲ್ಲಿ	-4251
▁ರಾವ್	-4252
ದವರು	-4253
▁ಅವಲಂಬ	-4254
▁ನೋಂದ	-4255
▁ಬಿಸಿಸಿಐ	-4256
▁ಮತ್ತಿತರರು	-4257
▁ನಾಲ್ಕ	-4258
ಿಕೆಯು	-4259
▁ಎಲೆಕ್ಟ್ರಿಕ್	-4260
▁ತಿನ್ನು	-4261
ರಿಸಿದೆ	-4262
▁ಸಿಂಗ	-4263
▁ಶುರುವ	-4264
▁ಪರಾರ	-4265
▁ಅಬ	-4266
ಿದೆಯೇ	-4267
▁ಅಪ್ಲಿಕ	-4268
ಬಳ	-4269
▁ಅರ್ಥಮಾಡ	-4270
▁ಜ್ಞಾನೋ	-4271
▁ಇಂಗ್ಲಿಷ್	-4272
▁ದುರಂತ	-4273
▁ಮೂಲಭೂ	-4274
▁ವೈಶಿಷ್ಟ್ಯ	-4275
ಮೇಲೆ	-4276
▁ಆಸಕ್ತಿ	-4277
ಿಸಿದ್ದೇವೆ	-4278
▁ಫಾರ	-4279
▁ಪೀಠ	-4280
▁ಮೈಸೂರು	-4281
▁ಯಶಸ್ಸು	-4282
▁ಓವರ್	-4283
▁ರಕ್ತದ	-4284
▁ದೇವರಿಗೆ	-4285
▁ಮತದಾರ	-4286
▁ರಾಜ್ಯಪಾಲ	-4287
▁ಬದಲಾವ	-4288
-19	-4289
▁ಲೇಖನ	-4290
ೊಯ	-4291
▁ಜನಸಂ	-4292
▁ಪುಡಿ	-4293
ಂಗಡ	-4294
▁ನಿವಾಸಿ	-4295
▁ಸೂಕ್ಷ್ಮ	-4296
▁ಹಲ್ಲೆ	-4297
▁ಆಗಿರುವ	-4298
▁ಜಗತ್ತಿನ	-4299
▁ಮೋಶ	-4300
▁ಎಣ್ಣೆ	-4301
ಿಯಾಗಿದ್ದರು	-4302
▁ಈವರೆಗೆ	-4303
▁ತಾಂತ್ರಿಕ	-4304
▁ವೇತನ	-4305
▁ಹೊರಬ	-4306
▁ಅವರಿಂದ	-4307
▁ಹುಟ್ಟು	-4308
ಪ್ರಾ	-4309
▁ಹೇಳಿದನು	-4310
▁ಅಧ್ಯಕ್ಷತೆ	-4311
▁ಸಮಸ್ಯೆಗಳನ್ನು	-4312
▁ಧೂ	-4313
▁ಕಾಯ್ದೆ	-4314
▁ಭ್ರಷ್ಟಾಚಾರ	-4315
ಿಯವರ	-4316
▁ರಚನೆ	-4317
▁ಅಡ್ಡ	-4318
▁ಇವೆಲ್ಲ	-4319
ಷ್ಮ	-4320
ಂತಿ	-4321
▁ಅತ	-4322
▁ಹೆದ್ದ	-4323
▁ಆಂತರಿಕ	-4324
▁ಐತಿಹಾಸಿಕ	-4325
▁ಆಧ್ಯಾತ್ಮಿಕ	-4326
ೂತ	-4327
್ಟಿ	-4328
▁ಬದಲಾಗಿ	-4329
ಷ್ಕ	-4330
▁ನಿರ್ವಹಣೆ	-4331
▁ಮಾಡುತ್ತಿದೆ	-4332
▁ಆಸ್ತಿ	-4333
ಿಸೋಣ	-4334
▁ವಿಧಾನಸಭೆ	-4335
▁ಪ್ರತಿಭಟನಾಕಾರ	-4336
ಾಯಣ	-4337
▁ಗ್ರಾಂ	-4338
▁ನಡೆಯುವ	-4339
▁ಪ್ರಶ್ನೆಯ	-4340
ಿಯಲ್	-4341
ಗ್ರಿ	-4342
▁ಸಂಘಟನೆ	-4343
▁ಶಿವಕುಮಾರ್	-4344
▁ಈಡೇ	-4345
▁ಹೋರಾ	-4346
▁ವ್ಯಾಯಾಮ	-4347
▁ಅಧಿಕಾರಕ್ಕೆ	-4348
▁ನೌಕರ	-4349
ಿದ್ದೀರಿ	-4350
ಕ್ಕಿಳ	-4351
▁ಡಿಜಿ	-4352
▁ಹವಾಮ	-4353
ಂಡನ್	-4354
ಯಿಂದ	-4355
ಾಧೀಶ	-4356
ರುಪ	-4357
▁ವಿಮರ್ಶ	-4358
ೀಕಾರ	-4359
ಲಾದೇಶ	-4360
▁ಮಂಗಳೂರು	-4361
▁ಸಂಖ್ಯೆಯಲ್ಲಿ	-4362
ವರೆಲ್ಲ	-4363
▁ಪ್ರಕರಣವನ್ನು	-4364
▁ಅಧ್ಯಕ್ಷೆ	-4365
ನಿನ	-4366
▁ನಂಬಿಕೆಯ	-4367
ಂಗಿ	-4368
ಜೋ	-4369
▁ಇತರರು	-4370
▁ನೇರವಾಗಿ	-4371
ಗಿದ	-4372
ವೊ	-4373
▁ಶುಭಾಶಯ	-4374
▁ಅಪೊಸ್ತಲ	-4375
▁ಎತ್ತರ	-4376
ಕಾರಾತ್ಮಕ	-4377
▁ಕೇಜ	-4378
▁ಜವಾಬ್ದಾರ	-4379
▁ಸಚಿನ್	-4380
▁ಸುರಕ್ಷಿತ	-4381
▁M	-4382
ಚರ್	-4383
▁ಸಹಾಯಮಾಡ	-4384
ಂಬ್	-4385
▁ಸೋಂಕ	-4386
▁ಪಠ	-4387
ಂದ್ರೆ	-4388
▁ಅದೆ	-4389
▁ತಾಪ	-4390
▁ಮಗಳು	-4391
ಳಿಕೆ	-4392
▁ಅಗ್ರ	-4393
▁ಕೋಚ್	-4394
ೊಯ್ಯ	-4395
▁ದಾವೀದ	-4396
ೋದ್ಯಮ	-4397
▁ತೆಗೆದುಹಾಕ	-4398
19	-4399
ಡರ್	-4400
▁ಕೊಳ	-4401
▁ಲೇ	-4402
▁ಅಲ್ಲಿನ	-4403
▁ಇಂದಿ	-4404
▁ನ್ಯೂಜಿ	-4405
▁ನಿಗದಿ	-4406
▁ಲೋಡ್	-4407
▁ಸುರೇಶ್	-4408
▁ಭಟ್	-4409
▁ಅನುಷ್ಕಾ	-4410
▁80	-4411
▁ಬೃಹತ್	-4412
ವಾಗಿದ್ದ	-4413
▁ಪ್ರಗತಿ	-4414
▁ಜಾಲತಾಣದಲ್ಲಿ	-4415
ಾಯ್ಡ್	-4416
▁ಪತ್ರಕರ್	-4417
▁ಠಾಕ	-4418
▁ಹೆದ	-4419
ಷ್ಠಾನ	-4420
▁ಸಿಂಧ	-4421
▁ಹಿಡಿದ	-4422
▁ಇಸ್	-4423
▁ವಹಿಸಿದ್ದರು	-4424
ವರಲ್ಲಿ	-4425
ತೀಶ್	-4426
ಗೊ	-4427
▁ಸಮಸ್ಯೆಗಳು	-4428
▁ಬಸ	-4429
▁ಸ್ಟೋ	-4430
▁ತಂಡಕ್ಕೆ	-4431
ಂಬೆ	-4432
▁ಕಳ್ಳ	-4433
ಗಡೆ	-4434
▁ಬೈಬ	-4435
ಹಿಡಿಯ	-4436
GB	-4437
ರ್ತು	-4438
▁ಪಡೆಯುವ	-4439
▁ಕಲಾ	-4440
ಾಪುರ	-4441
ಾಯಿತ	-4442
ೆಯಲ್ಲ	-4443
▁ನಾಟಕ	-4444
ಿಸಿದ್ದೇನೆ	-4445
ಿಸಿಕೊಂಡಿದ್ದಾರೆ	-4446
ome	-4447
▁ಸಾಹ	-4448
▁ಆದಿತ್ಯ	-4449
▁ಏನನ್ನು	-4450
ಜ್ಜೆ	-4451
▁ಮಟ್ಟದಲ್ಲಿ	-4452
ಿಕೊಂಡರು	-4453
▁ರಜ	-4454
ಾಡಳಿತ	-4455
▁ಖುಷಿ	-4456
▁ಇದುವರೆಗೆ	-4457
▁ಮಾಂಸ	-4458
▁ನೃತ್ಯ	-4459
▁ಪ್ರಕರಣಕ್ಕೆ	-4460
▁ಮರೆ	-4461
▁ಮನಸ್ಸು	-4462
ಸ್ಟ್ರ	-4463
▁ಮಗುವಿನ	-4464
▁ಹೋಂಡಾ	-4465
▁ತಿದ್ದುಪಡಿ	-4466
▁ದೈಹ	-4467
ವಾದು	-4468
▁ಬೆಟ್ಟ	-4469
▁ತೊಂದರೆಯ	-4470
▁ವಾಸ್ತವವಾಗಿ	-4471
▁ಶೀಘ್ರದಲ್ಲೇ	-4472
ನಲ್ಲ	-4473
▁ಬೇಸರ	-4474
▁ಬಚ್ಚ	-4475
▁ಕೆಲವೇ	-4476
ಂಚ್	-4477
▁ಸಮೀಕ್ಷ	-4478
▁ಸ್ವಾಮಿ	-4479
▁ಮುಸ್ಲಿಂ	-4480
▁ಮೊಹಮ್ಮದ್	-4481
▁ಸಿದ್ಧತೆ	-4482
▁ತಿನ್ನ	-4483
▁ಬಾಂಗ್ಲಾದೇಶ	-4484
▁ಇಂದಿನ	-4485
▁ಖ್ಯಾತ	-4486
▁29	-4487
▁ಲಾಕ್	-4488
ೋತ್ತರ	-4489
್ರಿವಾಲ್	-4490
▁ವಾರ್ಷಿಕ	-4491
ಸರ್ಗ	-4492
▁ಸೂರ್	-4493
.5	-4494
▁ಅರವ	-4495
ಕಲ	-4496
▁ಹಿಂಸಾ	-4497
ರಂ	-4498
ೀಂದ್ರ	-4499
▁ಪ್ರಕಾಶ್	-4500
ar	-4501
ೂಲ್	-4502
▁ಪೈಪೋ	-4503
ರಾಜು	-4504
▁ಹಸಿರು	-4505
ೋಕ್	-4506
▁ಮೃತಪಟ್ಟಿದ್ದಾರೆ	-4507
ಕ್ಕಿಂತಲೂ	-4508
▁ಇಲ್ಲಿವೆ	-4509
▁ಸೆಕ್ಷನ್	-4510
▁ಅಭಿಯ	-4511
▁ಹವಾಮಾನ	-4512
▁ವರ್ತ	-4513
▁ಹಿಂಬ	-4514
▁ದಿನಕ್ಕೆ	-4515
▁ಡಾಲ	-4516
▁ಕೂಟ	-4517
▁ಆಗುತ್ತದೆ	-4518
ಸ್ಥರು	-4519
▁ಅಗ್ನಿಶಾಮಕ	-4520
▁ಇಸ್ರಾಯೇಲ್ಯ	-4521
ತುವ	-4522
▁ದೇಹದ	-4523
▁ಮಾನ್ಯ	-4524
▁ಇಲ್ಲವೇ	-4525
▁ಹೇಳುವುದು	-4526
▁ಕಾಯಿಲೆ	-4527
ಂಪಿ	-4528
▁ಶಂಕ	-4529
▁ನಿರ್ಮಾಪ	-4530
▁ಉಭಯ	-4531
ಾಮಾನ್ಯ	-4532
▁ದಾರ	-4533
▁ದೇವೇಗೌಡ	-4534
ಿಸುವಾಗ	-4535
▁ಉಸ್ತುವ	-4536
▁ಕೇಜ್ರಿವಾಲ್	-4537
ಿಸುತ್ತಿದ್ದರು	-4538
ಿಕೊಳ್ಳಬೇಕು	-4539
▁ಒಮ್ಮೆ	-4540
▁ದೇಶಗಳ	-4541
▁ಗೀ	-4542
▁ಟೀಮ್	-4543
ಟ್ಟರ್	-4544
▁ಸಿಲುಕ	-4545
▁ಉತ್ತೇಜ	-4546
▁ಈತನ	-4547
▁ವಕ್ತ	-4548
▁ತುರ್ತು	-4549
▁ಭಾರತವು	-4550
ಂಡೈ	-4551
▁ಠಾಣೆ	-4552
▁ಚಿತ್ರಗಳು	-4553
ಪ್ತಿ	-4554
▁ಖರ್ಚು	-4555
▁ಆಧುನಿಕ	-4556
▁ಕಳೆಯ	-4557
▁ಪ್ರಣ	-4558
ುವರು	-4559
▁ಪರವಾಗಿ	-4560
▁ಮನೋಭಾವ	-4561
▁ವಿದ್ಯಾ	-4562
ಾಳಂ	-4563
ೂರಿ	-4564
್ಯಾಮ್	-4565
▁ನೂರಾರು	-4566
....	-4567
▁ಸಂತಸ	-4568
್ರಾನ್	-4569
▁ವಿಟ	-4570
▁ಜಿಎಸ್	-4571
▁ಉಸಿ	-4572
▁ಮಂದಿರ	-4573
▁ಕಾನ್	-4574
▁ಕುರಿತಂತೆ	-4575
▁ಮುಟ್ಟ	-4576
▁ಎಚ್ಚರ	-4577
ಶ್ವಾಸ	-4578
▁ಎಸ್ಯ	-4579
▁ಸೈತಾನ	-4580
▁ನೈಸರ್ಗ	-4581
ರ್ಬ	-4582
ರಿದೆ	-4583
ಸಾರ	-4584
▁ಹೊಂದಿದ್ದು	-4585
▁ಅರುಣ್	-4586
▁ದಿವಸ	-4587
▁ಕ್ರೀಡಾ	-4588
ಟೆಲ್	-4589
▁ಗೇರ್	-4590
▁ಚೋ	-4591
▁ಪ್ರಿಯಾಂಕಾ	-4592
ದಿದ್ದರೆ	-4593
▁ವಿತರಿಸ	-4594
ದಿಂದಲೂ	-4595
▁ಪಕ್ಕ	-4596
▁ಸತ	-4597
▁ತೆಲ	-4598
ೋರ್ಡ್	-4599
▁ಎನ್ನುತ್ತಾರೆ	-4600
▁ಹ್ಯು	-4601
▁ಮುಂಭಾಗ	-4602
ೆಯಾದ	-4603
▁ಸಸ್ಯ	-4604
▁ವಿಶಿಷ್ಟ	-4605
▁ಕಾಲದಲ್ಲಿ	-4606
ುವಾಗಿ	-4607
ಗೊಳಿಸಲಾಗಿದೆ	-4608
▁ಆಯಿತು	-4609
▁ಆಗುವುದಿಲ್ಲ	-4610
ಮಿಟೆಡ್	-4611
▁ಜಿಲ್ಲಾಧಿಕಾರಿ	-4612
ಬ್ಲ್ಯ	-4613
▁ಅಡುಗೆ	-4614
ಾವೇಶ	-4615
ೂಡ	-4616
▁ಕಡಿತ	-4617
ಂಟ್ರ	-4618
▁ನಡೆಸುವ	-4619
ಂಹ	-4620
ಸಂಸ್ಥ	-4621
ೊಂದಿ	-4622
▁ಹಕ್ಕ	-4623
▁ಕಾರಣವಾಗಿದೆ	-4624
▁ಖುಷ	-4625
▁ಅನೇಕರು	-4626
▁ಮೂಲಭೂತ	-4627
▁ಆರೋಪಿಯನ್ನು	-4628
ಯರ್	-4629
▁ದೇಶಕ್ಕೆ	-4630
▁ಸಮಾಧಾನ	-4631
▁ದೀಪಿಕಾ	-4632
ತ್ವವನ್ನು	-4633
ೋಟ	-4634
▁ಬಿಡಿ	-4635
▁70	-4636
್ಟರ್	-4637
▁ಫ್ಯಾ	-4638
ೇಳೆ	-4639
▁ಮೀಟರ್	-4640
▁ನ್ಯಾಯಾಧೀಶ	-4641
ಯಾನ	-4642
▁ಅದೊಂದು	-4643
▁ಹೊಂದಿವೆ	-4644
▁ಆಗಿ	-4645
▁ಬೀಜ	-4646
▁ಕೊಲ್ಲ	-4647
▁ಮರಳ	-4648
ವಾಗಿಯೇ	-4649
ಂಚಿನ	-4650
ವುಳ್ಳ	-4651
▁ವ್ಯವಸ್ಥೆಯ	-4652
▁ಸಮಸ್ಯೆಯನ್ನು	-4653
▁ಸಂಜಯ್	-4654
ಹೋದ	-4655
▁ಪಕ್ಷಗಳು	-4656
▁ಮಹೀಂದ್ರ	-4657
ಜೀವ	-4658
▁ವಿಷಯಗಳ	-4659
▁P	-4660
▁ಸಮಯದ	-4661
ಾಗಲು	-4662
▁ವರದಿಯ	-4663
▁ಪುನರು	-4664
ವಾರ್	-4665
್ದು	-4666
▁ಹೆಚ್	-4667
▁ಪಡೆದರು	-4668
▁ಯೋಹ	-4669
▁ಸಂಪನ್ಮೂಲ	-4670
▁ಕ್ರಿಕೆಟಿ	-4671
▁3:	-4672
ನೀವು	-4673
▁ಪ್ಲ	-4674
ುವುದಕ್ಕೆ	-4675
▁ಗೂಗಲ್	-4676
▁ಸಂಸ್ಥೆಗಳು	-4677
▁ಖಾತ	-4678
▁ದ್ವೇಷ	-4679
▁ಗಮನಾರ್ಹ	-4680
▁ಪ್ರಭ	-4681
▁ಯಾರಿಗೆ	-4682
▁ಆತ್ಮಹತ್ಯ	-4683
ಂಗಾಣ	-4684
ತ್ತಾ	-4685
▁ತಮಿಳುನಾಡು	-4686
▁ಘನ	-4687
▁ನೋಡುವ	-4688
ಯೋ	-4689
ಸರ	-4690
▁ವರೆಗೂ	-4691
▁ಒಪ್ಪಿಗೆ	-4692
ಶನ್	-4693
▁ಮಾರುಕಟ್ಟೆ	-4694
▁ಚಿಕಿತ್ಸ	-4695
▁ಬೂ	-4696
▁ವೆಸ್ಟ್	-4697
▁ಇಂಡಿಯಾದ	-4698
್ಯಾಪ	-4699
▁ಏನಿದು	-4700
▁ಲಿಮಿಟೆಡ್	-4701
ಂುು	-4702
ದಿದೆ	-4703
ಷ್ಟೆ	-4704
▁ಅಪ್ಲಿಕೇಶನ್	-4705
▁ಸಂವಾದ	-4706
▁ದಾಖಲಿಸಿಕೊಂಡು	-4707
ರುಳ	-4708
▁ಬೆಲ	-4709
▁ಕಂಪನಿಯ	-4710
▁ಮದ್ಯ	-4711
▁ವಕ್ತಾರ	-4712
▁ನಗರದಲ್ಲಿ	-4713
▁ಎಐ	-4714
▁ಜಂಟಿ	-4715
▁ಧರಿಸ	-4716
▁ಭೂಮಿ	-4717
ರಾನ್	-4718
▁ಮೆಚ್ಚ	-4719
▁ಅಂಶಗಳು	-4720
▁ಸೋಂಕು	-4721
▁ಗಳಿಂದ	-4722
▁ಅಕ್	-4723
▁ಸೀತ	-4724
▁ಕಡೆಯ	-4725
▁ಕೇಳಿದ	-4726
▁ಪ್ರಶ್ನೆಗಳು	-4727
▁ಪ್ರಿಯ	-4728
▁ನೆಟ್	-4729
ಲಿಕ್ಕ	-4730
▁ಕಾದ	-4731
▁ಬೆಂಕ	-4732
▁ಒಬ್ಬರು	-4733
▁ಹ್ಯುಂಡೈ	-4734
▁ಒತ್ತಾಯಿಸಿದರು	-4735
▁ನಿಧಾನ	-4736
▁ಆಸ್ಟ್ರೇ	-4737
▁ರಾಜ್ಯಗಳ	-4738
ಕಾಲಿಕ	-4739
ಗೋಸ್ಕರ	-4740
▁ತಿಳಿಸಿವೆ	-4741
ನೊ	-4742
▁ಚಂದ	-4743
▁ಆರಂಭದಲ್ಲಿ	-4744
▁ಪದ್ಧ	-4745
ಲಿನಲ್ಲಿ	-4746
▁ಪ್ರಪಂಚ	-4747
ವರೇ	-4748
▁ಅನುಸರಿಸ	-4749
▁ಅನುಷ್ಠಾನ	-4750
▁ಒಟ್ಟಿಗೆ	-4751
▁ಜಾಮೀ	-4752
▁ಹೆಜ್ಜೆ	-4753
ಾತ್ಮ	-4754
▁ಜೋಡಿ	-4755
▁ಕೆಲಸದ	-4756
ಾಷನಲ್	-4757
▁ಬಿರು	-4758
▁ವರುಷ	-4759
ಸೇನೆ	-4760
▁ದುಬ	-4761
ಖ್ಯಾತ	-4762
▁ಮೂರ್	-4763
▁ಹಾಗೇ	-4764
▁ಹೆಗ್	-4765
▁ವಿಭಾಗದಲ್ಲಿ	-4766
ಲಿತ	-4767
▁ಬಣ್ಣದ	-4768
▁ಮುಂಚೆ	-4769
▁ವಿಸ್ತರಿಸ	-4770
▁ಆಗ್ರಹಿಸಿದರು	-4771
ಿಕಾರ	-4772
▁ಗೋವಾ	-4773
▁ಸರ್ಕಾರವು	-4774
▁ತಂಡವನ್ನು	-4775
▁ಒಳಗೆ	-4776
▁ಹಾಲು	-4777
▁ಹಂತದಲ್ಲಿ	-4778
▁ಶಬ್ದ	-4779
ಪಾಸ	-4780
ಾವತಿ	-4781
ಸಿಂಗ್	-4782
ಿಲ	-4783
▁ನಂ	-4784
ಗಾರರು	-4785
▁ಜನಸಂಖ್ಯ	-4786
▁ದೆಹಲಿಯಲ್ಲಿ	-4787
▁ಯೆಹೋವನಿಗೆ	-4788
▁ಕಂಡುಬಂದ	-4789
▁ಕಾರ್ಯಾಚರಣ	-4790
▁ಆಧಾರದ	-4791
▁ಡಾಲರ್	-4792
▁Home	-4793
▁ಯಾಜ	-4794
▁ಶಾಶ್ವ	-4795
▁ಆಗಿದ್ದ	-4796
al	-4797
ಿವಾ	-4798
▁ಸ್ಥಳದಲ್ಲೇ	-4799
ವಿಟ್ಟು	-4800
▁ಬಂದರು	-4801
▁ನಾನೂ	-4802
▁ಬಚ್ಚನ್	-4803
ಚಂದ್ರ	-4804
▁ಸುರಿಯ	-4805
▁ಆಂಡ್ರ	-4806
▁ಮಗನಾದ	-4807
▁ವಿಶ್ರ	-4808
ಮಾಣ	-4809
ಲೇಷ	-4810
ಜಿತ್	-4811
ಸ್ಥಾಪ	-4812
▁ಬ್ಯಾನ	-4813
ಬಿರ	-4814
▁ಆಗುವ	-4815
▁ಬಾಕಿ	-4816
▁ಶಿಫಾರಸು	-4817
ವಾದಿ	-4818
▁ನೆಹ	-4819
▁ಮಧು	-4820
▁ಪತ್ನ	-4821
▁ಇತ್ತೀಚಿನ	-4822
ಪಾನ	-4823
▁ಆಘಾತ	-4824
▁ದಿನೇಶ್	-4825
ತ್ತೂ	-4826
▁ಆದ್ಯತೆ	-4827
▁ಪಾಸ್	-4828
▁ಮುಸ್ಲಿಮ	-4829
ಸರಿ	-4830
▁ಸಮಾವೇಶ	-4831
▁ಜಾಮೀನು	-4832
▁2:	-4833
▁ಮಾಡ್ತ	-4834
ುತ್ತಿಗೆ	-4835
▁ವಚನ	-4836
ೇನ್	-4837
▁ಜನರಲ್	-4838
▁ಮುಂಬರುವ	-4839
▁ಕೊಠ	-4840
▁ಬಳಲ	-4841
ುವಿಕೆ	-4842
▁ಟ್ವಿಟರ್	-4843
ರೊ	-4844
▁ತೊಳೆಯ	-4845
▁ಬಹುಶಃ	-4846
ದೇಹ	-4847
▁ಆಸೆ	-4848
▁ಕಾಲು	-4849
▁ಪದಾರ್ಥ	-4850
ಡಲು	-4851
▁ಇನ್ಸ್	-4852
▁ಸುಖ	-4853
▁ಆರೋಗ್ಯಕರ	-4854
▁ನಿಯೋಜ	-4855
▁ಸಂಬಂಧಪಟ್ಟ	-4856
▁ಕೂಡಿ	-4857
▁ಶೌ	-4858
▁ಕಾಳಜಿ	-4859
▁ಸಮಾರಂಭದಲ್ಲಿ	-4860
▁ಬಿಐ	-4861
▁ಹೇಳಲು	-4862
▁ನೈಸರ್ಗಿಕ	-4863
ವಾದದ್ದು	-4864
▁ತಕ್ಷಣವೇ	-4865
▁ಕೆಲವೊಂದು	-4866
ರೋನಾ	-4867
▁ರಾಜೀವ್	-4868
▁ಅಶ್	-4869
▁ದಾಖಲು	-4870
▁ಇವ	-4871
ದುಕೊಂಡು	-4872
ಗಳೇನು	-4873
▁ಇರಲಿ	-4874
▁ಜಗತ್ತ	-4875
▁ಕೃತಜ್ಞ	-4876
▁ವಿರೋಧಿ	-4877
▁ನಿಮಿ	-4878
▁ವಿಭಾಗದ	-4879
▁ಕರ್ನಾಟಕದಲ್ಲಿ	-4880
▁ಯೆರೂ	-4881
▁ಕಂಡುಕೊಳ್ಳ	-4882
ಾಗುವುದು	-4883
ದಾಯಕ	-4884
ೆಂದ	-4885
▁ಮುದ್ರ	-4886
ಡಿಯಾ	-4887
▁ತರಗ	-4888
▁ಹಳ	-4889
ವಿನ್	-4890
▁ಕ್ರಮವಾಗಿ	-4891
▁ಹೊಂದಿದ್ದಾರೆ	-4892
ಿಸಿಕೊಳ್ಳುವ	-4893
ವಲ್	-4894
▁ಮಮ	-4895
▁ಚಲಾಯ	-4896
▁ಸ್ವಾಮೀ	-4897
▁ಗಂಡು	-4898
▁ತೀರ	-4899
▁ಅನಿಲ್	-4900
▁ಚಿಂತೆ	-4901
▁ಶಾಲೆಯ	-4902
▁ಸಂರಕ್ಷ	-4903
▁ಬಂದ್	-4904
▁ಆಶೀರ್ವಾದ	-4905
▁ಉಸ್ತುವಾರಿ	-4906
▁ತೆಲಂಗಾಣ	-4907
ಚ್ಚುಗೆ	-4908
▁ಅವಶ್ಯಕತೆ	-4909
▁ಇರಿಸ	-4910
▁ಘಟನೆಗಳು	-4911
▁ಕಲಿತ	-4912
▁ಮಂಜು	-4913
▁ಅಲ್ಲಿಗೆ	-4914
▁ತಂದು	-4915
▁ಅಂಗಡಿ	-4916
▁ಸ್ವತಂತ್ರ	-4917
ರಲ್ಲಿರುವ	-4918
ೇಕ್	-4919
▁ಬೆಳಕ	-4920
▁ತೆಗೆದುಕೊಂಡು	-4921
▁ಡೈ	-4922
ಹೆಚ್	-4923
▁ಕೂಗ	-4924
▁ಪರ್ವ	-4925
▁ಬೇಯ	-4926
ಸಲೇ	-4927
▁ಶಾರ	-4928
▁ಶೇಖ	-4929
▁ಹಂತದ	-4930
ಲ್ಪಡುವ	-4931
▁ಶಕ್ತಿಯನ್ನು	-4932
▁ಪರಿವರ್	-4933
▁ಶ್ರೀನಿ	-4934
▁ಸಾಕ್ಷಿ	-4935
ೋಹರ್	-4936
▁ಮಲಯ	-4937
ೆಸ್	-4938
or	-4939
▁ಭಾಗದಲ್ಲಿ	-4940
▁ದಾಖಲಿಸಿದ್ದಾರೆ	-4941
▁ಎಣ	-4942
▁ಉತ್ತರಿಸ	-4943
▁ಜಪಾನ್	-4944
▁ವಾಹನಗಳ	-4945
▁ಸುವಾರ್	-4946
▁ವಲ	-4947
ದಿತ್ತು	-4948
▁ಇದೆಲ್ಲ	-4949
ಬ್ಬರು	-4950
ಾಲಾ	-4951
ತೆಯಿದೆ	-4952
▁ತಡ	-4953
ಶ್ವರ್	-4954
▁ದೈಹಿಕ	-4955
▁ಧ್ವನಿ	-4956
▁ಸಂಸ್ಥೆಯು	-4957
ಟ್ಯೂ	-4958
್ರಹ್ಮ	-4959
▁ತ್ವರಿತ	-4960
▁ಕಿರುಕು	-4961
▁ಹಳ್ಳ	-4962
▁ಸೀಮಿತ	-4963
▁ಸಂಜೆ	-4964
▁ಸ್ಟ್ರ	-4965
ಕರಾಗಿ	-4966
ಕಾಯಿ	-4967
ಿಸ್ಟ್	-4968
▁ಬೆಳ್ಳಿ	-4969
ಶಾತ್	-4970
▁ಪ್ರಸ್ತಾವ	-4971
ದೆಯ	-4972
▁ಗೆಲ	-4973
▁ಅಬ್ದ	-4974
▁ಬಹುಮತ	-4975
▁ಸದಸ್ಯರ	-4976
▁ಹೇಳುತ್ತದೆ	-4977
▁ಬಿಳಿ	-4978
▁ನಂಬಿಗ	-4979
▁ಸೀತಾರ	-4980
ಾಯಿತಿ	-4981
▁ಆಕ	-4982
ಿಂದಾಗಿ	-4983
ಲಿಂಗ	-4984
ಾಂತ್ಯ	-4985
▁ಮೆಚ್ಚುಗೆ	-4986
ಮಿನ್	-4987
▁ಮಾಡ್	-4988
▁ದುಷ್ಟ	-4989
▁ಮಾಡಬಾರದು	-4990
ಿಲ್ಲದ	-4991
▁ಪ್ರಕಾಶ	-4992
▁ನಟಿಸಿದ್ದಾರೆ	-4993
▁ನಿಖರ	-4994
▁ಸಾಂಕ	-4995
▁ಪುನರಾವ	-4996
▁ಇರುವುದು	-4997
▁ಬೆಂಗಳೂರಿನಲ್ಲಿ	-4998
''	-4999
▁ಸಂಪ್ರದಾಯ	-5000
▁ಬಟ್ಟ	-5001
▁ಸೇವಾ	-5002
▁ದೇವರಾದ	-5003
▁ಬಂಡವಾಳ	-5004
▁ದೀಕ್ಷ	-5005
▁ಮಾಡಿತ್ತು	-5006
▁ಗೌಡ	-5007
▁ತಮಗೆ	-5008
▁ನಿರ್ಲಕ್ಷ	-5009
ವಶಾತ್	-5010
▁ಭಾವನೆ	-5011
▁ಅನಿವಾರ	-5012
▁ಸರಣಿಯಲ್ಲಿ	-5013
▁ರಾಜಧಾನ	-5014
▁ಹುದ್ದೆ	-5015
▁ದೇಶಾದ್ಯಂತ	-5016
▁ಟೀಕ	-5017
▁ತಯಾರಿ	-5018
ಸಾಧ್ಯವಿದೆ	-5019
▁ಛಾಯ	-5020
▁ಸಂಪಾದ	-5021
▁ಇದರೊಂದಿಗೆ	-5022
▁33	-5023
▁ರವೀ	-5024
▁ಜಾನ್	-5025
▁ಸ್ಯಾ	-5026
▁ಶ್ರೀಲಂಕಾ	-5027
ವಾನ್	-5028
ರ್ಜನ್ಯ	-5029
▁ಶಿಬಿರ	-5030
▁ಪ್ರಚೋದ	-5031
▁ಎರಡನೆಯ	-5032
▁ಮಾಡುತ್ತೇವೆ	-5033
▁m	-5034
▁ಸಂತ್ರ	-5035
▁ಒಳ್ಳೆಯದು	-5036
▁ಮಾಡಲಾಯಿತು	-5037
▁ಕೈಗೊಳ್ಳಬೇಕು	-5038
▁ಆಶ್ರ	-5039
ಿಯಾಗಿಲ್ಲ	-5040
▁ಕಾರನ್ನು	-5041
ಿಸುತ್ತಿಲ್ಲ	-5042
▁ಸ್ಕೂಟರ್	-5043
ಗಿದೆ	-5044
▁ಮಠ	-5045
▁ಅಲೆ	-5046
▁1:	-5047
ಮರ್	-5048
▁ವಿನಿ	-5049
▁ಮೃತದೇಹ	-5050
▁ಪಾಟೀಲ್	-5051
ರನ್	-5052
▁ಕರೆಯಲಾಗುತ್ತದೆ	-5053
ರಲಿದೆ	-5054
▁ಎಂಬುದರ	-5055
▁ಮಾಡಲಾಗಿತ್ತು	-5056
▁ಪೇತ್ರ	-5057
ದ್ದನ್ನು	-5058
▁ಬರೆದಿದ್ದಾರೆ	-5059
▁ನಾಯ್	-5060
ಾಗುವುದಿಲ್ಲ	-5061
▁ಯಂತ್ರ	-5062
ಶತ	-5063
ಶಾಂತ್	-5064
▁ಹರಿದ	-5065
▁ಸ್ಥಳೀಯರು	-5066
ಪೀ	-5067
▁ದೌರ್ಜನ್ಯ	-5068
▁ವ್ಯಾಪ್ತಿಯಲ್ಲಿ	-5069
▁ಕೈಗೊಂಡಿದ್ದಾರೆ	-5070
ಂದಿರ	-5071
▁ಬಗೆಯ	-5072
▁ಷೇ	-5073
▁ಅವಶ್ಯಕ	-5074
ಿಯಲ್ಲ	-5075
▁ಯಾಕಂದರೆ	-5076
▁ಇಚ್ಛ	-5077
▁ಅಧಿಕಾರಿಗಳಿಗೆ	-5078
ಾದೇಶ	-5079
▁ಜಗಳ	-5080
▁ಬಜ	-5081
▁ವರಿಷ್ಠ	-5082
▁ಆಸ್ಟ್ರೇಲಿಯ	-5083
▁ತಡೆಗಟ್ಟ	-5084
▁ವಹಿವಾ	-5085
▁ಬ್ಯಾಟ್ಸ್	-5086
▁ಪಕ್ಷಕ್ಕೆ	-5087
ಶ್ಚಿತ	-5088
ತೊಡಗ	-5089
ಾನಾ	-5090
ಬದ್ಧ	-5091
▁ಆಗಿದ್ದಾರೆ	-5092
▁ಲಂಡನ್	-5093
ಲೋಕ	-5094
ಲೇಬೇಕು	-5095
▁ವಾಹನಗಳು	-5096
▁ಇರಬಹುದು	-5097
▁ಹಿಂಸಾಚಾರ	-5098
▁ಸ್ಪಷ್ಟವಾಗಿ	-5099
▁ಕಲ್ಲು	-5100
▁ಯೋಗ್ಯ	-5101
▁ಶರ್ಮ	-5102
▁ಆಗಿದ್ದು	-5103
▁ಸ್ತ್ರೀಯ	-5104
ುತ್ತಿ	-5105
▁ತೂ	-5106
▁ಮಹಿಳೆಯರಿಗೆ	-5107
▁ಭಕ್ತರು	-5108
▁ನಿಕ	-5109
▁ಡಿಜಿಟಲ್	-5110
▁ಸಿನಿಮಾಗಳ	-5111
▁ಅವಿ	-5112
ೊಬ್ಬರ	-5113
▁ಅಭ್ಯರ್ಥಿಗಳ	-5114
‍ಗೆ	-5115
ವರ್ಧ	-5116
ಿಕೊಂಡಿದೆ	-5117
▁ಅಬ್ದು	-5118
▁ಎದ್ದು	-5119
▁ಜೊತೆಯ	-5120
▁ಪೌರತ್ವ	-5121
▁ಸುಧಾರಣೆ	-5122
▁ಪ್ರಧಾನಮಂತ್ರ	-5123
▁ಬೀರ	-5124
▁ನೊಂದಿಗೆ	-5125
ಬಲ್ಲದು	-5126
ೊತ್ತ	-5127
ದಿಯಲ್ಲಿ	-5128
▁ನಾಲ್ಕನೇ	-5129
▁ಕಾಶ್ಮೀರದ	-5130
▁ಸಂಸ್ಥೆಗಳ	-5131
▁ನಮೂ	-5132
ುತ್ತಿರುವುದ	-5133
▁400	-5134
▁ಹರಿಸ	-5135
▁ಕೈಗಾರ	-5136
▁ಸ್ಕ್ರ	-5137
ವಿರುತ್ತದೆ	-5138
▁ಪಂದ್ಯಗಳಲ್ಲಿ	-5139
▁ಸಿಕ್ಕಿಲ್ಲ	-5140
▁ಬದಲಿಗೆ	-5141
ೂಲ್ಯ	-5142
▁ಆಗ್	-5143
▁ತಾನೇ	-5144
ಹೋ	-5145
▁ಅಂತರರಾಷ್ಟ್ರೀಯ	-5146
▁ಒಕ್ಕೂ	-5147
ಂಜ್	-5148
▁ಸಹಿ	-5149
21	-5150
▁ಮಾಡು	-5151
▁ಸ್ವರೂ	-5152
▁ಪುತ್ರಿ	-5153
▁ಪರ್	-5154
▁ಸವಾರ	-5155
▁ತೆಗೆಯ	-5156
▁ಕುಟುಂಬಕ್ಕೆ	-5157
▁ಸಂದರ್ಭಗಳಲ್ಲಿ	-5158
ಪಾದ	-5159
ರಲ್ಲ	-5160
▁ವಿನಿಮಯ	-5161
▁ದಾನ	-5162
▁ಇದಕ್ಕೂ	-5163
▁ಫ್ರೆ	-5164
▁ವಿಧೇಯ	-5165
ೈಕ	-5166
ಂಚು	-5167
ಟಿವ್	-5168
ದಂಡ	-5169
▁ಕ್ಯಾಮ	-5170
▁ಮೆಣಸು	-5171
▁ಕೇಂದ್ರದ	-5172
▁ಮಾತಾ	-5173
▁ಲೀಗ್	-5174
ಕೊಟ್ಟ	-5175
▁ಹೋಗಲು	-5176
▁ಯೆರೂಸಲೇ	-5177
▁ಮೊದಲಾದ	-5178
▁ರಾಜ್ಯಗಳಲ್ಲಿ	-5179
▁ಆಕ್ರಮ	-5180
▁ನಿರೂಪ	-5181
▁ಫಾರ್ಮ	-5182
ದ್ದಾಗಿದೆ	-5183
▁ಅಸಾಧ್ಯ	-5184
▁ಪೂರೈಕೆ	-5185
ತನದ	-5186
ನೆಟ್	-5187
▁ಸೇನೆ	-5188
▁ಪ್ರಜಾಪ್ರಭುತ್ವ	-5189
ತ್ತೆ	-5190
▁ರುಚ	-5191
ೇಕ್ಷ	-5192
▁ಅಸ್ಸ	-5193
▁ಜ್ಞಾನೋಕ್ತಿ	-5194
▁ಊಹ	-5195
▁ಮಾಡುತ್ತೇನೆ	-5196
▁ಏನೆ	-5197
▁ಶಕ್ತ	-5198
▁ನ್ಯೂಜಿಲೆಂಡ್	-5199
ತಿಯಿಂದ	-5200
▁ಸೌಂದ	-5201
▁ಇಮ್ರಾನ್	-5202
ಯಿತು	-5203
▁ಬೈಬಲ	-5204
▁ಸಿಡ	-5205
▁ಪ್ರಶ್ನೆಗಳಿಗೆ	-5206
ತಾತ್ಮ	-5207
▁ದಾಖಲಿಸಿ	-5208
▁ವೇಗವಾಗಿ	-5209
▁ಕುರು	-5210
▁ಟಾಪ್	-5211
ದಿಂದಲೇ	-5212
▁ಅಭಿವೃದ್ಧಿಗೆ	-5213
ುವುದೇ	-5214
▁ಬಾಕ್ಸ್	-5215
▁ಮರಣೋತ್ತರ	-5216
▁ಅಹ್ಮ	-5217
▁ಪ್ರೇಕ್ಷ	-5218
▁ನೀಡಲಾಗುತ್ತಿದೆ	-5219
ಗಮ	-5220
ಪಿಸಿಸಿ	-5221
ಾಂಗಣ	-5222
ೇಬಲ್	-5223
▁ಬಿದ್ದು	-5224
ಕಥ	-5225
▁ಆಂಧ್ರಪ್ರದೇಶ	-5226
▁ಕುಳ	-5227
▁ಪುಟ್ಟ	-5228
▁ಕಳೆದುಕೊಳ್ಳ	-5229
▁ಘಟನೆಗೆ	-5230
▁ಸಮಿತಿಯ	-5231
ಲಾಸ್	-5232
▁ಮಹೇಶ್	-5233
▁ನೀಡಲಾಗುವುದು	-5234
▁ರುಪ	-5235
ವಿಚಾರ	-5236
▁ಇಷ್ಟು	-5237
▁ಿ	-5238
▁ಗುಪ್ತ	-5239
▁ಯೇಸುವ	-5240
ಾಜಿ	-5241
▁ಖರೀದಿ	-5242
▁ಬರಲಿದೆ	-5243
ೆಯಿದೆ	-5244
ಸಿಸ್	-5245
▁ಅಭಿಮಾನಿಗಳು	-5246
▁ಕಬ್ಬ	-5247
ಚರ	-5248
ಂತಿದೆ	-5249
ಪಟ್ಟು	-5250
▁ಮಾಡಬೇಡಿ	-5251
▁ನ್ಯಾಯಾಲಯದ	-5252
▁ವಿಜೇತ	-5253
ಕಂಪ	-5254
▁ಬೀಸ	-5255
ಿದ್ದನು	-5256
▁ಅಂಶಗಳನ್ನು	-5257
▁ನೀವೇ	-5258
▁ಸ್ವಿ	-5259
▁250	-5260
ಜೀವನ	-5261
▁ಶರೀ	-5262
ೇದ	-5263
ಮುಖ್ಯ	-5264
▁ಸರಕಾರಿ	-5265
▁ವಿದೇಶಿ	-5266
▁ಕಾರಣಕ್ಕೆ	-5267
▁ನಾವೆಲ್ಲರೂ	-5268
▁ಸ್ಫೋಟ	-5269
ಿಟ್ಟ	-5270
ಬೇಕೆಂಬ	-5271
▁ಯೋಹಾನ	-5272
ಿರುಗ	-5273
▁ಕ್ಕೂ	-5274
▁ಪರ್ಯ	-5275
▁ಉಪಕರಣ	-5276
▁ಪ್ರಬಲ	-5277
▁ಭೌ	-5278
▁ವ್ಯವಸ್ಥೆಯನ್ನು	-5279
▁ಅಮಾನ	-5280
▁ಸ್ವಾಮೀಜಿ	-5281
್ರಾಮ	-5282
▁ಸ್ಪೀಡ್	-5283
▁ಬಂಧಿಸಿ	-5284
ಪಡುವ	-5285
▁ಕೋಲ್ಕ	-5286
▁ಕಚೇರಿಯ	-5287
▁ಸಂಶೋಧನೆ	-5288
▁ಹರ್ಷ	-5289
್ಯಾಲ	-5290
ಳುವ	-5291
30	-5292
▁ಚಿತ್ತ	-5293
▁ಸೌಂದರ್ಯ	-5294
▁ಆಮ್	-5295
ಣ್ಣಿನ	-5296
▁ಧವನ್	-5297
▁ನೋಡಿದ	-5298
▁ಸಂಘದ	-5299
▁ರಾಜನಾಥ್	-5300
▁ಇದನ್ನೂ	-5301
▁ಪಡೆದಿದೆ	-5302
▁ಹುತಾತ್ಮ	-5303
ಿದಾರ	-5304
▁ಪದೇ	-5305
▁ಬೆರೆ	-5306
▁ವೆಂಕ	-5307
▁ಇಳಿಕೆ	-5308
▁ಹುಡುಕಾ	-5309
▁ಪರೀಕ್ಷಾ	-5310
▁ಲ್ಯಾ	-5311
▁ಕಿರುಕುಳ	-5312
▁ಯಾಕೋ	-5313
ರಿಕೊಂಡ	-5314
▁ನ್ಯಾಷನಲ್	-5315
▁ಪ್ರಾರ್ಥನೆ	-5316
▁ಮೋಸ	-5317
▁ಚಕ್ರ	-5318
▁ನಿಂತು	-5319
▁ಇಲ್ಲದೆ	-5320
ಿಯಾಗಿರುವ	-5321
ಡಿಂಗ್	-5322
▁ಒಂದಾಗಿದೆ	-5323
▁ಆಂಡ್ರಾಯ್ಡ್	-5324
ಿಯರ್	-5325
▁ಸಾಕ್ಷಿಗಳ	-5326
▁ಗುಂಡಿನ	-5327
▁ವಾಪಸ್	-5328
ೃದ್ಧಿ	-5329
▁ಸಂಭವಿಸಿದೆ	-5330
▁ಪ್ರತಿಷ್ಠ	-5331
▁ಮೂಲಸೌ	-5332
▁ಇಂಡೀಸ್	-5333
▁ಅಸ್ತಿತ್ವ	-5334
ಕಾರ್ಯ	-5335
▁ದಂಪತಿ	-5336
▁ಇನ್ನಿತರ	-5337
▁ಪರಿಶುದ್ಧ	-5338
▁ಶಿಕ್ಷಕರು	-5339
▁ದೇವರನ್ನು	-5340
▁ತಗ್ಗ	-5341
▁ಕಾಲೇಜಿನ	-5342
ರಿಗ	-5343
▁ಪ್ರಸಾರ	-5344
▁ದಿನಾಚ	-5345
ಿತಿಗೆ	-5346
▁ಸಂತಾಪ	-5347
"""	-5348
▁ವ್ಯಾಪಕ	-5349
▁ಕೆಪಿಸಿಸಿ	-5350
▁ಕುರಿತಾದ	-5351
▁ನೀಡುವುದ	-5352
▁ಮಾಡಲಿಲ್ಲ	-5353
▁ನಿರ್ದೇಶನದ	-5354
▁ಆಮೇಲೆ	-5355
ಲಾಕ್	-5356
ರುವುದಾಗಿ	-5357
▁ತಿಳಿದುಬಂದಿದೆ	-5358
▁ಮಾತನ್ನು	-5359
▁ಶರಣ	-5360
▁ಸಂಕೀರ್ಣ	-5361
▁ಪೈಪೋಟಿ	-5362
ಪ್ರಿಲ್	-5363
▁ಆಮ	-5364
ನವನ್ನು	-5365
▁B	-5366
ಾಣಿಕ	-5367
▁ಕಣಕ್ಕಿಳ	-5368
▁ಶಿಖ	-5369
▁ಇವರಿ	-5370
▁ವಸತಿ	-5371
ಿಯನ್ಸ್	-5372
ಕಿಂಗ್	-5373
ುವಲ್ಲಿ	-5374
▁ರನ್ನು	-5375
ದ್ದಿ	-5376
▁ಕೆಡ	-5377
ಾಮನ್	-5378
▁ನನಗೂ	-5379
▁ಕೊಬ್ಬ	-5380
▁ಕಾಣಬಹುದು	-5381
ಗತ್ಯ	-5382
▁ಏನಾದರೂ	-5383
ರಾದರು	-5384
▁ಸಿಕ್ಕಿದೆ	-5385
▁ಭಾಷೆಗಳಲ್ಲಿ	-5386
▁ಮಸೂದೆ	-5387
▁ಹೊಂದಿ	-5388
▁ಬಂಧಿಸಲಾಗಿದೆ	-5389
ದಾರ್	-5390
ಿನಲ್	-5391
▁ತಾಪಮಾನ	-5392
▁ಸೈನ್ಯ	-5393
▁ಎಸೆತ	-5394
▁ಸಿಟಿ	-5395
▁ಸ್ವರ್ಗ	-5396
▁ಗೆಲುವಿನ	-5397
▁ವೈವಿ	-5398
ರವಣಿಗೆ	-5399
▁ನಿವಾಸ	-5400
▁ಯೋಜನೆಯನ್ನು	-5401
▁ಶುರು	-5402
▁ತನ್ನನ್ನು	-5403
ನನಗೆ	-5404
ೇರ್	-5405
ಗಳಲ್ಲ	-5406
▁ನಿರಂತರವಾಗಿ	-5407
▁ತನಗೆ	-5408
ೊಂದಿಗಿನ	-5409
▁ದಿಲ್ಲಿ	-5410
▁G	-5411
ಗೊಳಿಸುತ್ತದೆ	-5412
ಲಾಗಿ	-5413
▁ಕ್ರೀಡೆ	-5414
ಿಸಿದ್ದಾನೆ	-5415
▁ಮಲಯಾಳಂ	-5416
▁ಆಕಾಶ	-5417
▁ಲಕ್ಷ್ಮ	-5418
▁ಅಪಾಯಕಾರಿ	-5419
di	-5420
▁ಭಾಷೆಯ	-5421
▁ಸಹೋದರಿಯ	-5422
ಮೋಹ	-5423
▁ಮಿತಿ	-5424
▁ಶ್ರೇಯ	-5425
▁ಜಾಹ	-5426
▁ಮುರ	-5427
▁ಡಿಕ್ಕಿ	-5428
▁ಅವರೂ	-5429
ಡನ್	-5430
▁ಕಂಪೆನಿ	-5431
▁ಸೈಟ್	-5432
ತ್ರಿಯ	-5433
ತಿಯಾಗಿ	-5434
ರೆಂದು	-5435
▁ಜೇಟ್	-5436
ಿಸುವರು	-5437
▁ಕುರಿತಾಗಿ	-5438
▁ಪ್ರಶ್ನಿಸಿದರು	-5439
ಾಸಿ	-5440
ಗಿಂತಲೂ	-5441
ಿದ್ದರಿಂದ	-5442
▁ಕಚ್ಚ	-5443
▁ನೆರವ	-5444
▁ಶೈಕ್ಷಣ	-5445
▁ಅದೂ	-5446
▁ಬಂದಾಗ	-5447
ಪಡೆ	-5448
ಎಂದು	-5449
▁ಅಪರೂಪ	-5450
▁ಮಧ್ಯಮ	-5451
▁ಯೆಹೋವ	-5452
▁ಸ್ಟೇಟ್	-5453
▁ಆಕ್ಷೇಪ	-5454
▁ಮುಖ್ಯವಾಗಿ	-5455
▁ಮೋಹನ್	-5456
▁ಶ್ರದ್ಧ	-5457
ವಾದರೂ	-5458
ವಾಸ್	-5459
▁125	-5460
▁ಟಾಸ್	-5461
▁ದ್ವೀ	-5462
▁ಶಿಕ್ಷಕ	-5463
ನಿಗೂ	-5464
▁ಅಶೋಕ್	-5465
▁ಸನ್ಮಾನ	-5466
▁ಮನವ	-5467
▁34	-5468
ಗಳೆಂದರೆ	-5469
▁ಹಿಂಭಾಗ	-5470
▁ಗ್ರಾಮಾಂತರ	-5471
ಾವಧ	-5472
▁ಪಾಲುದಾರ	-5473
ರುವುದನ್ನು	-5474
▁ಖಂಡಿತವಾಗಿಯೂ	-5475
▁ಕ್ರೆ	-5476
▁ದಯವಿಟ್ಟು	-5477
▁ಕುಲ	-5478
▁ಪಕ್ಷಗಳ	-5479
▁45	-5480
▁ಏಷ್ಯ	-5481
▁ಸರಕು	-5482
▁ಸಾರ್ವಜನಿಕರು	-5483
▁ಮಟ್ಟಿಗೆ	-5484
ಂಜಿನಿಯರಿಂಗ್	-5485
ಟ್ಟುಕೊಳ್ಳ	-5486
▁ಕಾರ್ಯಕರ್ತರ	-5487
▁ಬರಹ	-5488
▁ಮುಳು	-5489
▁ಬರೋ	-5490
▁ಆಗಲಿಲ್ಲ	-5491
▁ದೇಶವನ್ನು	-5492
ವೇದ	-5493
▁ಕತೆ	-5494
▁ಸಲುವಾಗಿ	-5495
▁ತಿಳಿದಿಲ್ಲ	-5496
▁ನಿರ್ಮಲಾ	-5497
▁ಬಾಯ	-5498
▁ವಂದ	-5499
▁ಹರಡ	-5500
▁ಗ್ರಂಥ	-5501
▁ಸ್ವಯಂ	-5502
ುವುದಾಗಿ	-5503
ಡ್ಡೆ	-5504
▁ಮಮತಾ	-5505
▁ಕಟ್ಟು	-5506
▁ಪಾವತಿ	-5507
▁ಮಾತಿನ	-5508
▁ಅನಿವಾರ್ಯ	-5509
▁ದಲ್ಲಿ	-5510
ೊಂದನ್ನು	-5511
ಿಸಬಾರದು	-5512
▁ಕೊರೋನಾ	-5513
▁ಗೊತ್ತಾ	-5514
▁ಬಗ್ಗೆಯೂ	-5515
▁ವಿಶ್ಲೇಷ	-5516
▁ಮಾಡಿಕೊಂಡು	-5517
▁ಕೇಸ್	-5518
▁ಹತ್ತು	-5519
▁90	-5520
ರಿಲ್ಲ	-5521
ಾಯಿಂಟ್	-5522
▁ಆಫ್ರಿಕ	-5523
▁ಡಿಗ್ರಿ	-5524
▁ಸಂಕೇತ	-5525
▁ಬೆದರಿಕೆ	-5526
▁ರವಾನ	-5527
ಗ್ನ	-5528
ೃತಿಯ	-5529
▁ಅಂತಾ	-5530
▁ನಂತರದ	-5531
ಿಸಬೇಕೆಂದು	-5532
▁ಸಮಯವನ್ನು	-5533
▁ದಾಖಲಾಗಿದ್ದು	-5534
ರೋಧಕ	-5535
ಿಸದೆ	-5536
▁ಅನ್	-5537
▁ಅನಂತರ	-5538
▁ಚಂದ್ರಶೇಖ	-5539
▁ವಿರುದ್ದ	-5540
▁ಮಲಗ	-5541
ಗೊಂಡು	-5542
▁ಪೋಲ	-5543
▁ಜನತೆ	-5544
▁ಶತಕ	-5545
▁ಸ್ಫ	-5546
▁ಟೂರ್ನ	-5547
▁ಪಡು	-5548
▁ನೀಡಲಾಗುತ್ತದೆ	-5549
▁ಮಾಲೀ	-5550
▁ಪ್ರೇಮ	-5551
▁ಉತ್ಸಾಹ	-5552
ಹನ	-5553
▁ಬಂಧಿತ	-5554
▁ಉಂಟುಮಾಡ	-5555
ಪಡಿಸಲಾಗಿದೆ	-5556
▁ಸವಾಲ	-5557
ಪಕ್ಷೀಯ	-5558
▁ಮಾತನಾಡಿದರು	-5559
ವದ	-5560
▁ಸೌಕರ್ಯ	-5561
▁ದಳ	-5562
▁ಪಂಚಾಯತ್	-5563
▁ಹೇಳಲಾಗಿದೆ	-5564
▁4:	-5565
▁ನಡೆಯುತ್ತಿರುವ	-5566
▁ಹತ್ಯ	-5567
▁ಸಿಗುತ್ತದೆ	-5568
▁ಮಾಲಿ	-5569
▁ನೀಡಿದ್ದು	-5570
▁ಚೀನಾದ	-5571
▁ಒಟ್ಟಾರೆ	-5572
▁ವಿಟಮಿನ್	-5573
▁ಹದ	-5574
ರಾಗಿರುವ	-5575
▁ಹಸ	-5576
ಸ್ಮ	-5577
▁ವರ್ಗಾವಣೆ	-5578
▁ಹೆಚ್ಚಾಗಿದೆ	-5579
ಾವಕಾಶ	-5580
▁ಮಿಲಿಯನ್	-5581
ಕಟ್ಟು	-5582
ದಷ್ಟು	-5583
▁ಪಾತ್ರವನ್ನು	-5584
ಳನ್ನು	-5585
▁ಪರ್ವತ	-5586
▁ರಾಜ್ಯಾ	-5587
▁ಫ್ರಾನ್ಸ್	-5588
▁ಮುಂದುವರೆಸ	-5589
ಎಂಸಿ	-5590
▁ಅದರಲ್ಲೂ	-5591
▁4.	-5592
▁ಅಸಹ	-5593
▁ಪತ್ರಿಕೆ	-5594
ಾಗಬಹುದು	-5595
ಕಾಂ	-5596
▁ಒಲಿ	-5597
▁ಕ್ರಿಕೆಟಿಗ	-5598
ಿಡ	-5599
▁ನೊ	-5600
▁ಇವುಗಳ	-5601
▁ಮೂಲಸೌಕರ್ಯ	-5602
ಪೂ	-5603
▁ಉತ್ಪಾದನೆ	-5604
▁ತರಕಾರಿ	-5605
▁ಜಾಲತಾಣಗಳಲ್ಲಿ	-5606
▁ಕಂಪ್ಯೂ	-5607
▁ಕತ್ತರಿಸಿ	-5608
▁ಪ್ರವಾಸಿಗರು	-5609
▁ಐಶ್ವರ್	-5610
ಂಟನ್	-5611
▁ಪದ್ಮ	-5612
▁2,	-5613
ುದನ್ನು	-5614
▁ಸಿಸ್ಟ	-5615
▁ಎಂಥ	-5616
▁ವಿಂಡ	-5617
ಿಕೆಯಿಂದ	-5618
ಚಲ	-5619
ೊನಾಲ್ಡ್	-5620
ಸಮ	-5621
▁ಬಾಗ	-5622
▁ಜನರಲ್ಲಿ	-5623
▁2016	-5624
▁ಸಮಾಜದ	-5625
ಗದ	-5626
ಗಿತ್ತು	-5627
▁ವಿಷಯಗಳು	-5628
▁ಇಗೋ	-5629
▁ಉಗ್ರರ	-5630
▁ನನ್ನು	-5631
▁ಅವಳಿಗೆ	-5632
ಾರೋಗ್ಯ	-5633
▁ಮೊದಲೇ	-5634
ಝ್	-5635
▁ಜಮ	-5636
▁ತತ್ವ	-5637
▁ಮೆಗಾ	-5638
▁ದೊರೆತ	-5639
▁ಸುನ	-5640
▁ಮಾಡಿದರೆ	-5641
▁ಅಶ್ವ	-5642
ಗೊಳಿಸಿದ	-5643
▁ಓಡಿ	-5644
▁ಇಸ್ರಾಯೇಲಿನ	-5645
▁ಮಣಿ	-5646
ಿಸದ	-5647
▁370	-5648
▁ಸಂಭಾವ	-5649
▁ತಮ್ಮನ್ನು	-5650
ಜೆಪಿ	-5651
▁ಓಪ	-5652
▁ಮಲ್ಲಿ	-5653
▁ಸೆಳೆಯ	-5654
▁ಯಾವತ್ತೂ	-5655
▁ಸೇರ್ಪಡೆ	-5656
ಷ್ಮಾ	-5657
ವರಾಗಿ	-5658
▁ಎಂಟು	-5659
ಣದ	-5660
ರವ್	-5661
▁ಇದ್ದು	-5662
▁ವ್ಯವಹಾರಗಳ	-5663
▁ಪರಿಷ	-5664
▁ಉರಿಯ	-5665
▁ಕುಳಿತು	-5666
▁ದೃಷ್ಟಿಕ	-5667
▁ಕೂದಲು	-5668
▁ಮೊಟ್ಟ	-5669
▁ಶೂಟಿಂಗ್	-5670
ರಾಜ್ಯ	-5671
▁ಮೆಟ್ರ	-5672
▁ಬಾಗಿಲು	-5673
ಿಸುವುದಾಗಿ	-5674
▁ಭಾಷೆಯಲ್ಲಿ	-5675
▁ಮೌನ	-5676
▁ಸಂಖ್ಯೆಯ	-5677
▁ಶರ	-5678
▁ರಾಯ್	-5679
ಗೊಳಿಸಿದೆ	-5680
▁ಯೋಗಿ	-5681
▁ರಸ್ತೆಯಲ್ಲಿ	-5682
▁ಹೊರಟ	-5683
▁ಚಾಲಕನ	-5684
▁ಗುರುತು	-5685
▁ಮಾಡಲಾಗುವುದು	-5686
ಶ್ಚಯ	-5687
▁ಗೆಲುವ	-5688
▁ಸುರಕ್ಷತೆ	-5689
▁ಸೇವೆಯನ್ನು	-5690
▁ರೊ	-5691
ೊಡನೆ	-5692
▁ಧಾವ	-5693
▁ಅದಕ್ಕ	-5694
ುತ್ತಿರುವುದು	-5695
▁ಭಗ	-5696
▁ಡೇವಿಡ್	-5697
▁ನಂಬಿಗಸ್ತ	-5698
▁ಪುರಾ	-5699
▁ಅಭಿಯಾನ	-5700
ವಾಗಬಹುದು	-5701
▁ಜರ್	-5702
▁ಆನಂದ್	-5703
▁ಬಾಂಧ	-5704
▁ಲಕ್ಷಾಂತರ	-5705
▁ಪರಿಸ್ಥಿತಿಯನ್ನು	-5706
ವಾದವು	-5707
▁ಫಿಲಿ	-5708
▁ಹಾಲಿ	-5709
▁ಸಾಮರ್ಥ್ಯವನ್ನು	-5710
▁ಕೈಗೊಳ್ಳಲಾಗುವುದು	-5711
▁ಕ್ರೈಸ್ತರು	-5712
▁ಸ್ಪೀಕರ್	-5713
ಿಂಗ್ಸ್	-5714
▁ಪವಿತ್ರಾತ್ಮ	-5715
▁ಕಂಬ	-5716
▁ನೀಡುವಂತೆ	-5717
▁ಮುಂದುವರೆಯ	-5718
▁36	-5719
▁ಹಗರಣ	-5720
▁ಸಲ್ಲಿಸಿದ್ದಾರೆ	-5721
▁ಈತ	-5722
▁ಅಯ್ಯ	-5723
10	-5724
▁ಪ್ರೌ	-5725
ರೋಪ	-5726
▁ಸಂಶೋಧನಾ	-5727
▁ಸಾಂಪ್ರದಾಯ	-5728
ಚನೆ	-5729
▁ದತ್ತ	-5730
▁ಮಿತ್ರ	-5731
▁ಹೆಮ್ಮೆ	-5732
▁ಹುಡುಕಾಟ	-5733
▁ದೇಶಗಳಲ್ಲಿ	-5734
ಬೀರ್	-5735
▁ಗುಣಮಟ್ಟದ	-5736
ಮುತ್ತ	-5737
ವಾದರೆ	-5738
▁ಪತ್ರಿಕ	-5739
▁ಬುದ್ಧಿ	-5740
ಚಕ್ರ	-5741
ದೊಂದು	-5742
▁ಶಿವಸೇನೆ	-5743
ಶ್ರೂಷ	-5744
ರೇಷನ್	-5745
ಂಟೆ	-5746
▁ಬಿಗಿ	-5747
ಾಗಲಿಲ್ಲ	-5748
▁ಎಸ	-5749
▁ಅರೆ	-5750
ಸನ್ನು	-5751
▁ದ್ವಿತ	-5752
▁ಸಕಾರಾತ್ಮಕ	-5753
▁ಬರಲಿಲ್ಲ	-5754
▁ಸಹಜವಾಗಿ	-5755
ಷ್ಠಿಯಲ್ಲಿ	-5756
ವಾಗಿದ್ದಾರೆ	-5757
ಭಿವ	-5758
ಸಂಗ	-5759
▁ಶತ್	-5760
▁ಮಂತ್ರ	-5761
▁ಮದುವೆಯಾಗ	-5762
▁ತಾಲ್ಲೂ	-5763
▁ಬರುವುದಿಲ್ಲ	-5764
▁3.	-5765
▁ಹಾಳ	-5766
▁ಜೇಟ್ಲಿ	-5767
▁ಭರವಸ	-5768
▁ಮಾಡುವಂತೆ	-5769
▁ಸಂದರ್ಶ	-5770
▁ಅಸ್ವಸ್ಥ	-5771
▁ಶೈಕ್ಷಣಿಕ	-5772
ೀಮ್	-5773
▁ಪಟ್ಟು	-5774
ಜ್ಞಾನಿಕ	-5775
▁ಸಮೂಹ	-5776
ಶಾಯ	-5777
ಡ್ಸ್	-5778
▁ಹೊಳ	-5779
st	-5780
▁ಮೂಡಿ	-5781
▁ಸೋಮ	-5782
ವೇಳೆ	-5783
▁ಎನ್ಎಂ	-5784
ೋನ್	-5785
ರ್ಚ್	-5786
▁1.5	-5787
▁ಸಾಧ್ಯವೇ	-5788
ೇನೂ	-5789
▁ಲೂ	-5790
ಲ್ಲಿನ	-5791
ಿಂದಲೂ	-5792
▁ಶಾಲೆಗೆ	-5793
▁ಆಚರಣೆ	-5794
▁ಸ್ಥಾನವನ್ನು	-5795
▁ಪಾಯಿಂಟ್	-5796
▁ಮೇಲ್ವಿಚಾರ	-5797
ರಿಕಾ	-5798
ದೂ	-5799
ಾಂತರಿಸ	-5800
▁ರಂಜ	-5801
▁ಅತಿದ	-5802
▁ತಿಂಗಳಲ್ಲಿ	-5803
▁ಪ್ರತಿಪಕ್ಷ	-5804
▁ಪಂ	-5805
▁ಮುಗಿದ	-5806
್ಯಾಗ್	-5807
▁ಸಹಿತ	-5808
ಿದ್ದಳು	-5809
ಿಸಬೇಕಾದ	-5810
▁ಶ್ರೀಮಂತ	-5811
▁ಕಾರ್ಯಕ್ರಮಗಳು	-5812
ೂಕು	-5813
▁ಲು	-5814
▁ಪ್ರಯಾಣಿಕರು	-5815
ಬ್ಬರೂ	-5816
ಪಿಸಿ	-5817
▁ಅನಾರೋಗ್ಯ	-5818
▁ಚುನಾವಣೆಯ	-5819
▁ಅಪಘಾತದಲ್ಲಿ	-5820
▁ಘಟಕದ	-5821
▁ಟೀಕೆ	-5822
▁ಹಿನ್ನೆಲೆ	-5823
▁ಪರಿಪೂರ್ಣ	-5824
▁ಸಚಿವಾಲಯದ	-5825
▁ಮೌಲ್ಯದ	-5826
ಿಕರ	-5827
▁ಸುಲ	-5828
▁ಹಲವರು	-5829
▁ಮೊದಲನೆಯ	-5830
ಿಯರ	-5831
ೇಜನ	-5832
▁ಪ್ರಶ್ನೆಗಳನ್ನು	-5833
ಿಸಬೇಡಿ	-5834
ಗೊಂಡಿತು	-5835
▁ಆಕೆಯನ್ನು	-5836
▁ಅಕ್ಷಯ್	-5837
▁ಪರೀಕ್ಷೆಗೆ	-5838
▁ಸೀತಾರಾಮನ್	-5839
ಫಿಕ್	-5840
▁ನುಡ	-5841
▁ಮತ್ತೊಬ್ಬ	-5842
▁ಮಾಯ	-5843
▁ಪ್ರೌಢ	-5844
▁ಕಂಗ	-5845
▁ಗಿಡ	-5846
▁ಮಸೀ	-5847
▁ಹಣದ	-5848
▁ಹೊರಟು	-5849
ಗಾರರ	-5850
▁ತಪಾಸ	-5851
ಸ್ಪೂನ್	-5852
ವಿರಲಿಲ್ಲ	-5853
▁ದೋ	-5854
ಸಾಮಾನ್ಯ	-5855
ಿಯಾಗಿದ್ದು	-5856
ಿಸ್ಮ	-5857
▁ಕಲಾವಿದ	-5858
▁ಬೆಳ್ಳು	-5859
▁ಡೊನಾಲ್ಡ್	-5860
▁ಆಗಬೇಕು	-5861
▁ತರುವಾಯ	-5862
500	-5863
▁ಐವರು	-5864
▁ಪಡೆದುಕೊಂಡಿದೆ	-5865
ಬಾಲ್	-5866
▁ಐಆರ್	-5867
ಗಿಳ	-5868
ಮಿನ	-5869
▁ಯೆಶಾಯ	-5870
▁ವಿಳಂಬ	-5871
▁ಆಧಾರಿತ	-5872
ಕಾಶ್ಮ	-5873
▁ಅಮಿತಾ	-5874
▁ರಾಯಲ್	-5875
▁ಟ್ವಿಟ್ಟರ್	-5876
▁ಮಾಡುತ್ತಿರುವ	-5877
▁ದ್ವಿತೀಯ	-5878
ಿಸಲಿ	-5879
▁ನಿಷ್ಠ	-5880
▁ಅತಿದೊಡ್ಡ	-5881
▁ಇವುಗಳನ್ನು	-5882
ವೀರ್	-5883
▁ಔಟ್	-5884
▁ಖಾಲಿ	-5885
▁ನಿಸ್	-5886
▁ತನ್ನದೇ	-5887
ಡ್ಕ	-5888
▁ಉದ್ಯಾನ	-5889
▁ಏಪ್ರಿಲ್	-5890
▁ಪೂಜೆ	-5891
▁ಅಮೂಲ್ಯ	-5892
▁ವೈದ್ಯರ	-5893
▁ಬರೀ	-5894
▁ದಟ್ಟ	-5895
▁ಪೂರ್	-5896
▁ಒತ್ತು	-5897
▁ವನ್ನು	-5898
ಖಂಡ್	-5899
▁ಮಣ	-5900
▁ಯುನ	-5901
▁ಮುಂದೂಡ	-5902
್ರೂ	-5903
▁ಬಿಕ್ಕ	-5904
▁ಶಿಕ್ಷಕರ	-5905
ಕೆಟ್	-5906
▁ಸೇತುವ	-5907
▁ಶೇಕಡಾ	-5908
▁ಪಂದ್ಯಗಳ	-5909
▁ದ್ದ	-5910
ತಂತ್ರ	-5911
▁ವಾಟ್	-5912
ಿಸಿರಲಿಲ್ಲ	-5913
ಗುರು	-5914
▁ಬಳಕೆಯ	-5915
▁ಬಾಧ	-5916
▁ಸ್ಥಾನದಲ್ಲಿ	-5917
ಬರ	-5918
▁ಧನ	-5919
▁ಫೀಚ	-5920
▁ಮಾಡಿದ್ದೇನೆ	-5921
▁ಸಂವಹ	-5922
▁ಪರ್ಯಾಯ	-5923
▁ಮಾಲಿನ್ಯ	-5924
▁ಜೂ	-5925
▁ತಿಳಿವ	-5926
▁ಹೊಡೆದ	-5927
▁ಸಿದ್ಧಾಂತ	-5928
ಭಿ	-5929
▁ಶುಶ್ರೂಷ	-5930
▁ವಾಗ್ದಾಳಿ	-5931
▁ಸಂವಿಧಾನದ	-5932
ಬ್ರಿ	-5933
ಚುನಾವ	-5934
ಿದ್ದೆವು	-5935
▁ಏಳ	-5936
▁ಮಾಡಲಾಗುತ್ತಿದೆ	-5937
ಾರೋ	-5938
▁ತಪ್ಪಿತ	-5939
▁ಸಾಧ್ಯವಾಗಿಲ್ಲ	-5940
▁ಅವರೆಲ್ಲ	-5941
▁ಚಳಿ	-5942
▁ಕಡಿಮೆಯ	-5943
▁ದಿನದಲ್ಲಿ	-5944
ಂಕಾರ	-5945
▁ಗ್ರಾಹಕರಿಗೆ	-5946
ಫರ್	-5947
▁ಮೃತರ	-5948
▁ಆಕರ್ಷಕ	-5949
▁ಪ್ರವಾಸೋದ್ಯಮ	-5950
ಾದೇಶಿಕ	-5951
▁ಸ್ಥಾನಗಳನ್ನು	-5952
▁ಹೆದ್ದಾರಿ	-5953
▁ಉತ್	-5954
ುವುದರಿಂದ	-5955
ಾಗನ್	-5956
▁ಚಿಹ್	-5957
▁ತೀರಾ	-5958
▁ಜಿಯೋ	-5959
▁ಯಜ್ಞ	-5960
▁ಆರೋಪಿಗಳು	-5961
▁ಕ್ಷೇತ್ರದಿಂದ	-5962
▁ಸೀಟು	-5963
▁ಸಿಕ್ಕಿ	-5964
▁ಪಂದ್ಯದ	-5965
ಟಿವಿ	-5966
ರಿಯನ್ನು	-5967
▁ಬ್ರಿಟಿ	-5968
▁ಅಂತಿಮವಾಗಿ	-5969
▁ದೃಷ್ಟಿಕೋನ	-5970
▁ಆಡಿ	-5971
▁ಸಜ್ಜ	-5972
ೀಕ್	-5973
ವೆಡೆ	-5974
▁ಅನಾವರಣ	-5975
▁ನೇತೃತ್ವದಲ್ಲಿ	-5976
▁ಪಠ್ಯ	-5977
▁ರವೀಂದ್ರ	-5978
ನಾಯ	-5979
▁ದೂರಿನ	-5980
▁ಅಸ್ಸಾಂ	-5981
▁ಸಂಗತಿಯ	-5982
ಸಿಐ	-5983
▁ಅಕ್ಷರ	-5984
▁ಸೂರ್ಯ	-5985
▁ಅಂದಾಜು	-5986
▁ಹಿಂಬಾಲ	-5987
▁ಕೆಲಸಕ್ಕೆ	-5988
-0	-5989
▁ಐಟಿ	-5990
▁ಆರಿಸ	-5991
▁ಬ್ರೆ	-5992
▁ರಹಸ್ಯ	-5993
ಕೊಡ	-5994
▁ಬಲೆ	-5995
▁ನಾವಿ	-5996
▁ಲೋಕದ	-5997
▁ಅಂಬೇಡ್	-5998
▁75	-5999
▁ವಿಷಯದ	-6000
▁ಹರಿಯಾಣ	-6001
▁ತೀವ್ರವಾಗಿ	-6002
▁ಬೈಬಲಿನ	-6003
ನುಸಾರ	-6004
▁ಹಬ್ಬದ	-6005
▁ಉಂಟಾಗಿದೆ	-6006
▁ಆಗುತ್ತಿದೆ	-6007
▁ಮೆಹ	-6008
ದಕ್ಕೂ	-6009
▁ಕ್ಕೆ	-6010
▁ಜಾಸ್	-6011
▁ಅಲ್ಲವೇ	-6012
್ಟನ್	-6013
▁ಮೈದಾನ	-6014
ುತ್ತಾಳೆ	-6015
▁ಬಳಸಲಾಗುತ್ತದೆ	-6016
ತಿಯಾದ	-6017
▁ಗಾಗಿ	-6018
▁ಮನಮೋಹ	-6019
▁ಸಿಗಲಿದೆ	-6020
▁ಏಕೈಕ	-6021
▁t	-6022
▁ಶೌಚ	-6023
▁ಶಂಕರ್	-6024
ರುತ್ತಿದೆ	-6025
▁ಕಂಪ್ಯೂಟರ್	-6026
ಕಾಶ್ಮೀರ	-6027
ಶಾಲ	-6028
▁ಆಳ್ವ	-6029
▁ಬಾಲ್ಯ	-6030
▁ಆಟಗಾರರು	-6031
▁ಎಂದೆ	-6032
▁ನಡೆಯುತ್ತದೆ	-6033
▁ಜಾಗೃತಿ	-6034
ಬೇಕಿತ್ತು	-6035
ಿರಲಿ	-6036
▁ಹೋದರು	-6037
▁ಉಪಯುಕ್ತ	-6038
▁ಸ್ನೇಹಿತರು	-6039
▁ಪರಿಣಾಮವಾಗಿ	-6040
▁ಚಿತ್ರಗಳಲ್ಲಿ	-6041
ಕ್ಸೆಲ್	-6042
ರಿಯಾಗಿ	-6043
▁ಕಂಡಿದೆ	-6044
▁ದಾಳಿಯಲ್ಲಿ	-6045
▁ಉತ್ಪಾದಿಸುತ್ತದೆ	-6046
.)	-6047
ಕೌ	-6048
ಿಸುವುದನ್ನು	-6049
ರಣೆಯ	-6050
▁ಜಿಲ್ಲೆ	-6051
▁ಮುಕ್ತಾಯ	-6052
▁ಎದುರಿಸಲು	-6053
▁ಜಾರ್	-6054
▁ಯೋಜನೆಗಳನ್ನು	-6055
ಆದ	-6056
▁ಹೋಟೆಲ್	-6057
ಮೈ	-6058
▁ಮುಗಿಯ	-6059
ರಾಗಿದ್ದ	-6060
▁ಎಚ್ಚರಿಕೆಯಿಂದ	-6061
ವಿದ್ದ	-6062
▁ರಾಜ್ಯಗಳು	-6063
▁ಐಸಿಸಿ	-6064
▁ಭಾರತವನ್ನು	-6065
▁ತಲ	-6066
▁ಟೆಕ್	-6067
▁ಹೊಂದು	-6068
ಂಬಡ	-6069
ಕುಮಾರ	-6070
▁ನೀಡಲಿದೆ	-6071
▁ಪ್ರಾದೇಶಿಕ	-6072
▁ನಿಗದ	-6073
▁ರಂದು	-6074
▁ನೈತಿಕ	-6075
▁ಕಮಿ	-6076
▁ಮಾಡಿದನು	-6077
▁ಕ್ರಿಸ್ತ	-6078
▁ಕೈಗಾರಿಕಾ	-6079
▁ಬಲವಾದ	-6080
▁ಖ್ಯಾ	-6081
▁ಬೇಸಿಗೆ	-6082
▁ಬದಲು	-6083
▁ಉತ್ತಮವಾಗಿ	-6084
▁ಜೀವನವನ್ನು	-6085
▁ಬ್ಯಾನರ್ಜಿ	-6086
▁ಯೆಹೋವನನ್ನು	-6087
▁2017	-6088
▁ನೆರೆ	-6089
▁ಬಗೆಹ	-6090
ಶಂಕರ್	-6091
▁ಬಾಂಬ್	-6092
▁ತಿರಸ್ಕರಿಸ	-6093
▁ಸೋದ	-6094
ರಿನಲ್ಲಿ	-6095
▁ತಡೆಯಲು	-6096
▁ನಿಯಮಗಳು	-6097
▁ಅನ್ಯಾಯ	-6098
▁ಇಲ್ಲದಿದ್ದರೆ	-6099
▁ಬ್ರಾ	-6100
▁ಅದನ್ನ	-6101
▁ಸಿಂಧು	-6102
▁ಮಾತುಗಳು	-6103
ರಡು	-6104
▁ಸೆಟ್	-6105
▁ಮುನ್ನೆ	-6106
▁ವಿಶ್ರಾಂತಿ	-6107
ಾಗದ	-6108
ಡ್ಮಿ	-6109
▁ಮ್ಯೂ	-6110
ಗನ	-6111
▁ಅಕಾ	-6112
▁ಯಾವುದೂ	-6113
▁ಅಂಗೀಕರಿಸ	-6114
▁ಐಗು	-6115
ಿರುವುದಿಲ್ಲ	-6116
▁ಬಾಬು	-6117
▁ನೆಮ್ಮ	-6118
▁ಯಾಕೋಬ	-6119
▁ಚೋಪ್ರಾ	-6120
▁ಉತ್ತೇಜನ	-6121
▁ಹಾರ್ದ	-6122
▁ಎಲ್ಲಿಂದ	-6123
▁ಪ್ರಜೆ	-6124
ದಿರಿ	-6125
▁ಅಕ್ಕ	-6126
▁ಆತ್ಮಹತ್ಯೆಗೆ	-6127
▁ಹಾಗಂತ	-6128
▁ಅರವಿಂದ್	-6129
▁ಮಡ	-6130
▁ಸಿಇ	-6131
▁ಪಡುಕೋ	-6132
▁ಇಷ್ಟಪಡ	-6133
▁ನೀಡಲಾಯಿತು	-6134
▁ರಾಜ್ಯಾಧ್ಯಕ್ಷ	-6135
ಘಾನ	-6136
▁ಉಷ್ಣ	-6137
▁ಕ್ಷಮೆ	-6138
▁ವು	-6139
ಧಾರಣ	-6140
▁ಅಮೇ	-6141
▁ಡ್ರೈ	-6142
▁ದುಷ್	-6143
▁ಭವಿಷ್ಯದ	-6144
ತ್ಥ	-6145
▁ಯನ್ನು	-6146
▁ಠಾಣೆಗೆ	-6147
ಗಾರ್	-6148
▁ಆಪ್ತ	-6149
▁ಕಿಂಗ್ಸ್	-6150
▁ಬಿಗ್	-6151
▁ಛತ್ತ	-6152
▁ಬೆಳಗ	-6153
▁ಪ್ಲಸ್	-6154
ೀಕೃತ	-6155
▁ಹಿಮ	-6156
▁ಕರಾವ	-6157
▁ನಿಷ್	-6158
▁ನೀರಿನಲ್ಲಿ	-6159
ಮಕ್ಕ	-6160
▁ಏನೋ	-6161
ಚೆ	-6162
ಖಂಡ	-6163
ಕಾಂಗ್ರೆಸ್	-6164
ಪೀಠ	-6165
▁ಚಕ	-6166
ಟಿಎಂ	-6167
▁ಟ್ರಾನ್ಸ್	-6168
ಾಮು	-6169
ಕರಾದ	-6170
ರೀಶ್	-6171
ೀದ್	-6172
▁ಆ್ಯಪ್	-6173
▁ಒಟ್ಟಾಗಿ	-6174
▁ದಾಟ	-6175
▁ಬರಲು	-6176
ಲಿಂಡರ್	-6177
▁ಶಾಶ್ವತ	-6178
▁ವಯಸ್ಸಿನ	-6179
ಕನು	-6180
▁5:	-6181
▁ವಜ	-6182
ಕಾಂಗ	-6183
▁ವಿಧಿ	-6184
▁ಸತತ	-6185
ಕವನ್ನು	-6186
▁ತಳ್ಳಿ	-6187
ಗರ್	-6188
ಖ್ಯಾ	-6189
ಿಸಬೇಕಾಗಿದೆ	-6190
▁ದಿಕ್ಕ	-6191
▁ಬೌಲಿಂಗ್	-6192
▁ನಲ್ಲಿರುವ	-6193
ಡ್ತ	-6194
▁ದ್ವೀಪ	-6195
ಡಿಪಿ	-6196
ಲಾಗುವ	-6197
▁ಸಮ್ಮೇಳ	-6198
▁ಒಲಿಂಪಿ	-6199
▁ಬಾಳ	-6200
▁ಯೋಧರು	-6201
le	-6202
▁ಚಿಂತನೆ	-6203
▁ವಿಚಿತ್ರ	-6204
ಂಠ	-6205
ಜರ್	-6206
▁ಚಿದ	-6207
▁ಮೆಮೊ	-6208
▁ಕುಂಬ	-6209
▁ಸರ್ಕಾರದಿಂದ	-6210
ಂಕಿಂಗ್	-6211
▁ನಿಶ್ಚಿತ	-6212
▁ಪುನರಾವರ್ತ	-6213
▁ಲವ್	-6214
ಬ್ಲ್ಯು	-6215
ೀಪರ್	-6216
▁ಜ್ವರ	-6217
▁ಇದ್ದರೆ	-6218
▁ಕ್ರಿ	-6219
▁ಕೇಳುವ	-6220
▁ಆಸ್ಪತ್ರೆಯ	-6221
ಸಭೆಯ	-6222
▁ಮದುವೆಯ	-6223
ಾಗಿದ್ದಾನೆ	-6224
▁ಮೇಲೂ	-6225
▁ತನಿಖಾ	-6226
▁ಮತ್ತಾಯ	-6227
▁ವಸ್ತುಗಳನ್ನು	-6228
▁ಇಟ	-6229
▁ಸ್ವರಾಜ್	-6230
▁ಹೆತ್ತವರು	-6231
▁ಇಸ್ರಾಯೇಲ್	-6232
ಪಾಳ	-6233
▁ಒಡಂಬಡ	-6234
▁ನಿರ್ಧಾರವನ್ನು	-6235
▁ಅಗಲ	-6236
ಚೀನ	-6237
▁48	-6238
▁ತೊಳೆ	-6239
▁ಮರಳಿ	-6240
▁ಆಸಕ್ತ	-6241
▁ನ್ಯಾಯಾಲಯಕ್ಕೆ	-6242
ಾಭಿ	-6243
▁ಅಧ್ಯಕ್ಷತೆಯಲ್ಲಿ	-6244
▁ಔಷಧಿ	-6245
ೆರಡು	-6246
▁ಒಂದೊಂದು	-6247
▁ಆಯ್ಕೆಯನ್ನು	-6248
▁ಪ್ರೀಮಿಯ	-6249
ಕಳ	-6250
ುವನ	-6251
▁ವಿಭಜ	-6252
ದಾಗಿದೆ	-6253
ಯೆ	-6254
ಚಿಕಿತ್	-6255
ಹೆಚ್ಪಿ	-6256
ವಚನ	-6257
▁ಮಿಲಿ	-6258
▁ನೇಮಕಾ	-6259
▁ಕೆಲಸದಲ್ಲಿ	-6260
▁ಬಾಲ್	-6261
▁ಎದುರಾಗ	-6262
▁ಒಪ್ಪಿಕೊಂಡ	-6263
▁ಇದನ್ನ	-6264
▁ಗರ್ಭಿಣ	-6265
ಗೂಡಿ	-6266
ಟ್ಟಿನ	-6267
▁ಲಿಂಗ	-6268
-2	-6269
▁ಅಂಕಿ	-6270
▁ಕೊನೆಗೆ	-6271
ಟಿನ್	-6272
ಬ್ಯಾ	-6273
▁ಮಿಂಚ	-6274
▁ಇದಾಗಿದೆ	-6275
ಘು	-6276
▁ಮೂಲತ	-6277
▁ಪ್ರಭು	-6278
▁ತರಲು	-6279
▁ಹಾಕಿದ	-6280
▁T	-6281
▁ಅಂಚ	-6282
▁ಇನ್ನಿಂಗ್ಸ್	-6283
▁ಬ್ಯಾಟರಿ	-6284
▁ಮುಂದುವರಿದಿದೆ	-6285
▁ಹಂಚಿಕೊಂಡಿದ್ದಾರೆ	-6286
ೇಶ್ವರ್	-6287
▁ಮೇರೆಗೆ	-6288
▁ವಿವರಣೆ	-6289
ಳಿಗ್ಗೆ	-6290
▁ಅಂಬೇಡ್ಕರ್	-6291
▁ಅಗಲಿದ್ದಾರೆ	-6292
▁ಧನ್ಯವಾದಗಳು	-6293
▁ಹೇಳುತ್ತಾನೆ	-6294
ಿರೋ	-6295
▁ದಾವೀದನು	-6296
ಕ್ತಿಯನ್ನು	-6297
▁ಶಾಲೆಯಲ್ಲಿ	-6298
▁ವೃ	-6299
▁ಜನತೆಗೆ	-6300
▁ಧ್ಯ	-6301
▁ನಮಗ	-6302
▁ಬಯಸುವ	-6303
▁ತಂಡದಲ್ಲಿ	-6304
▁ತುಂಡು	-6305
▁ಪಡುಕೋಣೆ	-6306
▁ಹಾಲ	-6307
▁ತಿಳಿದಿದೆ	-6308
▁ಹೊಂದಿರುತ್ತದೆ	-6309
▁ಗೊತ್ತಿದೆ	-6310
▁ಜಾವ	-6311
ಾನಿಲಯ	-6312
▁ಸೆಮಿ	-6313
್ಯಾಕಾಶ	-6314
▁ಸಾರುವ	-6315
▁ಪ್ರತಿಯೊಬ್ಬರೂ	-6316
▁ಚೊ	-6317
▁ರೌ	-6318
▁ಧರ್ಮದ	-6319
▁ಸುತ್ತಮುತ್ತ	-6320
▁ಬಾರ್	-6321
ತೆಗಳನ್ನು	-6322
▁ಸಾಧ್ಯವಾಗಲಿಲ್ಲ	-6323
ಾವಧಿ	-6324
▁ತಾಯಿಯ	-6325
▁ಹೊಂದಿದ	-6326
ಘಟ	-6327
▁ಹಿಂತ	-6328
ವಿಲ್ಲದ	-6329
▁ಮಾತುಗಳನ್ನು	-6330
ೃಂಗ	-6331
ಶ್ರೀ	-6332
್ರಾಮಿಕ	-6333
▁ವಶಪಡ	-6334
▁ರೆಡ್	-6335
▁ಹಣಕಾಸಿನ	-6336
ಿಸುತ್ತಿದ್ದೇವೆ	-6337
ೂಪ್	-6338
▁ನಿಶ್ಚಯ	-6339
▁ತಪ್ಪಿತಸ್ಥ	-6340
▁ಸೂಚಿಸುತ್ತದೆ	-6341
ಂದೆ	-6342
▁ವೀಡಿಯೊ	-6343
▁ಮಾಡಿತು	-6344
▁c	-6345
▁ಷೇರು	-6346
▁ಇವುಗಳಲ್ಲಿ	-6347
▁3,	-6348
▁ಗುಂಡು	-6349
▁ಸ್ಥಳಗಳಲ್ಲಿ	-6350
▁ಸಾಂಪ್ರದಾಯಿಕ	-6351
ನೀನು	-6352
▁ಸೆರೆಯ	-6353
▁ಆರೋಗ್ಯಕ್ಕೆ	-6354
▁ಸಲ್ಲಿಸಿದರು	-6355
ಟ್ಟಿಗೆ	-6356
▁ನೋಟಿಸ್	-6357
ಲಾಘ	-6358
ಾಂಕ್	-6359
▁ಕಾರಣದಿಂದ	-6360
▁6:	-6361
▁ವಿಶ್ವಸಂಸ್ಥ	-6362
ಟಿಯ	-6363
▁ಎಬಿ	-6364
ಚಾರ್ಯ	-6365
▁ಕೊಠಡಿ	-6366
▁ಸೆಪ್ಟ	-6367
▁ಸುಷ್ಮಾ	-6368
om	-6369
ಶೆ	-6370
▁ಎಂಟ	-6371
ಹಳ್ಳಿ	-6372
▁ಹೊಂದಾಣ	-6373
▁ಒದಗಿಸುತ್ತದೆ	-6374
ಾಜಾ	-6375
▁ಸೋತ	-6376
▁ದುರ್ಬಲ	-6377
ಾಜನ	-6378
▁ಇಸ	-6379
▁ಮೃದು	-6380
ಾಟ್	-6381
▁ಹಡ	-6382
▁ಪ್ರೆಸ್	-6383
▁ಸಮೃದ್ಧ	-6384
▁ಕೈಯಲ್ಲಿ	-6385
ನಿಸ್	-6386
▁199	-6387
▁ಸಬ್	-6388
▁ಸುಳ್ಳ	-6389
▁ಅಹ್ಮದ್	-6390
▁ಹೆಂಡತಿ	-6391
▁ಚಿತ್ರಗಳನ್ನು	-6392
ನೆಂಬ	-6393
▁ಎಂದೇ	-6394
▁ದೀರ್ಘಕಾಲ	-6395
ಗೊಳ್ಳುತ್ತದೆ	-6396
▁ನಾಚ	-6397
▁ಮಂಡ್ಯ	-6398
▁ಬ್ರೇಕ್	-6399
▁ಯಶಸ್ವಿ	-6400
▁ಸಾಂಕ್ರಾಮಿಕ	-6401
▁ಅಳವಡಿಸಲಾಗಿದೆ	-6402
▁ಜಿಲ್ಲೆಗಳಲ್ಲಿ	-6403
▁ಸಂತ್ರಸ್ತ	-6404
ದೇವ	-6405
▁ಟೇಬಲ್	-6406
▁ಅಧಿವೇಶನ	-6407
ಕುಲ	-6408
▁ಕಷ್ಟಕರ	-6409
ಿನಲ್ಲಿರುವ	-6410
▁ಮೋದಿಯವರು	-6411
ಅವರು	-6412
▁ಬಿಸ	-6413
▁ಅನುಮತ	-6414
▁ಆದದರಿಂದ	-6415
ಬರಿ	-6416
▁ಬಾಂಧವ್ಯ	-6417
▁ಸುಮ್ಮನೆ	-6418
▁ನಡೆದಿಲ್ಲ	-6419
▁ಉತ್ತರಪ್ರದೇಶ	-6420
▁ಇರಾನ್	-6421
▁ಮಹಾರಾಷ್ಟ್ರದ	-6422
▁ತಾವ	-6423
▁ಬಾಲಕಿ	-6424
ಹೇಳ	-6425
ನೊಂದಿಗೆ	-6426
▁ನ್ಯೂಸ್	-6427
▁ಹೆಸರಿನಲ್ಲಿ	-6428
▁ಕೃತಿ	-6429
ರ್ಹ	-6430
▁ವಿಂಗಡ	-6431
▁ಗುಣಲಕ್ಷಣ	-6432
▁ಎಷ್ಟೋ	-6433
▁ನಾರಾಯಣ	-6434
▁ನಕ	-6435
▁ಬೆಳ್ಳುಳ್ಳಿ	-6436
ಸಿಗೆ	-6437
ರನ್ನೂ	-6438
▁ಯೋಜನೆಗೆ	-6439
▁ವಸ್ತುಗಳ	-6440
ಘಡ	-6441
▁ರಿಸ	-6442
▁ಸರಾ	-6443
▁ನಾಯಕಿ	-6444
▁ಬೌಲರ್	-6445
▁ಬನ್ನಿ	-6446
▁ಬ್ಯಾಂಕು	-6447
▁ಗುರುತಿಸಲಾಗಿದೆ	-6448
▁ಕೀಪರ್	-6449
▁ರುಪಾಯಿ	-6450
▁ಅವಧಿ	-6451
▁ಕೆಜಿ	-6452
ಭವಿ	-6453
▁ಸಲ್ಲಿ	-6454
ಿರುವುದಾಗಿ	-6455
ಪಯೋಗ	-6456
▁ಮುಂಜ	-6457
▁ಪಾಂಡೆ	-6458
▁ಕ್ರಮಕೈ	-6459
▁ಕಾರಣವೇನು	-6460
▁ನಿಯಮಗಳನ್ನು	-6461
▁ಟೊ	-6462
ಲ್ಟ್	-6463
▁ಬೆಳಿಗ್ಗೆ	-6464
▁ಮೋಟಾರ್ಸ್	-6465
ವುದೆ	-6466
▁ಚರ್ಮದ	-6467
▁ಹೊಸದಾಗಿ	-6468
ಟೋಬರ್	-6469
▁ರಜೆ	-6470
▁ನೋಡಿಕೊಳ್ಳ	-6471
▁ಕೈಗೊಂಡಿಲ್ಲ	-6472
ವಾಗುವುದು	-6473
en	-6474
▁ಅಬ್ರಹ	-6475
▁ವ್ಯರ್ಥ	-6476
▁ಸಿಲಿಂಡರ್	-6477
ವಂತೆ	-6478
▁ಶಾರು	-6479
▁ಆಹಾರವನ್ನು	-6480
ೆಯಾ	-6481
▁ಸಕಲ	-6482
ದಲ್ಲಿಯೂ	-6483
▁ಅಖಿಲ	-6484
▁ಶತ್ರು	-6485
▁ಅಭಿಪ್ರಾಯಪಟ್ಟ	-6486
▁ವಿತರಿಸಲಾಯಿತು	-6487
▁ತ್ತ	-6488
▁ನಿರು	-6489
▁ಕ್ವಾರ	-6490
▁ಕಾರ್ಯಕ್ರಮವನ್ನು	-6491
▁ಅನಾ	-6492
▁ಭೀಕರ	-6493
▁ಕೈಗೊಳ್ಳಲಾಗಿದೆ	-6494
ದನಂತರ	-6495
▁ಪ್ರಿ	-6496
▁ಕಿತ್ತ	-6497
▁ಕಾಯ್ದು	-6498
ಲಿನ್	-6499
ಲಾಯ	-6500
▁ಸಿಎ	-6501
▁ಆಕೆಗೆ	-6502
▁ಉತ್ಪಾದನಾ	-6503
▁ನಾಪ	-6504
ನೆಯಿಂದ	-6505
▁ಆಗಲಿದೆ	-6506
▁ಕೆನ	-6507
▁ಅನಂತ	-6508
▁ನಾನಾ	-6509
ೋಷ್	-6510
ವಾದುದು	-6511
▁ಬಳಸುವ	-6512
ame	-6513
▁ಮನರಂಜ	-6514
▁ಯೋಚನೆ	-6515
▁ಗಣ್ಯರು	-6516
▁ಇವರನ್ನು	-6517
▁ಯಾರನ್ನೂ	-6518
▁ವಿಚಾರಣೆಗೆ	-6519
▁ಲಾಲ್	-6520
▁ಸ್ಥಿತಿಯಲ್ಲಿ	-6521
▁ಸ್ಪರ್ಧೆಯಲ್ಲಿ	-6522
▁ಶೇರ್	-6523
▁ಕೋರ	-6524
▁ಜೇನು	-6525
▁ಯುನಿ	-6526
▁ಶೌಚಾಲಯ	-6527
▁ಹಾದ	-6528
ನಿಮ್ಮ	-6529
ೈಟೆಡ್	-6530
▁ಮಾದರಿಯನ್ನು	-6531
▁ಭರ	-6532
▁ನೋಂದಣಿ	-6533
▁ಉತ್ಸವ	-6534
▁ಐಎ	-6535
▁ಓಪನ್	-6536
▁ನದಿಯ	-6537
ಾಲೋಚ	-6538
▁ಅಹಮ	-6539
ದಾಬಾದ್	-6540
ಾವತ್	-6541
್ಯಾಹ್	-6542
▁ಬರೆದು	-6543
▁ಹೆಮ್ಮ	-6544
▁ತದನಂತರ	-6545
▁ಸ್ಯಾಮ್	-6546
▁ಮಹೀಂದ್ರಾ	-6547
▁ಶೃಂಗ	-6548
ಂದಿನ	-6549
ಂಬರಿ	-6550
ಲೈನ್	-6551
▁ತಂದಿದೆ	-6552
▁ಬ್ಲಾಕ್	-6553
▁ತೇ	-6554
▁ಒಗ್ಗ	-6555
ಸ್ತಿಗೆ	-6556
ಭಾಷ	-6557
ಾಹಿ	-6558
ಶ್ಯಕ	-6559
▁ರ್ಯ	-6560
▁ಅಧಿಕಾರಿಯ	-6561
ಭಾ	-6562
▁ಯೋಬ	-6563
▁ಅದನ್ನೇ	-6564
ುತ್ತಿದ್ದಂತೆ	-6565
▁ಕರೀ	-6566
▁ಹಾಜರಾಗ	-6567
▁ಅಪರಿ	-6568
ುತ್ತಿದ್ದೆ	-6569
▁ಕೊರಿ	-6570
▁ರಷ್ಯ	-6571
▁ಯಲ್ಲಿ	-6572
▁ರಾಷ್ಟ್ರಗಳ	-6573
▁8.	-6574
ತಿಕ್	-6575
ವೊಂದು	-6576
ಿತಿಯು	-6577
▁ವೈಜ್ಞಾನಿಕ	-6578
▁ಅರಿವು	-6579
▁ಪ್ರಾಚೀನ	-6580
▁ಸಾಕ್ಷಿಗಳು	-6581
▁ಪ್ರಯತ್ನಿಸಿ	-6582
▁5.	-6583
▁ಐದ	-6584
▁ಇಳಿಯ	-6585
▁ರಿಲೀಸ್	-6586
ಡ್ರ	-6587
▁ತಂಡವು	-6588
▁ಹೊಡೆದು	-6589
▁ಸಲ್ಲಿಸಿದ	-6590
ುವನು	-6591
▁ಅವಳನ್ನು	-6592
▁ಯುಪಿ	-6593
▁ವಿಳಾಸ	-6594
▁ಸ್ವರೂಪ	-6595
▁ಸಂದರ್ಶನ	-6596
▁ನಡೆದು	-6597
▁ದೀಕ್ಷಾಸ್	-6598
ಿಯೆ	-6599
ೋಸ್	-6600
ಕಾಂಡ	-6601
▁ದಾಸ	-6602
ಪಡಿಸಿದ	-6603
▁ಅಯೋ	-6604
▁ಎತ್ತಿ	-6605
▁ಹರಿದು	-6606
▁ಸಂಬಂಧಿಸಿ	-6607
▁ಮಾರ್ಚ್	-6608
▁ನಡೆದಿತ್ತು	-6609
ರ್ಗೆ	-6610
▁ಸ್ಕ	-6611
ುವೆ	-6612
ದ್ಯೋಗ	-6613
ೊತ್ತಡ	-6614
▁ಪಂಚಾಯಿತಿ	-6615
ವಾಗಿರಲಿಲ್ಲ	-6616
▁ತಾತ್	-6617
▁ಯುಎಸ್	-6618
▁ಬ್ಲೂ	-6619
▁ಸ್ನಾ	-6620
▁ಒದಗಿಸುವ	-6621
ಿಸುತ್ತಿವೆ	-6622
▁ಕಾಶ್ಮೀರದಲ್ಲಿ	-6623
▁ಡಿಸಿ	-6624
▁ಸಂಭಾಷ	-6625
▁ಅಂದ್ರೆ	-6626
ಗಳಲ್ಲಿಯೂ	-6627
▁ಗಾಯಾಳುಗಳನ್ನು	-6628
▁ವೀರ	-6629
▁ಎಣ್ಣ	-6630
▁ಹಿಟ್	-6631
ವೆಂಬರ್	-6632
▁ಗ್ರಾಮಸ್ಥರು	-6633
ಕ್ಸರ್	-6634
ಜಿಂಗ್	-6635
▁ಮಿಶ್ರಾ	-6636
▁ಮಾಡುತ್ತಿಲ್ಲ	-6637
▁ಭಾಗದ	-6638
▁ಮನುಷ್ಯನ	-6639
▁ನೀಡಿತ್ತು	-6640
it	-6641
ಂದೇ	-6642
ೀನಾ	-6643
▁ಚೈ	-6644
ವಾಡಿ	-6645
▁E	-6646
▁ಸುಧ	-6647
▁ದೂರವಿ	-6648
▁ಸರ್ಕಾರವನ್ನು	-6649
ಿರಾ	-6650
▁ಆಫರ್	-6651
▁ವಲಯದ	-6652
▁ತರಕಾರ	-6653
▁ಸಿನ್	-6654
▁ಒಲ	-6655
▁ಫಾರ್	-6656
▁ವಿಶ್ವವಿದ್ಯಾನಿಲಯ	-6657
▁ಒಡಿ	-6658
▁ವೋಲ್	-6659
▁ಅಭಿಮಾನಿಗಳ	-6660
▁ಬುಡ	-6661
ಲೀಟರ್	-6662
▁ಬಂಧನಕ್ಕೆ	-6663
▁ಹೆಚ್ಚಿಸುತ್ತದೆ	-6664
ಧು	-6665
್ವನ	-6666
ೇಕರ್	-6667
▁ಇವನ	-6668
▁ಹೀರೋ	-6669
▁ಶ್ಲಾಘ	-6670
ಧವ್	-6671
ೀತು	-6672
▁2014	-6673
▁ಪಾಂಡ್ಯ	-6674
ಲ್ಲಿದ್ದಾರೆ	-6675
▁ಬಾಹ್ಯಾಕಾಶ	-6676
▁ಗ್ರಾಮದಲ್ಲಿ	-6677
▁ವರ್ಷಗಳಲ್ಲಿ	-6678
▁ಮೀಡಿಯ	-6679
▁ಮೋದಿಗೆ	-6680
ಹಾಗೆ	-6681
▁ರಫ್	-6682
▁ಗೋಡೆ	-6683
▁ದ್ರಾ	-6684
▁ಸಾಕು	-6685
▁ಚಿದಂಬ	-6686
▁ಭೂಕಂಪ	-6687
▁ಸಂವಹನ	-6688
▁ತಿಳಿಯಲು	-6689
▁ನೀರಿನಿಂದ	-6690
▁ಬೆನ್ನಲ್ಲೇ	-6691
ಾನಗರ	-6692
▁ಬಾರಿಯ	-6693
▁ವೀಡಿಯೋ	-6694
ion	-6695
ಪುರ್	-6696
▁ಚಂಡ	-6697
▁ಬೇಗನೆ	-6698
▁ಸಂಬಂಧವನ್ನು	-6699
▁ಎದುರ	-6700
▁ಹಿಂಸ	-6701
▁ಏಷ್ಯಾ	-6702
▁ಬದಲಾಗ	-6703
▁ಮಾಡಿಕೊಂಡಿದ್ದಾರೆ	-6704
▁ಈಶ	-6705
ಾಬಾದ್	-6706
ಘಾನಿಸ್ತಾನ	-6707
▁ಗೋಲು	-6708
▁ನಕ್ಷ	-6709
▁ಪ್ರತಿಪಾದ	-6710
▁ಅರ್ಜಿಯನ್ನು	-6711
ಿಕೋ	-6712
▁ನೀಡುವುದಿಲ್ಲ	-6713
▁ದಿನೇ	-6714
▁ಕಾಲದ	-6715
▁ಪುನರ್	-6716
ಗುಣವಾಗಿ	-6717
▁ರಸ್ತೆಯ	-6718
▁ಕೂದಲ	-6719
):	-6720
ೀನಿ	-6721
▁ಭು	-6722
ಿಲ್ಲದೆ	-6723
್ಯವಸ್ಥ	-6724
▁ಚಳಿಗಾಲ	-6725
▁ಪ್ರತಿಭಟನಾಕಾರರು	-6726
ಸ್ಟಿಕ್	-6727
▁ಪ್ರಶ್ನಿಸಿ	-6728
ಭರಿತ	-6729
▁ಮುನ್ನೆಚ್ಚ	-6730
ುವುದರ	-6731
▁ವೇಗದ	-6732
ಭ್	-6733
ಾವಂತ	-6734
▁ಅಹಿತ	-6735
▁ಪ್ರಜ್ಞ	-6736
ಗೊಂಡಿಲ್ಲ	-6737
▁ಸಚಿವರಾದ	-6738
▁ಸೆನ್ಸ	-6739
▁ಕೊರೊನಾ	-6740
ವಳಿ	-6741
▁ಮುಂಗ	-6742
▁ಬಡ್ಡಿ	-6743
ಗೊಳ್ಳುವ	-6744
ೊಂದರಲ್ಲಿ	-6745
▁ಮಧ್ಯಾಹ್	-6746
ರೆನ್ಸ್	-6747
ೆಗ	-6748
ಟಿಗೆ	-6749
▁ಜೂನ್	-6750
▁ದಾಳಿಯ	-6751
▁ಹಾಕಿದ್ದಾರೆ	-6752
ಯದ	-6753
ಹದ	-6754
ೋಬ	-6755
ನಿಲ್	-6756
▁ಕಾಯ್ದೆಯ	-6757
▁ಶೀಘ್ರವೇ	-6758
▁ದ್ವಿಪಕ್ಷೀಯ	-6759
▁ಮೇಘ	-6760
▁ರೋಗದ	-6761
▁ಸಮಸ್ತ	-6762
▁ತೃಪ್ತಿ	-6763
ಮೋನ	-6764
▁ಎಂಬುದಾಗಿ	-6765
▁ಕೊಂಚ	-6766
▁ಮಾಡಿದ್ದೇವೆ	-6767
▁ವಾಸ್	-6768
▁ಗಾಳಿ	-6769
▁ಕೇರಳದ	-6770
▁ಯುನೈಟೆಡ್	-6771
ಾಜಪ	-6772
▁ಚಕಮ	-6773
ಿಸಬೇಕಿದೆ	-6774
▁ಅಣ್ಣ	-6775
ಟದಲ್ಲಿ	-6776
▁ಸಿಗುವ	-6777
▁ಈವರೆಗೂ	-6778
▁ದಿನಗಳು	-6779
ಳಿನ	-6780
▁ಮನ್ನಾ	-6781
ಹೀನ	-6782
ಡೆದು	-6783
▁ಅಫ್	-6784
▁ಜುಲೈ	-6785
▁ನಾವೇ	-6786
ಕಾಂಕ್ಷ	-6787
▁ಕೋರ್	-6788
▁ಸೂಚಿಸಿದ್ದಾರೆ	-6789
▁O	-6790
ಕೋಟಿ	-6791
▁ಅನಿಲ	-6792
▁ಎನ್ನುವುದನ್ನು	-6793
▁ಶಸ್ತ್ರಚಿಕಿತ್	-6794
▁ಉಡುಪಿ	-6795
▁ನಿತೀಶ್	-6796
▁ನೀಡುವುದು	-6797
▁ವಿವರಿಸಿದರು	-6798
ಚು	-6799
▁ಕಾದು	-6800
▁ಭಾಗಗಳಲ್ಲಿ	-6801
ಡಿಟ್	-6802
▁ವಾಲ್	-6803
ಡಿಯನ್ನು	-6804
▁ರಕ್ತದೊತ್ತಡ	-6805
▁ಧೂಮ	-6806
▁ಪ್ರಕರಣಗಳ	-6807
▁ನಮೂದ	-6808
▁ದೇವಾಲಯದ	-6809
▁ಪಿತ	-6810
▁ಪೀಡ	-6811
▁ನೋಟು	-6812
▁ಬಜಾಜ್	-6813
▁ವಾರ್ತೆಗಳು	-6814
▁ನಿಮಿತ್ತ	-6815
▁ದಾಖಲಾಗಿತ್ತು	-6816
ೂಲಿ	-6817
▁ಉದ್ಯಮಿ	-6818
▁ನಡೆಸಲಾಗುತ್ತಿದೆ	-6819
ಾಜೆ	-6820
▁ಯೆಹೂದ	-6821
▁ಕಾನೂನಿನ	-6822
ಹಬ್ಬ	-6823
▁ಯಜ	-6824
▁ತಣ್ಣ	-6825
▁ಅಗತ್ಯವಿರುವ	-6826
ಿಸಿಕೊಂಡಿದೆ	-6827
▁ಗೌರಿ	-6828
▁ಸಂಗಾ	-6829
▁ಅವಮಾನ	-6830
▁ಸರಣಿಯ	-6831
▁ಪುರುಷರ	-6832
▁ತೋರಿಸುತ್ತದೆ	-6833
-6	-6834
▁ಅನಿಸ	-6835
ಿದ್ದಲ್ಲಿ	-6836
▁ಪ್ರಾಮಾಣಿಕ	-6837
▁ನೆಲೆಸ	-6838
▁ಪೋರ್ಟ್	-6839
ೋಕೆ	-6840
▁ಸ್ಮಾರ	-6841
▁ಬಾಣ	-6842
▁ವೆಂಕಟ	-6843
▁ಅದರಂತೆ	-6844
▁ಪ್ರಗತಿಯ	-6845
ಿದವು	-6846
▁ಟ್ರಿ	-6847
ಿಸಬಲ್ಲ	-6848
▁ಅಂತರ್ಜ	-6849
▁ಹೇಳುವುದ	-6850
▁ಫೀಲ್	-6851
▁ಕೊಟ್ಟು	-6852
▁ಸಮಸ್ಯೆಗೆ	-6853
▁6.	-6854
ಶಾಲಿ	-6855
ಮಾತ್ರ	-6856
▁ರಚನೆಯ	-6857
▁ಅಹಿತಕರ	-6858
▁ಯೆಹೂದ್ಯ	-6859
▁ಪುರಾತನ	-6860
▁ವ್ಯಾಖ್ಯ	-6861
ಫ್ರ	-6862
ನ್ಯಾ	-6863
ಾಂಚ್	-6864
▁ಅತ್ತ	-6865
▁ಸಿಹಿ	-6866
▁ಬೆಳ್ಳ	-6867
▁ಸ್ನೇಹಿತರ	-6868
▁ದಳದ	-6869
▁ರಾಜ್ಯಕ್ಕೆ	-6870
ತಿನ್	-6871
▁ಫುಟ್	-6872
▁ಉಗ್ರರು	-6873
ಾಗಿರುತ್ತದೆ	-6874
▁ಆರೋಪಿಸಿದ್ದಾರೆ	-6875
▁ಬಿಎ	-6876
▁ಕಾಡು	-6877
▁ಬಳಸಲು	-6878
MP	-6879
ವರಾ	-6880
▁ಪಟ್ಟಣದ	-6881
▁ಮಾಡಿಕೊಡ	-6882
▁ಅಕ್ಟೋಬರ್	-6883
▁ಆಯ್ಕೆಗಳನ್ನು	-6884
ಾರೂ	-6885
ಚ್ಚಿನ	-6886
▁ಹೀಗಿದೆ	-6887
▁ಸ್ಥಾನಮಾನ	-6888
ಟೇಜ್	-6889
▁ಸ್ಮಿತ್	-6890
▁ಮೆರವಣಿಗೆ	-6891
▁ಬಿಗ	-6892
▁ಚಾಲೆ	-6893
▁ಸಾಲು	-6894
▁ನಿಸ್ಸ	-6895
ಬಾಕ್ಸ್	-6896
▁ಚಾರ್	-6897
▁ಕಂಡುಹಿಡಿಯ	-6898
▁ಅವಘಡ	-6899
▁ಕಿಲೋ	-6900
▁ಕೇಸು	-6901
▁ಸಿನೆ	-6902
▁ಕೊನೆಯಲ್ಲಿ	-6903
ೇಮ	-6904
ore	-6905
ಲೆಟ್	-6906
▁7.	-6907
▁ಅಮಾನತು	-6908
,""	-6909
▁ಕಡಿಮೆಯಾಗ	-6910
▁ವಿವರಗಳನ್ನು	-6911
▁ಮಧುಮೇ	-6912
ಿಸಿಕೊಳ್ಳಿ	-6913
▁ನಡೆಸುತ್ತಿದೆ	-6914
ವಳು	-6915
▁39	-6916
▁ಮಾಡಲ	-6917
ಜೆಡಿಎಸ್	-6918
ಂಕೆ	-6919
ಸ್ಥಿರ	-6920
▁ಬ್ರಿಟನ್	-6921
ವಾಗುವುದಿಲ್ಲ	-6922
▁ಯಥ	-6923
▁ಸಾಧ್ಯತೆಯಿದೆ	-6924
ಾಗೋ	-6925
▁ಡಿಎ	-6926
▁ಹೊಂದಿಲ್ಲ	-6927
ಮೂಲ	-6928
▁ಸೆಪ್ಟೆಂಬರ್	-6929
ಗತ	-6930
▁D	-6931
ವಿಂದ್	-6932
▁ಗ್ಯಾ	-6933
▁ಬೆಚ್ಚ	-6934
ವಾಗಲಿಲ್ಲ	-6935
▁ಮಹಾರಾಷ್ಟ್ರದಲ್ಲಿ	-6936
ಿಸಿದವು	-6937
▁ಕಾರ್ಪೊ	-6938
▁ತಾಲೂಕು	-6939
ದಾಗ	-6940
ವೆಯ	-6941
ಜ್ಜು	-6942
▁ಹೊಂದಿರ	-6943
▁ಕಾರುಗಳು	-6944
▁ತಿಳಿವಳಿಕೆ	-6945
▁ವಿವೇ	-6946
▁ಹದಗೆ	-6947
▁ಪುರುಷರು	-6948
▁ಮನಮೋಹನ್	-6949
▁ಹಮ್ಮ	-6950
▁ನೆನಪಿ	-6951
▁ಸ್ಥಿತಿಯ	-6952
▁ಬೀದಿ	-6953
‍‍	-6954
▁ಉಪಚುನಾವ	-6955
▁ಮಾಡಲಿದೆ	-6956
▁ವಲಯದಲ್ಲಿ	-6957
▁ಈಶಾನ್ಯ	-6958
▁ವಸ್ತುಗಳು	-6959
▁ದಿನದಿಂದ	-6960
ಿರುವುದರಿಂದ	-6961
▁Re	-6962
▁ಕಂದ	-6963
▁ಶಾಖ	-6964
▁ಅಕಾಡೆ	-6965
ಿಕೊಂಡಿರುವ	-6966
▁ಆದಿತ್ಯನಾಥ್	-6967
ಂತೆಯೂ	-6968
▁ಅಭಿನಯದ	-6969
▁ಸ್ಪೋರ್ಟ್	-6970
ಂಡೆ	-6971
ವುಗಳು	-6972
▁ಬಗೆಹರಿಸ	-6973
▁ಹಾರ್ದಿಕ್	-6974
▁ವ್ಯಕ್ತಿಗಳು	-6975
▁ಕಾಪಾ	-6976
▁ಭುವನ	-6977
ವುಗಳನ್ನು	-6978
▁ಪರಂಪ	-6979
▁ಐಗುಪ್ತ	-6980
ಿಸಬಹುದಾಗಿದೆ	-6981
ಜೀವಿ	-6982
▁ಸರಬ	-6983
▁ಶಿಖರ್	-6984
▁ಪದ್ಧತಿ	-6985
▁ಹೋಗಿದೆ	-6986
▁ಪ್ರಾಧಿಕಾರ	-6987
ಯಾರ್ಕ್	-6988
▁ವಿಲಿಯ	-6989
▁ಮೆಟ್ಟಿ	-6990
▁ವೇಳೆಗೆ	-6991
ic	-6992
ದರ್	-6993
▁ತೊಡ	-6994
ಗಳಿಗಿಂತ	-6995
▁ಪರಮೇಶ್	-6996
▁ಅಂದುಕೊಂಡ	-6997
▁ಸ್ವಭಾವ	-6998
▁ಅಭ್ಯರ್ಥಿಯಾಗಿ	-6999
ಿನಿಂದಲೂ	-7000
▁ಮನೋಹರ್	-7001
▁ಕೈಗಾರಿಕೆ	-7002
▁ರೂಪದಲ್ಲಿ	-7003
▁ಘಟನಾ	-7004
▁ವಿಮೋಚ	-7005
▁ಹೋಯಿತು	-7006
▁ವೈದ್ಯರನ್ನು	-7007
▁ಕರುಣ	-7008
▁ಏನಿದೆ	-7009
▁ಮುಚ್ಚಿ	-7010
▁ಏರ್ಪಡ	-7011
▁ಸಂಘರ್ಷ	-7012
▁ಬಹಿರಂಗಪಡ	-7013
▁ಮಾತನಾಡುವ	-7014
▁ಇಂಟರ್ನೆಟ್	-7015
▁ಇಸ್ಲ	-7016
▁ದಾಳಿಗೆ	-7017
▁(1	-7018
▁ವರು	-7019
▁ಠಾಕೂರ್	-7020
▁ಸಂಘಟನೆಯ	-7021
▁ಪುಷ್	-7022
▁ವಲಸೆ	-7023
▁ಕೊಂಡು	-7024
▁ಸೆನ್ಸಾರ್	-7025
▁ಕರೆದುಕೊಂಡು	-7026
▁ಆದಷ್ಟು	-7027
ವಾಗಲಿ	-7028
▁ರೋಮಾ	-7029
▁ಐಫೋನ್	-7030
▁ಆಯೋಗದ	-7031
▁ಅಯೋಧ್ಯ	-7032
▁ಶಾಹ	-7033
▁ಸ್ಪಷ್ಟನೆ	-7034
ಿಕೊಳ್ಳುವುದು	-7035
▁ಮನಸ್ಸಿನಲ್ಲಿ	-7036
ಕೊಳ್ಳುವ	-7037
▁ಗ್ರಾಮದ	-7038
ಂಬು	-7039
▁ಧಾನ್ಯ	-7040
▁ಒಕ್ಕೂಟ	-7041
▁ಹೊರತುಪಡಿಸಿ	-7042
▁ಹಿಮಾ	-7043
▁ಸಂಸತ್	-7044
▁ರಾಸ	-7045
▁ಆಪಲ್	-7046
▁ನಂಬರ್	-7047
▁ಪರಿಣಾಮಕಾರ	-7048
ವಿಯ	-7049
ದ್ದೇಶ	-7050
▁ಆವರಣ	-7051
▁ಕ್ರಿಮ	-7052
▁ಸಮೀಪದ	-7053
▁ಪರದ	-7054
▁ಗುಡ	-7055
▁ಚರ್ಚ್	-7056
ಬೇಕಾದರೆ	-7057
▁ಅವರಿಗೂ	-7058
▁ಗೆಳೆಯ	-7059
ಭಿವೃದ್ಧಿ	-7060
ಡ್ಡು	-7061
▁ಹೆಚ್ಚಿಸಲು	-7062
ೊಳಗಿಂದ	-7063
ಮ್ಯಾಟಿಕ್	-7064
▁ನವೆಂಬರ್	-7065
▁ದ್ವಿಚಕ್ರ	-7066
▁ಯೋಜನೆಗಳು	-7067
▁ಒಪ್ಪಂದಕ್ಕೆ	-7068
ಗೀ	-7069
ann	-7070
ಾನಿಕ್	-7071
▁ಪಡೆಯುತ್ತಿದ್ದಾರೆ	-7072
ಬಿಜೆಪಿ	-7073
▁ನಾಯ್ಡು	-7074
ಿಯಲ್ಲಿರುವ	-7075
▁ಲೇಖನದಲ್ಲಿ	-7076
▁ಟ್ರೋ	-7077
ಲಾಗುವುದಿಲ್ಲ	-7078
▁ಕಪಿ	-7079
▁ಕೊಂದ	-7080
▁ಹಿಂಪ	-7081
▁ಪ್ರವೃತ್ತ	-7082
ರೀಕ್ಷಿತ	-7083
▁ಪುನರುತ್ಥ	-7084
▁ಸಂಚಾರಕ್ಕೆ	-7085
ಿಕಾಂಡ	-7086
ಿನಂತೆ	-7087
ಿಕೆಗಳು	-7088
ಳಿಯನ್ನು	-7089
▁ತನಿಖೆಯನ್ನು	-7090
25	-7091
ಫಾ	-7092
▁ನೀಲಿ	-7093
▁ಪೋರ್	-7094
ಂಗ್ಟನ್	-7095
▁ಗ್ರಾಹಕರು	-7096
ra	-7097
▁ಒಮ್ಮ	-7098
▁ಗಾಂಧೀ	-7099
ಬೂ	-7100
▁ಸ್ತ	-7101
▁ತಯಾರಕ	-7102
▁ಮಂಡಳಿಯ	-7103
▁ಅವಕಾಶವನ್ನು	-7104
ಿದ್ದಾಗ	-7105
▁ಎಸ್ಯುವ	-7106
▁ಜ್ಯ	-7107
▁ಅಸ್ತ	-7108
▁ಅಭಿವೃ	-7109
▁ಗಮನಿಸಿ	-7110
▁ಯಾರಾದರೂ	-7111
▁ದಿನಾಚರಣೆ	-7112
▁ಯುವಜನ	-7113
▁ಪರಿಣಾಮಕಾರಿ	-7114
▁ಮುಂದುವರೆದಿದೆ	-7115
▁ಸುಳಿ	-7116
▁ಮಾಡುವಾಗ	-7117
▁ಮಾತ್ರವಲ್ಲದೆ	-7118
▁ಠಾಣಾ	-7119
▁ಭಾರತ್	-7120
▁ದುಬಾರಿ	-7121
ಿನಾ	-7122
▁ಷಾ	-7123
▁ಕೋರಿ	-7124
ದ್ದೀನ್	-7125
▁ಗಣನೀಯ	-7126
▁ಬ್ರಹ್ಮ	-7127
▁ಸಾವಿಗೆ	-7128
▁ದೂ	-7129
▁ತೋರಿಸುವ	-7130
▁ಸರಿಯಲ್ಲ	-7131
▁ಇಲ್ಲಿಯವರೆಗೆ	-7132
ಕರೆ	-7133
ಸಿಯಂ	-7134
▁ಕಿಡ	-7135
ತಕ್ಕ	-7136
ಹಾರಿ	-7137
▁ಎಂಎಸ್	-7138
▁ದೀಪಕ್	-7139
▁ನಿದ್ರ	-7140
▁ಸಾಧಿಸಿದೆ	-7141
ೀಟ್	-7142
▁ರವರೆಗೆ	-7143
▁ಆದಿಕಾಂಡ	-7144
▁ಚಿದಂಬರಂ	-7145
▁ತಿಳಿದುಬಂದಿಲ್ಲ	-7146
▁ಬದಲಾವಣೆಗಳನ್ನು	-7147
▁ಹೋರಾಡ	-7148
▁ಚರ್ಚೆಗೆ	-7149
ಗಾದ	-7150
ಾಜಪೇಯ	-7151
▁s	-7152
▁ಪ್ರಾಣಿ	-7153
▁ಸಲಹೆಗಳು	-7154
ಗೊಳ್ಳಲಿದೆ	-7155
ಜುನ	-7156
▁38	-7157
ಿದ್ದೀರಾ	-7158
▁ಬೆಲೆಯಲ್ಲಿ	-7159
ಬಲ್ಸ್	-7160
▁ನಿತಿನ್	-7161
▁ಸ್ಪಿ	-7162
▁ಗಾಯಗಳ	-7163
▁ವರ್ಗದ	-7164
▁ನಡೆಸಿದೆ	-7165
,99	-7166
ಜಿಯ	-7167
▁ಪರಿಷತ್	-7168
▁ಇನ್ನೊಬ್ಬ	-7169
▁ಮಗನ	-7170
ಫೈನಲ್	-7171
▁ಟ್ರಾ	-7172
▁ವಾಸ್ತವದಲ್ಲಿ	-7173
▁ಪ್ರವಾಸಿಗ	-7174
▁ಸುದ್ದಿಗೋ	-7175
ಲಾಂ	-7176
ಭ್ಯಾಸ	-7177
▁ನೇಪಾಳ	-7178
▁ವಹಿವಾಟು	-7179
▁ಮರಾ	-7180
▁ಕರೆದೊಯ್ಯ	-7181
▁ಇದಾದ	-7182
▁ಅಧ್ಯಕ್ಷರು	-7183
▁ದೀಕ್ಷಾಸ್ನಾನ	-7184
ರುವೆ	-7185
▁ಮಗಳ	-7186
▁ಸಮ್ಮಿ	-7187
▁ಗುಣಮುಖ	-7188
ಂಜಿನಿಯರ್	-7189
▁ವರದಿಯನ್ನು	-7190
ಿಸಿಕೊಂಡರು	-7191
ಶಕ್ತಿ	-7192
▁ತಿಮೊ	-7193
▁ನೆನಸ	-7194
▁ಯುವಕ	-7195
ಡುವಂತೆ	-7196
▁ಖರ್ಗೆ	-7197
▁ಅದಕ್ಕೂ	-7198
▁ನಿಮ್ಮಲ್ಲಿ	-7199
▁ಅಂತರಾಷ್ಟ್ರೀಯ	-7200
ವಾಣ	-7201
▁ಮನೆಯಿಂದ	-7202
▁ಮಹೇಂದ್ರ	-7203
▁ಕ್ರೆಡಿಟ್	-7204
▁ಗಾಯಕ	-7205
▁ಮಗುವಿಗೆ	-7206
▁ರಾಜಧಾನಿ	-7207
▁ವೃತ್ತಿಪರ	-7208
▁ಮಂದಿಯನ್ನು	-7209
▁ಸುಬ	-7210
▁ಮ್ಯ	-7211
▁ಫಿಲ್	-7212
▁ಅಬ್ರಹಾಮ	-7213
ರೇಟ್	-7214
ಿತಾಯ	-7215
▁ಗಳಿಸಿ	-7216
▁ಸುಲಭವ	-7217
▁ಅಚ್ಚರಿ	-7218
▁ಅಮೆರಿಕಾ	-7219
▁ಅಷ್ಟಕ್ಕೂ	-7220
▁ಕಾಣುತ್ತದೆ	-7221
▁ಪ್ರಶ್ನಿಸಿದ್ದಾರೆ	-7222
ada	-7223
ಎಂಪಿ	-7224
▁ಚಾರ್ಜ್	-7225
▁ವಿಗ್ರಹ	-7226
▁ಕಾರಿನಲ್ಲಿ	-7227
▁ಸರಳವಾಗಿದೆ	-7228
ಡರ	-7229
▁ಅವುಗಳು	-7230
▁ದಾಖಲಾಗ	-7231
▁ಮೇಲ್ಮನ	-7232
▁ಸರೋ	-7233
ಪ್ಸ್	-7234
▁ಸಭಾ	-7235
ವಿಲ್ಲದೆ	-7236
▁ಅಧಿಕೃತವಾಗಿ	-7237
▁ಪಂದ್ಯವನ್ನು	-7238
ಕಲ್ಪ	-7239
▁ಮೆಡ	-7240
▁ಪುರಾವ	-7241
▁ಹೃದಯದ	-7242
ನಾಗ	-7243
ಾಕು	-7244
▁ಇರುತ್ತವೆ	-7245
▁ಬಿಹೆಚ್ಪಿ	-7246
ಮನೆ	-7247
ೀಡ್	-7248
▁ಚಿರ	-7249
▁ನೆರೆಯ	-7250
▁ಅಪೇಕ್ಷ	-7251
▁ತೆಗೆದುಕೊಳ್ಳಿ	-7252
ಕಾರದ	-7253
ಾಗ್ಗೆ	-7254
ವಿಶ್ವಾಸ	-7255
▁ಅರಸನಾದ	-7256
▁ಬರುತ್ತಿದೆ	-7257
▁ಗಳಿಸಿದ	-7258
▁ಪಲ್	-7259
▁ಹೊಡೆಯ	-7260
▁ಪೂಜಾರಿ	-7261
▁ಇಂದಿರಾ	-7262
▁ಮೆಗಾಪಿ	-7263
ರುತ್ತೇನೆ	-7264
▁ಇಂಡಿಯನ್ಸ್	-7265
ರತ್ತು	-7266
▁ದೂರದ	-7267
▁ಸಿಂಹ	-7268
▁ನೀಡುತ್ತಾರೆ	-7269
▁ಆರಾಮ	-7270
▁ಹಕ್ಕುಗಳ	-7271
▁ವರದಿಯಾಗಿದೆ	-7272
ಗುಲ	-7273
▁ಒಡೆಯ	-7274
▁ಬಿಲ್	-7275
▁ಆಗಸ್ಟ್	-7276
▁ಮಾತ್ರವೇ	-7277
▁ಉಚಿತವಾಗಿ	-7278
▁ವ್ಯಾಖ್ಯಾನ	-7279
ರಂತೆ	-7280
▁ಕೊಡಿ	-7281
▁ಮಾಡಬೇಕೆಂದು	-7282
ಿಸಿಕೊಳ್ಳಬೇಕು	-7283
ಂದರ್	-7284
ಮಾಡಿದ	-7285
▁ಬೆಳೆದ	-7286
▁ಬೆಳಕಿಗೆ	-7287
ರ್ಮನ್	-7288
▁2015	-7289
▁ಜಾಹೀರಾ	-7290
ಲಾಗುತ್ತಿತ್ತು	-7291
▁ತೀರ್ಪನ್ನು	-7292
▁ಲಿಖ	-7293
ಾಯನಿಕ	-7294
▁ಸೇವನೆ	-7295
▁ಮಲ್ಲಿಕಾರ್	-7296
ಮಾಡಲು	-7297
▁ಉಡುಗ	-7298
▁ತರಗತಿ	-7299
▁ರಷ್ಯಾ	-7300
▁ಜಾರ್ಖಂಡ್	-7301
▁ನಿಧಾನವಾಗಿ	-7302
▁ಸಲ್ಲಿಸಿದ್ದರು	-7303
ದಾದ	-7304
ರೆಸ	-7305
▁ವೇಳಾಪ	-7306
▁ಇವರಲ್ಲಿ	-7307
▁ಇಡಿ	-7308
▁ಬಾಸ್	-7309
▁ಕಾರುಗಳ	-7310
▁ದಾಖಲೆಗಳನ್ನು	-7311
ಗಿರಿ	-7312
ಮಂಡ	-7313
ಪ್ರಸ	-7314
▁ಪಡೆಯಬಹುದು	-7315
▁ಯಶಸ್ವಿಯಾಗಿ	-7316
▁ಅಬ್ಬ	-7317
ೋದಿಲ್ಲ	-7318
ಹುತ	-7319
▁ಆಧರಿಸಿ	-7320
▁ಸಿನ್ಹಾ	-7321
▁ನೇಮಕಾತಿ	-7322
▁ಪ್ರಾಯೋಗ	-7323
▁ಮಂದಿಗೆ	-7324
▁ಹೇಳಿಕೆಯನ್ನು	-7325
▁64	-7326
▁ನೀಡಿತು	-7327
▁ಮೋದಿಯವರ	-7328
▁ಬೆರ	-7329
▁ಕರಣ್	-7330
▁ತೆರವು	-7331
▁ನ್ಯೂಯಾರ್ಕ್	-7332
▁1/	-7333
ಕ್ಯೂ	-7334
▁ಅಷ್ಟೆ	-7335
▁ಶಾರುಖ್	-7336
▁ಮುಂಬೈನಲ್ಲಿ	-7337
ನಿಜ	-7338
▁ತೆರೆದ	-7339
ಾಭಿಪ್ರಾಯ	-7340
▁ಛತ್ತೀಸ್	-7341
ಾಡಿ	-7342
ಡಿಯು	-7343
ಮ್ರಾ	-7344
▁ವಿಚಾರವನ್ನು	-7345
▁ನೆಲದ	-7346
▁ದರ್ಶನ	-7347
▁ಉತ್ತರಾ	-7348
▁ಚೊಚ್ಚ	-7349
▁ಕಾರಣವಾಗುತ್ತದೆ	-7350
ಶ್ರಮ	-7351
▁ಆಶ್ರಯ	-7352
▁ಸಮಸ್ಯೆಯ	-7353
▁ಕಾರ್ಮಿಕರು	-7354
!"	-7355
ಮಲ	-7356
ಕಾಯ	-7357
▁ಅಥವ	-7358
▁ಅನುಕೂಲಕರ	-7359
ರಣಾ	-7360
ಾಗಳು	-7361
▁ಆಗಾಗ	-7362
▁ಹಾಕುವ	-7363
ಮಂದಿರ	-7364
▁ಕಿರಿಯ	-7365
▁ಸೇವಿಸಿ	-7366
ಕದ್ದ	-7367
ವಾರದ	-7368
▁ಚೇತರಿಸ	-7369
▁ಸರಕಾರವು	-7370
ಪೇ	-7371
ರಹಿತ	-7372
▁ಉಳಿತಾಯ	-7373
▁ಚರ	-7374
ಾಘಾತ	-7375
▁ಪೂರಕ	-7376
▁ಪವಾರ್	-7377
▁ಹುಡುಗಿ	-7378
▁ಹೆಗ್ಗಳ	-7379
▁44	-7380
ಗಿದ್ದ	-7381
▁ತ್ರ	-7382
annada	-7383
▁ಐಶ್ವರ್ಯ	-7384
▁42	-7385
ಾಂಶು	-7386
▁ಶಮಿ	-7387
ವಾಹಕ	-7388
ಲೀಕರಣ	-7389
▁ಹಾರ್	-7390
▁ಉಡುಗೊ	-7391
▁ಪಡೆದಿ	-7392
▁ಮೊದಲಿಗೆ	-7393
▁ಆಗುತ್ತಿಲ್ಲ	-7394
▁ಮಾಡಲಿದ್ದಾರೆ	-7395
▁ನೈಜ	-7396
▁ವಿಪರೀ	-7397
▁ಯಾವುದೆ	-7398
▁ವಾಜಪೇಯ	-7399
▁ಬಲಿಷ್ಠ	-7400
ಡೊ	-7401
▁ಮಾನದಂಡ	-7402
▁ಪ್ರಸಕ್ತ	-7403
▁ಅಭಿನಂದನೆ	-7404
▁ತುತ್ತ	-7405
▁ಖಾತ್ರಿ	-7406
ಷಿಕ್ತ	-7407
▁ಪತ್ತೆಯ	-7408
▁ಇತ್ಯಾದಿ	-7409
▁ತೊಳೆಯಿರಿ	-7410
ರದೃಷ್ಟ	-7411
▁ಕೊಡಲು	-7412
▁ಸಿಗಲಿಲ್ಲ	-7413
▁ಸತ್ಯವನ್ನು	-7414
ೀಯಾ	-7415
▁ಆಲಿ	-7416
▁ಉಸಿರಾಟ	-7417
▁ವಿಚಾರವಾಗಿ	-7418
್ನ	-7419
▁ದೀನ	-7420
▁ವಿತರಣೆ	-7421
▁ವಂಚನೆ	-7422
▁ಸಮಾಲೋಚ	-7423
▁ಮಳ	-7424
ಲೀಸರು	-7425
▁ತೆಂಡ	-7426
▁ನಿಲುವ	-7427
▁ಆಕ್ರಮಣ	-7428
▁ಪಾರ್ಕ್	-7429
ಜನ್	-7430
▁ಪುಲ್	-7431
▁ದೇಶಿಯ	-7432
▁ಆಗಿದ್ದರು	-7433
▁ಹಾಗಿದ್ದರೂ	-7434
▁ಯುಗ	-7435
▁ಸ್ಪೆ	-7436
▁ತಕ್ಕಂತೆ	-7437
▁ಸ್ಟೆ	-7438
▁ಬದುಕಿನ	-7439
▁ಭೇಟಿಯಾಗ	-7440
ಗೊಂಡಿತ್ತು	-7441
▁ಸದ್ಯದಲ್ಲೇ	-7442
▁ನಿಯಂತ್ರಿಸಲು	-7443
ಗೇಟು	-7444
▁ದಶಕ	-7445
▁ಲ್ಯ	-7446
▁ಡೇಟಾ	-7447
▁ಬಾಯಿ	-7448
▁ಮೊಕದ್ದ	-7449
▁ಕೊಟ್ಟನು	-7450
▁ಕಾರ್ಯವನ್ನು	-7451
▁ಗಾಯಗಳಾಗಿವೆ	-7452
▁ಜೀರ್ಣ	-7453
▁ಮಾಡಲಿ	-7454
▁ಸಿಆರ್	-7455
▁ಬೆಳಗ್ಗೆ	-7456
▁ವಿವರಗಳು	-7457
▁ಸೆಮಿಫೈನಲ್	-7458
▁ಬೈಕ	-7459
▁ಯಾಕೆಂದರೆ	-7460
▁ಅಂಟ	-7461
▁ರೇಖ	-7462
▁ವಾಸ್ತು	-7463
▁ನಿರ್ಮಾಪಕ	-7464
▁ಟೂರ್ನಿಯಲ್ಲಿ	-7465
▁ತಳ	-7466
ರನ್ನ	-7467
▁ಸದು	-7468
▁ಪರಿವರ್ತ	-7469
▁ಪ್ರತಿಫಲ	-7470
▁ಡಿಸೆಂಬರ್	-7471
▁ಮಕ್ಕಳಲ್ಲಿ	-7472
▁ಮಾರ್ಗದರ್ಶನ	-7473
ಸದ	-7474
▁ತಾಲೂಕ	-7475
▁ಸೇನೆಯ	-7476
▁ಎಲ್ಲಿಗೆ	-7477
▁ಶ್ರೀರ	-7478
▁ಹೋಗುತ್ತದೆ	-7479
ಕೊಂಡಿದೆ	-7480
▁ಉಮೇಶ್	-7481
▁ನಾಮಪತ್ರ	-7482
▁ಅದೃಷ್ಟವಶಾತ್	-7483
ಲಾತಿ	-7484
▁ಏನ್	-7485
▁ಸ್ನಾನ	-7486
▁ಸಮುದಾಯದ	-7487
▁ದಂತ	-7488
▁ಜಿಬಿ	-7489
▁ಸಮತೋ	-7490
▁ತಪಾಸಣೆ	-7491
▁ಬೆರೆಸಿ	-7492
▁ನಿರ್ದೇಶಕರು	-7493
ವೆನ	-7494
▁ಗ್ರೂಪ್	-7495
ಡ್ಮಿಂಟನ್	-7496
▁ಬಿಜೆಪಿಯವರು	-7497
▁ಸೊಲೊ	-7498
್ಯಾಂಡ್	-7499
▁ಲಿಂಕ್	-7500
▁ವ್ಯಾಪಾರಿ	-7501
▁ಭಯೋತ್ಪಾದನೆ	-7502
ಾಮುಖ	-7503
ುತ್ತೀರಾ	-7504
▁ಒತ್ತಿ	-7505
ತಿಥ	-7506
▁ಬಂದಿತ್ತು	-7507
▁ವಿರೋಧಿಸಿ	-7508
▁ತಮಿಳುನಾಡಿನ	-7509
▁ಬಂದರೆ	-7510
ಾಲಯದ	-7511
ಡ್ನ	-7512
ವುದೇ	-7513
ವರಿಂದ	-7514
▁ಅಗರ್	-7515
▁ನಿಗಮ	-7516
▁ಜಾಧವ್	-7517
ಗೆಯ	-7518
▁ಜಸ್	-7519
ೂಲ್ಕರ್	-7520
▁ಸುನಿಲ್	-7521
▁ಗಮನಕ್ಕೆ	-7522
ವೊಂದರಲ್ಲಿ	-7523
▁ಒಪ್ಪಿಕೊಳ್ಳ	-7524
▁ದುರದೃಷ್ಟ	-7525
▁ಹಂಗ	-7526
▁ಸುಲಭವಲ್ಲ	-7527
▁ಅಭಿವೃದ್ಧಿಯ	-7528
▁ಪ್ಲಾಸ್ಟಿಕ್	-7529
▁ತೇಜ	-7530
▁ಆರೋಪಿಸಿದರು	-7531
▁ಪಾಕಿಸ್ತಾನಕ್ಕೆ	-7532
▁ಕಾರ್ಯಕ್ರಮಗಳನ್ನು	-7533
60	-7534
ಯುತ	-7535
ವ್ಯಾ	-7536
▁ಅನಾಹುತ	-7537
▁ಹೃದಯಾಘಾತ	-7538
▁ಓದುತ್ತ	-7539
▁ಗೊತ್ತೇ	-7540
▁ಪ್ರಾಂತ್ಯ	-7541
▁ಸಲ್ಲಿಸಲು	-7542
▁ಹಂಚಿಕೊಳ್ಳ	-7543
ೇರಿತ	-7544
▁ಅಜಯ್	-7545
▁ಶೇಕಡ	-7546
▁ಮ್ಯಾನು	-7547
▁ವಿರೋಧವಾಗಿ	-7548
▁ಕೌಶಲ್ಯ	-7549
▁ಧನಾತ್ಮಕ	-7550
▁ಕ್ರಿಮಿನಲ್	-7551
▁ಸಾರಿ	-7552
▁ಹಿತಾಸ	-7553
▁ಸರಕಾರಕ್ಕೆ	-7554
▁ಅಜಿತ್	-7555
▁ನೆನಪು	-7556
▁ತೆಂಡೂಲ್ಕರ್	-7557
ಆದರೆ	-7558
▁ಪಾರ್ಟಿ	-7559
▁ಪರಿಗಣಿಸಿ	-7560
ಜಾನ್	-7561
▁-19	-7562
ಎಕ್ಸ್	-7563
▁ಮುನ್ನಡೆಸ	-7564
▁ಹಿಂದಿರುಗ	-7565
ಿಯಾದರು	-7566
▁ನಮ್ಮದು	-7567
▁ಸಾಕ್ಷ್ಯ	-7568
▁ಗಲಾ	-7569
▁ಆಮದು	-7570
ಗೊಂಡಿವೆ	-7571
▁ಖಚಿತಪಡ	-7572
ಬಹುದೇ	-7573
ಾಲೋ	-7574
ನ್ನರ್	-7575
ಾಗಿದ್ದವು	-7576
▁ಅಬ್ದುಲ್	-7577
▁ಪರಾ	-7578
▁ಧ್ವನ	-7579
▁ಸಂಶಯ	-7580
▁ಸರಾಸರಿ	-7581
▁ನನ್ನಲ್ಲಿ	-7582
▁ವಂಶ	-7583
▁ಹಣ್ಣುಗಳು	-7584
ಎಂಕೆ	-7585
▁ಪರಿಣಮ	-7586
▁ನುಡಿದರು	-7587
▁ಇಟ್ಟುಕೊಳ್ಳ	-7588
▁ಡು	-7589
▁ದಲಿತ	-7590
▁ನೌಕಾ	-7591
▁ಕೀರ್ತ	-7592
▁ಕುಳಿತ	-7593
▁ಮಾಹಿತಿಯ	-7594
▁ಅಧ್ಯಕ್ಷರಾಗಿ	-7595
ಷೇಕ್	-7596
▁ತಿಳುವ	-7597
▁ಸೇರಿಕೊಂಡ	-7598
▁ಬೀರುತ್ತದೆ	-7599
▁b	-7600
ನಾದರೂ	-7601
▁ಗ್ಯಾಲ	-7602
▁ಜಾಗರೂ	-7603
▁ಹೊರಹೊ	-7604
▁ಗಂಗೂಲಿ	-7605
▁ಮೀರ	-7606
▁ಕಾವೇರಿ	-7607
▁ನೀಡುತ್ತಿದೆ	-7608
▁ಅಂತೆಯೇ	-7609
▁ಆಗಮಿಸಿ	-7610
▁ಸಮ್ಮಿಶ್ರ	-7611
▁ಸದ್ದು	-7612
▁ಅಧ್ಯಾಯ	-7613
▁ದೂರವಾಣಿ	-7614
▁ಹತ್ತಿರದ	-7615
▁ತಿರುಗೇಟು	-7616
▁ದಿನಗಳಿಂದ	-7617
ಪ್ರತಿ	-7618
▁ಕಪಿಲ್	-7619
▁ಕ್ರಿಯೆ	-7620
▁ಸಹಕಾರಿ	-7621
▁ಬೇಕಾದರೂ	-7622
▁ಆಟೋಮ್ಯಾಟಿಕ್	-7623
ಿದಾಯಕ	-7624
▁ನಿದ್ರೆ	-7625
▁ಸಮೀಕ್ಷೆ	-7626
▁ಕಾರ್ಯಕ್ರಮಕ್ಕೆ	-7627
ಮಹ	-7628
ಿಪ	-7629
ವೊಂದನ್ನು	-7630
▁ಹೆಚ್ಚಾಗ	-7631
▁ಆದೇಶವನ್ನು	-7632
ಿಮೆ	-7633
ರೆದು	-7634
▁800	-7635
್ಮೆಂಟ್	-7636
▁ಬಾಲಕಿಯ	-7637
▁ದೃಷ್ಟಿಯಿಂದ	-7638
▁ನಿರ್ಮಾಣಕ್ಕೆ	-7639
▁ವದ	-7640
▁ಹಾಳು	-7641
▁ಮನೆಗಳು	-7642
▁ಸಂಸದೀಯ	-7643
▁ಕಟ್ಟುನಿ	-7644
▁ಮಾಡಿಕೊಳ್ಳಬೇಕು	-7645
▁ನಂಬಿಕೆಯನ್ನು	-7646
ಹೊಂದ	-7647
ಾಗ್ರಹ	-7648
▁ಇದನ್ನೇ	-7649
▁ದತ್ತಾಂಶ	-7650
▁ತೆರಳಿ	-7651
▁ನಿರಾಕ	-7652
▁ಮೂತ್ರ	-7653
▁ಕಳವಳ	-7654
▁ಅಲ್ಪಸಂ	-7655
▁ಶತಮಾನದ	-7656
▁ಕೋವಿಂದ್	-7657
▁ಮನುಷ್ಯನು	-7658
ಣಾಮ	-7659
▁ಕಮಾ	-7660
▁ಒಳಪಡ	-7661
▁ರಫ್ತು	-7662
ಾಂಶುಪಾಲ	-7663
▁ಇಂದಿಗೂ	-7664
ರಿಕೆಯ	-7665
▁ಗಟ್ಟ	-7666
▁ತ್ಯಾಗ	-7667
▁ಜಿಲ್ಲಾಡಳಿತ	-7668
ಪಡೆಯ	-7669
▁ಹಾಕಲು	-7670
▁ಯುವಕನ	-7671
▁ಜಾರ್ಜ್	-7672
▁ರಾಜೇಶ್	-7673
ಬೇಕಾಯಿತು	-7674
▁ನಿರ್ವಹಣಾ	-7675
▁ಶ್ರೀನಿವಾಸ	-7676
ಕೇ	-7677
ರ್ಣ	-7678
ುದೇ	-7679
▁ಮ್ಯಾನ	-7680
▁ಪಡುವ	-7681
▁ಕಟ್ಟಿ	-7682
▁ನಿಗದಿತ	-7683
ಿಕೆಗಳನ್ನು	-7684
▁ಸೇರ್ಪಡೆಯ	-7685
ವೇಂದ್ರ	-7686
▁ತಾಳ್ಮ	-7687
ಗಳಿಂದಾಗಿ	-7688
▁ಒಲಿಂಪಿಕ್ಸ್	-7689
ತಾರ	-7690
▁65	-7691
▁ಡ್ಯು	-7692
▁ಭಾಗವಾಗಿ	-7693
▁ಹೊರಹೊಮ್ಮ	-7694
▁ನಮಗೂ	-7695
▁ಹಳದಿ	-7696
▁ಕ್ರಿಯಾ	-7697
▁ಸಂಬಂಧಿತ	-7698
▁ಸಂಯುಕ್ತ	-7699
▁ಹೇಳುತ್ತೇನೆ	-7700
ಡೀ	-7701
ತಂಡ	-7702
▁ಜಲಾ	-7703
▁ಉಪ್ಪ	-7704
▁ಕೇಳಿದರು	-7705
▁ಮಗುವನ್ನು	-7706
ಲಾರೆ	-7707
▁ಅಂಡ್	-7708
▁ಕಾಫಿ	-7709
▁ಎಲ್ಲೂ	-7710
▁ದರದಲ್ಲಿ	-7711
▁ರಾಸಾಯನಿಕ	-7712
▁ಹುದ್ದೆಗೆ	-7713
▁ಬಂದಿದ್ದಾರೆ	-7714
▁ನಿವೃತ್ತಿ	-7715
▁ಸ್ಥಾನಗಳಲ್ಲಿ	-7716
▁ವ್ಯಕ್ತಿಯನ್ನು	-7717
▁ನಯ	-7718
ಾಜ್ಞ	-7719
▁ತಾಜಾ	-7720
▁ಸಂಬಳ	-7721
▁ಕೊಡಬೇಕು	-7722
▁ಅನುಗುಣವಾಗಿ	-7723
▁ಇತಿಹಾಸದಲ್ಲಿ	-7724
▁ಶರೀರ	-7725
▁ಬೆಳಕು	-7726
▁ಗ್ರಾಹಕರ	-7727
▁ಪ್ರತ್ಯುತ್ತ	-7728
ೇತನ	-7729
▁ಉದ್ಧ	-7730
▁ಹೆಡ್	-7731
ಿಯಾಗಿತ್ತು	-7732
▁ಸರ್ಕಾರಗಳು	-7733
▁ಆರಂಭಿಸಿದ್ದಾರೆ	-7734
▁ಆಗಿವೆ	-7735
▁ಕೊರತೆಯ	-7736
▁ಪರೀಕ್ಷೆಯ	-7737
▁ಹೋಲಿಸಿದರೆ	-7738
▁ದಾಖಲಿಸಿಕೊಂಡಿರುವ	-7739
▁ದೆ	-7740
ರಣೆಗೆ	-7741
▁ದೇಶಗಳು	-7742
▁ಹಂಚಿಕೆ	-7743
▁ಹೊಟ್ಟೆ	-7744
▁ವಾಗ್ದಾನ	-7745
▁ಏರಿಕೆಯಾಗಿದೆ	-7746
▁ಕಮಲ್	-7747
▁ನಿಗಾ	-7748
▁ಅಭಿವ್ಯ	-7749
▁ದೀಪಾವಳಿ	-7750
▁ಫೋಟೊ	-7751
▁ರುಚಿ	-7752
ಿಯೊ	-7753
ಮೀಟರ್	-7754
▁ಮಧುಮೇಹ	-7755
▁ಅಭಿಷೇಕ್	-7756
▁ಆಗಮಿಸಿದ	-7757
▁ಎಲ್ಲಿಯೂ	-7758
▁ಭಿನ್ನಾಭಿಪ್ರಾಯ	-7759
್ತಾ	-7760
ಬೇಕೆ	-7761
▁ಲಿಖಿತ	-7762
▁ಶಿಲ್ಪ	-7763
▁ಮಾರ್ಗದಲ್ಲಿ	-7764
ಬಿದ್ದ	-7765
▁ಸಾಬೀ	-7766
▁ಆರೋಪದ	-7767
▁ಸಿಗುತ್ತಿಲ್ಲ	-7768
▁ಕೈಗೆತ್ತ	-7769
▁ತೋರುತ್ತದೆ	-7770
▁ಜಗದ	-7771
▁ಮಾತುಕ	-7772
▁ಹೇಗಿದೆ	-7773
ುವುದರಲ್ಲಿ	-7774
▁ಮನಸ್ಸಿಗೆ	-7775
▁ಮಾಡಿಕೊಳ್ಳಿ	-7776
▁ಕರೀನಾ	-7777
▁ಖಿನ್ನ	-7778
▁ಯುವತಿ	-7779
▁ವಿಷಾದ	-7780
▁ಸುಶಾಂತ್	-7781
▁ವಿಸ್ತರಣೆ	-7782
ದಾರರು	-7783
▁ಹಿಟ್ಟು	-7784
▁ರಸ್ತೆಗಳು	-7785
▁ವಹಿಸಬೇಕು	-7786
▁ಮುಂಭಾಗದಲ್ಲಿ	-7787
▁ಆರಂಭವಾಗಿದೆ	-7788
▁ಮೆಂಟ್	-7789
ರಿಯಲ್ಲಿ	-7790
▁ಬ್ಯಾಕ್	-7791
▁ಮಾತನಾಡಲು	-7792
ುವದು	-7793
▁ಸಾಬೀತು	-7794
ಕಾಲದಲ್ಲಿ	-7795
ಗೊಂಡಿರುವ	-7796
▁ಸಾಧಿಸಲು	-7797
▁ವಿನಾಯಿತಿ	-7798
ಗೋಳ	-7799
▁ಆವೃತ್ತಿ	-7800
▁ಲೆಕ್ಕಾಚಾರ	-7801
ಫಲ್ಯ	-7802
▁ಭವನ	-7803
▁ಮೊಳ	-7804
▁ಶಿಪ್	-7805
▁ಕಿಂಗ್	-7806
ವಾಗಬೇಕು	-7807
▁ನೋಡಬಹುದು	-7808
ರೋಪ್	-7809
ಪುಟ್ಟ	-7810
▁ಬಳಸಿಕೊಳ್ಳ	-7811
ಾನೋ	-7812
ತ್ತ್ವ	-7813
▁ಫೋರ್	-7814
▁ಕ್ಲಬ್	-7815
▁ಅಶ್ವಿನ್	-7816
▁4,	-7817
ಷ್ಣು	-7818
▁ಮೊರೆ	-7819
ಿಸಬೇಕಾಗುತ್ತದೆ	-7820
ಗೊಡ	-7821
▁ಕರಿ	-7822
▁ಕಂಪನಿಗಳು	-7823
▁ಪ್ರಾಂಶುಪಾಲ	-7824
▁ಜೀವಿ	-7825
▁ಬಲಪಡ	-7826
▁ಕುಸಿದು	-7827
▁ಹುಟ್ಟುಹಬ್ಬ	-7828
▁ಅಭಿನಯಿಸಿದ್ದಾರೆ	-7829
▁ಕುದು	-7830
▁ಲಾರಿ	-7831
ವಿದ್ದು	-7832
▁ವೇದಿಕೆ	-7833
▁ನಿದ್ದೆ	-7834
ಕಥೆ	-7835
▁ಆದ್ಯ	-7836
▁ಆಗಿರಲಿಲ್ಲ	-7837
▁ವಿಮೆ	-7838
▁ಸಲ್ಲಿಸಿದ್ದ	-7839
▁ಆಲಯ	-7840
▁ಟನ್	-7841
ೂರಿಗೆ	-7842
▁ಮೆಮೊರಿ	-7843
▁ಕೆಲವರಿಗೆ	-7844
▁ಅಭಿಷಿಕ್ತ	-7845
▁9.	-7846
▁ನಮನ	-7847
▁ಉಚ್ಚ	-7848
▁ಬಿಡುವ	-7849
▁ಸರೋವರ	-7850
▁ಹಳ್ಳಿ	-7851
ದ್ದರಿಂದ	-7852
▁ಆತ್ಮಿಕ	-7853
▁ಹಿಂಭಾಗದಲ್ಲಿ	-7854
▁ಕೆರೆ	-7855
▁ಮೇಯರ್	-7856
ರಣೆಯನ್ನು	-7857
▁ಕಿಡಿಕಾರ	-7858
▁ಹೇಳಬಹುದು	-7859
▁ಸ್ಥಾನದಲ್ಲಿದೆ	-7860
▁ಆಗ್ರಹಿಸಿದ್ದಾರೆ	-7861
ವರಲ್ಲ	-7862
▁ಕಬ್ಬಿಣ	-7863
▁ಭರವಸೆಯ	-7864
▁ಉಪನ್ಯಾಸ	-7865
▁	-7866
್	-7867
ಿ	-7868
ರ	-7869
ು	-7870
ದ	-7871
ಾ	-7872
ನ	-7873
ೆ	-7874
ತ	-7875
ಲ	-7876
ಕ	-7877
ವ	-7878
ಗ	-7879
ಸ	-7880
ಯ	-7881
ಮ	-7882
ಂ	-7883
.	-7884
ಪ	-7885
ಳ	-7886
ಡ	-7887
ಬ	-7888
ೇ	-7889
ಹ	-7890
ಟ	-7891
ಅ	-7892
ೂ	-7893
ೀ	-7894
ೊ	-7895
ಜ	-7896
ೋ	-7897
ಚ	-7898
ಶ	-7899
ಇ	-7900
ಆ	-7901
ಣ	-7902
ಷ	-7903
ಎ	-7904
,	-7905
ಧ	-7906
ಭ	-7907
ಥ	-7908
ೈ	-7909
ಈ	-7910
ಖ	-7911
ಒ	-7912
ಉ	-7913
?	-7914
0	-7915
1	-7916
ಫ	-7917
"	-7918
ೃ	-7919
:	-7920
2	-7921
ಏ	-7922
ೌ	-7923
-	-7924
ಘ	-7925
5	-7926
(	-7927
)	-7928
3	-7929
ಐ	-7930
ಠ	-7931
’	-7932
4	-7933
‘	-7934
9	-7935
6	-7936
'	-7937
8	-7938
“	-7939
7	-7940
!	-7941
”	-7942
ಞ	-7943
ಓ	-7944
‍	-7945
a	-7946
e	-7947
o	-7948
n	-7949
i	-7950
s	-7951
ಛ	-7952
/	-7953
—	-7954
r	-7955
t	-7956
ಢ	-7957
ಃ	-7958
m	-7959
⁠	-7960
–	-7961
ಊ	-7962
d	-7963
l	-7964
ಔ	-7965
S	-7966
I	-7967
[	-7968
]	-7969
A	-7970
ಝ	-7971
M	-7972
P	-7973
C	-7974
c	-7975
h	-7976
%	-7977
R	-7978
N	-7979
u	-7980
B	-7981
_	-7982
p	-7983
­	-7984
`	-7985
G	-7986
D	-7987
T	-7988
g	-7989
E	-7990
|	-7991
H	-7992
b	-7993
ೕ	-7994
O	-7995
