<pad>	0
<unk>	0
<sos>	0
<eos>	0
ಲ್	-0
ತ್	-1
▁ಮ	-2
▁ಸ	-3
ಿದ	-4
ನ್	-5
▁ಕ	-6
ಲ್ಲ	-7
▁ನ	-8
ಾರ	-9
▁ಅ	-10
▁ಪ	-11
ಂದ	-12
ಾಗ	-13
್ರ	-14
ನು	-15
ರು	-16
ತ್ತ	-17
▁ಹ	-18
ಿಸ	-19
▁ಬ	-20
ಗಳ	-21
ಕ್	-22
ರ್	-23
್ಯ	-24
▁ವ	-25
ಗೆ	-26
▁ಇ	-27
ನ್ನು	-28
▁ಆ	-29
ಲ್ಲಿ	-30
್ದ	-31
ಿಯ	-32
▁ಎ	-33
ಸ್	-34
▁ತ	-35
ೆಯ	-36
ಿದ್ದ	-37
ರಿ	-38
ವು	-39
▁ಪ್ರ	-40
ಿದೆ	-41
್ಟ	-42
ಿಕ	-43
ದು	-44
▁ರ	-45
ುತ್ತ	-46
▁ದ	-47
▁ಮಾ	-48
ಾಗಿ	-49
ಕ್ಕ	-50
ತ್ತು	-51
ಂದು	-52
▁ಜ	-53
ಂತ	-54
▁ಅವ	-55
ಂಡ	-56
ರೆ	-57
▁ವಿ	-58
ಾನ	-59
▁ಯ	-60
ುವ	-61
ಿನ	-62
▁ಗ	-63
▁ಈ	-64
ನ್ನ	-65
ಾದ	-66
ಾಯ	-67
ಾರೆ	-68
▁ನಿ	-69
ಗಳು	-70
ಿತ	-71
▁ಶ	-72
▁ಮತ್ತು	-73
▁ಭ	-74
▁ಮಾಡ	-75
ದಲ್ಲಿ	-76
ಕ್ಷ	-77
▁ಚ	-78
ಿಲ್ಲ	-79
ಿಗೆ	-80
್ಮ	-81
ಿದ್ದಾರೆ	-82
ಟ್ಟ	-83
▁ಉ	-84
ಲು	-85
▁ಒ	-86
ಂಗ	-87
ಂಬ	-88
ನೆ	-89
ದೆ	-90
ತ್ರ	-91
ಕ್ಕೆ	-92
ಷ್ಟ	-93
▁ಸ್	-94
▁ನೀ	-95
ತಿ	-96
ಾವ	-97
ಿಂದ	-98
ವೆ	-99
ೇಕ	-100
▁ಮು	-101
▁ಆದ	-102
ಟ್	-103
ಾಲ	-104
ಾಗಿದೆ	-105
ಮ್ಮ	-106
ಗಳನ್ನು	-107
ಡೆ	-108
▁ಎಂದು	-109
ೇಶ	-110
ೊಳ	-111
ವನ್ನು	-112
ಚ್	-113
▁ಇದ	-114
ಾಮ	-115
ಾರ್	-116
ಡಿ	-117
ೇಳ	-118
್ಳ	-119
ಾಜ	-120
▁ಸಂ	-121
ರುವ	-122
ವಾಗಿ	-123
ರಿಸ	-124
ೊಂಡ	-125
ವುದ	-126
▁ನಾ	-127
ಪ್	-128
▁ಬಿ	-129
▁ಲ	-130
▁ಹೆ	-131
ಚ್ಚ	-132
ಬೇಕ	-133
▁ಹೊ	-134
▁1	-135
▁ಕೆ	-136
▁ಕಾರ	-137
ವಾ	-138
ಡ್	-139
ಕಾರ	-140
ವಿ	-141
▁ಆದರೆ	-142
ಲೆ	-143
್ಯಾ	-144
ತ್ಯ	-145
ರಣ	-146
▁ಹಾಗ	-147
ಬ್	-148
ತೆ	-149
▁ಏ	-150
ಾಣ	-151
▁ಹೇಳ	-152
ೊಳ್ಳ	-153
ಲಿ	-154
ಿಸಿ	-155
▁ಅವರು	-156
▁ಕು	-157
ಧ್ಯ	-158
ೋಗ	-159
ನಾ	-160
▁ಅದ	-161
▁ಸಿ	-162
▁ಸಮ	-163
ಟಿ	-164
▁ಸಾ	-165
▁ಇದು	-166
ಿದರು	-167
ಿಳ	-168
ುತ್ತದೆ	-169
ಡು	-170
▁ಸು	-171
ಗ್	-172
ವರ	-173
ರಿಗೆ	-174
ದ್	-175
▁ಭಾರ	-176
▁ಅವರ	-177
▁ಬೆ	-178
▁ರಾಜ	-179
ನಿ	-180
ಹು	-181
ೆಯಲ್ಲಿ	-182
ಬ್ಬ	-183
ೀಯ	-184
ಪಿ	-185
ಶ್	-186
▁ನೀಡ	-187
ಕೆ	-188
▁ಭಾರತ	-189
▁ಕೊ	-190
ದ್ದ	-191
▁ಮೂ	-192
ಗಳಲ್ಲಿ	-193
ಂಧ	-194
ತಿಯ	-195
▁ಆಗ	-196
ರಾ	-197
▁2	-198
ವುದು	-199
ದಿ	-200
▁ಫ	-201
ಲೀ	-202
▁ಟ	-203
ಂತೆ	-204
ಬೇಕು	-205
ನ್ಯ	-206
ಿಸಲ	-207
ಿದ್ದರು	-208
▁ಹೆಚ್ಚ	-209
ದ್ಧ	-210
ಾರಿ	-211
▁ಹಾಗೂ	-212
▁ಚಿ	-213
▁ನಿರ್	-214
▁ಕಾ	-215
ತು	-216
▁ಸೇ	-217
ಮಾ	-218
ರೂ	-219
ಾಸ	-220
ಿಕೆ	-221
ಜೆ	-222
▁ನಡೆ	-223
▁ಸ್ಥ	-224
▁ಆರ	-225
ರಿಂದ	-226
ಸ್ಥ	-227
ಿತು	-228
ಿರ	-229
▁ಕೆಲ	-230
ಪ್ಪ	-231
ಧಾನ	-232
ವಾದ	-233
ಂಗ್	-234
▁ಯಾ	-235
ವಾಗ	-236
ಿವ	-237
""	-238
▁ಮೇ	-239
▁ಸಹ	-240
ಂದ್ರ	-241
ಿದ್ದು	-242
▁ತಿಳ	-243
ೆಯನ್ನು	-244
▁ಕ್ರ	-245
▁ಪೊ	-246
▁ಖ	-247
ಗ್ಗೆ	-248
ೆಗೆ	-249
▁ಎಲ್ಲ	-250
▁(	-251
▁ಒಂದು	-252
ಡೆಯ	-253
ವರು	-254
▁ಪೊಲೀ	-255
▁ಬಗ್ಗೆ	-256
▁ಜನ	-257
ಖ್ಯ	-258
ೊಂದ	-259
ಾಕ	-260
▁ಮೊ	-261
ಾರು	-262
ಿಸುತ್ತ	-263
ವೇ	-264
▁ಪ್ರಕ	-265
▁ವ್ಯ	-266
▁ಇಲ್ಲ	-267
▁ಎಂದ	-268
ಿಸುವ	-269
▁ದಾ	-270
ಕ್ತ	-271
ಣೆ	-272
▁ದೇ	-273
▁ಪರಿ	-274
ಜಿ	-275
್ರೆ	-276
▁ಸರ್	-277
ರುತ್ತ	-278
▁ಬಳ	-279
ಿಸಿದ	-280
▁ನಾನು	-281
▁ಗು	-282
ಸಿ	-283
ಂತರ	-284
▁ಕೋ	-285
ಷ್ಟು	-286
ಗೂ	-287
ಂಕ	-288
ಗಳಿಗೆ	-289
ಿಕೊಂಡ	-290
▁ಅಭ	-291
ಬಹು	-292
ದಿಂದ	-293
▁ಕೇ	-294
▁ಮಹ	-295
ಣ್	-296
ುವುದ	-297
ದಲ	-298
▁ಕೂ	-299
▁ಕಾರ್ಯ	-300
ಿರುವ	-301
▁ಡ	-302
ಪಡ	-303
ೂರ್	-304
ನ್ನೂ	-305
▁ನಾವು	-306
ಿಕೊಳ್ಳ	-307
▁ಬಿಜೆ	-308
ಪ್ರ	-309
ಜ್	-310
ುವುದು	-311
ತ್ರಿ	-312
ಿಸಿದ್ದಾರೆ	-313
▁ಚಿತ್ರ	-314
▁ನೋ	-315
▁ನಮ್ಮ	-316
▁ಪು	-317
ತನ	-318
ಷ್	-319
ಳು	-320
▁ಎಂಬ	-321
ಧಿಕ	-322
ಲಿಲ್ಲ	-323
ರಿಯ	-324
▁ರಾ	-325
ಂಭ	-326
▁ಮೋ	-327
ವನ	-328
▁ಗೆ	-329
ರ್ಥ	-330
ಿಸ್	-331
ಸ್ತ	-332
ವಾಗಿದೆ	-333
ಳೆ	-334
▁ಪಾ	-335
ಲೇ	-336
▁ಸರ್ಕಾರ	-337
▁ಮೂಲ	-338
▁‘	-339
▁ಉತ್ತ	-340
ಚಾರ	-341
ನೆಯ	-342
ಿಯಲ್ಲಿ	-343
▁ಧ	-344
ದೇಶ	-345
00	-346
ಗೊಂಡ	-347
ಲಾ	-348
▁ರಾಜ್ಯ	-349
▁ಯಾವುದ	-350
ಕಾ	-351
ಕರ	-352
▁ಘ	-353
▁ಬೇ	-354
ಲಾಗಿದೆ	-355
▁ಅನು	-356
ಾಹ	-357
ದ್ಯ	-358
▁ಕ್	-359
ಿಸಿದರು	-360
ಣ್ಣ	-361
ೆಹ	-362
ಸರು	-363
ಬಹುದು	-364
ದುಕ	-365
▁ದಾಖ	-366
ಿಸಲು	-367
ರೀ	-368
ಳ್ಳ	-369
▁ರೂ	-370
▁ಮೇಲೆ	-371
▁ಮುಖ್ಯ	-372
▁ಹೊಂದ	-373
ುಂಬ	-374
ಸ್ಯ	-375
ೇನೆ	-376
ಕ್ರ	-377
ಲಾಗ	-378
▁ಹೇ	-379
ಂಟ	-380
ಮಾನ	-381
▁ನಿಮ್ಮ	-382
್ರೆಸ್	-383
ನೇ	-384
ಂಪ	-385
▁ಪ್ರಧಾನ	-386
ಟ್ಟು	-387
▁ದೇಶ	-388
ಿತಿ	-389
ಂಗ್ರೆಸ್	-390
▁“	-391
▁ಕೂಡ	-392
▁ಸ್ವ	-393
▁ದಿನ	-394
▁ಐ	-395
▁ಹಿ	-396
▁ನಡೆಸ	-397
▁ಯಾವುದೇ	-398
▁ಬಿಜೆಪಿ	-399
ಡುವ	-400
ಡಿಯ	-401
▁ಪ್ರಕರಣ	-402
▁ಕಾಂಗ್ರೆಸ್	-403
▁ಎರ	-404
▁ಅದು	-405
ರಲ್ಲಿ	-406
▁3	-407
▁ಕೈ	-408
▁ನಲ್ಲಿ	-409
▁ಬಂದ	-410
▁ತನ್ನ	-411
▁ಅಧಿಕ	-412
ಿವೆ	-413
▁ವೈ	-414
ಸೆ	-415
ೊಂದಿಗೆ	-416
▁ನೆ	-417
▁.	-418
ುತ್ತಿದೆ	-419
▁ನೀವು	-420
▁ಆಯ	-421
ಷ್ಟ್ರ	-422
▁ವಿದ	-423
ರೇ	-424
ಮೆ	-425
ಿಯನ್ನು	-426
ಾನ್	-427
▁ಶಿ	-428
ಳಿ	-429
ೊಂದು	-430
ೋಜ	-431
▁ಕಾರಣ	-432
ಗಾಗಿ	-433
ೇವೆ	-434
ಲ್ಪ	-435
▁ಮನ	-436
ಾಪ	-437
▁ಪ್ರತಿ	-438
▁ಅಧ್ಯ	-439
ಂಚ	-440
ೀರ್	-441
▁ಶ್ರ	-442
▁ಅನ	-443
▁ವರ್	-444
ಗೊಳ	-445
..	-446
ಲಿದೆ	-447
ಕ್ಷಣ	-448
ಸು	-449
ರೆಯ	-450
ತರ	-451
▁ವಿರು	-452
ತ್ವ	-453
▁ಯಾವ	-454
▁ಸ್ಪ	-455
ುನ	-456
▁ಹೀ	-457
▁ತಮ್ಮ	-458
▁ಸಚ	-459
▁ಸಂಬ	-460
▁ಹು	-461
▁ಮುಂದ	-462
ರೋ	-463
▁ಪೊಲೀಸರು	-464
ಬಿ	-465
▁ಅಲ್ಲ	-466
ಎಸ್	-467
ಮ್	-468
▁ಉಪ	-469
ಿಯಾ	-470
ಾಯಕ	-471
ಾಂ	-472
▁ನ್ಯ	-473
▁ಕೆಲಸ	-474
▁ಪ್ರಯ	-475
▁ಸ್ಥಳ	-476
▁ಅಗ	-477
ಾಯಿತು	-478
▁ವಿರುದ್ಧ	-479
▁ಏನು	-480
ವಹ	-481
▁ಸಾಮ	-482
▁ಅಪ	-483
▁ಹೇಗೆ	-484
ೂರು	-485
ಗಿ	-486
▁ನನ	-487
ಫ್	-488
ಾನೆ	-489
▁ಸಂಬಂಧ	-490
ಾರ್ಥ	-491
▁ಜೀ	-492
▁ನಂತರ	-493
▁ಸಾಧ್ಯ	-494
ದಲ್ಲ	-495
▁ಓ	-496
ಮಗೆ	-497
▁ಇಲ್ಲಿ	-498
▁""	-499
▁ವಿಷ	-500
ಕು	-501
ೋಷ	-502
▁ಮತ್ತ	-503
▁ಸೂ	-504
▁”	-505
ಲ್ಯ	-506
ಿತ್ತು	-507
▁ಪ್ರಮ	-508
ಿನಲ್ಲಿ	-509
ಸ್ಪ	-510
▁ಅಥ	-511
▁ಗ್ರ	-512
▁ಸಂಪ	-513
▁ಅಂತ	-514
ಡ್ಡ	-515
ರೆಗೆ	-516
▁ಹಿಂದ	-517
▁ಮೋದಿ	-518
▁ಮೂಲಕ	-519
ೂರ	-520
▁ಹೋಗ	-521
ಿಸಿದೆ	-522
▁ಮಕ್ಕ	-523
ಿಸಲಾಗಿದೆ	-524
▁ಹೊಸ	-525
▁ಪಡೆ	-526
▁5	-527
ರ್ಶ	-528
▁ಮೊದಲ	-529
ಂತ್ರ	-530
ಿನಿ	-531
ತ್ಮ	-532
▁ವಿಶ್	-533
▁ಪಕ್ಷ	-534
▁ತೆ	-535
▁ಘಟ	-536
▁ಮಾತ	-537
ಾಲಯ	-538
▁ಇದೆ	-539
ದೇ	-540
▁ಸರ	-541
▁ಕುರಿ	-542
ಮಿ	-543
▁ಹೆಚ್ಚು	-544
▁,	-545
ಿರು	-546
ವೂ	-547
▁ರೈ	-548
▁ನಡೆಯ	-549
▁ವಿಷಯ	-550
ರಿಕ	-551
▁ಅಥವಾ	-552
▁ಕೇಂದ್ರ	-553
ೃತ	-554
▁ಕ್ಷ	-555
ೋದ	-556
ಲೂ	-557
▁ಕರ್	-558
▁ದೊ	-559
▁ಹೊರ	-560
▁ಅಧ್ಯಕ್ಷ	-561
▁ಸೆ	-562
▁ರೀ	-563
ಿಗಳು	-564
ರನ್ನು	-565
▁ಭಾಗ	-566
ರುತ್ತದೆ	-567
ಂತ್ರಿ	-568
▁ವಿದ್ಯ	-569
ರವ	-570
ಕರ್	-571
▁ಜೊ	-572
▁ಎಂದರು	-573
ಟರ್	-574
ಹಾರ	-575
▁ಹಲ	-576
ಕ್ಕೂ	-577
▁ಆರೋ	-578
ೀರ	-579
ಗು	-580
ರೀಕ್ಷ	-581
▁ಬಾ	-582
▁ಯೆಹ	-583
▁ನನ್ನ	-584
▁ತಂಡ	-585
▁4	-586
ಿದು	-587
ಾಯಿ	-588
ಜ್ಞ	-589
ಕ್ಕಾಗಿ	-590
ುವುದಿಲ್ಲ	-591
▁ಗಳ	-592
ುನಾವ	-593
▁ನನಗೆ	-594
▁ಸಚಿವ	-595
▁20	-596
ಗರ	-597
ಂದರೆ	-598
▁ಅತ್ಯ	-599
▁ಡಿ	-600
▁ದಾಖಲ	-601
▁ದು	-602
▁ಅವರಿಗೆ	-603
ಕ್ರಮ	-604
ತೆಯ	-605
ವಿಲ್ಲ	-606
▁ಮೆ	-607
▁ಅದನ್ನು	-608
."	-609
▁ತುಂಬ	-610
ಧಾರ	-611
▁ಅವನ	-612
▁ಅಗತ್ಯ	-613
▁-	-614
▁ಚುನಾವ	-615
ರಿನ	-616
ಡುಗ	-617
▁ಬ್ಯಾ	-618
▁ಸಂದ	-619
▁ಎಸ್	-620
▁ಪ್ರಶ್	-621
ೋಗ್ಯ	-622
▁ಗಾ	-623
▁ರಾಷ್ಟ್ರ	-624
▁ಕೇಳ	-625
▁ಜೊತೆ	-626
ಂದಿ	-627
▁ಕ್ರಮ	-628
ಂಜ	-629
ುದ	-630
▁ಸಂಗ	-631
ೇಶ್	-632
ಗಾರ	-633
ಿಸ್ತ	-634
▁ಕಾಲ	-635
ಭವ	-636
ವರ್	-637
ಾಗಿತ್ತು	-638
ುತ್ತಾರೆ	-639
ಂಥ	-640
ಂಗಳ	-641
ಿಯಾಗ	-642
ಾರಾ	-643
▁ಸಮಯ	-644
▁ಇದನ್ನು	-645
ಿಸುತ್ತದೆ	-646
▁ಇದರಿಂದ	-647
ಟ್ರ	-648
ೀಕ	-649
▁ಸೋ	-650
ಮನ	-651
▁ಹಾಕ	-652
ೂರ್ಣ	-653
▁ಜಿಲ್ಲ	-654
▁ಯೆಹೋ	-655
ಾಸ್	-656
▁ನೇ	-657
▁ಪ್ರಧಾನಿ	-658
ಗೊಳ್ಳ	-659
ಮಂತ್ರಿ	-660
ಿಸಿಕೊಂಡ	-661
▁ಬದಲ	-662
▁ನ್ಯಾಯ	-663
▁ಇದ್ದ	-664
▁ಆರಂಭ	-665
▁ಕುಮ	-666
ಂಡ್	-667
ಕ್ತಿ	-668
ುತ್ತಿದ್ದ	-669
▁ಹೇಳಿದರು	-670
▁ನಾಯಕ	-671
▁ಯಾರ	-672
▁ವಿಚಾರ	-673
▁ಮಿ	-674
ಎಂ	-675
▁ಮಾತ್ರ	-676
▁ಹೋ	-677
▁ಅರ್	-678
▁ಪೊಲೀಸ್	-679
▁ಅವರನ್ನು	-680
▁ಏನ	-681
▁ನೋಡ	-682
ಿತ್	-683
ವ್	-684
ುಖ	-685
▁ಪರ	-686
ೋರ್	-687
▁ಬಹ	-688
▁ಶ್ರೀ	-689
▁ವಿಶ್ವ	-690
▁ಹಣ	-691
ಗಳಿಂದ	-692
ದ್ದು	-693
▁ಸಮಸ್ಯ	-694
ೊಬ್ಬ	-695
ಾತ	-696
▁ಭಾರತದ	-697
▁ಮಾಹ	-698
▁ಎಲ್ಲಾ	-699
▁ವಿಶ	-700
ಖೆ	-701
▁ಸ್ಟ	-702
▁ಅದರ	-703
▁ತೆಗೆ	-704
▁ನಡೆದ	-705
▁ಒಳ	-706
▁"""	-707
ವಿದೆ	-708
ಪು	-709
ಕಿ	-710
ರಿದ	-711
▁ಎರಡು	-712
▁ಬೈ	-713
ಾಷ	-714
ೇಷ	-715
▁ಸದ	-716
▁ಲಕ್ಷ	-717
▁ಈಗ	-718
ಷ್ಠ	-719
ತಾ	-720
ತ್ನ	-721
ೇತ್ರ	-722
▁ನಿಯ	-723
▁ಇಂಡ	-724
▁ಮಹಿಳ	-725
ಕಾಶ	-726
▁ಸಿನಿ	-727
▁ಗೊ	-728
▁ಕೆಲವು	-729
ಾಲಿ	-730
ೆಯೇ	-731
ರ್ಭ	-732
▁ಕಿ	-733
▁ಆಯ್	-734
▁ಸಭ	-735
ಶಸ್	-736
ಾಡ	-737
▁ಕಾಣ	-738
ವಸ್ಥ	-739
▁ಆರೋಗ್ಯ	-740
ರ್ಮ	-741
▁ಸ್ಥಾನ	-742
▁ಮಕ್ಕಳ	-743
ದರ್ಶ	-744
▁ತನಿ	-745
▁ಲೋ	-746
ಚಿ	-747
▁'	-748
▁ಆಸ್ಪ	-749
ರಾಗ	-750
ಕೀಯ	-751
ಲಿಯ	-752
ಬೇ	-753
ಸಭ	-754
▁ಬಂಧ	-755
▁ನಟ	-756
ಕರು	-757
▁ಶು	-758
▁ಉತ್ತರ	-759
▁ತೋ	-760
▁ಭಾರತೀಯ	-761
▁ಕುರಿತು	-762
▁ಇರ	-763
▁ಬಹು	-764
▁ಕಂಡ	-765
▁ಠ	-766
▁ಪ್ರದೇಶ	-767
ಕ್ಸ್	-768
▁ತಿ	-769
ಿಗಳ	-770
▁ಇದರ	-771
ಷ್ಯ	-772
▁ಪ್ರತ	-773
▁ಉತ್ತಮ	-774
ಿಸಿದ್ದ	-775
▁ಮಾಡಿ	-776
ಂತಹ	-777
ೃದ್ಧ	-778
▁ಅವು	-779
▁ಒಬ್ಬ	-780
▁ಎಂ	-781
ಿಸಿಕೊಳ್ಳ	-782
▁ಇನ್ನ	-783
ಳೆಯ	-784
▁ಪಿ	-785
ೀತ	-786
▁ಯೋಜ	-787
▁ಇಬ್ಬ	-788
▁ಒಂದ	-789
▁ವಿದ್ಯಾರ್ಥ	-790
▁6	-791
▁ದೇವರ	-792
▁ಅನೇಕ	-793
ಂದ್ಯ	-794
▁ಹೇಳಿದ್ದಾರೆ	-795
ಟ್ಟಿ	-796
▁ಇದಕ್ಕೆ	-797
▁ದೊಡ್ಡ	-798
್ರಹ	-799
▁ರೀತಿಯ	-800
▁ನಿರ್ಮ	-801
▁ಆರ್	-802
▁ಪಂದ್ಯ	-803
ೆಯು	-804
▁ಬಿಡುಗ	-805
▁ಅಲ್ಲಿ	-806
▁ಗೋ	-807
▁ಅನ್ನು	-808
▁ಹೆಚ್ಚಿನ	-809
▁ಅಧಿಕಾರಿ	-810
▁ಇನ್ನೂ	-811
್ರಿಯ	-812
▁ಸಾಧ	-813
▁ಮಾಡುವ	-814
ಾಂತ	-815
▁:	-816
▁ಕ್ಷೇತ್ರ	-817
ತ್ಪ	-818
ಸ್ಟ್	-819
ೀನ	-820
▁ಯು	-821
▁ಎರಡ	-822
ಿಯಾಗಿ	-823
▁ಕೋಟಿ	-824
ಮಾಡ	-825
▁ಉಳ	-826
▁ತಪ್ಪ	-827
ಿಸಲಾಗ	-828
ಿದ್	-829
ಟುಂಬ	-830
ದುಕೊಂಡ	-831
▁ಮಾರ್	-832
▁ಬಳಿಕ	-833
ರ್ಯ	-834
▁ಕಾರ್ಯಕ್ರಮ	-835
▁ನಿರ್ದೇಶ	-836
ುತ್ತಿದ್ದಾರೆ	-837
ವಾಸ	-838
ರುವುದ	-839
ಂಟ್	-840
▁ಪಡೆಯ	-841
ದುಕೊಳ್ಳ	-842
ೋಧ	-843
▁ಸಂಸ್ಥ	-844
▁ನಡುವ	-845
ರೇಂದ್ರ	-846
▁ಸಿಂಗ್	-847
▁ಗಾಯ	-848
್ಯೂ	-849
▁ಇತರ	-850
ೃಷ್ಟ	-851
▁ಬೇಕ	-852
▁ಮಾತನಾ	-853
ಿಸಿದ್ದರು	-854
ನೆಗೆ	-855
▁ಮಾಹಿತಿ	-856
ಟಕ	-857
▁ಭೇ	-858
▁ನಂಬ	-859
▁ಮುಖ	-860
▁ವರ್ಷ	-861
ವರಿಗೆ	-862
▁ಕುಟುಂಬ	-863
▁ಕೃ	-864
ಿಕೆಟ್	-865
ಜನ	-866
▁ಪ್ರಮುಖ	-867
▁ಆಟ	-868
▁ವೆ	-869
▁ಒಪ್ಪ	-870
▁ಮಾಜಿ	-871
▁ಸಾವ	-872
್ರಿ	-873
▁ಬಹಳ	-874
▁ಅವನು	-875
ಿಯೂ	-876
▁ಗಾಂಧ	-877
ಿಯು	-878
▁ನಿಜ	-879
▁ಜೀವನ	-880
ಾನ್ಯ	-881
ಹ್	-882
▁ಮಾಡಿದ	-883
▁ನಮಗೆ	-884
ರಿಸಿ	-885
ರ್ಚ	-886
ೀಲ	-887
▁ನಗರ	-888
ಿತರ	-889
▁ಠಾಣ	-890
▁ನರೇಂದ್ರ	-891
▁ಸರಕಾರ	-892
ರಣೆ	-893
ಿಣ	-894
▁ಕಡಿ	-895
ನ್ಸ್	-896
▁ಆತನ	-897
▁ಜನರು	-898
ಾಳ	-899
▁ಪದ	-900
▁ಟಿ	-901
▁ಚುನಾವಣ	-902
▁ಪರಿಸ	-903
▁ಮಾಡಲು	-904
ಕೋ	-905
▁ಫೋ	-906
ಿಸಬೇಕು	-907
▁ವಿಶೇಷ	-908
▁ಮೈ	-909
▁ವೇಳ	-910
ಿಕೆಯ	-911
▁ಗೊತ್ತ	-912
ಕ್ಕಿ	-913
▁ವೇ	-914
ಿದ್ಧ	-915
▁ಮುಖ್ಯಮಂತ್ರಿ	-916
▁ಆತ	-917
ವಲ್ಲ	-918
▁ವಾ	-919
▁ಗಮನ	-920
▁ಸಂತ	-921
▁ಸಲ್ಲ	-922
ೆಲ್ಲ	-923
▁10	-924
▁ಸಹಾಯ	-925
ಾಗಿದ್ದ	-926
▁ವಿಧಾನ	-927
▁ಜೆ	-928
▁ತಿಳಿಸಿದ್ದಾರೆ	-929
▁ಭಾಷ	-930
ರಳ	-931
▁ಕುಮಾರ್	-932
▁ಸಂದರ್ಭ	-933
ದ್ರ	-934
▁’	-935
▁ಆರೋಪ	-936
▁ಸಮಸ್ಯೆ	-937
▁ತರ	-938
▁ಸೌ	-939
▁ಅಭಿವ	-940
ವಲ	-941
▁ಬೀ	-942
ಸಾ	-943
▁ವರ	-944
▁ಬಳಸ	-945
▁ಪ್ರತಿಭ	-946
▁7	-947
▁ತೀ	-948
▁ಎದು	-949
▁ಪರಿಣ	-950
ಲಭ	-951
▁ಗೌ	-952
ಜು	-953
ರೋಧ	-954
▁ವ್ಯಾ	-955
▁ಎನ್	-956
▁ಚೆ	-957
▁ಸೈ	-958
ಕೊಂಡ	-959
▁ತಂದ	-960
▁8	-961
▁—	-962
▁ಕಳೆ	-963
ಾದರೂ	-964
ಗಿನ	-965
▁ಜಿ	-966
▁ಪರೀಕ್ಷ	-967
ೊಡ	-968
▁ಕಂಪ	-969
ಿಸ್ತಾನ	-970
ಸ್ಕ	-971
▁ಭೂ	-972
ನಲ್ಲಿ	-973
ಶ್ರ	-974
▁ಬರ	-975
▁ಮುಂದು	-976
ಪಟ್ಟ	-977
ವರೆ	-978
▁ಪಾತ್ರ	-979
▁ಏಕೆ	-980
▁ಸೂಚ	-981
▁ಸದಸ್ಯ	-982
ಿರಿ	-983
ಿಕಿತ್	-984
▁ವ್ಯಕ್ತ	-985
▁ವಿವಿ	-986
▁ಇನ್ನು	-987
ಣಿ	-988
್ಟ್	-989
▁ಪ್ರಯತ್ನ	-990
ಂಕ್	-991
ಬಾರ	-992
▁ಆಸ್ಪತ್	-993
▁ಲೋಕ	-994
▁ಆಯ್ಕೆ	-995
▁ವಾಹ	-996
▁ಅವಕಾಶ	-997
ಕ್ತಿಯ	-998
▁ಪಾಕ	-999
...	-1000
ಾನಿ	-1001
ಾಟ	-1002
▁ರೂಪ	-1003
▁ಘಟನೆ	-1004
▁?	-1005
▁ಇದೇ	-1006
▁ಅಭಿ	-1007
ಂಶ	-1008
ಲಿನ	-1009
ವೀ	-1010
▁ಮಾನ	-1011
▁ಬೆಂಗಳ	-1012
ೋಚ	-1013
ೋಹ	-1014
▁ಟ್ರ	-1015
ೃತ್ತ	-1016
ಾನೂ	-1017
▁ಸೇರಿದ	-1018
▁ಮಧ್ಯ	-1019
ಾಯ್	-1020
ಹುಲ್	-1021
▁ವ್ಯವಸ್ಥ	-1022
▁ಕೊಡ	-1023
▁ಯೆಹೋವನ	-1024
ಯ್ಯ	-1025
▁ಹೈ	-1026
▁ತನಿಖೆ	-1027
▁ದೇವ	-1028
ರಾದ	-1029
▁ಎನ್ನು	-1030
▁ಶಾಲ	-1031
ಕೊಳ್ಳ	-1032
ೇಖ	-1033
▁ಮಾತು	-1034
▁ಅದಕ್ಕೆ	-1035
▁ಪಡೆದ	-1036
▁ವಿವಿಧ	-1037
ುತ್ತಿರುವ	-1038
ರಿಗೂ	-1039
ವನು	-1040
▁ಬಿಜೆಪ	-1041
▁ವಹ	-1042
▁ಸಾಕ	-1043
▁ರಾಜಕೀಯ	-1044
ೇನು	-1045
▁ಹಲವು	-1046
▁ಮೀ	-1047
▁ಕಲ	-1048
ದಲು	-1049
ಾಮಿ	-1050
▁ಪರಿಣಾಮ	-1051
▁ಮಗ	-1052
▁ಆಡ	-1053
▁ರಾಹುಲ್	-1054
▁ವಾಹನ	-1055
▁ಪ್ರಮಾಣ	-1056
ಲ್ಲೂ	-1057
▁ಸಂಖ್ಯ	-1058
ಜ್ಞಾನ	-1059
ನಾಟಕ	-1060
▁ಅಭಿವೃದ್ಧ	-1061
▁ಬಿಡುಗಡೆ	-1062
▁"	-1063
▁ಟೆ	-1064
▁ಚಿಕಿತ್	-1065
▁ಗಾಂಧಿ	-1066
ವಾರ	-1067
▁ನಿನ್ನ	-1068
▁ದೇಶದ	-1069
▁ಯೇ	-1070
▁ಬಲ	-1071
ಸ್ಸ	-1072
▁ಹೊಂದಿದೆ	-1073
ಾಂಶ	-1074
ಿದ್ದೇನೆ	-1075
▁ಉತ್ಪ	-1076
ಿದ್ದೇವೆ	-1077
▁ವೇಳೆ	-1078
ಯ್	-1079
ಾರಂಭ	-1080
ೆಂದು	-1081
▁ಅರ್ಥ	-1082
ಯೂ	-1083
ಮಾರು	-1084
ಲ್ಪಟ್ಟ	-1085
▁ನಾಲ್	-1086
▁ಹೀಗೆ	-1087
ಸರ್	-1088
ಷ್ಟೇ	-1089
ೆಗಳು	-1090
▁ವಿಧ	-1091
▁ವೈದ್ಯ	-1092
▁ಕರ್ನಾಟಕ	-1093
▁ಉದ್ದ	-1094
▁ಮಾತನಾಡ	-1095
▁ತುಂಬಾ	-1096
್ದರಿಂದ	-1097
ಲಾಗುತ್ತದೆ	-1098
▁ಮತ	-1099
ಸ್ತು	-1100
▁ಮೂರು	-1101
▁ಕೇವಲ	-1102
▁ಉದ್ಯ	-1103
▁ಅಭ್ಯ	-1104
ಟೆ	-1105
▁ಕಾರ್	-1106
ಾದ್	-1107
▁ಯುವ	-1108
▁ನಿಮಗೆ	-1109
▁ತು	-1110
▁ವಿಭ	-1111
▁ಶಾಸ	-1112
▁ಪ್ರತಿಭಟ	-1113
ಗ್ರ	-1114
ರ್ಧ	-1115
▁ಎಂಬುದ	-1116
▁ಮಾರು	-1117
ರಿಕೆ	-1118
▁201	-1119
▁ಪಾಕಿಸ್ತಾನ	-1120
▁ಬೆಳ	-1121
▁ನೀರು	-1122
▁ಯಾರು	-1123
▁ಪ್ರೀ	-1124
ಕೂ	-1125
ುವಂತೆ	-1126
ೆಯಿಂದ	-1127
▁ಚರ್ಚ	-1128
▁ಸಲ	-1129
▁ಅಂದ	-1130
▁ಮಂದಿ	-1131
▁ಬೇರೆ	-1132
ಗಳಿವೆ	-1133
▁ಅಭ್ಯರ್ಥ	-1134
▁ಸಿದ್ಧ	-1135
▁ಆದ್ದರಿಂದ	-1136
ಳಿತ	-1137
ಾಗುತ್ತದೆ	-1138
▁ಬಯ	-1139
▁ಪೆ	-1140
▁ಪ್ರಶ್ನೆ	-1141
▁ಕಂಡು	-1142
▁12	-1143
▁ಆಗಿದೆ	-1144
ಿಸುವುದು	-1145
▁ದಿ	-1146
ುತ್ತಿಲ್ಲ	-1147
▁ಮುಂಬ	-1148
▁ವಿರೋಧ	-1149
ಾಗಲೇ	-1150
▁ಗ್ರಾಮ	-1151
▁15	-1152
▁ಮಾಡಿದ್ದಾರೆ	-1153
▁ಫಲ	-1154
ಚಿತ	-1155
▁ಕಾರು	-1156
▁ಒಳ್ಳ	-1157
ಿರಿಯ	-1158
▁ಪಟ್ಟ	-1159
ರೆದ	-1160
ಭಾವ	-1161
▁ಭೇಟಿ	-1162
್ಥ	-1163
▁ಮಾರ್ಗ	-1164
▁ಆತ್ಮ	-1165
▁ನಡುವೆ	-1166
▁ಒತ್ತ	-1167
▁ರೋಗ	-1168
▁ಬೇಡ	-1169
▁ಜನರ	-1170
▁ದೂರ	-1171
▁ಸಿಗ	-1172
ಾಮ್	-1173
▁ಜೀವ	-1174
▁ನೀಡಿ	-1175
ದಾರ	-1176
▁ಮುಂದೆ	-1177
▁ಟೀ	-1178
▁ಸಾಮಾನ್ಯ	-1179
▁ಕಾಯ	-1180
ೀಪ	-1181
ರ್ಕ	-1182
▁ಬು	-1183
▁ಕಡಿಮೆ	-1184
▁ಪರಿಸ್ಥ	-1185
▁ಸೇವ	-1186
ಬಲ್	-1187
ಾಲ್	-1188
ಿರಲಿಲ್ಲ	-1189
ುತ್ತೇನೆ	-1190
ಶ್ಯ	-1191
ನೂ	-1192
ಕೆಯ	-1193
ುದು	-1194
▁ಮುಂದಿನ	-1195
▁ಸುಮಾರು	-1196
▁ಕೈಗೊಳ್ಳ	-1197
▁ಕೆಳ	-1198
ಾಗಿರುವ	-1199
ಬಾರದು	-1200
▁ಆಹಾರ	-1201
▁ಸಾಕಷ್ಟು	-1202
▁ರಾಷ್ಟ್ರೀಯ	-1203
▁ಇಲಾ	-1204
▁ಜೊತೆಗೆ	-1205
▁ಶಾ	-1206
▁ಅತ್ಯಂತ	-1207
▁ಸೇರಿದಂತೆ	-1208
ುತ್ತವೆ	-1209
▁ಬಾರಿ	-1210
▁ಅತಿ	-1211
ಹಿ	-1212
▁ಚೆನ್ನ	-1213
ಟು	-1214
ಾಮೆ	-1215
ಗಳಿ	-1216
▁ತಾ	-1217
▁ಕನ್ನ	-1218
ಿಯೇ	-1219
▁ಸಂಪೂರ್ಣ	-1220
▁ಆಸ್ಪತ್ರೆಗೆ	-1221
ತೆಗೆ	-1222
▁ಮೃತ	-1223
▁ದೆಹ	-1224
▁ತೋರಿಸ	-1225
▁ಕಾನೂ	-1226
▁ಸರಿಯ	-1227
ಆರ್	-1228
▁ಸತ್ಯ	-1229
▁ಅಮೆ	-1230
▁ಇಷ್ಟ	-1231
▁ಅಧಿಕಾರ	-1232
▁ಸ್ಪರ್ಧ	-1233
ವಾರು	-1234
ಮ್ಮೆ	-1235
▁ಗುರು	-1236
▁ರಿ	-1237
▁ಜಿಲ್ಲಾ	-1238
ವ್ರ	-1239
▁ಇಬ್ಬರು	-1240
▁ಜಯ	-1241
ಗೋ	-1242
▁19	-1243
▁ಮಹಿಳೆಯ	-1244
▁ಜೋ	-1245
ವರೆಗೆ	-1246
▁ಮಾದ	-1247
▁ರು	-1248
▁9	-1249
▁ಠಾಣೆಯಲ್ಲಿ	-1250
▁ಉಂಟ	-1251
▁ರಚ	-1252
ಿದ್ದರೆ	-1253
ಶೀಲ	-1254
ಿಯಿಂದ	-1255
▁ಟ್	-1256
▁ಬೆಂಬ	-1257
▁ಆರೋಪಿ	-1258
▁ಇವೆ	-1259
ವಾಹ	-1260
▁ಅನುಭವ	-1261
▁ಪ್ರಸ	-1262
ಾರ್ವ	-1263
▁ತಯ	-1264
▁ಸಿನಿಮಾ	-1265
▁ಕಟ್ಟ	-1266
ಗ್ಗ	-1267
ಣ್ಣು	-1268
▁ಲಭ	-1269
▁ಇಂಡಿಯಾ	-1270
▁ತಿಳಿಸಿದರು	-1271
▁ಭಯ	-1272
▁ಸದ್ಯ	-1273
▁ಶೇ	-1274
▁ಪ್ರತಿಯ	-1275
▁ವ್ಯಕ್ತಪಡ	-1276
▁ಸಂದರ್ಭದಲ್ಲಿ	-1277
▁ಹೆಸ	-1278
ೋರ್ಟ್	-1279
ಾಜ್	-1280
ನ್ನೆ	-1281
▁ಸ್ಮ	-1282
ಕಟ್ಟ	-1283
▁ಹಾ	-1284
▁ನಾವ	-1285
▁ಇರುವ	-1286
▁ಸಂಘ	-1287
ೋಲ್	-1288
ಿಯಾದ	-1289
▁ರೆ	-1290
▁ಬೆಲೆ	-1291
ಳ್ಳಿ	-1292
ಧಿ	-1293
▁ಉದ	-1294
▁ಅಮ	-1295
▁ತೀವ್ರ	-1296
▁ಡಾ	-1297
ಹಾಸ	-1298
ಲಯ	-1299
▁ಖಾನ್	-1300
ೀರಿ	-1301
ಾಜಿಕ	-1302
▁ಮಂಡ	-1303
▁ವಿವ	-1304
▁ಹಿರಿಯ	-1305
ಾರಿಗೆ	-1306
▁ಶಿಕ್ಷ	-1307
ಟೋ	-1308
▁ಲಾ	-1309
▁ಶಿವ	-1310
▁ಗುಣ	-1311
▁ಪ್ರತಿಕ	-1312
▁ಯೋಜನೆ	-1313
▁ಶಿಕ್ಷಣ	-1314
ನ್ನೇ	-1315
▁ಮನೆ	-1316
▁ವಿಜ	-1317
ದಲ್ಲೇ	-1318
▁ಮತ್ತೆ	-1319
▁ಮಟ್ಟ	-1320
ಿಕಾ	-1321
▁ಅಸ	-1322
▁ಬ್ಯಾಂಕ್	-1323
ಿನಿಂದ	-1324
ುತ್ತೇವೆ	-1325
ತ್ಮಕ	-1326
▁ಕಷ್ಟ	-1327
▁ನಿರೀಕ್ಷ	-1328
ಲೋ	-1329
ತೆಯನ್ನು	-1330
▁ತೀರ್	-1331
▁ಗಳು	-1332
▁ಚಿಕಿತ್ಸೆ	-1333
▁ನೋಡಿ	-1334
▁ಬೆಂಬಲ	-1335
▁ನವ	-1336
▁ಸಾಮಾಜಿಕ	-1337
ಶಿ	-1338
▁ತಿಳಿದು	-1339
▁ಸ್ಪಷ್ಟ	-1340
▁ಕ್ಯ	-1341
▁ಸಾರ್ವ	-1342
ತ್ಸ	-1343
▁ಹಿಂದೆ	-1344
▁ನಿರ್ವಹ	-1345
ಷಿ	-1346
ಲನ	-1347
▁ಪೊಲೀಸ	-1348
▁ಕನ್ನಡ	-1349
▁ಕೊಟ್ಟ	-1350
ಲಿದ್ದಾರೆ	-1351
▁ಆರ್ಥ	-1352
ದಿಯ	-1353
▁ಪ್ರಕಾರ	-1354
ರುವುದು	-1355
▁ಪ್ರಶಸ್	-1356
ವಾಗಿತ್ತು	-1357
▁ಸುದ್ದ	-1358
▁ಸೇವೆ	-1359
▁ಹೀಗಾಗಿ	-1360
▁ಹಲವಾರು	-1361
▁ಸಂಪರ್ಕ	-1362
ಡುವುದ	-1363
▁ಬಣ್ಣ	-1364
▁ಜಾಗ	-1365
ಗಣ	-1366
▁ಈಗಾಗಲೇ	-1367
ಜನಿಕ	-1368
▁ಪಕ್ಷದ	-1369
▁ಘೋಷ	-1370
▁ದೂರು	-1371
▁ಸುರ	-1372
ಾಗಿಲ್ಲ	-1373
▁ಹಂತ	-1374
ರಲಿಲ್ಲ	-1375
▁ಕ್ಯಾ	-1376
▁ಆರ್ಥಿಕ	-1377
▁ಭಾವ	-1378
▁ಪುನ	-1379
▁ಲೈ	-1380
ಯನ	-1381
▁ರಸ್	-1382
ಿಸಬೇಕ	-1383
ಹೆ	-1384
ಿದ್ದಾನೆ	-1385
ೀಕರಿಸ	-1386
ಕಾಲ	-1387
ಭು	-1388
▁ದ್	-1389
000	-1390
▁ಊ	-1391
▁ಹಾಗೆ	-1392
▁ಅಧಿಕಾರಿಗಳು	-1393
ರ್ಟ್	-1394
ಷ್ಣ	-1395
ಿನ್ನ	-1396
▁ಚಾಲ	-1397
▁ಯಶಸ್	-1398
▁ಸಿನಿಮ	-1399
ಲಾಯಿತು	-1400
▁ಜ್	-1401
▁ಇದರಲ್ಲಿ	-1402
▁ಎಚ್ಚ	-1403
ುತ್ತಾ	-1404
▁ನಿರ್ಮಾಣ	-1405
ನೆಯನ್ನು	-1406
▁ಸ್ವಲ್ಪ	-1407
▁ತೆಗೆದುಕೊಳ್ಳ	-1408
▁ಭಾಗವಹ	-1409
▁ಇಂತಹ	-1410
ಾರಾಷ್ಟ್ರ	-1411
▁ಆದರೂ	-1412
ಬೇಡಿ	-1413
ದಗ	-1414
▁ಆಸ್	-1415
▁ನಾಗ	-1416
ಸ್ರ	-1417
ೋಣ	-1418
▁ನೀಡಿದ್ದಾರೆ	-1419
ಜಾ	-1420
ಯೇ	-1421
ವುಡ್	-1422
▁ಸಿಕ್ಕ	-1423
ೆಗಳ	-1424
▁ನಿರ್ಧಾರ	-1425
ಂತ್	-1426
▁ಅಂಗ	-1427
ೀಡ	-1428
▁ತಮ	-1429
ಡಿಯೋ	-1430
▁ಉದ್ದೇಶ	-1431
▁ಇತ್ತ	-1432
ೃಹ	-1433
▁ಅಭಿವೃದ್ಧಿ	-1434
▁ಗೌರವ	-1435
▁ಪ್ರತಿಕ್ರಿಯ	-1436
▁ಮೊದಲು	-1437
▁ಸಂಸ	-1438
▁ನೆರ	-1439
),	-1440
▁ಪೈ	-1441
ಕಾರಿ	-1442
▁ಮೌ	-1443
ವೇಶ	-1444
ೆಯೂ	-1445
20	-1446
ೀಚ	-1447
▁ಗಳನ್ನು	-1448
ವನ್ನೂ	-1449
ಾಲಿವುಡ್	-1450
▁ಭಾರತದಲ್ಲಿ	-1451
ಥ್	-1452
▁ಸಾಲ	-1453
ಬ್ದ	-1454
ೇರಿ	-1455
▁ರಸ್ತೆ	-1456
▁ಬಯಸ	-1457
▁ಅಮೆರಿಕ	-1458
▁ಆಧ	-1459
ದಾನ	-1460
▁ಸರ್ಕಾರದ	-1461
ಾದರೆ	-1462
▁ಪರಿಹಾರ	-1463
ತ್ವದ	-1464
▁ಧರ್ಮ	-1465
▁ಸಂಭವ	-1466
▁ವಿಮಾನ	-1467
ಾದಲ್ಲಿ	-1468
▁ವ್ಯಕ್ತಿ	-1469
▁ಗಂಭ	-1470
ವಾಗುತ್ತದೆ	-1471
▁ದಾಖಲಾಗಿದೆ	-1472
▁ಕಡೆ	-1473
▁ಅದೇ	-1474
ತಿಹಾಸ	-1475
▁ಎಂಬುದು	-1476
▁ಮಕ್ಕಳು	-1477
▁ಮಾಡಬೇಕು	-1478
▁ಪಾಲ	-1479
▁ಲಿ	-1480
ಾವಣೆ	-1481
ರಾಟ	-1482
ಿಸುವುದ	-1483
ಘಾತ	-1484
▁ಪ್ರಯಾಣ	-1485
ೂರ್ವ	-1486
▁ಮುಂಬೈ	-1487
ಯೋಗ	-1488
ಹಿತ	-1489
▁ಒದಗ	-1490
▁ನೀರಿನ	-1491
▁ಗಣ	-1492
ಿಮ	-1493
ಎಲ್	-1494
ಿಸಿತು	-1495
▁ಲಭ್ಯ	-1496
▁ರೈತ	-1497
ಕನ	-1498
▁ಚಿತ್ರದ	-1499
▁ಬೆಂಗಳೂರು	-1500
▁ಇಡ	-1501
▁ಪೋ	-1502
ಕ್ಷಿಣ	-1503
ಕದ	-1504
▁ಸಹೋದ	-1505
▁ನಿಂದ	-1506
▁ಪತ್ರ	-1507
▁ಮನು	-1508
▁ಸಾಕ್ಷ	-1509
▁ಸಾರ್ವಜನಿಕ	-1510
▁ನಿಯಮ	-1511
▁ವೀ	-1512
ರಾಗಿ	-1513
ನೋ	-1514
ೇಲ್	-1515
▁ಕ್ರಿಕೆಟ್	-1516
▁ಹೃ	-1517
ುವಿನ	-1518
▁ಸೀ	-1519
ಲ್ಲಾ	-1520
ಸ್ವ	-1521
ೆಯಾಗ	-1522
▁ಯಾವಾಗ	-1523
ರ್ಜ	-1524
▁ಆಫ್	-1525
ಿಯನ್	-1526
--	-1527
▁ಹೂ	-1528
▁ಮದು	-1529
▁ಕಾನೂನು	-1530
ಾರಾಟ	-1531
ಬಹುದ	-1532
ೇಟ್	-1533
▁ಮಾಡಿದೆ	-1534
ೀಸ್	-1535
▁ಇವು	-1536
▁ಮಾಡಿಕೊಳ್ಳ	-1537
▁ಅಂಶ	-1538
ತಿಕ	-1539
▁ಉತ್ಪಾದ	-1540
▁ಮಾರುಕಟ್ಟ	-1541
▁ಚುನಾವಣೆ	-1542
ಯು	-1543
▁ಬದುಕ	-1544
▁ಎಲ್ಲಿ	-1545
▁ಸಾಧ್ಯವಿಲ್ಲ	-1546
▁ತಮಿಳ	-1547
▁ಸಂಬಂಧಿಸಿದ	-1548
▁ಔ	-1549
▁ಯಾಕೆ	-1550
ರದ	-1551
▁ಗಂಭೀರ	-1552
ಿಸಬಹುದು	-1553
▁ಕೊಹ್	-1554
▁ಖಂಡ	-1555
▁ಪಾಲ್	-1556
ವರನ್ನು	-1557
▁ಒಟ್ಟು	-1558
▁ಎಂಜಿ	-1559
ನಲ್	-1560
ಚ್ಛ	-1561
▁ಅಭಿನ	-1562
▁11	-1563
ಸಭಾ	-1564
▁ಪ್ರಶಸ್ತಿ	-1565
▁ಪೂರ್ಣ	-1566
▁ರನ್	-1567
▁ಅರ	-1568
▁ಪ್ರಾ	-1569
▁ತಯಾರ	-1570
ಕ್ಕಿಂತ	-1571
ವ್ಯ	-1572
ದಯ	-1573
▁ಬೆಳೆ	-1574
ಚಿತ್ರ	-1575
ಲ್ಲೇ	-1576
▁ಉದಾಹ	-1577
ಪ್ಪು	-1578
▁ಹೆಸರು	-1579
▁ಪ್	-1580
ಪ್ರೀ	-1581
ಶ್ಮ	-1582
▁ಸಿಬ್ಬ	-1583
▁ಸುಲಭ	-1584
ಗೊಂಡಿದೆ	-1585
ವೃತ್ತ	-1586
▁ದಕ್ಷಿಣ	-1587
▁ಕುರಿತ	-1588
▁ಜಾ	-1589
▁ಪ್ರಕಟ	-1590
ೇಜ	-1591
ವಾಸಿ	-1592
▁ನಿಯಂತ್ರ	-1593
ನಿಗೆ	-1594
್ರಾ	-1595
ಡಿಎಸ್	-1596
▁ಕಳೆದ	-1597
▁ರಾಜ್ಯದ	-1598
▁ಬಾಲಿವುಡ್	-1599
▁ಪ್ರದರ್ಶ	-1600
ನೆಯಲ್ಲಿ	-1601
ತ್ಯೆ	-1602
▁ಪೌ	-1603
ಸೂ	-1604
▁ಗಾಯಗೊಂಡ	-1605
ರುವುದಿಲ್ಲ	-1606
▁ಸಂಗೀತ	-1607
ಿದ್ದೆ	-1608
ರಿಸಲು	-1609
ಲಾಗುವುದು	-1610
▁ಸಂತೋಷ	-1611
▁ಪ್ರವೇಶ	-1612
▁ನ್ಯಾಯಾಲಯ	-1613
▁ಭದ್ರ	-1614
▁ಯೇಸು	-1615
▁ವ್ಯಾಪ	-1616
▁ಕಥ	-1617
▁ಜೈ	-1618
ಾಚಾರ	-1619
▁ಮಾಡಿಕೊಂಡ	-1620
▁ಮನುಷ್ಯ	-1621
▁ಸ್ಥಳೀಯ	-1622
ತಿಯನ್ನು	-1623
▁ಕರೆ	-1624
▁[	-1625
▁ಎಷ್ಟು	-1626
▁ಒಳ್ಳೆಯ	-1627
▁ಉಳಿದ	-1628
ಹಾಕ	-1629
ಬು	-1630
ಕತೆ	-1631
ಾಸ್ತ್ರ	-1632
ಗೇ	-1633
ನದ	-1634
▁ಆಡಳಿತ	-1635
▁ಉಪಸ್ಥ	-1636
▁ಯಾರೂ	-1637
▁ದೃ	-1638
▁ಕಡ	-1639
ೀಕರಣ	-1640
ಾದ್ಯ	-1641
▁ಮಾರಾಟ	-1642
ಿರುವುದ	-1643
▁25	-1644
ನ್ಮ	-1645
▁ಪರಿಶೀಲ	-1646
ಲೆಯಲ್ಲಿ	-1647
▁ಪರಿಗಣ	-1648
ುತ್ತಾನೆ	-1649
▁ವರದಿ	-1650
▁ಸಂಕ	-1651
ಪ್ತ	-1652
▁ಜ್ಞ	-1653
ವಿದ	-1654
▁ಪರಿಸ್ಥಿತಿ	-1655
▁ಇಳ	-1656
▁ಮಾಡಲಾಗಿದೆ	-1657
▁ಹೌ	-1658
▁ಕೊಹ್ಲಿ	-1659
▁ತಂತ್ರ	-1660
▁ಆದೇಶ	-1661
ಿಸಿರುವ	-1662
▁–	-1663
▁ಸಣ್ಣ	-1664
▁14	-1665
ನಾದ	-1666
▁ನೀಡಿದ	-1667
▁ತಲೆ	-1668
▁ಬರುತ್ತ	-1669
ದಲ್ಲಿರುವ	-1670
▁ವಿಭಾಗ	-1671
ಲಾಗುತ್ತಿದೆ	-1672
▁ತಮಿಳು	-1673
▁ಸುತ್ತ	-1674
▁ಅಳ	-1675
ಣಿಗೆ	-1676
ಾಗಿದ್ದಾರೆ	-1677
ಧಿಕಾರಿ	-1678
ನನ್ನು	-1679
▁ರಾಮ	-1680
ಿಕ್	-1681
ೇಯ	-1682
▁ಹೃದಯ	-1683
▁ದೇವರು	-1684
▁ಎಂಬುದನ್ನು	-1685
ರಾಜ	-1686
▁ಇಸ್ರ	-1687
▁ತಿಳಿಯ	-1688
▁ನಾನ	-1689
▁ಸರಣ	-1690
ಬಂದ	-1691
ರಿಸುವ	-1692
ತೀ	-1693
▁ನಿರಾ	-1694
್ಮಿಕ	-1695
▁ಸಾಗ	-1696
▁ಮುನ್ನ	-1697
▁—⁠	-1698
ಾರ್ಟ್	-1699
ಾಂಗ	-1700
ಾಂತರ	-1701
▁ರೀತಿ	-1702
▁ತಿಳಿದ	-1703
ರ್ಪ	-1704
ಿದನು	-1705
▁ವಶ	-1706
ೂರಿನ	-1707
▁ಸೂಕ್ತ	-1708
▁ಶೆ	-1709
▁ಎರಡೂ	-1710
▁ಆಸ	-1711
▁ಸುಪ್ರೀ	-1712
▁ಅಲ್ಲದೆ	-1713
▁ಸಾವು	-1714
▁ಇಂಗ್	-1715
ಕ್ಕು	-1716
ನ್ವ	-1717
ಪ್ರಾಯ	-1718
▁ಮುಖಂಡ	-1719
ಲೆಂಡ್	-1720
ಲ್ಪಡ	-1721
ಟಿಂಗ್	-1722
▁ನೀನು	-1723
▁ರಕ್ತ	-1724
▁ಸ್ನೇ	-1725
ಂಕಿ	-1726
▁ಜಗ	-1727
▁ಸಂಖ್ಯೆ	-1728
▁ಪ್ರಾಣ	-1729
▁ಪ್ರಕ್ರಿಯ	-1730
▁ಕರ್ತ	-1731
▁ಸ್ಥಳಕ್ಕೆ	-1732
ೇಲ	-1733
▁ಅನುಮ	-1734
ವಾಗಿಲ್ಲ	-1735
▁ಎಂಜಿನ್	-1736
▁ಇತ್ತೀಚ	-1737
▁ಸುದ್ದಿ	-1738
▁ಬಾಲ	-1739
ಧ್ಯಕ್ಷ	-1740
▁ತೊಂದ	-1741
▁ರಕ್ಷ	-1742
▁ಕಾಶ್ಮ	-1743
,000	-1744
▁ನೈ	-1745
▁ನಟಿ	-1746
▁ವರ್ಗ	-1747
▁ಫೋನ್	-1748
▁ತಿರು	-1749
▁ಕೋರ್ಟ್	-1750
▁ಶೀ	-1751
ಗಳಾಗಿ	-1752
ಬೆ	-1753
▁ಕ್ರೈ	-1754
▁ಎಂದಿದ್ದಾರೆ	-1755
ನಿರ್	-1756
ಿಸಿದ್ದು	-1757
ಪುರ	-1758
▁ಮನೆಯ	-1759
ಿಗಳಿಗೆ	-1760
ರುಷ	-1761
ಿಸಿತ್ತು	-1762
ಸಂ	-1763
್ವ	-1764
ಗಳೂ	-1765
▁ನಮ	-1766
▁ಉಪಸ್ಥಿತರ	-1767
▁ನೇಮ	-1768
ಷೇ	-1769
▁ಸಮಯದಲ್ಲಿ	-1770
ವಾಗಿಯೂ	-1771
ೀಲ್	-1772
ವಾಯಿತು	-1773
ೇತ	-1774
ಿಸುತ್ತಾರೆ	-1775
ಧ್ಯಮ	-1776
▁13	-1777
▁ಸಮುದ	-1778
▁ಇವರ	-1779
ರ್ಮಾ	-1780
▁ಎರಡನೇ	-1781
ಂಪು	-1782
ೈಲ್	-1783
ಬಾದ್	-1784
▁ದರ	-1785
▁ಒಂದೇ	-1786
ಿತಾಂಶ	-1787
▁ಮಳೆ	-1788
▁ಪತ್ತ	-1789
ಳಿಗೆ	-1790
▁ಕೊರ	-1791
▁ವೈರ	-1792
ಗಿಂತ	-1793
▁ಯೆಹೋವನು	-1794
▁ಪೂ	-1795
▁ಹುಡು	-1796
▁50	-1797
ಂಡು	-1798
ಿಸು	-1799
▁ಲೀ	-1800
▁ಪ್ರಾರಂಭ	-1801
ೋಜನ	-1802
▁ಉಪಸ್ಥಿತರಿದ್ದರು	-1803
ರಾವ	-1804
▁ಸಾವಿರ	-1805
▁ನಿಗ	-1806
▁ಬಳಕೆ	-1807
▁ಕಾರ್ಯದರ್ಶ	-1808
▁ಚಿತ್ರದಲ್ಲಿ	-1809
▁ಗುರುತ	-1810
ಶ್ಚ	-1811
▁ಮಂದ	-1812
ಸೆಲ್	-1813
▁ಮುಂದುವರ	-1814
ಮು	-1815
▁ಸಿದ್ದ	-1816
▁ನಾಲ್ಕು	-1817
▁ಕರೆಯ	-1818
ಾಗುವ	-1819
▁ಹಾಗಾಗಿ	-1820
▁ಹಂಚ	-1821
▁ಪ್ರತಿಭಟನೆ	-1822
ದಂತೆ	-1823
ಿಸಿಲ್ಲ	-1824
▁ಕುಮಾರ	-1825
▁ಅಡ	-1826
▁ಇಲಾಖೆ	-1827
▁18	-1828
▁ನಡೆದಿದೆ	-1829
ೊಮ್ಮೆ	-1830
▁ಉದ್ಯೋಗ	-1831
▁ನಿಲ್ಲ	-1832
▁ಜಾಲ	-1833
ಲಾದ	-1834
ರಷ್ಟು	-1835
ೀಗ	-1836
▁ಅರ್ಜಿ	-1837
▁ಟೆಸ್ಟ್	-1838
▁ದೇವಾಲಯ	-1839
▁ಫಲಿತಾಂಶ	-1840
▁ನ್ಯೂ	-1841
▁ಸಮಾಜ	-1842
ರಾಧ	-1843
▁ಸ್ವಾ	-1844
▁ವಿಡಿಯೋ	-1845
▁ಹೇಳಿಕೆ	-1846
ರ್ಥ್ಯ	-1847
▁ಜೆಡಿಎಸ್	-1848
▁ಪುಸ್ತ	-1849
ಲ್ಕ	-1850
▁ಪೂರ	-1851
▁/	-1852
▁ಹೋರಾಟ	-1853
ರಾಟ್	-1854
ಬಲ	-1855
ಬಲ್ಲ	-1856
▁ತಕ್ಷಣ	-1857
ಡ್ಡಿ	-1858
ಕ್ಯ	-1859
▁ಅಪಾಯ	-1860
▁ಕಾಶ್ಮೀರ	-1861
▁ಹೀಗ	-1862
▁ಸೃಷ್ಟ	-1863
▁ಎನ್ನ	-1864
ೆಯಾಗಿದೆ	-1865
ರುತ್ತವೆ	-1866
▁ವಿದೇಶ	-1867
▁ಪ್ರಶ್ನ	-1868
▁ವಾರ್	-1869
▁ನೆನ	-1870
▁ಉಲ್ಲ	-1871
▁ಬಗೆ	-1872
ೃತಿ	-1873
▁ತನಿಖ	-1874
ಲಾಗಿತ್ತು	-1875
▁ಸಭೆಯಲ್ಲಿ	-1876
ತ್ತರ	-1877
▁ಇತಿಹಾಸ	-1878
▁ಸಾಮರ್ಥ್ಯ	-1879
ಂಸ	-1880
▁ಯೋಚ	-1881
▁ವಾರ	-1882
▁ಆಟಗಾರ	-1883
▁ಸುರಕ್ಷ	-1884
▁ಅನಿ	-1885
▁ಜನರಿಗೆ	-1886
▁ಹಾಜ	-1887
ರ್ಸ್	-1888
ನಾನು	-1889
▁ಪ್ರೇ	-1890
▁ಸೇರಿ	-1891
▁ತಂಡದ	-1892
ವರೆಗೂ	-1893
ಪಾ	-1894
▁ಲೆ	-1895
ಿದ್ದವು	-1896
▁ಬೈಬಲ್	-1897
ಜೀ	-1898
ೆಗಳಲ್ಲಿ	-1899
▁ಅಧ್ಯಯನ	-1900
▁ವಿದ್ಯಾರ್ಥಿಗಳು	-1901
▁ವಿರಾಟ್	-1902
ರಾಮ	-1903
▁ಹಿನ್ನೆ	-1904
▁ಆಫ	-1905
ಿಕೆಯನ್ನು	-1906
▁ಶರ್ಮಾ	-1907
▁ಕಾಮ	-1908
▁ಸರಳ	-1909
ಥಮ	-1910
▁ದಾಖಲಿಸಿಕೊಂಡ	-1911
▁ಭರವ	-1912
▁ಹತ್ತ	-1913
▁ಇವರು	-1914
▁ನು	-1915
▁ವಾಸ	-1916
▁ಸಂಶ	-1917
್ಯು	-1918
▁ಎಲ್	-1919
▁ಬಸ್	-1920
▁ಕ್ರೈಸ್ತ	-1921
ಿಸಲಾಯಿತು	-1922
ಲೈ	-1923
▁ಆನ	-1924
ಾಗ್ಯೂ	-1925
ಾದ್ಯಂತ	-1926
▁ಶಾಂತ	-1927
ೇಸ್	-1928
▁ಕೌ	-1929
ಎನ್	-1930
ತ್ನಿ	-1931
▁ಪೆಟ್ರ	-1932
▁ಆಚ	-1933
▁ಎಚ್	-1934
ಮಾರ್	-1935
▁ಬದಲಾವಣೆ	-1936
▁ಎಲ್ಲರೂ	-1937
▁ಜ್ಞಾನ	-1938
▁ನನ್ನನ್ನು	-1939
▁ಇಲ್ಲಿದೆ	-1940
▁ನೀಡಿದರು	-1941
▁ರಕ್ಷಣ	-1942
▁16	-1943
▁ನೀಡಿದೆ	-1944
▁ಖಾ	-1945
ನ್ಯಾಸ	-1946
ಳುಹ	-1947
▁ವಸ್ತು	-1948
ಿಕವಾಗಿ	-1949
▁ಓದಿ	-1950
ಾರ್ಕ್	-1951
▁ಮಾಡಿದರು	-1952
▁ಸಹೋದರ	-1953
▁ಮಾಡುತ್ತದೆ	-1954
ಿಸುತ್ತಿದ್ದಾರೆ	-1955
ಾಳೆ	-1956
ಿಸುತ್ತೇನೆ	-1957
ವಿಧಾನ	-1958
ೀರಾ	-1959
▁ಬರುವ	-1960
▁ಕರ್ತನ	-1961
ೆಂಬ	-1962
▁ವಿಚಾರಣೆ	-1963
ನ್ವಯ	-1964
▁ದೇಹ	-1965
▁ವಿವರ	-1966
▁ಪ್ರಧಾನಮಂತ್ರಿ	-1967
ಪತಿ	-1968
ರಿಸಿದ	-1969
ಿಸಿದನು	-1970
▁ರೀತಿಯಲ್ಲಿ	-1971
▁ಸೊ	-1972
▁ಅದರಲ್ಲಿ	-1973
▁ಮೃತಪಟ್ಟ	-1974
ಘ್ರ	-1975
ಷನ್	-1976
▁ಗೆದ್ದ	-1977
ನಿಯ	-1978
▁ಬಿಟ್ಟು	-1979
▁ಪತ್ನಿ	-1980
ುತ್ತಮ	-1981
▁200	-1982
ೊಟ್ಟ	-1983
▁ಸಿಬಿ	-1984
▁ಪೋಷ	-1985
▁ಪ್ರಯೋಜನ	-1986
▁ಇರಲಿಲ್ಲ	-1987
▁ಮೌಲ್ಯ	-1988
▁ಕಪ	-1989
ಸ್ವಾಮಿ	-1990
▁ಕಳುಹ	-1991
▁ದೆಹಲಿ	-1992
▁ಇಡೀ	-1993
▁ಥ	-1994
▁ಬ್ರ	-1995
▁ಇನ್	-1996
ಮೇ	-1997
ಂತು	-1998
▁ಟ್ವೀ	-1999
ಡಿದ	-2000
▁ದೀಪ	-2001
ೀನ್	-2002
▁ಉಗ್ರ	-2003
ಾಗ್	-2004
▁ಸಚಿ	-2005
▁ಸರಿ	-2006
▁ಶೀಘ್ರ	-2007
▁ಹರ	-2008
▁ಖರೀ	-2009
▁ಬರೆದ	-2010
▁ಮರು	-2011
ಫೋ	-2012
ಾಚ	-2013
▁ಕೂಡಾ	-2014
▁ಮಾಧ್ಯಮ	-2015
▁ರಾಜ್ಯದಲ್ಲಿ	-2016
▁ಆಶ	-2017
▁ಖು	-2018
▁ಸಾಂ	-2019
ಪ್ರದೇಶ	-2020
▁ಚುನಾವಣೆಯಲ್ಲಿ	-2021
▁ರೋ	-2022
ವರಿ	-2023
▁ವೆಚ್ಚ	-2024
▁ಅತ್ಯುತ್ತಮ	-2025
▁ಯುದ್ಧ	-2026
▁ಕಾಯ್ದ	-2027
ಕಾಸ	-2028
▁ಆಧಾರ	-2029
ಸಭೆ	-2030
▁ಪುತ್ರ	-2031
▁ಆದಾಗ್ಯೂ	-2032
▁ಏರ್	-2033
ತೃ	-2034
ಣೆಯ	-2035
▁ಬಿಜೆಪಿಯ	-2036
▁ಹೌದು	-2037
▁ಬೈಕ್	-2038
ಾಶ	-2039
ುತ್ತಿದ್ದರು	-2040
▁ನೀಡುವ	-2041
ಿಕೊಂಡು	-2042
ೈಸ	-2043
▁ಅಂದರೆ	-2044
▁ಬಂದಿದೆ	-2045
▁ಅಷ್ಟ	-2046
ಲ್ಯಾ	-2047
▁ಭೂಮ	-2048
ಳ್ಳು	-2049
▁ವಯ	-2050
ಬೇಕೆಂದು	-2051
▁100	-2052
▁ಚಂದ್ರ	-2053
▁ಸಹಕಾರ	-2054
▁ಒಟ್ಟ	-2055
▁ಆತನು	-2056
ಮೊ	-2057
▁ತಲು	-2058
ಜರಾ	-2059
ೆಗಳನ್ನು	-2060
▁ಅಂತಿಮ	-2061
▁ಪ್ರತ್ಯ	-2062
ಮಿತ್	-2063
▁ಚೆನ್ನಾಗಿ	-2064
▁ಮುಗ	-2065
▁ಚಿಕ್ಕ	-2066
ಿಲ್	-2067
▁ಸಂಚಾರ	-2068
▁ಮಹಾರಾಷ್ಟ್ರ	-2069
▁ಸಂಘಟ	-2070
ಳಿಯ	-2071
▁ಪಡ	-2072
▁ಕುಡಿಯ	-2073
▁ಇಂಥ	-2074
▁ಬಡ	-2075
ಿಸಲಾಗಿತ್ತು	-2076
ಿಸಲ್ಪಟ್ಟ	-2077
ಂಡರ್	-2078
▁ಅಂತರ	-2079
▁ಮಾನವ	-2080
▁ಪುಸ್ತಕ	-2081
ಫಲ	-2082
▁ಕಾರ್ಯಾ	-2083
ಾತ್ಮಕ	-2084
ಲುವು	-2085
▁ವ್ಯಕ್ತಿಯ	-2086
▁ಗೃಹ	-2087
▁ಅಪಘಾತ	-2088
ಪಾಲ	-2089
▁ತಂದೆ	-2090
▁ಸಿಎಂ	-2091
ನಾಥ್	-2092
▁ನಿರ್ದೇಶಕ	-2093
▁ದಾಳಿ	-2094
▁ತಪ್ಪು	-2095
▁ಅಧ	-2096
▁ಪ್ರತಿಯೊಬ್ಬ	-2097
▁17	-2098
▁ಹಾಕಿ	-2099
▁ಹಣಕಾಸ	-2100
▁ವಿಸ್ತ	-2101
ುತ್ತಿತ್ತು	-2102
▁ಅವನಿಗೆ	-2103
ಎಫ್	-2104
ಡುಗೆ	-2105
▁ಹೋದ	-2106
ೂರ್ತಿ	-2107
▁ಛ	-2108
▁ಕುಸ	-2109
▁ಅಭಿಪ್ರಾಯ	-2110
ಿದ್ದರೂ	-2111
▁ಗುಜರಾ	-2112
▁ನಾಯ	-2113
▁ಮ್ಯಾ	-2114
ಿತಿಯನ್ನು	-2115
▁ಹೊಂದಿರುವ	-2116
▁ಹಿಂದೂ	-2117
▁ಕೂಡಲೇ	-2118
ಿಸುವಂತೆ	-2119
▁ವೇಗ	-2120
▁ಫೈ	-2121
▁ಬೇಕು	-2122
ರ್ವ	-2123
▁ಆಸ್ಟ್ರ	-2124
▁ತಿಂ	-2125
ೂಹ	-2126
ಡಾ	-2127
▁ಆಕೆ	-2128
ಂಟರ್	-2129
ಾಣಿ	-2130
▁ಸಿಬ್ಬಂದಿ	-2131
ೂಕ	-2132
▁ಕತ್ತ	-2133
▁ಸಂಸ್ಕ	-2134
▁ಎಫ್	-2135
▁ಖಾಸ	-2136
▁ಇದೊಂದು	-2137
▁ವಾಸ್ತ	-2138
▁ಇಸ್ರಾಯ	-2139
▁ಅಪ್	-2140
▁ಸಂಸದ	-2141
▁ಮಿಶ್ರ	-2142
▁ಯೆ	-2143
▁ತೆರಿಗೆ	-2144
ವಿಡ್	-2145
▁ಅಗತ್ಯವಿದೆ	-2146
ನೀ	-2147
▁ಕೊಲೆ	-2148
ಪಕ್ಷ	-2149
ದರಿಂದ	-2150
▁ಅಮಿತ್	-2151
ನೆಗಳು	-2152
▁ಮಾಡಬಹುದು	-2153
ೌಡ	-2154
▁ಬಿಡ	-2155
▁ಸ್ಥಾಪ	-2156
▁ಟ್ವೀಟ್	-2157
ಾಯು	-2158
▁ಕೆಳಗಿನ	-2159
ಕರಿಸ	-2160
▁ಕಣ	-2161
ಿತಿಯ	-2162
▁ಕಾರ್ಯಕರ್	-2163
ಬಾ	-2164
▁ಏಕ	-2165
▁ಪ್ರಾರ್ಥ	-2166
ೋತ್ಸ	-2167
▁30	-2168
▁ಮನವಿ	-2169
ಪರ್	-2170
▁ಪೆಟ್ರೋಲ್	-2171
▁ಅದ್	-2172
▁ಶುಭ	-2173
▁ಸಂಭ	-2174
▁ಫೋಟೋ	-2175
ಿರುವುದು	-2176
▁ಡೆ	-2177
ೇಂದ್ರ	-2178
ಮಟ್ಟ	-2179
▁ಏನೂ	-2180
▁ಕಾರ್ಯದರ್ಶಿ	-2181
▁ದೃಷ್ಟ	-2182
▁ಮರಣ	-2183
▁ನೂ	-2184
▁ಮಾದರಿಯ	-2185
▁ಬಂಧನ	-2186
▁ಮರ	-2187
▁ಬಾರ	-2188
್ತ	-2189
▁ರಾಜೀನ	-2190
▁ಆತ್ಮಹ	-2191
▁ಅವಳ	-2192
ೋಪ	-2193
ರಿತ	-2194
▁ವ್ಯವಹ	-2195
▁ವಿದ್ಯು	-2196
ಗಳನ್ನೂ	-2197
ಟುವ	-2198
ಗಳಾದ	-2199
▁ಒತ್ತಾಯ	-2200
▁ಕೈಗೊಂಡ	-2201
▁ದಾಖಲೆ	-2202
ಕ್ಸ	-2203
ದೆಹ	-2204
▁ಕೇರಳ	-2205
▁ಕಪೂರ್	-2206
ುತ್ತಿವೆ	-2207
ಿಗೂ	-2208
▁ತಂತ್ರಜ್ಞಾನ	-2209
ವಾಗಲಿದೆ	-2210
▁ದೇಶದಲ್ಲಿ	-2211
▁ಚುನಾವಣಾ	-2212
ಡುವುದು	-2213
ಿಂಗ್	-2214
ೈಲ	-2215
ಗಾ	-2216
ಪ್ರಿಯ	-2217
▁ಪೂರ್ವ	-2218
▁ಉದ್	-2219
▁ಲಾಭ	-2220
▁ನಿರ	-2221
▁ತಲುಪ	-2222
▁ಪರೀಕ್ಷೆ	-2223
ಚ್ಚು	-2224
▁ವೃತ್ತ	-2225
▁ಚಿಂತ	-2226
▁ಸುಧಾರ	-2227
ಕೂಲ	-2228
ಾಗಿದ್ದು	-2229
▁ಬಿಡುಗಡೆಯ	-2230
▁ಆಸ್ಪತ್ರ	-2231
▁ಮನೆಯಲ್ಲಿ	-2232
▁ಹೈಕ	-2233
▁ಮುಖ್ಯಸ್ಥ	-2234
ೊಡಗ	-2235
▁ತೆಗೆದುಕೊಂಡ	-2236
ಂಟಿ	-2237
▁ಭಾರೀ	-2238
▁ಹಬ್ಬ	-2239
ಲಭ್ಯ	-2240
ೂಲ	-2241
ಲ್ದ	-2242
▁ಮೂಡ	-2243
ವೇನು	-2244
▁ವ್ಯವಸ್ಥೆ	-2245
ಮ್ಮು	-2246
▁ಪ್ರದರ್ಶನ	-2247
ರವಾಗಿ	-2248
▁ತಾಯಿ	-2249
▁ಅವುಗಳನ್ನು	-2250
ಹಾ	-2251
▁ಸಾಧ್ಯತೆ	-2252
▁ಸಂಶೋಧ	-2253
▁ವರ್ಷದ	-2254
▁ಮೂರ	-2255
▁ಕಲ್ಪ	-2256
ಿಸ್ಟ	-2257
ದಲ್ಲಿದೆ	-2258
ತಿಯಲ್ಲಿ	-2259
▁ಬಳಿ	-2260
▁ಒಪ್ಪಂದ	-2261
ಸಾಧ್ಯ	-2262
▁ವಿಶ್ವಾಸ	-2263
▁ಪ್ರೀತಿ	-2264
▁ಗೊತ್ತಿಲ್ಲ	-2265
▁ನಿರ್ಧ	-2266
▁ಸಲಹೆ	-2267
ಂಟು	-2268
▁ಶತ	-2269
ರೂಪ	-2270
▁ಶೆಟ್ಟಿ	-2271
▁ನೀಡಲಾಗಿದೆ	-2272
▁ಆಗ್ರಹ	-2273
▁ಆಳ	-2274
ಯಲ್ಲಿ	-2275
▁ಭಾರತಕ್ಕೆ	-2276
▁ನಿಟ್ಟ	-2277
▁ನೇತೃ	-2278
ಮಂತ್ರ	-2279
▁ಹೇಳಿದ	-2280
▁ಶಕ್ತಿ	-2281
▁ಅಭಿಮಾನ	-2282
▁ಡೀ	-2283
ಲ್ಲದೆ	-2284
ಭೂ	-2285
▁ವಿಕೆಟ್	-2286
ಿಸುವುದಿಲ್ಲ	-2287
▁ಕನ	-2288
▁ಆಲ	-2289
ಂಪ್	-2290
ಿತಾ	-2291
▁ಅಲ	-2292
▁ಯೋಗ	-2293
▁ಬಂಗ	-2294
ತ್ರಿಕ	-2295
▁ಔಷ	-2296
▁ತರಬೇ	-2297
ಹೋಗ	-2298
▁ಮತ್ತೊಂದು	-2299
▁ಆನಂದ	-2300
▁ನಗ	-2301
▁ಮೂವರು	-2302
▁ಹಾರ	-2303
▁ಡೇ	-2304
ಾವರಣ	-2305
▁ವಿಷಯದಲ್ಲಿ	-2306
ಿಸಲಾಗುತ್ತದೆ	-2307
ಮಾನ್	-2308
ವಿದ್ಯ	-2309
▁ಅಂಕ	-2310
▁ಲೇಖ	-2311
▁1.	-2312
▁ಕೆಲವ	-2313
ಮೇಶ್	-2314
▁ತಡೆ	-2315
▁ಕಾರ್ಯಾಚ	-2316
ನ್ನಿ	-2317
ರುತ್ತಾರೆ	-2318
▁ಮಾಡುವುದು	-2319
▁ಚೀ	-2320
ಶ್ಚಿ	-2321
▁ಸಂಗ್ರಹ	-2322
ಬೇಕಿದೆ	-2323
ೆಲ್ಲಾ	-2324
▁ಆದ್ರೆ	-2325
▁ಮಹಿಳಾ	-2326
▁ಎಲೆ	-2327
ಿಯಾಗಿದೆ	-2328
▁ಸಂಬಂಧಿಸಿದಂತೆ	-2329
▁ಬೌ	-2330
ವೆಂದು	-2331
ವಾಬ್ದ	-2332
▁ವೈದ್ಯಕೀಯ	-2333
▁ಕ್ಯಾಮೆ	-2334
▁ಅಸ್	-2335
▁ಪ್ರವಾಸ	-2336
▁ನವದೆಹ	-2337
ೀಪ್	-2338
▁ಗಿ	-2339
ಿಗಳನ್ನು	-2340
▁ಸ್ಮಾರ್ಟ್	-2341
▁ಸೌಲಭ್ಯ	-2342
▁ಅವಧ	-2343
▁ವಾಸ್ತವ	-2344
▁ಪಟ್ಟಣ	-2345
ಶು	-2346
ೋನ	-2347
▁ಮನಸ್ಸ	-2348
▁ಭಿನ್ನ	-2349
ಿದೆಯ	-2350
▁ಪಡೆದುಕೊಂಡ	-2351
ಸ್ತುತ	-2352
ಿತವಾಗಿ	-2353
ಭುತ	-2354
▁ಖಾಸಗಿ	-2355
ವಿಷ್ಯ	-2356
ಿವೇಶ	-2357
▁ಚಿನ್ನ	-2358
▁ಅಂತಹ	-2359
▁ನಿರ್ದೇಶನ	-2360
▁ಐದು	-2361
▁ನಷ್ಟ	-2362
ಾಧ	-2363
▁ವಿವಾದ	-2364
ಿಸಿವೆ	-2365
▁ಸಂಸ್ಥೆ	-2366
ಸನ್	-2367
▁ವಲಯ	-2368
▁ಯಾವುದು	-2369
▁ಪಾರ	-2370
▁ಎಲ್ಲರಿಗೂ	-2371
▁!	-2372
▁ನಿಟ್ಟಿನಲ್ಲಿ	-2373
ಕರಿಗೆ	-2374
ಿಗ	-2375
▁ಮೇಲ್	-2376
ೇಜ್	-2377
▁ಗ್ರಾಹ	-2378
ಲೆಯ	-2379
ಲ್ಲಿದ್ದ	-2380
ಸ್ಲಿ	-2381
-1	-2382
▁ಭವಿಷ್ಯ	-2383
▁ಪ್ರೀತ	-2384
ೊಳಗೆ	-2385
▁ರೋಹ	-2386
▁ಕ್ರೀಡ	-2387
▁ಕಾರ್ಯನಿರ್	-2388
▁ಸೇರಿಸಿ	-2389
▁ಯಾದ	-2390
▁ಸೇರ	-2391
ಾರ್ಹ	-2392
▁ಸಭೆ	-2393
▁ಇನ್ನೊಂದು	-2394
▁ಕೀರ್	-2395
ರಾಗಿದ್ದಾರೆ	-2396
▁ವ್ಯವಹಾರ	-2397
ವಣಿಗೆ	-2398
▁ಪಾವ	-2399
ಟುವಟ	-2400
▁ಹಾಗೆಯೇ	-2401
▁ಸಾರ	-2402
ಗಳೊಂದಿಗೆ	-2403
▁ರೈತರ	-2404
▁ಉಪಯೋಗ	-2405
▁ಹೂಡ	-2406
▁ನಿಯಂತ್ರಣ	-2407
ಟಾ	-2408
ಿರುತ್ತದೆ	-2409
▁ಎದುರಿಸ	-2410
▁ಅನ್ನ	-2411
▁ಒತ್ತಡ	-2412
▁ಮಹಾ	-2413
▁ರಾಜೀನಾಮೆ	-2414
ವೋ	-2415
▁ಇರುತ್ತದೆ	-2416
▁ರೂಪಾಯಿ	-2417
▁ಕಳ	-2418
▁ಪಾಲ್ಗೊಂಡ	-2419
ಕರಣ	-2420
▁ಕುಟುಂಬದ	-2421
▁ಜನಪ್ರಿಯ	-2422
▁ಜತೆ	-2423
▁ಗೆಲುವು	-2424
ಲ್ಲಿದೆ	-2425
▁ತನ	-2426
ರಾಮಯ್ಯ	-2427
▁ತೊ	-2428
ಗೌಡ	-2429
▁ಇತ್ತು	-2430
▁ಪ್ರಸ್ತುತ	-2431
▁ನೀಡಲು	-2432
ವಾಗಿದ್ದು	-2433
ಟ್ಸ್	-2434
▁ತೊಂದರೆ	-2435
▁ಅನ್ವಯ	-2436
ಲಿರುವ	-2437
▁ಪುರುಷ	-2438
▁ಕೃಷಿ	-2439
▁ಜವಾಬ್ದ	-2440
▁ಹುದ್ದ	-2441
ರ್ಷ	-2442
▁ರೈಲು	-2443
▁ಗುಜರಾತ್	-2444
▁ಸಾಮಾನ್ಯವಾಗಿ	-2445
▁ಬೆಳವಣಿಗೆ	-2446
▁ದೈ	-2447
ಲ್ಸ್	-2448
▁ನಡೆಯುತ್ತಿದೆ	-2449
‍ನ	-2450
▁ಅವಳು	-2451
▁ಮಳೆಯ	-2452
▁ಅಭಿನಯ	-2453
▁ಸ್ಥಿತಿ	-2454
▁ಸಮ್ಮ	-2455
▁ಕಠ	-2456
▁ಕೆಟ್ಟ	-2457
▁ಸುಂದ	-2458
ಶಾ	-2459
▁ಹೋಗಿ	-2460
▁ಪಂಚ	-2461
▁ನಿರ್ಣ	-2462
▁ಆಗಮ	-2463
ದಲ್ಲೂ	-2464
ಬೈಲ್	-2465
ಿಸುತ್ತಿದೆ	-2466
ತಾಣ	-2467
▁ತೀರ್ಮಾನ	-2468
▁ಕಚ	-2469
▁ಸಿಬಿಐ	-2470
▁ಬೇಸ	-2471
▁ಬ್	-2472
▁ಕೊಂಡ	-2473
▁ವಿದ್ಯುತ್	-2474
▁ಪೊಲೀಸರಿಗೆ	-2475
▁ವಿಶ್ವವಿದ್ಯ	-2476
▁ನೂತನ	-2477
ಕ್ಷನ್	-2478
▁ಅದ್ಭುತ	-2479
▁ಗಳಲ್ಲಿ	-2480
▁ವಿಜ್ಞಾನ	-2481
ಬರ್	-2482
▁ಬಂದು	-2483
▁ಹುಟ್ಟ	-2484
ರಬೇಕು	-2485
▁ಎಲ್ಲವೂ	-2486
▁ಯಾವಾಗಲೂ	-2487
ಬಂಧ	-2488
ಶ್ವ	-2489
▁ಚಟುವಟ	-2490
್ರಮ	-2491
▁ಧಾರ	-2492
▁ಫಿ	-2493
▁ಪ್ರತಿಕ್ರಿಯೆ	-2494
▁ನಿನ	-2495
▁`	-2496
ವಿರುವ	-2497
▁ರಕ್ಷಣಾ	-2498
ಕವಾಗಿ	-2499
್ಯಾಸ	-2500
▁ನಡೆಸಿದ	-2501
ಿಸುತ್ತೇವೆ	-2502
▁ಆ್ಯ	-2503
▁ಕುಮಾರಸ್ವಾಮಿ	-2504
ಕುಮಾರ್	-2505
▁ಕೆಲವರು	-2506
ೇಕೆ	-2507
▁ಸಂಚ	-2508
▁ಇಂದು	-2509
▁ಯಾರಿ	-2510
ಶ್ಚಿಮ	-2511
ಟ್ಟೆ	-2512
ಬೇಕಾದ	-2513
▁ಉದಾಹರಣ	-2514
▁ಹಕ್ಕು	-2515
▁ಹಾಗು	-2516
▁ಲಕ್ಷಣ	-2517
ುಟ	-2518
▁ಚಾ	-2519
▁ಗೆಲ್ಲ	-2520
▁ಜಾಲತಾಣ	-2521
ವಾನ	-2522
▁ಸೇರಿಸ	-2523
▁ಜಿಲ್ಲೆಯ	-2524
▁ಕಾರ್ಯಕ್ರಮದಲ್ಲಿ	-2525
▁ಸರ್ಕಾರಿ	-2526
▁ಪಂದ್ಯದಲ್ಲಿ	-2527
▁ಎಂದೂ	-2528
ಕಾರಣ	-2529
▁ತಕ್ಕ	-2530
▁ಮಾಡಿಲ್ಲ	-2531
ಡುವುದಿಲ್ಲ	-2532
ಕರ್ಷ	-2533
ಲ್ದಾಣ	-2534
▁ಇಲಾಖ	-2535
ೇಶನ್	-2536
ಿಸಲಾಗುವುದು	-2537
▁ಅಧಿಕೃತ	-2538
ಂಕಾ	-2539
▁ಜಮ್ಮು	-2540
ರ್ಗ	-2541
ಚ್ಚಿ	-2542
▁ನಮ್ಮನ್ನು	-2543
ಫಿ	-2544
▁ಅನುಕೂಲ	-2545
ಿಸಲಿದೆ	-2546
▁ಮೈತ್ರಿ	-2547
▁ಯೇಸ	-2548
▁ಹಿನ್ನೆಲೆಯಲ್ಲಿ	-2549
▁ಡೀಸೆಲ್	-2550
▁ಆದಾಯ	-2551
ೀಕ್ಷ	-2552
ನ್ನತ	-2553
▁ಪ್ರಸ್ತ	-2554
ಲ್ಲು	-2555
ದಾ	-2556
▁ಅವಶ್ಯ	-2557
ಸ್ಥಾನ	-2558
▁ಆತಂಕ	-2559
ದೊಂದಿಗೆ	-2560
▁ಜಲ	-2561
ವಾಲ್	-2562
▁ಸುಪ್ರೀಂ	-2563
▁ಸಚಿವಾಲಯ	-2564
▁ಲೋಕಸಭಾ	-2565
▁ಬರೆಯ	-2566
▁ಪ್ರಗ	-2567
▁ಪಶ್ಚಿಮ	-2568
ವರೂ	-2569
me	-2570
▁ಶಾಸಕ	-2571
▁ಗೂ	-2572
▁ಮಾಡಿದ್ದ	-2573
▁ಮಕ್ಕಳಿಗೆ	-2574
▁ವಿನ್ಯಾಸ	-2575
▁ಒಳಗೊಂಡ	-2576
ವನ್ನ	-2577
ಶಾಸ್ತ್ರ	-2578
▁ಕೊನೆಯ	-2579
▁ಸಿದ್ದರಾಮಯ್ಯ	-2580
▁ವಿತ	-2581
▁ಸಂಪುಟ	-2582
ವಾಗಿರುವ	-2583
▁ಪ್ರೊ	-2584
▁ಅಹ	-2585
▁ಅಷ್ಟೇ	-2586
▁ನಾಯಕರು	-2587
▁ಹಣಕಾಸು	-2588
▁ಮಾದರಿ	-2589
▁ಪ್ರವಾಸಿ	-2590
ರೇನು	-2591
ಯಾ	-2592
್ರು	-2593
ೋತ್ಪ	-2594
ಲ್ಡ್	-2595
ಲಿಕ	-2596
▁ಕರ	-2597
▁ಮಾಡುವುದ	-2598
▁ವೈಯ	-2599
▁ಖಚಿತ	-2600
▁ರೇ	-2601
▁ಸಾಧ್ಯವಾಗ	-2602
▁ಅವನನ್ನು	-2603
ೆವು	-2604
▁ನೌ	-2605
▁ಹೈಕೋರ್ಟ್	-2606
▁ಮುಂಚ	-2607
ವಡ	-2608
ಿಸಿಸಿ	-2609
▁ಸ್ವೀಕರಿಸ	-2610
ತನೆ	-2611
▁ಮುಸ್ಲಿ	-2612
▁ಖರೀದ	-2613
▁)	-2614
▁ಸ್ವಾತ	-2615
▁ವ್ಯತ್ಯ	-2616
▁ಪುಟ	-2617
ಿನಿಯ	-2618
▁ಅಲ್ಲದೇ	-2619
▁ಮಾರುಕಟ್ಟೆಯಲ್ಲಿ	-2620
▁ಸಮಿತಿ	-2621
▁ಗೇ	-2622
▁ವಶಕ್ಕೆ	-2623
▁ಜನರನ್ನು	-2624
ೀರ್ಘ	-2625
▁ನಡುವಿನ	-2626
▁ನಿಲ್ದಾಣ	-2627
▁ಫ್ರ	-2628
▁ಬಿದ್ದ	-2629
▁ಪ್ರಚಾರ	-2630
▁24	-2631
▁ಪುರ	-2632
▁ಚಲ	-2633
▁ಬಿಜೆಪಿಗೆ	-2634
▁ರೈಲ್	-2635
▁ಚಲನ	-2636
ಿಯೋ	-2637
▁ಮೊಬೈಲ್	-2638
▁ಅರಸ	-2639
▁ಕಲಿಯ	-2640
ಕ್ತಿಕ	-2641
▁ನಿಂತ	-2642
50	-2643
▁ಚರ್ಚೆ	-2644
▁ದಿನಗಳಲ್ಲಿ	-2645
ನಿಕ	-2646
▁ಗುಂಡ	-2647
ಜ್ಜ	-2648
▁ಶಕ್ತಿಯ	-2649
ೇನ	-2650
ರಿಸಿದರು	-2651
ೇಜು	-2652
ನದಲ್ಲಿ	-2653
ಸ್ತ್ರ	-2654
▁ವಿಶ್ವದ	-2655
▁ಮದುವೆ	-2656
▁ಸ್ವತ	-2657
▁ಆಯು	-2658
ಾವ್	-2659
▁ಕೀ	-2660
▁ಸದಸ್ಯರು	-2661
▁ಟೀಂ	-2662
▁ತೆಲು	-2663
▁ನಿಷೇ	-2664
▁ಭೇಟ	-2665
▁ಅನುಸ	-2666
▁ಕಟ್ಟಡ	-2667
▁ಹೆಚ್ಚುವ	-2668
▁ಇನ್ನಷ್ಟು	-2669
▁ಕರ್ತನು	-2670
▁ಏಕೆಂದರೆ	-2671
▁ಅಂಥ	-2672
▁ಎತ್ತ	-2673
▁ತಡೆಯ	-2674
▁ಮೇಲಿನ	-2675
▁21	-2676
ಬಹುದಾಗಿದೆ	-2677
ಕೊ	-2678
ಿರಂಗ	-2679
▁ಅವುಗಳ	-2680
ಕ್ರಿಯ	-2681
ಂಕು	-2682
▁ವಾದ	-2683
▁ತಿಂಗಳ	-2684
▁ಕಣ್ಣ	-2685
ತೇಕ	-2686
▁ಎಕ್ಸ್	-2687
▁ಯಾದವ್	-2688
ಸ್ಸು	-2689
ೊಬ್ಬರು	-2690
▁ನಡೆಸಿ	-2691
ದನ	-2692
▁ಯಶಸ್ವ	-2693
ಿಸುತ್ತವೆ	-2694
▁ಪ್ಯಾ	-2695
▁ನಂಬಿಕೆ	-2696
ವಂತ	-2697
▁ಪ್ರಭಾವ	-2698
ಟಲ್	-2699
ಭಾರ	-2700
▁ನವದೆಹಲಿ	-2701
ಂಜಾ	-2702
▁ಮದುವ	-2703
▁ಕೇಳಿ	-2704
▁ರಾಜ್	-2705
▁ಬಂದಿಲ್ಲ	-2706
▁ಮೃ	-2707
▁ನಿಷೇಧ	-2708
ಲಿಗೆ	-2709
ಲಿಕ್	-2710
ಮ್ಸ್	-2711
▁ಕಠಿಣ	-2712
▁40	-2713
ಕ್ಟ್ರ	-2714
▁ಪ್ರಯಾಣಿಕ	-2715
▁ನಿಧ	-2716
▁ದೃಢ	-2717
▁ನಡೆಸಿದ್ದಾರೆ	-2718
▁ರೋಹಿತ್	-2719
▁ಷ	-2720
▁ವರದ	-2721
▁ವಿಕ	-2722
▁ಪೀ	-2723
▁ಬಹುತೇಕ	-2724
ಕ್ರೋ	-2725
ಗೊಳಿಸಲು	-2726
ೌನ್	-2727
ರಿಷ್ಠ	-2728
▁ಆಯೋಗ	-2729
ಂತ್ರ್ಯ	-2730
▁ಕಾರ್ಯನಿರ್ವಹ	-2731
▁ಅರಿ	-2732
▁ಟ್ವಿ	-2733
ವಳ	-2734
▁ಕ್ಷೇತ್ರದಲ್ಲಿ	-2735
ಂತ್ಯ	-2736
▁ಪೈಕಿ	-2737
ಿಸಿದರೆ	-2738
▁ಮಾತ್ರವಲ್ಲ	-2739
▁ಬ್ರಿ	-2740
▁ಹಿಂದಿ	-2741
ಲಕ್ಷ	-2742
▁ಇಂದ	-2743
▁ವ್ಯಾಪಾರ	-2744
ಲ್ಲೆ	-2745
▁ಆಕರ್ಷ	-2746
▁ಸಂಪೂರ್ಣವಾಗಿ	-2747
ದಾಗಿ	-2748
ಲದ	-2749
▁ಬೆಂಕಿ	-2750
ಗಳಿಗಾಗಿ	-2751
ತ್ತಿನ	-2752
ಾಮೀ	-2753
▁ಬೆಂಗಳೂರಿನ	-2754
▁ಬೆಳೆಯ	-2755
ಾದಿ	-2756
ಲಿವೆ	-2757
▁ಹಿಂದಿನ	-2758
▁ಆಟೋ	-2759
▁ಭರವಸೆ	-2760
ಣಾ	-2761
▁ಮೂರನೇ	-2762
▁ಮುಕ್ತ	-2763
ಕೊಂಡು	-2764
▁ಆಗಿತ್ತು	-2765
▁ಹತ್ತಿರ	-2766
▁ಇದ್ದಾರೆ	-2767
▁ಧೋ	-2768
▁ರೈತರು	-2769
ಮಚ	-2770
ಮಾಡುವ	-2771
▁ಬಿಎಸ್	-2772
ನಾಗಿ	-2773
ಸಿಕ	-2774
▁ಕಾರ್ಡ್	-2775
▁ಜತೆಗೆ	-2776
▁ಮಂಜ	-2777
▁ವಿನ	-2778
ದನ್ನು	-2779
ನರ್	-2780
▁ಕಂಪನ	-2781
▁ಪ್ರತ್ಯೇಕ	-2782
ಾಧ್ಯಕ್ಷ	-2783
ೋತ್ಪಾದ	-2784
▁ಯೋಜನೆಯ	-2785
▁ಅಳವಡ	-2786
▁ಸುವ	-2787
▁ಶ್ರೇ	-2788
ೆಯಾಗಿ	-2789
▁ಯೂ	-2790
▁ಬದಲಾಯ	-2791
▁ಅಂಬ	-2792
್ಯಾತ	-2793
▁ಹತ್ಯೆ	-2794
▁ನಾಯಕರ	-2795
▁ದಿನಗಳ	-2796
ಾಗೆ	-2797
▁ಸಂವಿಧಾನ	-2798
ರಾಷ್ಟ್ರ	-2799
▁ಮುಂದುವ	-2800
▁ಕೃಷ್ಣ	-2801
▁ವರೆಗೆ	-2802
▁ಹೊಡೆ	-2803
▁ನೀತಿ	-2804
▁ಕಾರ್ಮಿಕ	-2805
ವಿತ್ರ	-2806
▁ಕಡಿಮ	-2807
ಗೊಳಿಸುವ	-2808
▁ದಯ	-2809
▁22	-2810
▁ನಿರ್ಧರಿಸ	-2811
▁ಮಧ್ಯೆ	-2812
▁ಮನೋ	-2813
▁ಆವ	-2814
ನ್ಸ	-2815
ರೊಂದಿಗೆ	-2816
ಾಂಕ	-2817
▁ಪ್ರಾಮ	-2818
▁ಕಥೆ	-2819
▁ಟೈ	-2820
▁ದಾವ	-2821
▁ಸರಿಯಾದ	-2822
▁ಪರಿಸರ	-2823
▁ಸಾಧನೆ	-2824
ಿಸಲಿದ್ದಾರೆ	-2825
▁ಜಾರಿ	-2826
▁ಉತ್ಪನ್ನ	-2827
ೂರಪ್ಪ	-2828
▁ಇದೀಗ	-2829
▁ಮಂಗಳ	-2830
▁ಯಾವು	-2831
ಖ್	-2832
▁ಚೌ	-2833
▁ಮನೆಗೆ	-2834
ಿಕೆಯಲ್ಲಿ	-2835
▁ಸ್ವಾತಂತ್ರ್ಯ	-2836
ಣೆಗೆ	-2837
▁ಇದರಿಂದಾಗಿ	-2838
▁ಅಗ್	-2839
▁ಮಾರ	-2840
▁ಪ್ರಕರಣದ	-2841
▁ಮಾಡುತ್ತಿದ್ದ	-2842
▁ಐಪಿ	-2843
ಾಂತ್	-2844
▁ಸ್ನೇಹಿತ	-2845
ೆಂದರೆ	-2846
▁ವ್ಯತ್ಯಾಸ	-2847
▁ವಿವಾಹ	-2848
▁ಬಹಿರಂಗ	-2849
▁ಸಮಾರಂಭ	-2850
ಡಿಯೂರಪ್ಪ	-2851
ಟೆಡ್	-2852
ುರ	-2853
▁ಎನ್ನಲಾಗಿದೆ	-2854
ಟೊ	-2855
▁ಇಂಗ್ಲೆಂಡ್	-2856
ಮೂರ್ತಿ	-2857
▁ರಾಯ	-2858
▁ವಿಮ	-2859
▁ವಾತ	-2860
▁ಶಾಲಾ	-2861
▁ಬಾರಿಗೆ	-2862
▁ಮೊತ್ತ	-2863
▁ಆಫ್ರ	-2864
▁ಇದ್ದರು	-2865
▁ಹೇಳಿದೆ	-2866
ಿಕೊಂಡಿದ್ದಾರೆ	-2867
▁ಮೋದಿಯ	-2868
▁ಸೂಪರ್	-2869
▁ವೈರಲ್	-2870
▁ಇಸ್ರಾಯೇ	-2871
▁ಭಯೋತ್ಪಾದ	-2872
▁ಸುಳ್ಳು	-2873
ನಿಂದ	-2874
▁ದೊರೆಯ	-2875
▁ನಗರದ	-2876
▁ದಾಖಲಿಸಲಾಗಿದೆ	-2877
ೇವ	-2878
ಸಿನ	-2879
▁ಕ್ರಿಸ್	-2880
▁ಪಾಕ್	-2881
▁ನಿರ್ಣಯ	-2882
▁ಅಭ್ಯರ್ಥಿ	-2883
▁ಎನ್ನುವ	-2884
▁ಸಾವನ್ನ	-2885
▁ಪಡೆದುಕೊಳ್ಳ	-2886
an	-2887
▁ಪಂಜಾ	-2888
▁ಹೋಲ	-2889
ಕೆಯನ್ನು	-2890
ೇಲಿಯಾ	-2891
ತೆಯಲ್ಲಿ	-2892
▁ತೆಲುಗು	-2893
▁ಆನ್	-2894
▁ಕಂಪನಿ	-2895
▁ಯಾರಿಗೂ	-2896
▁ಪೇ	-2897
▁ಉಚಿತ	-2898
ರ್ತ	-2899
▁ಚಲನಚಿತ್ರ	-2900
ಸ್ಪರ	-2901
▁ಯಡಿಯೂರಪ್ಪ	-2902
▁ಇತ್ತೀಚೆಗೆ	-2903
ಟನ್	-2904
▁ಔಷಧ	-2905
ಾನ್ಸ್	-2906
▁ಚಟುವಟಿಕೆ	-2907
▁ಅಂತ್ಯ	-2908
ವಾಗಿವೆ	-2909
▁ಮಂತ್ರಿ	-2910
▁ಪ್ರತಿನಿ	-2911
▁ಹೆಚ್ಚಾಗಿ	-2912
ತೆಗಳು	-2913
ಗಟ್ಟ	-2914
▁ಗುರಿ	-2915
▁ತಮಿಳುನಾ	-2916
ಿಕೊಳ್ಳಲು	-2917
▁ರದ್ದು	-2918
ೂನ್	-2919
ಸ್ಕೃತ	-2920
▁ಪಟ್ಟಿ	-2921
▁ರವಿ	-2922
▁ಆವೃತ್ತ	-2923
ಾಗಿಯೇ	-2924
ಚನ	-2925
ಯನ್ನು	-2926
‍ನಲ್ಲಿ	-2927
▁ಸಮುದಾಯ	-2928
▁ನಡೆಯಿತು	-2929
ಿಸುತ್ತಿದ್ದ	-2930
ದಿನ	-2931
▁ಆಕೆಯ	-2932
▁ಭಾಷಣ	-2933
▁ಹೆಚ್ಚಳ	-2934
▁ಪರಸ್ಪರ	-2935
▁ಇದಕ್ಕಾಗಿ	-2936
ಟಿಕ್	-2937
▁ಮಹಿಳೆ	-2938
ಪ್ರದ	-2939
▁ಅಕ್ಷ	-2940
▁ಶೈ	-2941
▁ತೆಗೆದು	-2942
▁ವಾತಾವರಣ	-2943
▁ಯೋಧ	-2944
ಬೇಕಾಗಿದೆ	-2945
▁ಸರಿಯಾಗಿ	-2946
▁ಅಪರಾಧ	-2947
ನೆಗಳನ್ನು	-2948
▁ದಂಡ	-2949
▁ತರಬೇತಿ	-2950
▁ಪ್ರದೇಶದ	-2951
ಿಕೊಳ್ಳುವ	-2952
ದಿಲ್ಲ	-2953
▁ನೋವು	-2954
ಲೊ	-2955
▁ಹೈದ	-2956
ಾರಾಷ್ಟ್ರೀಯ	-2957
ಪೋ	-2958
▁ಬೋಧ	-2959
▁ಫೆ	-2960
▁ಆರು	-2961
ಸಿಯ	-2962
▁ಉದಾಹರಣೆ	-2963
▁ಅಗ್ನಿ	-2964
▁ನಡೆಸುತ್ತಿದ್ದಾರೆ	-2965
ೆನು	-2966
ದಿಷ್ಟ	-2967
ನನ್ನ	-2968
▁ನಿಮ್ಮನ್ನು	-2969
ವಾಗುವ	-2970
▁ತಿಂಗಳು	-2971
ನ್ಸರ್	-2972
▁ಶೋ	-2973
▁ನಾಗರಿಕ	-2974
▁ಪರಿಶೀಲನೆ	-2975
▁ಹಿಡ	-2976
▁ಅವರಿ	-2977
▁ಸಂದೇಶ	-2978
▁ಸಚಿವರ	-2979
▁ನಾಶ	-2980
▁ಕಳೆದುಕೊಂಡ	-2981
▁ಬಂಡ	-2982
ಪದ	-2983
▁ಆಯ್ಕೆಯ	-2984
▁ತಾನು	-2985
▁ಜಾಗತಿಕ	-2986
▁ರಿಂದ	-2987
▁ಸಂಗತಿ	-2988
▁ಊಟ	-2989
ತರು	-2990
▁ಘಟನೆಯ	-2991
ರಿದ್ದರು	-2992
ಲಾಗಿದ್ದು	-2993
▁ಎಂದರೆ	-2994
▁ಎನ್ನುತ್ತ	-2995
ೋದು	-2996
▁ಸಂಸ್ಥೆಯ	-2997
▁ಉನ್ನತ	-2998
ವಾಡ	-2999
▁ಮಧ	-3000
ಾನದ	-3001
▁ಆತನನ್ನು	-3002
▁ಮತ್ತಷ್ಟು	-3003
▁ಸಮಾನ	-3004
▁ಅಂತಾರಾಷ್ಟ್ರೀಯ	-3005
▁ವಿಫಲ	-3006
ದಿರುವ	-3007
ವಾಗತ	-3008
▁ಎಲೆಕ್ಟ್ರ	-3009
ಮತ	-3010
▁ನಡ	-3011
▁ನೋಟ	-3012
▁ಚೀನಾ	-3013
ಣ್ಣೆ	-3014
▁ಮಾರುತಿ	-3015
▁ದುರ	-3016
▁ಅತ್ಯಾಚಾರ	-3017
ಬಿಟ್ಟ	-3018
▁ಫೇಸ್	-3019
▁ಮಾತುಕತೆ	-3020
▁ಹಾಸ	-3021
ವೈ	-3022
▁ಮೋಟ	-3023
▁ಉಂಟು	-3024
ಚಯ	-3025
▁ಇಲ್ಲದ	-3026
ಗಳನ್ನ	-3027
▁ವೈಯಕ್ತಿಕ	-3028
▁ಪಟ	-3029
▁ಪವಿತ್ರ	-3030
ಂಘ	-3031
ಂಭಾಗ	-3032
ಹೊ	-3033
▁ಡ್ರ	-3034
▁ಪ್ರದೇಶದಲ್ಲಿ	-3035
ಭಾಗ	-3036
▁ಆತ್ಮಹತ್ಯೆ	-3037
▁ನಿರಂತರ	-3038
▁ಕಾಣಿಸಿಕೊಂಡ	-3039
ವನ್	-3040
▁ತೊಡಗ	-3041
ಾಗಿದ್ದರು	-3042
ಗಳಾಗಿವೆ	-3043
ಜೆಟ್	-3044
▁ಇರಬೇಕು	-3045
▁ಕನಿ	-3046
▁ಉದ್ಘ	-3047
▁ಇಬ್ಬರೂ	-3048
▁ಮಾತನಾಡಿದ	-3049
ಯೋಜ	-3050
▁‘‘	-3051
▁ಕಾಯಿ	-3052
▁ಪ್ರಕ್ರಿಯೆ	-3053
▁ಹೆಚ್ಚುವರಿ	-3054
▁ಬರೆ	-3055
▁ನೀಡುತ್ತದೆ	-3056
▁ಕೃತ್ಯ	-3057
▁ಪ್ರೀತಿಯ	-3058
in	-3059
ಂಕರ್	-3060
ಮೀ	-3061
▁ನಿನಗೆ	-3062
▁ಅಭಿನಂದ	-3063
▁ಸೋನ	-3064
▁ಆಸ್ಟ್ರೇಲಿಯಾ	-3065
ಗಾರಿ	-3066
▁ಪ್ರಥಮ	-3067
▁ವಾಗ	-3068
ಡೇ	-3069
▁ಅರಣ	-3070
▁ದೇವಸ್ಥ	-3071
ದಕ್ಕೆ	-3072
▁ಹೇಗ	-3073
▁ಪಾಕಿಸ್ತಾನದ	-3074
▁ವಿಶ್ವವಿದ್ಯಾಲಯ	-3075
▁ಬಿಟ್ಟ	-3076
▁ಮೇಲ	-3077
▁ದುರ್	-3078
▁ಸಾಹಿ	-3079
ಜ್ಯ	-3080
▁ಅಪ್ಪ	-3081
ಮ್ಮದ್	-3082
▁ಹಸಿ	-3083
▁ನಿರಾಕರಿಸ	-3084
ಂಧ್ರ	-3085
▁ದೃಶ್ಯ	-3086
▁ಉದ್ಘಾಟ	-3087
▁ಸ್ಥಳದಲ್ಲಿ	-3088
▁ಲೈನ್	-3089
ಿಕೆಗೆ	-3090
▁ಘಟಕ	-3091
▁ತಾಣ	-3092
▁ಚಮಚ	-3093
▁ಗುರಿಯ	-3094
▁ದೀರ್ಘ	-3095
ಿಸುತ್ತಿರುವ	-3096
▁ಕಾಲೇಜು	-3097
▁ಎನ್ನುವುದು	-3098
▁ಮಾಡುತ್ತ	-3099
▁ದಿನದ	-3100
ರಂಗ	-3101
▁ಪ್ರತಿಯೊಂದು	-3102
99	-3103
ಪ್ಟ	-3104
▁ಕಾಳ	-3105
▁ಏರಿಕೆ	-3106
▁ಮಾಡುತ್ತಿದ್ದಾರೆ	-3107
▁ಇಲ್ಲಿನ	-3108
▁ರಾಜಕಾರಣ	-3109
▁2020	-3110
ಂಡಿ	-3111
ಿರಬೇಕು	-3112
▁ಭ್ರ	-3113
ವಾಗಿರುತ್ತದೆ	-3114
▁ಸಾವನ್ನಪ್ಪ	-3115
▁ಆಸ್ಪತ್ರೆಯಲ್ಲಿ	-3116
ಸ್ಕರ	-3117
ಜಯ್	-3118
▁ಬಹುಮಾನ	-3119
▁ನಿರ್ದಿಷ್ಟ	-3120
▁ಮುಂದುವರೆ	-3121
▁ನಿಜವಾಗಿಯೂ	-3122
ಸೇ	-3123
▁ಸ್ವಾಗತ	-3124
▁ಕಾಮಗಾರಿ	-3125
▁ಕ್ಷಣ	-3126
ೀರ್ಣ	-3127
▁ಹೈದರಾ	-3128
▁ಅಷ್ಟು	-3129
▁ಹರಿಯ	-3130
ಲನು	-3131
▁ಧನ್ಯ	-3132
▁ಇಂಟರ್	-3133
▁ಸ್ಟಾರ್	-3134
ಪಾಡ	-3135
▁ದೋಷ	-3136
ಲರ್	-3137
▁ಭಕ್ತ	-3138
▁ಪ್ರಶ	-3139
▁ಸಹಜ	-3140
ತರೆ	-3141
▁ಆಲ್	-3142
▁ಬಲಿ	-3143
▁ಖಂಡಿತ	-3144
▁ಉಪ್ಪು	-3145
▁ಎಲ್ಲರ	-3146
▁ಬೆಳೆಸ	-3147
▁ಟ್ರಂಪ್	-3148
▁ಭಾಗವಹಿಸಿದ್ದರು	-3149
▁ವಿಭಿನ್ನ	-3150
ಲುವ	-3151
▁ಘೋಷಣೆ	-3152
▁ಕೊನೆ	-3153
ಕ್ಟರ್	-3154
▁ವಿಜಯ	-3155
ತಿಗೆ	-3156
▁ಕೋವಿಡ್	-3157
▁ಚಿತ್ರಕ್ಕೆ	-3158
▁ವೀಕ್ಷ	-3159
▁ಪಂಜಾಬ್	-3160
▁ಮಲ	-3161
▁ತಾಯ	-3162
▁ದ್ವಿ	-3163
▁R	-3164
ರುಗ	-3165
▁ವಾಕ್ಯ	-3166
▁ತಲಾ	-3167
▁ಭಾರಿ	-3168
▁ಮುಂತ	-3169
▁ಬೀಳ	-3170
ಮಾಡಿ	-3171
▁ಅರ್ಜ	-3172
▁ಸವ	-3173
▁ಹಾನ	-3174
▁ಸಮುದ್ರ	-3175
▁ನಿಮ	-3176
▁ಖಾತೆ	-3177
▁ಓದು	-3178
ನಗರ	-3179
ಪ್ರಭು	-3180
ವಾಮ	-3181
▁ಕಿರು	-3182
▁ಫ್	-3183
▁ನಿಖ	-3184
ಗೈ	-3185
▁ಮತ್ತಿತರ	-3186
▁ಫೈನಲ್	-3187
▁ಉದಾಹರಣೆಗೆ	-3188
ಪ್ರದಾಯ	-3189
ಂತೂ	-3190
▁ರಾತ್ರಿ	-3191
ಗ್ರಹ	-3192
▁ಬೇಗ	-3193
ಮಯ	-3194
▁ವೈದ್ಯರು	-3195
▁ಮಹಿಳೆಯರು	-3196
▁ಮತದಾನ	-3197
▁ಚೆನ್ನೈ	-3198
▁ರಿಯ	-3199
▁ಮಿಶ್ರಣ	-3200
ಾಟಾ	-3201
▁ಸಲ್	-3202
ಶಿಷ್ಟ	-3203
ಪೂರ್ಣ	-3204
▁ಶೂ	-3205
▁ಸಚಿವರು	-3206
?"	-3207
▁ಹೇಳಿ	-3208
ಕರನ್ನು	-3209
▁ಪರಿಚಯ	-3210
ಾನಂದ	-3211
▁ಬಹಳಷ್ಟು	-3212
▁ಹೊರಗೆ	-3213
▁ಒಳಗೊಂಡಿದೆ	-3214
▁ಸ್ವಚ್ಛ	-3215
▁ವ್ಯಾಪ್	-3216
▁ಸುಜು	-3217
▁ಪ್ರಕರಣಗಳು	-3218
▁ತೊಳ	-3219
▁ತೆರಳ	-3220
▁ಅರಣ್ಯ	-3221
▁ನೇಮಕ	-3222
▁ತಾವು	-3223
▁ವೇದ	-3224
▁ಕೋಟ	-3225
ಿತಿಯಲ್ಲಿ	-3226
▁ಲೆಕ್ಕ	-3227
ಕಪ್	-3228
ಲಂಬ	-3229
▁ನೀಡಬೇಕು	-3230
▁ಬಜೆಟ್	-3231
▁ಗಂಡ	-3232
ಸಿಸಿ	-3233
ಫ್ಟ್	-3234
▁ಅಪಾರ	-3235
▁ಅಗತ್ಯವಿಲ್ಲ	-3236
ನಾಂಗ	-3237
ಕ್ಷೇ	-3238
▁ಕಾಪಾಡ	-3239
▁ಕಣ್ಣು	-3240
ಸ್ಟ	-3241
ಗಳಿಗೂ	-3242
ಕರ್ಯ	-3243
▁ಐಪಿಎಲ್	-3244
▁ಗುಣಮಟ್ಟ	-3245
▁ತಿಳಿಸಿದೆ	-3246
▁ಗಳಿಗೆ	-3247
ೀವ್	-3248
ಗಳೇ	-3249
▁ವಿಜಯ್	-3250
▁ನೇತೃತ್ವದ	-3251
ಫಾರ	-3252
▁ಧ್ವ	-3253
ಿದರೆ	-3254
▁ತೆರೆ	-3255
▁ರಸ್ತ	-3256
▁ಉಲ್ಲೇಖ	-3257
ಗಿತ	-3258
ಿಯಾಗಿದ್ದಾರೆ	-3259
▁ಭೀ	-3260
▁ಹಾಡ	-3261
ಿಸುತ್ತಾನೆ	-3262
ನೆಂದು	-3263
▁ನೆಲೆ	-3264
▁ನೆನಪ	-3265
▁ಸುಂದರ	-3266
ಗರು	-3267
್ಯಾನ	-3268
▁ಚರ್ಮ	-3269
ಪೆ	-3270
ವೊಂದ	-3271
ಳದ	-3272
▁ಪ್ರವಾಹ	-3273
▁ಬಳಕೆದಾರ	-3274
▁ಕೊಡುವ	-3275
▁ಎಷ್ಟ	-3276
ನಾಗಿದ್ದ	-3277
▁ಸಾಹಿತ್ಯ	-3278
▁ಶ್ರಮ	-3279
▁ಹೈದರಾಬಾದ್	-3280
▁ಗರ್ಭ	-3281
▁ಕ್ಯಾಮೆರಾ	-3282
▁I	-3283
▁ಒಳ್ಳೇ	-3284
▁ಸಂರ	-3285
▁ಚಿತ್ರವನ್ನು	-3286
▁ಅವರೊಂದಿಗೆ	-3287
ಣೆಯನ್ನು	-3288
ಾಗಲಿದೆ	-3289
▁37	-3290
▁ತರುವ	-3291
ದರ	-3292
ಿಯವರು	-3293
▁ಪೊಲೀಸರ	-3294
ಾದರು	-3295
▁ವಾಯು	-3296
▁ಲೀಟರ್	-3297
▁ಗುಂಪು	-3298
▁ಹೆತ್ತ	-3299
▁ಮಾಡಿದ್ದರು	-3300
ಾಗುತ್ತಿದೆ	-3301
ಸ್ಟರ್	-3302
▁ಸಿಸಿ	-3303
▁ಮಾತಾಡ	-3304
▁ಹಾಡು	-3305
▁ಹುಡುಕ	-3306
re	-3307
▁ಇತರೆ	-3308
▁ಶುಲ್ಕ	-3309
▁ಅಂದನು	-3310
▁ಹೋಗುವ	-3311
ಕಾರ್	-3312
▁23	-3313
ಿದಿದೆ	-3314
▁ಪಂಚಾಯ	-3315
ರ್ಜಿ	-3316
▁ಕರೆದ	-3317
▁ಸನ್ನ	-3318
▁1,	-3319
▁ದ್ರ	-3320
▁''	-3321
▁ಸಕ್ಕ	-3322
▁ಸ್ಪೀ	-3323
ರಾಷ್ಟ್ರೀಯ	-3324
▁ಬೇಡಿಕೆ	-3325
▁ಪ್ರಿಯಾ	-3326
ಶಃ	-3327
▁ತೈಲ	-3328
▁ಪದಕ	-3329
▁ಕಡೆಗೆ	-3330
ಿರಬಹುದು	-3331
▁ಉಳಿಯ	-3332
▁ಆಗಿಲ್ಲ	-3333
್ಮಿ	-3334
▁ಎಚ್ಚರಿಕೆ	-3335
▁ಶಾಂತಿ	-3336
▁ಅದಕ್ಕಾಗಿ	-3337
ಬೀ	-3338
ೊಡ್ಡ	-3339
▁ಧಾರ್ಮಿಕ	-3340
ಸೆಯ	-3341
ಕ್ಕೇ	-3342
▁ಬುದ್ಧ	-3343
▁ಹಾಗಾದರೆ	-3344
ಿಸಲ್ಪಡ	-3345
ತ್ವದಲ್ಲಿ	-3346
▁ಅರ್ಹ	-3347
▁ದಿವ	-3348
ರಬಹುದು	-3349
ಗಾರಿಕೆ	-3350
▁ದಾವೀ	-3351
▁ಹೆಣ್ಣು	-3352
▁ಭದ್ರತಾ	-3353
ಫೆ	-3354
▁ಹೂಡಿಕೆ	-3355
ನಾತ್ಮಕ	-3356
▁ಶುದ್ಧ	-3357
▁ಆದಿ	-3358
▁ಆಸ್ಪತ್ರೆ	-3359
▁ಪತ್ತೆ	-3360
ೀಣ	-3361
▁ವಯಸ್ಸ	-3362
▁ಹುಡುಗ	-3363
ಬೇಕಾಗುತ್ತದೆ	-3364
▁ನೇರ	-3365
ಬಿಡ	-3366
ಷಿಕ	-3367
ತೆಯಿಂದ	-3368
▁ಮುಚ್ಚ	-3369
▁ಸರಕಾರದ	-3370
ಾರದ	-3371
ಕ್ಸಿ	-3372
▁ಕ್ಯಾನ್ಸರ್	-3373
▁ಯೋ	-3374
▁ಎಡ	-3375
▁ತೀರ್ಪು	-3376
▁ಕೊಡುಗೆ	-3377
▁ಸಮರ್ಪ	-3378
▁ಸಲ್ಮಾನ್	-3379
▁ನೆಲ	-3380
▁ಸುಜುಕಿ	-3381
ಸ್ಕೃತಿಕ	-3382
ನಾನ	-3383
▁ವಿದ್ಯಾರ್ಥಿಗಳಿಗೆ	-3384
ಮಾಪ	-3385
▁ನೀಡಿದ್ದರು	-3386
▁ನಡೆದಿ	-3387
ನ್ನಾ	-3388
▁ಡೌನ್	-3389
ುತ್ತಲೇ	-3390
▁ಕಂಪನಿಯು	-3391
ರಣ್	-3392
▁ಅನುಮೋದ	-3393
▁ವಿದ್ಯಾರ್ಥಿ	-3394
▁ನಡೆಯಲಿದೆ	-3395
ದಲ್ಲಿದ್ದ	-3396
▁ನಾಮ	-3397
▁ಪಾಪ	-3398
▁ಕ್ರಿಯ	-3399
ರಕ	-3400
ಣು	-3401
ೇಶ್ವರ	-3402
▁ಹರಿ	-3403
▁ಇದಲ್ಲದೆ	-3404
▁ಪ್ರಜಾ	-3405
ುತ್ತೆ	-3406
ಹರಿಸ	-3407
▁ಟಾಟಾ	-3408
ಬಹುದಾದ	-3409
▁ವ್ಯಕ್ತಪಡಿಸಿದರು	-3410
▁ಇರುವುದಿಲ್ಲ	-3411
▁ಮಹತ್ವ	-3412
▁ಬಾಲಕ	-3413
▁ಪ್ರಾಯ	-3414
▁ಪಡೆಯಲು	-3415
▁ತಾಳ	-3416
▁2019	-3417
▁ವಾಣಿ	-3418
▁ಕಾರ್ಯಾಚರಣೆ	-3419
▁ಜೀವನದಲ್ಲಿ	-3420
▁ಎಂದರೇನು	-3421
▁ಗಂಭೀರವಾಗಿ	-3422
ಾಕಿ	-3423
▁ಸರ್ಕಾರಕ್ಕೆ	-3424
▁ಹೇಳುವ	-3425
▁ರಾಮ್	-3426
▁ಹೆಸರಿನ	-3427
▁ಭರ್ಜ	-3428
▁ಉಪಾಧ್ಯಕ್ಷ	-3429
▁ರಂಗ	-3430
▁ಹೆಂಡ	-3431
▁500	-3432
▁ಅರು	-3433
▁ಒಳಗ	-3434
▁ಅದರಿಂದ	-3435
ರಲು	-3436
ಿಕಲ್	-3437
▁ಸಾಂಸ್ಕೃತಿಕ	-3438
▁ಸರಣಿ	-3439
▁ಆಕ್ರೋ	-3440
ೈಕೆ	-3441
ಿದ್ದಾಳೆ	-3442
▁ಪಾಂಡ	-3443
▁2.	-3444
▁ಕಮ	-3445
▁ಮೂಲದ	-3446
ಾಧಿಕಾರಿ	-3447
▁ಮಾಡಿರುವ	-3448
ೋತ್ಸವ	-3449
▁ಖರ್ಚ	-3450
ೋದ್ಯ	-3451
ಡಿಗೆ	-3452
▁ಸಂಯೋಜ	-3453
▁28	-3454
▁ವಿಶ್ವಕಪ್	-3455
ಗಾಲ	-3456
▁ಧೋನಿ	-3457
▁ತಿರ	-3458
ಂತಿಲ್ಲ	-3459
ಾವಿ	-3460
ಿಸಿಕೊಳ್ಳಲು	-3461
▁ವೃತ್ತಿ	-3462
ೆಡೆ	-3463
▁ರೈಲ್ವೆ	-3464
▁ಹೊರತು	-3465
▁ಆಹ್	-3466
▁ಏಳು	-3467
▁ವಿರುದ್ಧದ	-3468
▁ಕೆಲವೊಮ್ಮೆ	-3469
ಬ್ರ	-3470
▁ಏಕದ	-3471
▁ಸಮೀಪ	-3472
▁ರಷ್ಟು	-3473
▁ಕುಡಿಯುವ	-3474
ೊನಾ	-3475
▁ಅಡಿಯಲ್ಲಿ	-3476
▁ಸ್ನೇಹ	-3477
▁ಆಪ	-3478
ಾಗ್ರ	-3479
▁ಉತ್ಸ	-3480
▁ಕುತ	-3481
▁ಹೊತ್ತ	-3482
▁ಆಕ್ರೋಶ	-3483
▁ದಿನಾಂಕ	-3484
▁ರಾಷ್ಟ್ರಪತಿ	-3485
▁ಮಂಡಳಿ	-3486
▁ಅಡಿ	-3487
▁ತೂಕ	-3488
ಿಸಲಿಲ್ಲ	-3489
ಂತೆಯೇ	-3490
▁ವಿದ್ಯಾರ್ಥಿಗಳ	-3491
▁ಮೀನು	-3492
▁ಉದ್ಯಮ	-3493
ನಾಥ	-3494
ಹಮ್ಮದ್	-3495
▁ಕಾರಿನ	-3496
▁ರಣ	-3497
ಲಿಯಲ್ಲಿ	-3498
▁ಬಿಹಾರ	-3499
▁ಕರು	-3500
▁ಯೆಹೂ	-3501
▁ಮರೆಯ	-3502
▁ಸಾಯ	-3503
▁ಅವರೇ	-3504
▁ಟೂರ್	-3505
▁ಧನ್ಯವಾದ	-3506
ಕ್ಷಿ	-3507
▁ಬೇರೆಯ	-3508
▁ವಾಣಿಜ್ಯ	-3509
▁ವಿಧಾನಸಭಾ	-3510
▁ಬಂಗಾಳ	-3511
▁ಎಂದಿಗೂ	-3512
▁ವರ್ಷಗಳ	-3513
▁ಪಾಟ	-3514
▁ಘಟನೆಯಲ್ಲಿ	-3515
▁ಅವಧಿಯಲ್ಲಿ	-3516
ವಾಳ	-3517
ಂಗಿಕ	-3518
ರಂದು	-3519
ಾಳು	-3520
▁ಗೊಂದ	-3521
▁ವಿವರಿಸ	-3522
▁ನನಗ	-3523
ುತ್ತಿದ್ದು	-3524
್ಯತೆ	-3525
ರ್ಶನ	-3526
▁ಏಕದಿನ	-3527
▁ವೃದ್ಧ	-3528
▁ಪ್ರಜಾಪ್ರಭು	-3529
▁ಕನಿಷ್ಠ	-3530
ಾಭ	-3531
▁ಸ್ವಂತ	-3532
▁ಸನ್	-3533
▁ಮುಂದುವರಿಯ	-3534
ಇದು	-3535
▁ಮಸೂ	-3536
▁ಆಶೀರ್	-3537
▁ದೇವಸ್ಥಾನ	-3538
ಾಗಿವೆ	-3539
ತಾನ	-3540
▁ತೆರ	-3541
▁N	-3542
▁ಟ್ಯಾ	-3543
▁ಮಸ	-3544
ಷ್ಯಾ	-3545
▁ಪಾದ	-3546
▁ಪತ್ರಿ	-3547
▁ಸ್ಥಾನಕ್ಕೆ	-3548
▁ಕಾಲೇಜ	-3549
▁ನಿತ್ಯ	-3550
▁ಮಕ್ಕಳನ್ನು	-3551
▁ಕಾವ	-3552
▁ಸ್ಕೂ	-3553
ಟರಿ	-3554
ಾರ್ಜ್	-3555
ಲಿಯನ್	-3556
▁ಸುಪ್ರೀಂಕ	-3557
▁ಚಿತ್ರೀಕರಣ	-3558
ಡಿನ	-3559
ವೆಂದರೆ	-3560
ಳಿದ	-3561
ಮ್ಯಾ	-3562
ಾಗಿಯೂ	-3563
▁ಅಂದು	-3564
▁ಕಪ್ಪು	-3565
▁ಜೀವನದ	-3566
▁ದೇವೇ	-3567
್ಯಾರ	-3568
▁ಪ್ಲಾ	-3569
ಸ್ತುವ	-3570
▁ದುಃ	-3571
▁ಹಿಂ	-3572
▁ಅವರಲ್ಲಿ	-3573
ೀಶ	-3574
ರೆಲ್ಲ	-3575
▁ಚಾಂಪ	-3576
▁ಬಾಂಗ್	-3577
ರಾಜ್	-3578
ಾನು	-3579
ಪತ್ರ	-3580
▁ಹಣವನ್ನು	-3581
▁ಮಹತ್ವದ	-3582
ನ್ಸಿ	-3583
▁ಹೊರಡ	-3584
▁ಬರುತ್ತದೆ	-3585
▁ಪೂರೈಸ	-3586
▁ಪದವಿ	-3587
▁ಆಂಧ್ರ	-3588
▁ಹಚ್ಚ	-3589
ನಾವು	-3590
▁H	-3591
ಯುಕ್ತ	-3592
▁ಕಂಡುಬ	-3593
▁ಕಲೆ	-3594
ದಲ್ಲಿನ	-3595
▁ಉಲ್ಲಂಘ	-3596
ವೆಂಬ	-3597
▁ಚೀನ	-3598
ಮುಖ	-3599
ಿದಾಗ	-3600
▁ಮುಂತಾದ	-3601
▁ಮಾಡುತ್ತಾರೆ	-3602
▁ನಿಧನ	-3603
ಂಡಾ	-3604
▁ಭ್ರಷ್ಟ	-3605
ೊಳಗ	-3606
▁ನೆರವು	-3607
ಿಸಿರಿ	-3608
▁ನಿದ	-3609
ಯಿ	-3610
ರಲಿ	-3611
▁ಪ್ರವಾದ	-3612
▁ಸಂಭ್ರಮ	-3613
ವೇಷ	-3614
▁ತ್ಯ	-3615
ಪರ	-3616
▁ಕೀರ್ತನೆ	-3617
▁ಯೇಸುವಿನ	-3618
▁ತಿಳಿದುಬಂದ	-3619
ದಿಂದಾಗಿ	-3620
▁ಮೋಟಾರ್	-3621
▁ಶತಮಾನ	-3622
▁0	-3623
▁ಮಗು	-3624
ಿಕೊಳ್ಳಿ	-3625
ಗಳಿಲ್ಲ	-3626
ಾಗಲಿ	-3627
್ಯದ	-3628
▁ನಡೆಸಿದರು	-3629
▁ಕೊರತೆ	-3630
ಲಿಂಗ್	-3631
▁ರಕ್ಷಣೆ	-3632
್ಯಾತ್ಮ	-3633
▁ಸಾವಿರಾರು	-3634
ಶ್ಚರ್ಯ	-3635
▁ಯತ್ನ	-3636
▁ಮಗುವ	-3637
▁ಮುನ್ನಡೆ	-3638
▁ಕ್ಷೇತ್ರಗಳಲ್ಲಿ	-3639
ುವುದನ್ನು	-3640
ರಾಗಿದ್ದರು	-3641
▁|	-3642
▁ಕ್ಷೇತ್ರದ	-3643
▁ಪಾಲ್ಗೊಂಡಿದ್ದರು	-3644
▁ನೆರವೇ	-3645
▁ವಾಗ್ದ	-3646
▁ಹಿಂದು	-3647
▁ಜನಾಂಗ	-3648
▁ಲೈಂಗಿಕ	-3649
▁ಭರ್ಜರಿ	-3650
▁ಆಚರಿಸ	-3651
ಂಜಿನಿಯ	-3652
▁:⁠	-3653
▁ನಿಜಕ್ಕೂ	-3654
ತೋ	-3655
▁ಹೇಳಿದ್ದ	-3656
ೂಷ	-3657
▁ಆಯೋಜ	-3658
▁ಸ್ಥಗಿತ	-3659
▁ಸಾಧನ	-3660
ಪರಿ	-3661
ಲಿಷ್	-3662
ಗಲ್	-3663
ವಿಕ	-3664
▁ದುಃಖ	-3665
▁ನಿರೀಕ್ಷೆ	-3666
▁ಸಂಗಡ	-3667
▁ಪೋಷಕರು	-3668
▁ಹೇಳುತ್ತಾರೆ	-3669
▁ನೀಡಿಲ್ಲ	-3670
ಿಸಿದಾಗ	-3671
▁ಚೇತ	-3672
▁S	-3673
▁ಕೆಲಸವನ್ನು	-3674
▁ಅಸ್ತಿ	-3675
▁ತ್ರಿ	-3676
ನೀಯ	-3677
▁ಬದ್ಧ	-3678
ವಾಲು	-3679
▁ಇಟ್ಟು	-3680
ೇಷನ್	-3681
▁ತೆರೆಯ	-3682
▁ಸರ್ವ	-3683
▁ಪ್ರಮಾಣದಲ್ಲಿ	-3684
▁ಅವುಗಳಲ್ಲಿ	-3685
ೆರ	-3686
▁ಝ	-3687
▁ವಸ	-3688
▁ಆಜ್ಞ	-3689
ಭಾರತ	-3690
▁ಶಾಸಕರು	-3691
▁ಹೆಸರನ್ನು	-3692
ಿಕೊಡ	-3693
ಾಪ್	-3694
▁ಪೂಜ	-3695
▁ರಹ	-3696
ನೆಯು	-3697
ುನಿಕ	-3698
▁ಹಣ್ಣು	-3699
▁ಪ್ರಮಾಣದ	-3700
ೈರ್ಯ	-3701
▁ಬಂಧಿಸಿದ್ದಾರೆ	-3702
▁ಪ್ರತಿನಿಧ	-3703
▁₹	-3704
▁ಅನ್ಯ	-3705
ುತ್ತೀರಿ	-3706
ರುವುದರಿಂದ	-3707
ಲ್ಯಾಣ	-3708
▁ಬುಕ್	-3709
ಮಾರ	-3710
ಿಂದ್	-3711
ಿಸಲಾಗುತ್ತಿದೆ	-3712
▁ಸ್ಪಷ್ಟಪಡ	-3713
▁ಪ್ರತಿಭಟನಾ	-3714
ಂಗೆ	-3715
▁ಮೀಸ	-3716
ಾಗಳ	-3717
on	-3718
ಾಯ್ತು	-3719
▁ಸುಲಭವಾಗಿ	-3720
▁ಸ್ತ್ರ	-3721
▁ಸ್ಥಿರ	-3722
ಳಿಯಲ್ಲಿ	-3723
▁ಶೋಧ	-3724
▁ಸುಪ್ರೀಂಕೋರ್ಟ್	-3725
▁%	-3726
▁ಯಾಕ	-3727
ಭಯ	-3728
▁ಸಮರ್ಥ	-3729
▁ಸ್ಪಂದ	-3730
▁60	-3731
▁ಪಾಲ್ಗೊಳ್ಳ	-3732
ಿನೆ	-3733
▁ಗೊಂದಲ	-3734
▁ಇಬ್ಬರ	-3735
ವಾಗುತ್ತಿದೆ	-3736
▁ಮಾಡುವುದಿಲ್ಲ	-3737
▁ಜನ್ಮ	-3738
ಾಂತ್ರಿಕ	-3739
▁ವಾಪ	-3740
▁ತಂದೆಯ	-3741
▁ವೈರಸ್	-3742
▁ದಂಪ	-3743
▁ಜಾರ	-3744
▁ಆದು	-3745
▁ನ್ಯಾಯಮೂರ್ತಿ	-3746
ೃತ್ಯ	-3747
▁ವಿಳ	-3748
▁ಪ್ರಸ್ತಾಪ	-3749
▁ಅಶ	-3750
▁ಶ್	-3751
▁ಪವರ್	-3752
▁ಎದುರು	-3753
▁ಸುಮ್ಮ	-3754
▁ತಿಳಿದುಕೊಳ್ಳ	-3755
ತವಾಗಿ	-3756
▁ಭಾಷೆ	-3757
▁ವಂಚ	-3758
ಾಲೆ	-3759
▁ಈಗಲೂ	-3760
▁ಕೆಳಗೆ	-3761
▁ನಿಜವಾದ	-3762
▁ಆಶ್ಚರ್ಯ	-3763
ವಿನ	-3764
ನ್ನಾಗಿ	-3765
▁ರಲ್ಲಿ	-3766
ಾಂತಿ	-3767
▁ಇಟ್ಟ	-3768
ಠಿ	-3769
▁ಕನಸು	-3770
▁ಡಿಸ್	-3771
▁ಸಾರಿಗೆ	-3772
ಡಿಯೊ	-3773
▁ರಸ	-3774
▁ಜವಾಬ್ದಾರಿ	-3775
▁ಒಡ	-3776
▁ಬ್ಯಾಟಿಂಗ್	-3777
ದಿಗೆ	-3778
▁ಹಿತ	-3779
▁ಪ್ರಸಿದ್ಧ	-3780
▁ಸವಾಲು	-3781
ಾಮಕ	-3782
▁ಪ್ರತಿದ	-3783
▁ಆಧ್ಯಾತ್ಮ	-3784
▁ಕಪ್	-3785
▁ಕ್ರಿಸ್ತನ	-3786
▁ಪ್ರಕರಣದಲ್ಲಿ	-3787
▁ಸಕ್ಕರೆ	-3788
▁ಜೋಡ	-3789
▁ಮಹಿಳೆಯರ	-3790
▁ಆರಂಭಿಕ	-3791
▁ಪಡೆದಿದ್ದಾರೆ	-3792
ನನ	-3793
▁ಸೆಲ್	-3794
▁ಬೆನ್ನ	-3795
▁ಕಲ್ಯಾಣ	-3796
▁ಮುಂದುವರಿಸ	-3797
ಂದೂ	-3798
▁ಈರು	-3799
▁ಬಳಸಿ	-3800
▁ಇಮ	-3801
▁ಗಂಗ	-3802
▁ಪ್ರಸಾದ್	-3803
▁ಪಾವತ	-3804
▁ಯಾವುವು	-3805
▁ರಮೇಶ್	-3806
▁ಸೂಚನೆ	-3807
ಾವಳಿ	-3808
ಬ್ಬರ	-3809
ಕ್ಷೇಪ	-3810
▁ಸತ್ತ	-3811
▁ಪ್ರಾಥಮ	-3812
▁ರೈತರಿಗೆ	-3813
ಲ್ಯಾಂಡ್	-3814
▁ಆಲೋಚ	-3815
▁ಸಂಕಷ್ಟ	-3816
▁ನದಿ	-3817
▁ಅಭ್ಯರ್ಥಿಗಳು	-3818
ಮೋ	-3819
▁ಅಲಿ	-3820
▁ವಿಶೇಷವಾಗಿ	-3821
ಪಡಿ	-3822
▁ಸ್ವಯ	-3823
▁ಇಲಾಖೆಯ	-3824
ಮಿತ	-3825
▁ಅಕ್ರಮ	-3826
▁ಸನ್ನಿವೇಶ	-3827
▁ವಿವೇಕ	-3828
ಿಸುವಲ್ಲಿ	-3829
▁ಜಾರಿಗೆ	-3830
ರಿಯಾ	-3831
▁ಹ್ಯಾ	-3832
▁ನೋಡೋಣ	-3833
ದ್ದೇ	-3834
▁ಪತಿ	-3835
ೀಶ್	-3836
▁ಮಾನಸಿಕ	-3837
▁ಪ್ರಯೋಗ	-3838
▁ಮೂಲಗಳು	-3839
ಲಿಕ್ಕಾಗಿ	-3840
▁ಕುತೂಹ	-3841
ಕಿನ	-3842
ಗೂಡ	-3843
▁ಆರಾಧ	-3844
ೋ	-3845
್ಮೆ	-3846
ಟದ	-3847
▁ಪಾಠ	-3848
ಂಡ್ರ	-3849
ುತ್ತಿದ್ದೇವೆ	-3850
ಜುನ್	-3851
▁ಸಿಬ್ಬಂದ	-3852
▁ನಮ್ಮಲ್ಲಿ	-3853
▁ಏರಿಕ	-3854
▁ರಾಜಸ್ಥಾನ	-3855
▁ಹೊತ್ತು	-3856
ಂಗ್ಸ್	-3857
▁ಕಚೇರಿ	-3858
▁ಇಲ್ಲಿಗೆ	-3859
▁ಚಾಲನೆ	-3860
▁ತಿದ್ದು	-3861
ರಂಜ	-3862
▁2018	-3863
▁ಪಡೆದು	-3864
ಪಾಲ್	-3865
ಂತಾಗಿದೆ	-3866
▁ಪಟ್ಟಿಯಲ್ಲಿ	-3867
▁ಅರ್ಪ	-3868
▁ಕ್ಷಮ	-3869
▁ಅತೀ	-3870
▁ಭೂಮಿಯ	-3871
▁ಸಿನಿಮಾದಲ್ಲಿ	-3872
ೈನ್	-3873
▁ಹಸ್ತ	-3874
▁ಸಭೆಯ	-3875
▁ಆಪ್	-3876
▁ಓರ್ವ	-3877
▁ಶ್ರೇಷ್ಠ	-3878
ಬೇಡ	-3879
ಿಸಿಸಿಐ	-3880
ದೆಂದು	-3881
▁ನಗದು	-3882
▁ಅರ್ಧ	-3883
▁ಕಂಪೆ	-3884
ಪ್ಪಿ	-3885
▁ಸಹಾಯಕ	-3886
▁ಅನುಮತಿ	-3887
▁32	-3888
▁ಕ್ರಿಕೆ	-3889
▁ಆಯುಕ್ತ	-3890
▁ವೈಶಿಷ್ಟ	-3891
ಸೂರು	-3892
▁ಟಿವಿ	-3893
▁ಮಟ್ಟದ	-3894
▁ಶಸ್ತ್ರ	-3895
ೋತ್ಸಾಹ	-3896
▁ಆದುದರಿಂದ	-3897
▁ಸಕ್ರಿಯ	-3898
▁ಸಿನಿಮಾದ	-3899
ಸಭೆಯಲ್ಲಿ	-3900
▁ನಿವೃತ್ತ	-3901
ಮೆಂಟ್	-3902
).	-3903
ಕ್ಟ್	-3904
ಾವನ್ನು	-3905
ವಿತ್ತು	-3906
ಾನೇ	-3907
▁ಕ್ಲ	-3908
▁ಕಾಣಿಸಿಕೊಳ್ಳ	-3909
▁ಕೆಂಪು	-3910
▁ಆರೋಗ್ಯದ	-3911
▁ಬಂತು	-3912
▁ಅದೃಷ್ಟ	-3913
▁ಸೇನಾ	-3914
’’	-3915
ಪೂರ್ವ	-3916
▁ಬಿಸಿ	-3917
▁ಓಡ	-3918
▁ಪೌರ	-3919
▁ಆಹ್ವಾನ	-3920
▁ಜಪ	-3921
ಪಡಿಸಿ	-3922
▁ಬಿಡುಗಡೆಗೊಳ	-3923
▁ನಾರ	-3924
▁ಇಂಧ	-3925
▁ಚಾಲಕ	-3926
▁ಮಾರ್ಗದರ್ಶ	-3927
ೆಲ್	-3928
▁ನೀಡಿದ್ದ	-3929
ೇತರ	-3930
▁ಕಾಡ	-3931
▁ಅನುಮಾನ	-3932
▁ಪ್ರಾಥಮಿಕ	-3933
ಲುಕ	-3934
▁ಹಗ	-3935
▁ಕೃತ	-3936
▁ಕಲಾವ	-3937
▁ವಕ	-3938
▁31	-3939
▁ತಂಡಗಳು	-3940
▁ತಿರುಗ	-3941
ad	-3942
ಭಾಯ	-3943
▁ನೂರ	-3944
▁ಸಾವಿನ	-3945
▁ವಿದೇಶಾಂಗ	-3946
▁ಆರೋಪಿಗಳನ್ನು	-3947
ರಿಂಗ್	-3948
ೃಷ್ಣ	-3949
▁ವಿಚಾರದಲ್ಲಿ	-3950
ಣೆಯಲ್ಲಿ	-3951
ಲಕ್ಷಣ	-3952
▁ಗ್	-3953
▁ಗ್ರಾಮೀಣ	-3954
▁ಮನ್	-3955
ಲಿದ್ದು	-3956
▁ಬರ್	-3957
▁26	-3958
▁ಸೇರ್ಪ	-3959
▁ಕುಸಿತ	-3960
▁ಬೇಕಾದ	-3961
▁ಮಾಹಿತಿಯನ್ನು	-3962
at	-3963
▁ಗಂಟ	-3964
ವರಾಜ್	-3965
▁ಕ್ರೀ	-3966
▁ಪಾಲು	-3967
ಿಯರು	-3968
▁ನಾವೆಲ್ಲ	-3969
▁ಪಟೇಲ್	-3970
▁ಹೊರತ	-3971
▁ಅಲ್	-3972
▁ಪ್ಲೇ	-3973
▁ನಡೆಸಲು	-3974
▁ಹಾಜರಿದ್ದರು	-3975
▁ಉಡು	-3976
▁ತ್ವ	-3977
▁ಹೇಳಿದ್ದು	-3978
▁ಎನ	-3979
▁ಧೈರ್ಯ	-3980
ಲಾರ	-3981
▁ಶಿಫಾರ	-3982
▁ಸ್ಫೋ	-3983
ೇಡ್	-3984
▁ಸಮಾ	-3985
er	-3986
▁ಮೆಣ	-3987
▁ಮುಖ್ಯಮಂತ್ರ	-3988
▁27	-3989
ಫೈ	-3990
ಾಯಾಮ	-3991
▁ತಾಲ	-3992
▁ಪ್ರೋತ್ಸಾಹ	-3993
▁ನಂದ	-3994
ಡ್ಡಾಯ	-3995
▁ತಾರ	-3996
ಗಳಲ್ಲೂ	-3997
▁ಶ್ರೀಲ	-3998
▁ಹಳೆಯ	-3999
▁ಪ್ರಶ್ನೆಗೆ	-4000
▁ಸೋಲು	-4001
ಮಿಯ	-4002
▁ಅಲ್ಪ	-4003
▁ದೊರೆ	-4004
ಾಶ್	-4005
▁ಶಾಸಕರ	-4006
ಫೋನ್	-4007
▁ಪೋಸ್ಟ್	-4008
ುಖ್ಯ	-4009
▁ಗಾಯಗೊಂಡಿದ್ದಾರೆ	-4010
▁ನೀರನ್ನು	-4011
▁ತನಕ	-4012
▁ನ್ನು	-4013
▁ಇವರಿಗೆ	-4014
▁ದೆಹಲಿಯ	-4015
▁ಶೇಕ	-4016
▁ಸದಾ	-4017
▁ಶ್ರೀಮ	-4018
▁ವರೆ	-4019
ವನ್ನೇ	-4020
▁ತೃ	-4021
▁ಹೊಣೆ	-4022
▁ಬೋ	-4023
▁ಪಾರ್	-4024
ಣ್ಯ	-4025
▁ಮುಖಂಡರು	-4026
▁ಕುತೂಹಲ	-4027
▁ಕಡತ	-4028
ಾಗಬೇಕು	-4029
▁ನೀಡಿರುವ	-4030
ುವಾಗ	-4031
▁ಕಡ್ಡಾಯ	-4032
▁ಸೋನಿಯಾ	-4033
▁ಕರ್ತವ್ಯ	-4034
ದಲ್ಲಿಯೇ	-4035
▁ಅಪೊ	-4036
ಿಸುತ್ತಾ	-4037
▁ತಿರಸ್ಕ	-4038
▁ಅತಿಥ	-4039
▁ಅನುಮೋದನೆ	-4040
ಂು	-4041
▁C	-4042
▁ಸಲಹ	-4043
ದೋ	-4044
▁ಫು	-4045
▁ಭದ್ರತೆ	-4046
ಕಲ್	-4047
▁ನಿಭಾಯ	-4048
▁ನಿವಾರ	-4049
ಧಿಕಾರ	-4050
▁ನರ	-4051
▁ಇಲ್ಲವೆ	-4052
ಾಶಯ	-4053
▁ಗುಂಪ	-4054
▁ನ್ಯಾಯಾಂಗ	-4055
▁ಸ್ಪರ್ಧೆ	-4056
ಶೇಖ	-4057
▁ಜಾತಿ	-4058
ಿಸಿಕೊಂಡು	-4059
▁35	-4060
ನ್ಮೂಲ	-4061
▁ಟಾರ್ಕ್	-4062
▁ಸ್ವತಃ	-4063
▁ನೋಡಲು	-4064
▁ಜರುಗ	-4065
ಗಿರುವ	-4066
ೇರಿಯ	-4067
▁ಸೋಲ	-4068
ಿಸಲಾದ	-4069
▁ಗರಿಷ್ಠ	-4070
▁ಮಾತನಾಡಿ	-4071
ುವಿ	-4072
▁ಕ್ರಮಗಳನ್ನು	-4073
ಸ್ಕಾರ	-4074
▁ಕಾರಣಗಳು	-4075
▁ಅಖ	-4076
▁ರೆಡ್ಡಿ	-4077
▁ವಿಷಯಗಳನ್ನು	-4078
▁ಹಿಡಿದು	-4079
▁ಆರೋಪಿಗಳ	-4080
▁ನಾನೇ	-4081
▁ಗೆದ್ದು	-4082
▁ತಜ್ಞ	-4083
▁ಅಚ್ಚ	-4084
▁ಗಾತ್ರ	-4085
▁ಹಿನ್ನ	-4086
ವಾಣಿ	-4087
▁ಎನ್ನುವುದ	-4088
ಮ್ಯ	-4089
ಾಪಕ	-4090
ಪಾತ	-4091
▁ಗಾಯಾಳು	-4092
▁ಮಾಡಬೇಕ	-4093
▁ಪ್ರಾಮುಖ್ಯ	-4094
▁ಈರುಳ್ಳಿ	-4095
ಮನ್	-4096
▁ಒಣ	-4097
▁ಅನುದಾನ	-4098
ವಿತ	-4099
▁ಜು	-4100
▁ಕಾರ್ಯಕರ್ತರು	-4101
▁ಮಾಡಿದ್ದು	-4102
ಯಲ್	-4103
▁ಬೃಹ	-4104
ಿಷ್ಟ	-4105
ಿಕೊಟ್ಟ	-4106
ಶುದ್ಧ	-4107
ಮಾಧಾನ	-4108
▁ಚಾಂಪಿಯನ್	-4109
▁ಹಾನಿ	-4110
▁ಗೊತ್ತು	-4111
▁ದೊರಕ	-4112
▁ಪೌಲನು	-4113
ಕ್ಷ್ಮ	-4114
▁ಸಮಗ್ರ	-4115
▁ಸದ್ಯಕ್ಕೆ	-4116
▁ಇರುತ್ತ	-4117
▁ವರ್ಣ	-4118
ರಿಗಾಗಿ	-4119
▁ಶಿಕ್ಷೆ	-4120
ತ್ತಿ	-4121
▁ವಕೀಲ	-4122
▁ಸಿಪಿ	-4123
▁ಶಿಷ್ಯ	-4124
ಳೆದ	-4125
▁ಡಿಸ	-4126
ಸೈ	-4127
▁ಲಕ್ಷಣಗಳು	-4128
▁ಅಲ್ಲಿಂದ	-4129
▁ಗ್ರಹ	-4130
▁ಅಧಿವೇಶ	-4131
ಾಳಿ	-4132
▁ಬೊ	-4133
ುತ್ತಿರಲಿಲ್ಲ	-4134
▁150	-4135
ಗುಣ	-4136
▁ವೆಬ್	-4137
▁ಶಾಸ್ತ್ರ	-4138
▁ಅಂದಾಜ	-4139
ಕೈ	-4140
▁ಆತನಿಗೆ	-4141
▁ಓದ	-4142
▁ಬೆದ	-4143
▁ಸಂಸ್ಕೃತಿ	-4144
ಡಿಯಲ್ಲಿ	-4145
▁ಹಿಡಿಯ	-4146
ಾಜ್ಯ	-4147
▁ಬಳಿಗೆ	-4148
ತಿಯು	-4149
▁ಚು	-4150
▁ವಿಪ	-4151
ತೆಯು	-4152
▁ಇದುವರೆಗೂ	-4153
▁ಬದುಕು	-4154
▁ಕಸ	-4155
ಪಡಿಸಿಕೊಳ್ಳ	-4156
▁ವಿಷಯವನ್ನು	-4157
ದಲ್ಲಿದ್ದಾರೆ	-4158
▁ಪುನಃ	-4159
▁ಚಿನ್ನದ	-4160
ನಮ್ಮ	-4161
ಗೊಳಿಸಿ	-4162
▁ಐತಿಹಾಸ	-4163
▁ಕ್ಲಿಕ್	-4164
ನಾಯಕ	-4165
▁ಕೊಳ್ಳ	-4166
ುತ್ತಿದ್ದೇನೆ	-4167
ಎಚ್	-4168
▁ಅಮ್ಮ	-4169
ಿಸಲಾಗಿದ್ದು	-4170
▁ಅಜ	-4171
▁ಅಡ್	-4172
▁ದೌ	-4173
▁ಇತ್ಯ	-4174
▁ಪ್ರತಿದಿನ	-4175
▁ನಿರ್ಬಂಧ	-4176
▁ನಿನ್ನನ್ನು	-4177
▁ಅರ್ಜುನ್	-4178
▁ದಶ	-4179
▁ಮೋಹ	-4180
▁300	-4181
▁ಚುನಾವಣೆಗೆ	-4182
ಕ್ಟ	-4183
▁ಆಂತ	-4184
▁ಸೇರಿವೆ	-4185
ೆಂಬರ್	-4186
▁ಚಿತ್ರರಂಗ	-4187
ಿಕೊ	-4188
▁ದಾರಿ	-4189
▁ಏನೇ	-4190
ಿಯಾಗಿದ್ದ	-4191
▁ಆಧಾರ್	-4192
▁ಅಭ್ಯಾಸ	-4193
▁ತನಿಖೆಗೆ	-4194
▁ಮಧ್ಯಪ್ರದೇಶ	-4195
ಕೋಶ	-4196
▁ಇಂಧನ	-4197
▁ಇಂಡಿಯನ್	-4198
▁ಕಿವಿ	-4199
▁ಜಿಲ್ಲೆಯಲ್ಲಿ	-4200
▁ಬಾಹ	-4201
ಪಡಿಸಲು	-4202
ಸೌ	-4203
ಲೀಸ್	-4204
▁ಮತ್ತೊಮ್ಮೆ	-4205
▁ಪ್ರಚ	-4206
ಣಿಯ	-4207
▁ಅಧಿಕಾರಿಗಳ	-4208
▁ಕರ್ನಾಟಕದ	-4209
ಸ್ತಿ	-4210
▁ಕೌಶ	-4211
▁ನಾಲ್ವರು	-4212
ಪಂಚ	-4213
ತ್ರೆ	-4214
ಪಡಿಸುವ	-4215
▁ಮಾಡಲಾಗುತ್ತದೆ	-4216
▁ಬಾಗಿ	-4217
ರಿದ್ದಾರೆ	-4218
ಾರ್ಡ್	-4219
▁A	-4220
▁ಅಗ್ನಿಶ	-4221
▁ಲಭ್ಯವಿದೆ	-4222
▁ಶಾಲೆ	-4223
▁ಜೇ	-4224
▁ಪಾತ್ರದಲ್ಲಿ	-4225
▁ಹೇಳಿದ್ದರು	-4226
▁ಶವ	-4227
▁ಅಮೆರಿಕದ	-4228
ಷ್ಕಾ	-4229
▁ಕೋಪ	-4230
▁ಅಸಮಾಧಾನ	-4231
ದೀಪ್	-4232
▁ಆಫ್ರಿಕಾ	-4233
▁ಎಚ್ಚರಿಕ	-4234
▁ಎಲ್ಲವನ್ನೂ	-4235
▁ತೀರ್ಪ	-4236
...]	-4237
▁[...]	-4238
▁ಗಡಿ	-4239
▁ಕಾರ್ಯಕ್ರಮದ	-4240
ಪೊ	-4241
▁ಟಿಕೆಟ್	-4242
▁ಎಸೆ	-4243
▁ಗಣ್ಯ	-4244
▁ಸೈನಿಕ	-4245
▁ಸೆರೆ	-4246
▁ಲೋಕಸಭೆ	-4247
▁ಸಚಿವೆ	-4248
▁ಅಪೊಸ್ತ	-4249
▁ಇಲ್ಲಿಯ	-4250
▁ಕೈಗೆ	-4251
▁ಪ್ರದೇಶಗಳಲ್ಲಿ	-4252
▁ರಾವ್	-4253
ದವರು	-4254
▁ಅವಲಂಬ	-4255
▁ನೋಂದ	-4256
▁ಬಿಸಿಸಿಐ	-4257
▁ಮತ್ತಿತರರು	-4258
▁ನಾಲ್ಕ	-4259
ಿಕೆಯು	-4260
▁ಎಲೆಕ್ಟ್ರಿಕ್	-4261
▁ತಿನ್ನು	-4262
ರಿಸಿದೆ	-4263
▁ಸಿಂಗ	-4264
▁ಶುರುವ	-4265
▁ಪರಾರ	-4266
▁ಅಬ	-4267
ಿದೆಯೇ	-4268
▁ಅಪ್ಲಿಕ	-4269
ಬಳ	-4270
▁ಅರ್ಥಮಾಡ	-4271
▁ಜ್ಞಾನೋ	-4272
▁ಇಂಗ್ಲಿಷ್	-4273
▁ದುರಂತ	-4274
▁ಮೂಲಭೂ	-4275
▁ವೈಶಿಷ್ಟ್ಯ	-4276
ಮೇಲೆ	-4277
▁ಆಸಕ್ತಿ	-4278
ಿಸಿದ್ದೇವೆ	-4279
▁ಫಾರ	-4280
▁ಪೀಠ	-4281
▁ಮೈಸೂರು	-4282
▁ಯಶಸ್ಸು	-4283
▁ಓವರ್	-4284
▁ರಕ್ತದ	-4285
▁ದೇವರಿಗೆ	-4286
▁ಮತದಾರ	-4287
▁ರಾಜ್ಯಪಾಲ	-4288
▁ಬದಲಾವ	-4289
-19	-4290
▁ಲೇಖನ	-4291
ೊಯ	-4292
▁ಜನಸಂ	-4293
▁ಪುಡಿ	-4294
ಂಗಡ	-4295
▁ನಿವಾಸಿ	-4296
▁ಸೂಕ್ಷ್ಮ	-4297
▁ಹಲ್ಲೆ	-4298
▁ಆಗಿರುವ	-4299
▁ಜಗತ್ತಿನ	-4300
▁ಮೋಶ	-4301
▁ಎಣ್ಣೆ	-4302
ಿಯಾಗಿದ್ದರು	-4303
▁ಈವರೆಗೆ	-4304
▁ತಾಂತ್ರಿಕ	-4305
▁ವೇತನ	-4306
▁ಹೊರಬ	-4307
▁ಅವರಿಂದ	-4308
▁ಹುಟ್ಟು	-4309
ಪ್ರಾ	-4310
▁ಹೇಳಿದನು	-4311
▁ಅಧ್ಯಕ್ಷತೆ	-4312
▁ಸಮಸ್ಯೆಗಳನ್ನು	-4313
▁ಧೂ	-4314
▁ಕಾಯ್ದೆ	-4315
▁ಭ್ರಷ್ಟಾಚಾರ	-4316
ಿಯವರ	-4317
▁ರಚನೆ	-4318
▁ಅಡ್ಡ	-4319
▁ಇವೆಲ್ಲ	-4320
ಷ್ಮ	-4321
ಂತಿ	-4322
▁ಅತ	-4323
▁ಹೆದ್ದ	-4324
▁ಆಂತರಿಕ	-4325
▁ಐತಿಹಾಸಿಕ	-4326
▁ಆಧ್ಯಾತ್ಮಿಕ	-4327
ೂತ	-4328
್ಟಿ	-4329
▁ಬದಲಾಗಿ	-4330
ಷ್ಕ	-4331
▁ನಿರ್ವಹಣೆ	-4332
▁ಮಾಡುತ್ತಿದೆ	-4333
▁ಆಸ್ತಿ	-4334
ಿಸೋಣ	-4335
▁ವಿಧಾನಸಭೆ	-4336
▁ಪ್ರತಿಭಟನಾಕಾರ	-4337
ಾಯಣ	-4338
▁ಗ್ರಾಂ	-4339
▁ನಡೆಯುವ	-4340
▁ಪ್ರಶ್ನೆಯ	-4341
ಿಯಲ್	-4342
ಗ್ರಿ	-4343
▁ಸಂಘಟನೆ	-4344
▁ಶಿವಕುಮಾರ್	-4345
▁ಈಡೇ	-4346
▁ಹೋರಾ	-4347
▁ವ್ಯಾಯಾಮ	-4348
▁ಅಧಿಕಾರಕ್ಕೆ	-4349
▁ನೌಕರ	-4350
ಿದ್ದೀರಿ	-4351
ಕ್ಕಿಳ	-4352
▁ಡಿಜಿ	-4353
▁ಹವಾಮ	-4354
ಂಡನ್	-4355
ಯಿಂದ	-4356
ಾಧೀಶ	-4357
ರುಪ	-4358
▁ವಿಮರ್ಶ	-4359
ೀಕಾರ	-4360
ಲಾದೇಶ	-4361
▁ಮಂಗಳೂರು	-4362
▁ಸಂಖ್ಯೆಯಲ್ಲಿ	-4363
ವರೆಲ್ಲ	-4364
▁ಪ್ರಕರಣವನ್ನು	-4365
▁ಅಧ್ಯಕ್ಷೆ	-4366
ನಿನ	-4367
▁ನಂಬಿಕೆಯ	-4368
ಂಗಿ	-4369
ಜೋ	-4370
▁ಇತರರು	-4371
▁ನೇರವಾಗಿ	-4372
ಗಿದ	-4373
ವೊ	-4374
▁ಶುಭಾಶಯ	-4375
▁ಅಪೊಸ್ತಲ	-4376
▁ಎತ್ತರ	-4377
ಕಾರಾತ್ಮಕ	-4378
▁ಕೇಜ	-4379
▁ಜವಾಬ್ದಾರ	-4380
▁ಸಚಿನ್	-4381
▁ಸುರಕ್ಷಿತ	-4382
▁M	-4383
ಚರ್	-4384
▁ಸಹಾಯಮಾಡ	-4385
ಂಬ್	-4386
▁ಸೋಂಕ	-4387
▁ಪಠ	-4388
ಂದ್ರೆ	-4389
▁ಅದೆ	-4390
▁ತಾಪ	-4391
▁ಮಗಳು	-4392
ಳಿಕೆ	-4393
▁ಅಗ್ರ	-4394
▁ಕೋಚ್	-4395
ೊಯ್ಯ	-4396
▁ದಾವೀದ	-4397
ೋದ್ಯಮ	-4398
▁ತೆಗೆದುಹಾಕ	-4399
19	-4400
ಡರ್	-4401
▁ಕೊಳ	-4402
▁ಲೇ	-4403
▁ಅಲ್ಲಿನ	-4404
▁ಇಂದಿ	-4405
▁ನ್ಯೂಜಿ	-4406
▁ನಿಗದಿ	-4407
▁ಲೋಡ್	-4408
▁ಸುರೇಶ್	-4409
▁ಭಟ್	-4410
▁ಅನುಷ್ಕಾ	-4411
▁80	-4412
▁ಬೃಹತ್	-4413
ವಾಗಿದ್ದ	-4414
▁ಪ್ರಗತಿ	-4415
▁ಜಾಲತಾಣದಲ್ಲಿ	-4416
ಾಯ್ಡ್	-4417
▁ಪತ್ರಕರ್	-4418
▁ಠಾಕ	-4419
▁ಹೆದ	-4420
ಷ್ಠಾನ	-4421
▁ಸಿಂಧ	-4422
▁ಹಿಡಿದ	-4423
▁ಇಸ್	-4424
▁ವಹಿಸಿದ್ದರು	-4425
ವರಲ್ಲಿ	-4426
ತೀಶ್	-4427
ಗೊ	-4428
▁ಸಮಸ್ಯೆಗಳು	-4429
▁ಬಸ	-4430
▁ಸ್ಟೋ	-4431
▁ತಂಡಕ್ಕೆ	-4432
ಂಬೆ	-4433
▁ಕಳ್ಳ	-4434
ಗಡೆ	-4435
▁ಬೈಬ	-4436
ಹಿಡಿಯ	-4437
GB	-4438
ರ್ತು	-4439
▁ಪಡೆಯುವ	-4440
▁ಕಲಾ	-4441
ಾಪುರ	-4442
ಾಯಿತ	-4443
ೆಯಲ್ಲ	-4444
▁ನಾಟಕ	-4445
ಿಸಿದ್ದೇನೆ	-4446
ಿಸಿಕೊಂಡಿದ್ದಾರೆ	-4447
▁K	-4448
ome	-4449
▁ಸಾಹ	-4450
▁ಆದಿತ್ಯ	-4451
▁ಏನನ್ನು	-4452
ಜ್ಜೆ	-4453
▁ಮಟ್ಟದಲ್ಲಿ	-4454
ಿಕೊಂಡರು	-4455
▁ರಜ	-4456
ಾಡಳಿತ	-4457
▁ಖುಷಿ	-4458
▁ಇದುವರೆಗೆ	-4459
▁ಮಾಂಸ	-4460
▁ನೃತ್ಯ	-4461
▁ಪ್ರಕರಣಕ್ಕೆ	-4462
▁ಮರೆ	-4463
▁ಮನಸ್ಸು	-4464
▁ಋ	-4465
ಸ್ಟ್ರ	-4466
▁ಮಗುವಿನ	-4467
▁ಹೋಂಡಾ	-4468
▁ತಿದ್ದುಪಡಿ	-4469
▁ದೈಹ	-4470
ವಾದು	-4471
▁ಬೆಟ್ಟ	-4472
▁ತೊಂದರೆಯ	-4473
▁ವಾಸ್ತವವಾಗಿ	-4474
▁ಶೀಘ್ರದಲ್ಲೇ	-4475
ನಲ್ಲ	-4476
▁ಬೇಸರ	-4477
▁ಬಚ್ಚ	-4478
▁ಕೆಲವೇ	-4479
ಂಚ್	-4480
▁ಸಮೀಕ್ಷ	-4481
▁ಸ್ವಾಮಿ	-4482
▁ಮುಸ್ಲಿಂ	-4483
▁ಮೊಹಮ್ಮದ್	-4484
▁ಸಿದ್ಧತೆ	-4485
▁ತಿನ್ನ	-4486
▁ಬಾಂಗ್ಲಾದೇಶ	-4487
▁ಇಂದಿನ	-4488
▁ಖ್ಯಾತ	-4489
▁29	-4490
▁ಲಾಕ್	-4491
ೋತ್ತರ	-4492
್ರಿವಾಲ್	-4493
▁ವಾರ್ಷಿಕ	-4494
ಸರ್ಗ	-4495
▁ಸೂರ್	-4496
.5	-4497
▁ಅರವ	-4498
ಕಲ	-4499
▁ಹಿಂಸಾ	-4500
ರಂ	-4501
ೀಂದ್ರ	-4502
▁ಪ್ರಕಾಶ್	-4503
ar	-4504
ೂಲ್	-4505
▁ಪೈಪೋ	-4506
ರಾಜು	-4507
▁ಹಸಿರು	-4508
ೋಕ್	-4509
▁ಮೃತಪಟ್ಟಿದ್ದಾರೆ	-4510
ಕ್ಕಿಂತಲೂ	-4511
▁ಇಲ್ಲಿವೆ	-4512
▁ಸೆಕ್ಷನ್	-4513
▁ಅಭಿಯ	-4514
▁ಹವಾಮಾನ	-4515
▁ವರ್ತ	-4516
▁ಹಿಂಬ	-4517
▁ದಿನಕ್ಕೆ	-4518
▁ಡಾಲ	-4519
▁ಕೂಟ	-4520
▁ಆಗುತ್ತದೆ	-4521
ಸ್ಥರು	-4522
▁ಅಗ್ನಿಶಾಮಕ	-4523
▁ಇಸ್ರಾಯೇಲ್ಯ	-4524
ತುವ	-4525
▁ದೇಹದ	-4526
▁ಮಾನ್ಯ	-4527
▁ಇಲ್ಲವೇ	-4528
▁ಹೇಳುವುದು	-4529
▁ಕಾಯಿಲೆ	-4530
ಂಪಿ	-4531
▁ಶಂಕ	-4532
▁ನಿರ್ಮಾಪ	-4533
▁ಉಭಯ	-4534
ಾಮಾನ್ಯ	-4535
▁ದಾರ	-4536
▁ದೇವೇಗೌಡ	-4537
ಿಸುವಾಗ	-4538
▁ಉಸ್ತುವ	-4539
▁ಕೇಜ್ರಿವಾಲ್	-4540
ಿಸುತ್ತಿದ್ದರು	-4541
ಿಕೊಳ್ಳಬೇಕು	-4542
▁ಒಮ್ಮೆ	-4543
▁ದೇಶಗಳ	-4544
▁ಗೀ	-4545
▁ಟೀಮ್	-4546
ಟ್ಟರ್	-4547
▁ಸಿಲುಕ	-4548
▁ಉತ್ತೇಜ	-4549
▁ಈತನ	-4550
▁ವಕ್ತ	-4551
▁ತುರ್ತು	-4552
▁ಭಾರತವು	-4553
ಂಡೈ	-4554
▁ಠಾಣೆ	-4555
▁ಚಿತ್ರಗಳು	-4556
ಪ್ತಿ	-4557
▁ಖರ್ಚು	-4558
▁ಆಧುನಿಕ	-4559
▁ಕಳೆಯ	-4560
▁ಪ್ರಣ	-4561
ುವರು	-4562
▁ಪರವಾಗಿ	-4563
▁ಮನೋಭಾವ	-4564
▁ವಿದ್ಯಾ	-4565
ಾಳಂ	-4566
ೂರಿ	-4567
್ಯಾಮ್	-4568
▁ನೂರಾರು	-4569
....	-4570
▁ಸಂತಸ	-4571
್ರಾನ್	-4572
▁ವಿಟ	-4573
▁ಜಿಎಸ್	-4574
▁ಉಸಿ	-4575
▁ಮಂದಿರ	-4576
▁ಕಾನ್	-4577
▁ಕುರಿತಂತೆ	-4578
▁ಮುಟ್ಟ	-4579
▁ಎಚ್ಚರ	-4580
ಶ್ವಾಸ	-4581
▁ಎಸ್ಯ	-4582
▁ಸೈತಾನ	-4583
▁ನೈಸರ್ಗ	-4584
ರ್ಬ	-4585
ರಿದೆ	-4586
ಸಾರ	-4587
▁ಹೊಂದಿದ್ದು	-4588
▁ಅರುಣ್	-4589
▁ದಿವಸ	-4590
▁ಕ್ರೀಡಾ	-4591
ಟೆಲ್	-4592
▁ಗೇರ್	-4593
▁ಚೋ	-4594
▁ಪ್ರಿಯಾಂಕಾ	-4595
ದಿದ್ದರೆ	-4596
▁ವಿತರಿಸ	-4597
ದಿಂದಲೂ	-4598
▁ಪಕ್ಕ	-4599
▁ಸತ	-4600
▁ತೆಲ	-4601
ೋರ್ಡ್	-4602
▁ಎನ್ನುತ್ತಾರೆ	-4603
▁ಹ್ಯು	-4604
▁ಮುಂಭಾಗ	-4605
ೆಯಾದ	-4606
▁ಸಸ್ಯ	-4607
▁ವಿಶಿಷ್ಟ	-4608
▁ಕಾಲದಲ್ಲಿ	-4609
ುವಾಗಿ	-4610
ಗೊಳಿಸಲಾಗಿದೆ	-4611
▁ಆಯಿತು	-4612
▁ಆಗುವುದಿಲ್ಲ	-4613
ಮಿಟೆಡ್	-4614
▁ಜಿಲ್ಲಾಧಿಕಾರಿ	-4615
ಬ್ಲ್ಯ	-4616
▁ಅಡುಗೆ	-4617
ಾವೇಶ	-4618
ೂಡ	-4619
▁ಕಡಿತ	-4620
ಂಟ್ರ	-4621
▁ನಡೆಸುವ	-4622
ಂಹ	-4623
ಸಂಸ್ಥ	-4624
ೊಂದಿ	-4625
▁ಹಕ್ಕ	-4626
▁ಕಾರಣವಾಗಿದೆ	-4627
▁ಖುಷ	-4628
▁ಅನೇಕರು	-4629
▁ಮೂಲಭೂತ	-4630
▁ಆರೋಪಿಯನ್ನು	-4631
ಯರ್	-4632
▁ದೇಶಕ್ಕೆ	-4633
▁ಸಮಾಧಾನ	-4634
▁ದೀಪಿಕಾ	-4635
ತ್ವವನ್ನು	-4636
ೋಟ	-4637
▁ಬಿಡಿ	-4638
▁70	-4639
್ಟರ್	-4640
▁ಫ್ಯಾ	-4641
ೇಳೆ	-4642
▁ಮೀಟರ್	-4643
▁ನ್ಯಾಯಾಧೀಶ	-4644
ಯಾನ	-4645
▁ಅದೊಂದು	-4646
▁ಹೊಂದಿವೆ	-4647
▁ಆಗಿ	-4648
▁ಬೀಜ	-4649
▁ಕೊಲ್ಲ	-4650
▁ಮರಳ	-4651
ವಾಗಿಯೇ	-4652
ಂಚಿನ	-4653
ವುಳ್ಳ	-4654
▁ವ್ಯವಸ್ಥೆಯ	-4655
▁ಸಮಸ್ಯೆಯನ್ನು	-4656
▁ಸಂಜಯ್	-4657
ಹೋದ	-4658
▁ಪಕ್ಷಗಳು	-4659
▁ಮಹೀಂದ್ರ	-4660
ಜೀವ	-4661
▁ವಿಷಯಗಳ	-4662
▁P	-4663
▁ಸಮಯದ	-4664
ಾಗಲು	-4665
▁ವರದಿಯ	-4666
▁ಪುನರು	-4667
ವಾರ್	-4668
್ದು	-4669
▁ಹೆಚ್	-4670
▁ಪಡೆದರು	-4671
▁ಯೋಹ	-4672
▁ಸಂಪನ್ಮೂಲ	-4673
▁ಕ್ರಿಕೆಟಿ	-4674
▁3:	-4675
ನೀವು	-4676
▁ಪ್ಲ	-4677
ುವುದಕ್ಕೆ	-4678
▁ಗೂಗಲ್	-4679
▁ಸಂಸ್ಥೆಗಳು	-4680
▁ಖಾತ	-4681
▁ದ್ವೇಷ	-4682
▁ಗಮನಾರ್ಹ	-4683
▁ಪ್ರಭ	-4684
▁ಯಾರಿಗೆ	-4685
▁ಆತ್ಮಹತ್ಯ	-4686
ಂಗಾಣ	-4687
ತ್ತಾ	-4688
▁ತಮಿಳುನಾಡು	-4689
▁ಘನ	-4690
▁ನೋಡುವ	-4691
ಯೋ	-4692
ಸರ	-4693
▁ವರೆಗೂ	-4694
▁ಒಪ್ಪಿಗೆ	-4695
ಶನ್	-4696
▁ಮಾರುಕಟ್ಟೆ	-4697
▁ಚಿಕಿತ್ಸ	-4698
▁ಬೂ	-4699
▁ವೆಸ್ಟ್	-4700
▁ಇಂಡಿಯಾದ	-4701
್ಯಾಪ	-4702
▁ಏನಿದು	-4703
▁ಲಿಮಿಟೆಡ್	-4704
ಂುು	-4705
ದಿದೆ	-4706
ಷ್ಟೆ	-4707
▁ಅಪ್ಲಿಕೇಶನ್	-4708
▁ಸಂವಾದ	-4709
▁ದಾಖಲಿಸಿಕೊಂಡು	-4710
ರುಳ	-4711
▁ಬೆಲ	-4712
▁ಕಂಪನಿಯ	-4713
▁ಮದ್ಯ	-4714
▁ವಕ್ತಾರ	-4715
▁ನಗರದಲ್ಲಿ	-4716
▁ಎಐ	-4717
▁ಜಂಟಿ	-4718
▁ಧರಿಸ	-4719
▁ಭೂಮಿ	-4720
ರಾನ್	-4721
▁ಮೆಚ್ಚ	-4722
▁ಅಂಶಗಳು	-4723
▁ಸೋಂಕು	-4724
▁ಗಳಿಂದ	-4725
▁ಅಕ್	-4726
▁ಸೀತ	-4727
▁ಕಡೆಯ	-4728
▁ಕೇಳಿದ	-4729
▁ಪ್ರಶ್ನೆಗಳು	-4730
▁ಪ್ರಿಯ	-4731
▁ನೆಟ್	-4732
ಲಿಕ್ಕ	-4733
▁ಕಾದ	-4734
▁ಬೆಂಕ	-4735
▁ಒಬ್ಬರು	-4736
▁ಹ್ಯುಂಡೈ	-4737
▁ಒತ್ತಾಯಿಸಿದರು	-4738
▁ನಿಧಾನ	-4739
▁ಆಸ್ಟ್ರೇ	-4740
▁ರಾಜ್ಯಗಳ	-4741
ಕಾಲಿಕ	-4742
ಗೋಸ್ಕರ	-4743
▁ತಿಳಿಸಿವೆ	-4744
ನೊ	-4745
▁ಚಂದ	-4746
▁ಆರಂಭದಲ್ಲಿ	-4747
▁ಪದ್ಧ	-4748
ಲಿನಲ್ಲಿ	-4749
▁ಪ್ರಪಂಚ	-4750
ವರೇ	-4751
▁ಅನುಸರಿಸ	-4752
▁ಅನುಷ್ಠಾನ	-4753
▁ಒಟ್ಟಿಗೆ	-4754
▁ಜಾಮೀ	-4755
▁ಹೆಜ್ಜೆ	-4756
ಾತ್ಮ	-4757
▁ಜೋಡಿ	-4758
▁ಕೆಲಸದ	-4759
ಾಷನಲ್	-4760
▁ಬಿರು	-4761
▁ವರುಷ	-4762
ಸೇನೆ	-4763
▁ದುಬ	-4764
ಖ್ಯಾತ	-4765
▁ಮೂರ್	-4766
▁ಹಾಗೇ	-4767
▁ಹೆಗ್	-4768
▁ವಿಭಾಗದಲ್ಲಿ	-4769
ಲಿತ	-4770
▁ಬಣ್ಣದ	-4771
▁ಮುಂಚೆ	-4772
▁ವಿಸ್ತರಿಸ	-4773
▁ಆಗ್ರಹಿಸಿದರು	-4774
ಿಕಾರ	-4775
▁ಗೋವಾ	-4776
▁ಸರ್ಕಾರವು	-4777
▁ತಂಡವನ್ನು	-4778
▁ಒಳಗೆ	-4779
▁ಹಾಲು	-4780
▁ಹಂತದಲ್ಲಿ	-4781
▁ಶಬ್ದ	-4782
ಪಾಸ	-4783
ಾವತಿ	-4784
ಸಿಂಗ್	-4785
ಿಲ	-4786
▁ನಂ	-4787
ಗಾರರು	-4788
▁ಜನಸಂಖ್ಯ	-4789
▁ದೆಹಲಿಯಲ್ಲಿ	-4790
▁ಯೆಹೋವನಿಗೆ	-4791
▁ಕಂಡುಬಂದ	-4792
▁ಕಾರ್ಯಾಚರಣ	-4793
▁ಆಧಾರದ	-4794
▁ಡಾಲರ್	-4795
▁Home	-4796
▁ಯಾಜ	-4797
▁ಶಾಶ್ವ	-4798
▁ಆಗಿದ್ದ	-4799
al	-4800
ಿವಾ	-4801
▁ಸ್ಥಳದಲ್ಲೇ	-4802
ವಿಟ್ಟು	-4803
▁ಬಂದರು	-4804
▁ನಾನೂ	-4805
▁ಬಚ್ಚನ್	-4806
ಚಂದ್ರ	-4807
▁ಸುರಿಯ	-4808
▁ಆಂಡ್ರ	-4809
▁ಮಗನಾದ	-4810
▁ವಿಶ್ರ	-4811
ಮಾಣ	-4812
ಲೇಷ	-4813
ಜಿತ್	-4814
ಸ್ಥಾಪ	-4815
▁ಬ್ಯಾನ	-4816
ಬಿರ	-4817
▁ಆಗುವ	-4818
▁ಬಾಕಿ	-4819
▁ಶಿಫಾರಸು	-4820
ವಾದಿ	-4821
▁ನೆಹ	-4822
▁ಮಧು	-4823
▁ಪತ್ನ	-4824
▁ಇತ್ತೀಚಿನ	-4825
ಪಾನ	-4826
▁ಆಘಾತ	-4827
▁ದಿನೇಶ್	-4828
ತ್ತೂ	-4829
▁ಆದ್ಯತೆ	-4830
▁ಪಾಸ್	-4831
▁ಮುಸ್ಲಿಮ	-4832
ಸರಿ	-4833
▁ಸಮಾವೇಶ	-4834
▁ಜಾಮೀನು	-4835
▁2:	-4836
▁ಮಾಡ್ತ	-4837
ುತ್ತಿಗೆ	-4838
▁ವಚನ	-4839
ೇನ್	-4840
▁ಜನರಲ್	-4841
▁ಮುಂಬರುವ	-4842
▁ಕೊಠ	-4843
▁ಬಳಲ	-4844
ುವಿಕೆ	-4845
▁ಟ್ವಿಟರ್	-4846
ರೊ	-4847
▁ತೊಳೆಯ	-4848
▁ಬಹುಶಃ	-4849
ದೇಹ	-4850
▁ಆಸೆ	-4851
▁ಕಾಲು	-4852
▁ಪದಾರ್ಥ	-4853
ಡಲು	-4854
▁ಇನ್ಸ್	-4855
▁ಸುಖ	-4856
▁ಆರೋಗ್ಯಕರ	-4857
▁ನಿಯೋಜ	-4858
▁ಸಂಬಂಧಪಟ್ಟ	-4859
▁ಕೂಡಿ	-4860
▁ಶೌ	-4861
▁ಕಾಳಜಿ	-4862
▁ಸಮಾರಂಭದಲ್ಲಿ	-4863
▁ಬಿಐ	-4864
▁ಹೇಳಲು	-4865
▁ನೈಸರ್ಗಿಕ	-4866
ವಾದದ್ದು	-4867
▁ತಕ್ಷಣವೇ	-4868
▁ಕೆಲವೊಂದು	-4869
ರೋನಾ	-4870
▁ರಾಜೀವ್	-4871
▁ಅಶ್	-4872
▁ದಾಖಲು	-4873
▁ಇವ	-4874
ದುಕೊಂಡು	-4875
ಗಳೇನು	-4876
▁ಇರಲಿ	-4877
▁ಜಗತ್ತ	-4878
▁ಕೃತಜ್ಞ	-4879
▁ವಿರೋಧಿ	-4880
▁ನಿಮಿ	-4881
▁ವಿಭಾಗದ	-4882
▁ಕರ್ನಾಟಕದಲ್ಲಿ	-4883
▁ಯೆರೂ	-4884
▁ಕಂಡುಕೊಳ್ಳ	-4885
ಾಗುವುದು	-4886
ದಾಯಕ	-4887
ೆಂದ	-4888
▁ಮುದ್ರ	-4889
ಡಿಯಾ	-4890
▁ತರಗ	-4891
▁ಹಳ	-4892
ವಿನ್	-4893
▁ಕ್ರಮವಾಗಿ	-4894
▁ಹೊಂದಿದ್ದಾರೆ	-4895
ಿಸಿಕೊಳ್ಳುವ	-4896
ವಲ್	-4897
▁ಮಮ	-4898
▁ಚಲಾಯ	-4899
▁ಸ್ವಾಮೀ	-4900
▁ಗಂಡು	-4901
▁ತೀರ	-4902
▁ಅನಿಲ್	-4903
▁ಚಿಂತೆ	-4904
▁ಶಾಲೆಯ	-4905
▁ಸಂರಕ್ಷ	-4906
▁ಬಂದ್	-4907
▁ಆಶೀರ್ವಾದ	-4908
▁ಉಸ್ತುವಾರಿ	-4909
▁ತೆಲಂಗಾಣ	-4910
ಚ್ಚುಗೆ	-4911
▁ಅವಶ್ಯಕತೆ	-4912
▁ಇರಿಸ	-4913
▁ಘಟನೆಗಳು	-4914
▁ಕಲಿತ	-4915
▁ಮಂಜು	-4916
▁ಅಲ್ಲಿಗೆ	-4917
▁ತಂದು	-4918
▁ಅಂಗಡಿ	-4919
▁ಸ್ವತಂತ್ರ	-4920
ರಲ್ಲಿರುವ	-4921
ೇಕ್	-4922
▁ಬೆಳಕ	-4923
▁ತೆಗೆದುಕೊಂಡು	-4924
▁ಡೈ	-4925
ಹೆಚ್	-4926
▁ಕೂಗ	-4927
▁ಪರ್ವ	-4928
▁ಬೇಯ	-4929
ಸಲೇ	-4930
▁ಶಾರ	-4931
▁ಶೇಖ	-4932
▁ಹಂತದ	-4933
ಲ್ಪಡುವ	-4934
▁ಶಕ್ತಿಯನ್ನು	-4935
▁ಪರಿವರ್	-4936
▁ಶ್ರೀನಿ	-4937
▁ಸಾಕ್ಷಿ	-4938
ೋಹರ್	-4939
▁ಮಲಯ	-4940
ೆಸ್	-4941
or	-4942
▁ಭಾಗದಲ್ಲಿ	-4943
▁ದಾಖಲಿಸಿದ್ದಾರೆ	-4944
▁ಎಣ	-4945
▁ಉತ್ತರಿಸ	-4946
▁ಜಪಾನ್	-4947
▁ವಾಹನಗಳ	-4948
▁ಸುವಾರ್	-4949
▁ವಲ	-4950
ದಿತ್ತು	-4951
▁ಇದೆಲ್ಲ	-4952
ಬ್ಬರು	-4953
ಾಲಾ	-4954
ತೆಯಿದೆ	-4955
▁ತಡ	-4956
ಶ್ವರ್	-4957
▁ದೈಹಿಕ	-4958
▁ಧ್ವನಿ	-4959
▁ಸಂಸ್ಥೆಯು	-4960
ಟ್ಯೂ	-4961
್ರಹ್ಮ	-4962
▁ತ್ವರಿತ	-4963
▁ಕಿರುಕು	-4964
▁ಹಳ್ಳ	-4965
▁ಸೀಮಿತ	-4966
▁ಸಂಜೆ	-4967
▁ಸ್ಟ್ರ	-4968
ಕರಾಗಿ	-4969
ಕಾಯಿ	-4970
ಿಸ್ಟ್	-4971
▁ಬೆಳ್ಳಿ	-4972
ಶಾತ್	-4973
▁ಪ್ರಸ್ತಾವ	-4974
ದೆಯ	-4975
▁ಗೆಲ	-4976
▁ಅಬ್ದ	-4977
▁ಬಹುಮತ	-4978
▁ಸದಸ್ಯರ	-4979
▁ಹೇಳುತ್ತದೆ	-4980
▁ಬಿಳಿ	-4981
▁ನಂಬಿಗ	-4982
▁ಸೀತಾರ	-4983
ಾಯಿತಿ	-4984
▁ಆಕ	-4985
ಿಂದಾಗಿ	-4986
ಲಿಂಗ	-4987
ಾಂತ್ಯ	-4988
▁ಮೆಚ್ಚುಗೆ	-4989
ಮಿನ್	-4990
▁ಮಾಡ್	-4991
▁ದುಷ್ಟ	-4992
▁ಮಾಡಬಾರದು	-4993
ಿಲ್ಲದ	-4994
▁ಪ್ರಕಾಶ	-4995
▁ನಟಿಸಿದ್ದಾರೆ	-4996
▁ನಿಖರ	-4997
▁ಸಾಂಕ	-4998
▁ಪುನರಾವ	-4999
▁ಇರುವುದು	-5000
▁ಬೆಂಗಳೂರಿನಲ್ಲಿ	-5001
''	-5002
▁ಸಂಪ್ರದಾಯ	-5003
▁ಬಟ್ಟ	-5004
▁ಸೇವಾ	-5005
▁ದೇವರಾದ	-5006
▁ಬಂಡವಾಳ	-5007
▁ದೀಕ್ಷ	-5008
▁ಮಾಡಿತ್ತು	-5009
▁ಗೌಡ	-5010
▁ತಮಗೆ	-5011
▁ನಿರ್ಲಕ್ಷ	-5012
ವಶಾತ್	-5013
▁ಭಾವನೆ	-5014
▁ಅನಿವಾರ	-5015
▁ಸರಣಿಯಲ್ಲಿ	-5016
▁ರಾಜಧಾನ	-5017
▁ಹುದ್ದೆ	-5018
▁ದೇಶಾದ್ಯಂತ	-5019
▁ಟೀಕ	-5020
▁ತಯಾರಿ	-5021
ಸಾಧ್ಯವಿದೆ	-5022
▁ಛಾಯ	-5023
▁ಸಂಪಾದ	-5024
▁ಇದರೊಂದಿಗೆ	-5025
▁33	-5026
▁ರವೀ	-5027
▁ಜಾನ್	-5028
▁ಸ್ಯಾ	-5029
▁ಶ್ರೀಲಂಕಾ	-5030
ವಾನ್	-5031
ರ್ಜನ್ಯ	-5032
▁ಶಿಬಿರ	-5033
▁ಪ್ರಚೋದ	-5034
▁ಎರಡನೆಯ	-5035
▁ಮಾಡುತ್ತೇವೆ	-5036
▁m	-5037
▁ಸಂತ್ರ	-5038
▁ಒಳ್ಳೆಯದು	-5039
▁ಮಾಡಲಾಯಿತು	-5040
▁ಕೈಗೊಳ್ಳಬೇಕು	-5041
▁ಆಶ್ರ	-5042
ಿಯಾಗಿಲ್ಲ	-5043
▁ಕಾರನ್ನು	-5044
ಿಸುತ್ತಿಲ್ಲ	-5045
▁ಸ್ಕೂಟರ್	-5046
ಗಿದೆ	-5047
▁ಮಠ	-5048
▁ಅಲೆ	-5049
▁1:	-5050
ಮರ್	-5051
▁ವಿನಿ	-5052
▁ಮೃತದೇಹ	-5053
▁ಪಾಟೀಲ್	-5054
ರನ್	-5055
▁ಕರೆಯಲಾಗುತ್ತದೆ	-5056
ರಲಿದೆ	-5057
▁ಎಂಬುದರ	-5058
▁ಮಾಡಲಾಗಿತ್ತು	-5059
▁ಪೇತ್ರ	-5060
ದ್ದನ್ನು	-5061
▁ಬರೆದಿದ್ದಾರೆ	-5062
▁ನಾಯ್	-5063
ಾಗುವುದಿಲ್ಲ	-5064
▁ಯಂತ್ರ	-5065
ಶತ	-5066
ಶಾಂತ್	-5067
▁ಹರಿದ	-5068
▁ಸ್ಥಳೀಯರು	-5069
ಪೀ	-5070
▁ದೌರ್ಜನ್ಯ	-5071
▁ವ್ಯಾಪ್ತಿಯಲ್ಲಿ	-5072
▁ಕೈಗೊಂಡಿದ್ದಾರೆ	-5073
ಂದಿರ	-5074
▁ಬಗೆಯ	-5075
▁ಷೇ	-5076
▁ಅವಶ್ಯಕ	-5077
ಿಯಲ್ಲ	-5078
▁ಯಾಕಂದರೆ	-5079
▁ಇಚ್ಛ	-5080
▁ಅಧಿಕಾರಿಗಳಿಗೆ	-5081
ಾದೇಶ	-5082
▁ಜಗಳ	-5083
▁ಬಜ	-5084
▁ವರಿಷ್ಠ	-5085
▁ಆಸ್ಟ್ರೇಲಿಯ	-5086
▁ತಡೆಗಟ್ಟ	-5087
▁ವಹಿವಾ	-5088
▁ಬ್ಯಾಟ್ಸ್	-5089
▁ಪಕ್ಷಕ್ಕೆ	-5090
ಶ್ಚಿತ	-5091
ತೊಡಗ	-5092
ಾನಾ	-5093
ಬದ್ಧ	-5094
▁ಆಗಿದ್ದಾರೆ	-5095
▁ಲಂಡನ್	-5096
ಲೋಕ	-5097
ಲೇಬೇಕು	-5098
▁ವಾಹನಗಳು	-5099
▁ಇರಬಹುದು	-5100
▁ಹಿಂಸಾಚಾರ	-5101
▁ಸ್ಪಷ್ಟವಾಗಿ	-5102
▁ಕಲ್ಲು	-5103
▁ಯೋಗ್ಯ	-5104
▁ಶರ್ಮ	-5105
▁ಆಗಿದ್ದು	-5106
▁ಸ್ತ್ರೀಯ	-5107
ುತ್ತಿ	-5108
▁ತೂ	-5109
▁ಮಹಿಳೆಯರಿಗೆ	-5110
▁ಭಕ್ತರು	-5111
▁ನಿಕ	-5112
▁ಡಿಜಿಟಲ್	-5113
▁ಸಿನಿಮಾಗಳ	-5114
▁ಅವಿ	-5115
ೊಬ್ಬರ	-5116
▁ಅಭ್ಯರ್ಥಿಗಳ	-5117
‍ಗೆ	-5118
ವರ್ಧ	-5119
ಿಕೊಂಡಿದೆ	-5120
▁ಅಬ್ದು	-5121
▁ಎದ್ದು	-5122
▁ಜೊತೆಯ	-5123
▁ಪೌರತ್ವ	-5124
▁ಸುಧಾರಣೆ	-5125
▁ಪ್ರಧಾನಮಂತ್ರ	-5126
▁ಬೀರ	-5127
▁ನೊಂದಿಗೆ	-5128
ಬಲ್ಲದು	-5129
ೊತ್ತ	-5130
ದಿಯಲ್ಲಿ	-5131
▁ನಾಲ್ಕನೇ	-5132
▁ಕಾಶ್ಮೀರದ	-5133
▁ಸಂಸ್ಥೆಗಳ	-5134
▁ನಮೂ	-5135
ುತ್ತಿರುವುದ	-5136
▁400	-5137
▁ಹರಿಸ	-5138
▁ಕೈಗಾರ	-5139
▁ಸ್ಕ್ರ	-5140
ವಿರುತ್ತದೆ	-5141
▁ಪಂದ್ಯಗಳಲ್ಲಿ	-5142
▁ಸಿಕ್ಕಿಲ್ಲ	-5143
▁ಬದಲಿಗೆ	-5144
ೂಲ್ಯ	-5145
▁ಆಗ್	-5146
▁ತಾನೇ	-5147
ಹೋ	-5148
▁ಅಂತರರಾಷ್ಟ್ರೀಯ	-5149
▁ಒಕ್ಕೂ	-5150
ಂಜ್	-5151
▁ಸಹಿ	-5152
21	-5153
▁ಮಾಡು	-5154
▁ಸ್ವರೂ	-5155
▁ಪುತ್ರಿ	-5156
▁ಪರ್	-5157
▁ಸವಾರ	-5158
▁ತೆಗೆಯ	-5159
▁ಕುಟುಂಬಕ್ಕೆ	-5160
▁ಸಂದರ್ಭಗಳಲ್ಲಿ	-5161
ಪಾದ	-5162
ರಲ್ಲ	-5163
▁ವಿನಿಮಯ	-5164
▁ದಾನ	-5165
▁ಇದಕ್ಕೂ	-5166
▁ಫ್ರೆ	-5167
▁ವಿಧೇಯ	-5168
ೈಕ	-5169
ಂಚು	-5170
ಟಿವ್	-5171
ದಂಡ	-5172
▁ಕ್ಯಾಮ	-5173
▁ಮೆಣಸು	-5174
▁ಕೇಂದ್ರದ	-5175
▁ಮಾತಾ	-5176
▁ಲೀಗ್	-5177
ಕೊಟ್ಟ	-5178
▁ಹೋಗಲು	-5179
▁ಯೆರೂಸಲೇ	-5180
▁ಮೊದಲಾದ	-5181
▁ರಾಜ್ಯಗಳಲ್ಲಿ	-5182
▁ಆಕ್ರಮ	-5183
▁ನಿರೂಪ	-5184
▁ಫಾರ್ಮ	-5185
ದ್ದಾಗಿದೆ	-5186
▁ಅಸಾಧ್ಯ	-5187
▁ಪೂರೈಕೆ	-5188
ತನದ	-5189
ನೆಟ್	-5190
▁ಸೇನೆ	-5191
▁ಪ್ರಜಾಪ್ರಭುತ್ವ	-5192
ತ್ತೆ	-5193
▁ರುಚ	-5194
ೇಕ್ಷ	-5195
▁ಅಸ್ಸ	-5196
▁ಜ್ಞಾನೋಕ್ತಿ	-5197
▁ಊಹ	-5198
▁ಮಾಡುತ್ತೇನೆ	-5199
▁ಏನೆ	-5200
▁ಶಕ್ತ	-5201
▁ನ್ಯೂಜಿಲೆಂಡ್	-5202
ತಿಯಿಂದ	-5203
▁ಸೌಂದ	-5204
▁ಇಮ್ರಾನ್	-5205
ಯಿತು	-5206
▁ಬೈಬಲ	-5207
▁ಸಿಡ	-5208
▁ಪ್ರಶ್ನೆಗಳಿಗೆ	-5209
ತಾತ್ಮ	-5210
▁ದಾಖಲಿಸಿ	-5211
▁ವೇಗವಾಗಿ	-5212
▁ಕುರು	-5213
▁ಟಾಪ್	-5214
ದಿಂದಲೇ	-5215
▁ಅಭಿವೃದ್ಧಿಗೆ	-5216
ುವುದೇ	-5217
▁ಬಾಕ್ಸ್	-5218
▁ಮರಣೋತ್ತರ	-5219
▁ಅಹ್ಮ	-5220
▁ಪ್ರೇಕ್ಷ	-5221
▁ನೀಡಲಾಗುತ್ತಿದೆ	-5222
ಗಮ	-5223
ಪಿಸಿಸಿ	-5224
ಾಂಗಣ	-5225
ೇಬಲ್	-5226
▁ಬಿದ್ದು	-5227
ಕಥ	-5228
▁ಆಂಧ್ರಪ್ರದೇಶ	-5229
▁ಕುಳ	-5230
▁ಪುಟ್ಟ	-5231
▁ಕಳೆದುಕೊಳ್ಳ	-5232
▁ಘಟನೆಗೆ	-5233
▁ಸಮಿತಿಯ	-5234
ಲಾಸ್	-5235
▁ಮಹೇಶ್	-5236
▁ನೀಡಲಾಗುವುದು	-5237
▁ರುಪ	-5238
ವಿಚಾರ	-5239
▁ಇಷ್ಟು	-5240
▁ಿ	-5241
▁ಗುಪ್ತ	-5242
▁ಯೇಸುವ	-5243
ಾಜಿ	-5244
▁ಖರೀದಿ	-5245
▁ಬರಲಿದೆ	-5246
ೆಯಿದೆ	-5247
ಸಿಸ್	-5248
▁ಅಭಿಮಾನಿಗಳು	-5249
▁ಕಬ್ಬ	-5250
ಚರ	-5251
ಂತಿದೆ	-5252
ಪಟ್ಟು	-5253
▁ಮಾಡಬೇಡಿ	-5254
▁ನ್ಯಾಯಾಲಯದ	-5255
▁ವಿಜೇತ	-5256
ಕಂಪ	-5257
▁ಬೀಸ	-5258
ಿದ್ದನು	-5259
▁ಅಂಶಗಳನ್ನು	-5260
▁ನೀವೇ	-5261
▁ಸ್ವಿ	-5262
▁250	-5263
ಜೀವನ	-5264
▁ಶರೀ	-5265
ೇದ	-5266
ಮುಖ್ಯ	-5267
▁ಸರಕಾರಿ	-5268
▁ವಿದೇಶಿ	-5269
▁ಕಾರಣಕ್ಕೆ	-5270
▁ನಾವೆಲ್ಲರೂ	-5271
▁ಸ್ಫೋಟ	-5272
ಿಟ್ಟ	-5273
ಬೇಕೆಂಬ	-5274
▁ಯೋಹಾನ	-5275
ಿರುಗ	-5276
▁ಕ್ಕೂ	-5277
▁ಪರ್ಯ	-5278
▁ಉಪಕರಣ	-5279
▁ಪ್ರಬಲ	-5280
▁ಭೌ	-5281
▁ವ್ಯವಸ್ಥೆಯನ್ನು	-5282
▁ಅಮಾನ	-5283
▁ಸ್ವಾಮೀಜಿ	-5284
್ರಾಮ	-5285
▁ಸ್ಪೀಡ್	-5286
▁ಬಂಧಿಸಿ	-5287
ಪಡುವ	-5288
▁ಕೋಲ್ಕ	-5289
▁ಕಚೇರಿಯ	-5290
▁ಸಂಶೋಧನೆ	-5291
▁ಹರ್ಷ	-5292
್ಯಾಲ	-5293
ಳುವ	-5294
30	-5295
▁ಚಿತ್ತ	-5296
▁ಸೌಂದರ್ಯ	-5297
▁ಆಮ್	-5298
ಣ್ಣಿನ	-5299
▁ಧವನ್	-5300
▁ನೋಡಿದ	-5301
▁ಸಂಘದ	-5302
▁ರಾಜನಾಥ್	-5303
▁ಇದನ್ನೂ	-5304
▁ಪಡೆದಿದೆ	-5305
▁ಹುತಾತ್ಮ	-5306
ಿದಾರ	-5307
▁ಪದೇ	-5308
▁ಬೆರೆ	-5309
▁ವೆಂಕ	-5310
▁ಇಳಿಕೆ	-5311
▁ಹುಡುಕಾ	-5312
▁ಪರೀಕ್ಷಾ	-5313
▁ಲ್ಯಾ	-5314
▁ಕಿರುಕುಳ	-5315
▁ಯಾಕೋ	-5316
ರಿಕೊಂಡ	-5317
▁ನ್ಯಾಷನಲ್	-5318
▁ಪ್ರಾರ್ಥನೆ	-5319
▁ಮೋಸ	-5320
▁ಚಕ್ರ	-5321
▁ನಿಂತು	-5322
▁ಇಲ್ಲದೆ	-5323
ಿಯಾಗಿರುವ	-5324
ಡಿಂಗ್	-5325
▁ಒಂದಾಗಿದೆ	-5326
▁ಆಂಡ್ರಾಯ್ಡ್	-5327
ಿಯರ್	-5328
▁ಸಾಕ್ಷಿಗಳ	-5329
▁ಗುಂಡಿನ	-5330
▁ವಾಪಸ್	-5331
ೃದ್ಧಿ	-5332
▁ಸಂಭವಿಸಿದೆ	-5333
▁ಪ್ರತಿಷ್ಠ	-5334
▁ಮೂಲಸೌ	-5335
▁ಇಂಡೀಸ್	-5336
▁ಅಸ್ತಿತ್ವ	-5337
ಕಾರ್ಯ	-5338
▁ದಂಪತಿ	-5339
▁ಇನ್ನಿತರ	-5340
▁ಪರಿಶುದ್ಧ	-5341
▁ಶಿಕ್ಷಕರು	-5342
▁ದೇವರನ್ನು	-5343
▁ತಗ್ಗ	-5344
▁ಕಾಲೇಜಿನ	-5345
ರಿಗ	-5346
▁ಪ್ರಸಾರ	-5347
▁ದಿನಾಚ	-5348
ಿತಿಗೆ	-5349
▁ಸಂತಾಪ	-5350
"""	-5351
▁ವ್ಯಾಪಕ	-5352
▁ಕೆಪಿಸಿಸಿ	-5353
▁ಕುರಿತಾದ	-5354
▁ನೀಡುವುದ	-5355
▁ಮಾಡಲಿಲ್ಲ	-5356
▁ನಿರ್ದೇಶನದ	-5357
▁ಆಮೇಲೆ	-5358
ಲಾಕ್	-5359
ರುವುದಾಗಿ	-5360
▁ತಿಳಿದುಬಂದಿದೆ	-5361
▁ಮಾತನ್ನು	-5362
▁ಶರಣ	-5363
▁ಸಂಕೀರ್ಣ	-5364
▁ಪೈಪೋಟಿ	-5365
ಪ್ರಿಲ್	-5366
▁ಆಮ	-5367
ನವನ್ನು	-5368
▁B	-5369
ಾಣಿಕ	-5370
▁ಕಣಕ್ಕಿಳ	-5371
▁ಶಿಖ	-5372
▁ಇವರಿ	-5373
▁ವಸತಿ	-5374
ಿಯನ್ಸ್	-5375
ಕಿಂಗ್	-5376
ುವಲ್ಲಿ	-5377
▁ರನ್ನು	-5378
ದ್ದಿ	-5379
▁ಕೆಡ	-5380
ಾಮನ್	-5381
▁ನನಗೂ	-5382
▁ಕೊಬ್ಬ	-5383
▁ಕಾಣಬಹುದು	-5384
ಗತ್ಯ	-5385
▁ಏನಾದರೂ	-5386
ರಾದರು	-5387
▁ಸಿಕ್ಕಿದೆ	-5388
▁ಭಾಷೆಗಳಲ್ಲಿ	-5389
▁ಮಸೂದೆ	-5390
▁ಹೊಂದಿ	-5391
▁ಬಂಧಿಸಲಾಗಿದೆ	-5392
ದಾರ್	-5393
ಿನಲ್	-5394
▁ತಾಪಮಾನ	-5395
▁ಸೈನ್ಯ	-5396
▁ಎಸೆತ	-5397
▁ಸಿಟಿ	-5398
▁ಸ್ವರ್ಗ	-5399
▁ಗೆಲುವಿನ	-5400
▁ವೈವಿ	-5401
ರವಣಿಗೆ	-5402
▁ನಿವಾಸ	-5403
▁ಯೋಜನೆಯನ್ನು	-5404
▁ಶುರು	-5405
▁ತನ್ನನ್ನು	-5406
ನನಗೆ	-5407
ೇರ್	-5408
ಗಳಲ್ಲ	-5409
▁ನಿರಂತರವಾಗಿ	-5410
▁ತನಗೆ	-5411
ೊಂದಿಗಿನ	-5412
▁ದಿಲ್ಲಿ	-5413
▁G	-5414
ಗೊಳಿಸುತ್ತದೆ	-5415
ಲಾಗಿ	-5416
▁ಕ್ರೀಡೆ	-5417
ಿಸಿದ್ದಾನೆ	-5418
▁ಮಲಯಾಳಂ	-5419
▁ಆಕಾಶ	-5420
▁ಲಕ್ಷ್ಮ	-5421
▁ಅಪಾಯಕಾರಿ	-5422
di	-5423
▁ಭಾಷೆಯ	-5424
▁ಸಹೋದರಿಯ	-5425
ಮೋಹ	-5426
▁ಮಿತಿ	-5427
▁ಶ್ರೇಯ	-5428
▁ಜಾಹ	-5429
▁ಮುರ	-5430
▁ಡಿಕ್ಕಿ	-5431
▁ಅವರೂ	-5432
ಡನ್	-5433
▁ಕಂಪೆನಿ	-5434
▁ಸೈಟ್	-5435
ತ್ರಿಯ	-5436
ತಿಯಾಗಿ	-5437
ರೆಂದು	-5438
▁ಜೇಟ್	-5439
ಿಸುವರು	-5440
▁ಕುರಿತಾಗಿ	-5441
▁ಪ್ರಶ್ನಿಸಿದರು	-5442
ಾಸಿ	-5443
ಗಿಂತಲೂ	-5444
ಿದ್ದರಿಂದ	-5445
▁ಕಚ್ಚ	-5446
▁ನೆರವ	-5447
▁ಶೈಕ್ಷಣ	-5448
▁ಅದೂ	-5449
▁ಬಂದಾಗ	-5450
ಪಡೆ	-5451
ಎಂದು	-5452
▁ಅಪರೂಪ	-5453
▁ಮಧ್ಯಮ	-5454
▁ಯೆಹೋವ	-5455
▁ಸ್ಟೇಟ್	-5456
▁ಆಕ್ಷೇಪ	-5457
▁ಮುಖ್ಯವಾಗಿ	-5458
▁ಮೋಹನ್	-5459
▁ಶ್ರದ್ಧ	-5460
ವಾದರೂ	-5461
ವಾಸ್	-5462
▁125	-5463
▁ಟಾಸ್	-5464
▁ದ್ವೀ	-5465
▁ಶಿಕ್ಷಕ	-5466
ನಿಗೂ	-5467
▁ಅಶೋಕ್	-5468
▁ಸನ್ಮಾನ	-5469
▁ಮನವ	-5470
▁34	-5471
ಗಳೆಂದರೆ	-5472
▁ಹಿಂಭಾಗ	-5473
▁ಗ್ರಾಮಾಂತರ	-5474
ಾವಧ	-5475
▁ಪಾಲುದಾರ	-5476
ರುವುದನ್ನು	-5477
▁ಖಂಡಿತವಾಗಿಯೂ	-5478
▁ಕ್ರೆ	-5479
▁ದಯವಿಟ್ಟು	-5480
▁ಕುಲ	-5481
▁ಪಕ್ಷಗಳ	-5482
▁45	-5483
▁ಏಷ್ಯ	-5484
▁ಸರಕು	-5485
▁ಸಾರ್ವಜನಿಕರು	-5486
▁ಮಟ್ಟಿಗೆ	-5487
ಂಜಿನಿಯರಿಂಗ್	-5488
ಟ್ಟುಕೊಳ್ಳ	-5489
▁ಕಾರ್ಯಕರ್ತರ	-5490
▁ಬರಹ	-5491
▁ಮುಳು	-5492
▁ಬರೋ	-5493
▁ಆಗಲಿಲ್ಲ	-5494
▁ದೇಶವನ್ನು	-5495
ವೇದ	-5496
▁ಕತೆ	-5497
▁ಸಲುವಾಗಿ	-5498
▁ತಿಳಿದಿಲ್ಲ	-5499
▁ನಿರ್ಮಲಾ	-5500
▁ಬಾಯ	-5501
▁ವಂದ	-5502
▁ಹರಡ	-5503
▁ಗ್ರಂಥ	-5504
▁ಸ್ವಯಂ	-5505
ುವುದಾಗಿ	-5506
ಡ್ಡೆ	-5507
▁ಮಮತಾ	-5508
▁ಕಟ್ಟು	-5509
▁ಪಾವತಿ	-5510
▁ಮಾತಿನ	-5511
▁ಅನಿವಾರ್ಯ	-5512
▁ದಲ್ಲಿ	-5513
ೊಂದನ್ನು	-5514
ಿಸಬಾರದು	-5515
▁ಕೊರೋನಾ	-5516
▁ಗೊತ್ತಾ	-5517
▁ಬಗ್ಗೆಯೂ	-5518
▁ವಿಶ್ಲೇಷ	-5519
▁ಮಾಡಿಕೊಂಡು	-5520
▁ಕೇಸ್	-5521
▁ಹತ್ತು	-5522
▁90	-5523
ರಿಲ್ಲ	-5524
ಾಯಿಂಟ್	-5525
▁ಆಫ್ರಿಕ	-5526
▁ಡಿಗ್ರಿ	-5527
▁ಸಂಕೇತ	-5528
▁ಬೆದರಿಕೆ	-5529
▁ರವಾನ	-5530
ಗ್ನ	-5531
ೃತಿಯ	-5532
▁ಅಂತಾ	-5533
▁ನಂತರದ	-5534
ಿಸಬೇಕೆಂದು	-5535
▁ಸಮಯವನ್ನು	-5536
▁ದಾಖಲಾಗಿದ್ದು	-5537
ರೋಧಕ	-5538
ಿಸದೆ	-5539
▁ಅನ್	-5540
▁ಅನಂತರ	-5541
▁ಚಂದ್ರಶೇಖ	-5542
▁ವಿರುದ್ದ	-5543
▁ಮಲಗ	-5544
ಗೊಂಡು	-5545
▁ಪೋಲ	-5546
▁ಜನತೆ	-5547
▁ಶತಕ	-5548
▁ಸ್ಫ	-5549
▁ಟೂರ್ನ	-5550
▁ಪಡು	-5551
▁ನೀಡಲಾಗುತ್ತದೆ	-5552
▁ಮಾಲೀ	-5553
▁ಪ್ರೇಮ	-5554
▁ಉತ್ಸಾಹ	-5555
ಹನ	-5556
▁ಬಂಧಿತ	-5557
▁ಉಂಟುಮಾಡ	-5558
ಪಡಿಸಲಾಗಿದೆ	-5559
▁ಸವಾಲ	-5560
ಪಕ್ಷೀಯ	-5561
▁ಮಾತನಾಡಿದರು	-5562
ವದ	-5563
▁ಸೌಕರ್ಯ	-5564
▁ದಳ	-5565
▁ಪಂಚಾಯತ್	-5566
▁ಹೇಳಲಾಗಿದೆ	-5567
▁4:	-5568
▁ನಡೆಯುತ್ತಿರುವ	-5569
▁ಹತ್ಯ	-5570
▁ಸಿಗುತ್ತದೆ	-5571
▁ಮಾಲಿ	-5572
▁ನೀಡಿದ್ದು	-5573
▁ಚೀನಾದ	-5574
▁ಒಟ್ಟಾರೆ	-5575
▁ವಿಟಮಿನ್	-5576
▁ಹದ	-5577
ರಾಗಿರುವ	-5578
▁ಹಸ	-5579
ಸ್ಮ	-5580
▁ವರ್ಗಾವಣೆ	-5581
▁ಹೆಚ್ಚಾಗಿದೆ	-5582
ಾವಕಾಶ	-5583
▁ಮಿಲಿಯನ್	-5584
ಕಟ್ಟು	-5585
ದಷ್ಟು	-5586
▁ಪಾತ್ರವನ್ನು	-5587
ಳನ್ನು	-5588
▁ಪರ್ವತ	-5589
▁ರಾಜ್ಯಾ	-5590
▁ಫ್ರಾನ್ಸ್	-5591
▁ಮುಂದುವರೆಸ	-5592
ಎಂಸಿ	-5593
▁ಅದರಲ್ಲೂ	-5594
▁4.	-5595
▁ಅಸಹ	-5596
▁ಪತ್ರಿಕೆ	-5597
ಾಗಬಹುದು	-5598
ಕಾಂ	-5599
▁ಒಲಿ	-5600
▁ಕ್ರಿಕೆಟಿಗ	-5601
ಿಡ	-5602
▁ನೊ	-5603
▁ಇವುಗಳ	-5604
▁ಮೂಲಸೌಕರ್ಯ	-5605
ಪೂ	-5606
▁ಉತ್ಪಾದನೆ	-5607
▁ತರಕಾರಿ	-5608
▁ಜಾಲತಾಣಗಳಲ್ಲಿ	-5609
▁ಕಂಪ್ಯೂ	-5610
▁ಕತ್ತರಿಸಿ	-5611
▁ಪ್ರವಾಸಿಗರು	-5612
▁ಐಶ್ವರ್	-5613
ಂಟನ್	-5614
▁ಪದ್ಮ	-5615
▁2,	-5616
ುದನ್ನು	-5617
▁ಸಿಸ್ಟ	-5618
▁ಎಂಥ	-5619
▁ವಿಂಡ	-5620
ಿಕೆಯಿಂದ	-5621
ಚಲ	-5622
ೊನಾಲ್ಡ್	-5623
ಸಮ	-5624
▁ಬಾಗ	-5625
▁ಜನರಲ್ಲಿ	-5626
▁2016	-5627
▁ಸಮಾಜದ	-5628
ಗದ	-5629
ಗಿತ್ತು	-5630
▁ವಿಷಯಗಳು	-5631
▁ಇಗೋ	-5632
▁ಉಗ್ರರ	-5633
▁ನನ್ನು	-5634
▁ಅವಳಿಗೆ	-5635
ಾರೋಗ್ಯ	-5636
▁ಮೊದಲೇ	-5637
ಝ್	-5638
▁ಜಮ	-5639
▁ತತ್ವ	-5640
▁ಮೆಗಾ	-5641
▁ದೊರೆತ	-5642
▁ಸುನ	-5643
▁ಮಾಡಿದರೆ	-5644
▁ಅಶ್ವ	-5645
ಗೊಳಿಸಿದ	-5646
▁ಓಡಿ	-5647
▁ಇಸ್ರಾಯೇಲಿನ	-5648
▁ಮಣಿ	-5649
ಿಸದ	-5650
▁370	-5651
▁ಸಂಭಾವ	-5652
▁ತಮ್ಮನ್ನು	-5653
ಜೆಪಿ	-5654
▁ಓಪ	-5655
▁ಮಲ್ಲಿ	-5656
▁ಸೆಳೆಯ	-5657
▁ಯಾವತ್ತೂ	-5658
▁ಸೇರ್ಪಡೆ	-5659
ಷ್ಮಾ	-5660
ವರಾಗಿ	-5661
▁ಎಂಟು	-5662
ಣದ	-5663
ರವ್	-5664
▁ಇದ್ದು	-5665
▁ವ್ಯವಹಾರಗಳ	-5666
▁ಪರಿಷ	-5667
▁ಉರಿಯ	-5668
▁ಕುಳಿತು	-5669
▁ದೃಷ್ಟಿಕ	-5670
▁ಕೂದಲು	-5671
▁ಮೊಟ್ಟ	-5672
▁ಶೂಟಿಂಗ್	-5673
ರಾಜ್ಯ	-5674
▁ಮೆಟ್ರ	-5675
▁ಬಾಗಿಲು	-5676
ಿಸುವುದಾಗಿ	-5677
▁ಭಾಷೆಯಲ್ಲಿ	-5678
▁ಮೌನ	-5679
▁ಸಂಖ್ಯೆಯ	-5680
▁ಶರ	-5681
▁ರಾಯ್	-5682
ಗೊಳಿಸಿದೆ	-5683
▁ಯೋಗಿ	-5684
▁ರಸ್ತೆಯಲ್ಲಿ	-5685
▁ಹೊರಟ	-5686
▁ಚಾಲಕನ	-5687
▁ಗುರುತು	-5688
▁ಮಾಡಲಾಗುವುದು	-5689
ಶ್ಚಯ	-5690
▁ಗೆಲುವ	-5691
▁ಸುರಕ್ಷತೆ	-5692
▁ಸೇವೆಯನ್ನು	-5693
▁ರೊ	-5694
ೊಡನೆ	-5695
▁ಧಾವ	-5696
▁ಅದಕ್ಕ	-5697
ುತ್ತಿರುವುದು	-5698
▁ಭಗ	-5699
▁ಡೇವಿಡ್	-5700
▁ನಂಬಿಗಸ್ತ	-5701
▁ಪುರಾ	-5702
▁ಅಭಿಯಾನ	-5703
ವಾಗಬಹುದು	-5704
▁ಜರ್	-5705
▁ಆನಂದ್	-5706
▁ಬಾಂಧ	-5707
▁ಲಕ್ಷಾಂತರ	-5708
▁ಪರಿಸ್ಥಿತಿಯನ್ನು	-5709
ವಾದವು	-5710
▁ಫಿಲಿ	-5711
▁ಹಾಲಿ	-5712
▁ಸಾಮರ್ಥ್ಯವನ್ನು	-5713
▁ಕೈಗೊಳ್ಳಲಾಗುವುದು	-5714
▁ಕ್ರೈಸ್ತರು	-5715
▁ಸ್ಪೀಕರ್	-5716
ಿಂಗ್ಸ್	-5717
▁ಪವಿತ್ರಾತ್ಮ	-5718
▁ಕಂಬ	-5719
▁ನೀಡುವಂತೆ	-5720
▁ಮುಂದುವರೆಯ	-5721
▁36	-5722
▁ಹಗರಣ	-5723
▁ಸಲ್ಲಿಸಿದ್ದಾರೆ	-5724
▁ಈತ	-5725
▁ಅಯ್ಯ	-5726
10	-5727
▁ಪ್ರೌ	-5728
ರೋಪ	-5729
▁ಸಂಶೋಧನಾ	-5730
▁ಸಾಂಪ್ರದಾಯ	-5731
ಚನೆ	-5732
▁ದತ್ತ	-5733
▁ಮಿತ್ರ	-5734
▁ಹೆಮ್ಮೆ	-5735
▁ಹುಡುಕಾಟ	-5736
▁ದೇಶಗಳಲ್ಲಿ	-5737
ಬೀರ್	-5738
▁ಗುಣಮಟ್ಟದ	-5739
ಮುತ್ತ	-5740
ವಾದರೆ	-5741
▁ಪತ್ರಿಕ	-5742
▁ಬುದ್ಧಿ	-5743
ಚಕ್ರ	-5744
ದೊಂದು	-5745
▁ಶಿವಸೇನೆ	-5746
ಶ್ರೂಷ	-5747
ರೇಷನ್	-5748
ಂಟೆ	-5749
▁ಬಿಗಿ	-5750
ಾಗಲಿಲ್ಲ	-5751
▁ಎಸ	-5752
▁ಅರೆ	-5753
ಸನ್ನು	-5754
▁ದ್ವಿತ	-5755
▁ಸಕಾರಾತ್ಮಕ	-5756
▁ಬರಲಿಲ್ಲ	-5757
▁ಸಹಜವಾಗಿ	-5758
ಷ್ಠಿಯಲ್ಲಿ	-5759
ವಾಗಿದ್ದಾರೆ	-5760
ಭಿವ	-5761
ಸಂಗ	-5762
▁ಶತ್	-5763
▁ಮಂತ್ರ	-5764
▁ಮದುವೆಯಾಗ	-5765
▁ತಾಲ್ಲೂ	-5766
▁ಬರುವುದಿಲ್ಲ	-5767
▁3.	-5768
▁ಹಾಳ	-5769
▁ಜೇಟ್ಲಿ	-5770
▁ಭರವಸ	-5771
▁ಮಾಡುವಂತೆ	-5772
▁ಸಂದರ್ಶ	-5773
▁ಅಸ್ವಸ್ಥ	-5774
▁ಶೈಕ್ಷಣಿಕ	-5775
ೀಮ್	-5776
▁ಪಟ್ಟು	-5777
ಜ್ಞಾನಿಕ	-5778
▁ಸಮೂಹ	-5779
ಶಾಯ	-5780
ಡ್ಸ್	-5781
▁ಹೊಳ	-5782
st	-5783
▁ಮೂಡಿ	-5784
▁ಸೋಮ	-5785
ವೇಳೆ	-5786
▁ಎನ್ಎಂ	-5787
ೋನ್	-5788
ರ್ಚ್	-5789
▁1.5	-5790
▁ಸಾಧ್ಯವೇ	-5791
ೇನೂ	-5792
▁ಲೂ	-5793
ಲ್ಲಿನ	-5794
ಿಂದಲೂ	-5795
▁ಶಾಲೆಗೆ	-5796
▁ಆಚರಣೆ	-5797
▁ಸ್ಥಾನವನ್ನು	-5798
▁ಪಾಯಿಂಟ್	-5799
▁ಮೇಲ್ವಿಚಾರ	-5800
ರಿಕಾ	-5801
ದೂ	-5802
ಾಂತರಿಸ	-5803
▁ರಂಜ	-5804
▁ಅತಿದ	-5805
▁ತಿಂಗಳಲ್ಲಿ	-5806
▁ಪ್ರತಿಪಕ್ಷ	-5807
▁ಪಂ	-5808
▁ಮುಗಿದ	-5809
್ಯಾಗ್	-5810
▁ಸಹಿತ	-5811
ಿದ್ದಳು	-5812
ಿಸಬೇಕಾದ	-5813
▁ಶ್ರೀಮಂತ	-5814
▁ಕಾರ್ಯಕ್ರಮಗಳು	-5815
ೂಕು	-5816
▁ಲು	-5817
▁ಪ್ರಯಾಣಿಕರು	-5818
ಬ್ಬರೂ	-5819
ಪಿಸಿ	-5820
▁ಅನಾರೋಗ್ಯ	-5821
▁ಚುನಾವಣೆಯ	-5822
▁ಅಪಘಾತದಲ್ಲಿ	-5823
▁ಘಟಕದ	-5824
▁ಟೀಕೆ	-5825
▁ಹಿನ್ನೆಲೆ	-5826
▁ಪರಿಪೂರ್ಣ	-5827
▁ಸಚಿವಾಲಯದ	-5828
▁ಮೌಲ್ಯದ	-5829
ಿಕರ	-5830
▁ಸುಲ	-5831
▁ಹಲವರು	-5832
▁ಮೊದಲನೆಯ	-5833
ಿಯರ	-5834
ೇಜನ	-5835
▁ಪ್ರಶ್ನೆಗಳನ್ನು	-5836
ಿಸಬೇಡಿ	-5837
ಗೊಂಡಿತು	-5838
▁ಆಕೆಯನ್ನು	-5839
▁ಅಕ್ಷಯ್	-5840
▁ಪರೀಕ್ಷೆಗೆ	-5841
▁ಸೀತಾರಾಮನ್	-5842
ಫಿಕ್	-5843
▁ನುಡ	-5844
▁ಮತ್ತೊಬ್ಬ	-5845
▁ಮಾಯ	-5846
▁ಪ್ರೌಢ	-5847
▁ಕಂಗ	-5848
▁ಗಿಡ	-5849
▁ಮಸೀ	-5850
▁ಹಣದ	-5851
▁ಹೊರಟು	-5852
ಗಾರರ	-5853
▁ತಪಾಸ	-5854
ಸ್ಪೂನ್	-5855
ವಿರಲಿಲ್ಲ	-5856
▁ದೋ	-5857
ಸಾಮಾನ್ಯ	-5858
ಿಯಾಗಿದ್ದು	-5859
ಿಸ್ಮ	-5860
▁ಕಲಾವಿದ	-5861
▁ಬೆಳ್ಳು	-5862
▁ಡೊನಾಲ್ಡ್	-5863
▁ಆಗಬೇಕು	-5864
▁ತರುವಾಯ	-5865
500	-5866
▁ಐವರು	-5867
▁ಪಡೆದುಕೊಂಡಿದೆ	-5868
ಬಾಲ್	-5869
▁ಐಆರ್	-5870
ಗಿಳ	-5871
ಮಿನ	-5872
▁ಯೆಶಾಯ	-5873
▁ವಿಳಂಬ	-5874
▁ಆಧಾರಿತ	-5875
ಕಾಶ್ಮ	-5876
▁ಅಮಿತಾ	-5877
▁ರಾಯಲ್	-5878
▁ಟ್ವಿಟ್ಟರ್	-5879
▁ಮಾಡುತ್ತಿರುವ	-5880
▁ದ್ವಿತೀಯ	-5881
ಿಸಲಿ	-5882
▁ನಿಷ್ಠ	-5883
▁ಅತಿದೊಡ್ಡ	-5884
▁ಇವುಗಳನ್ನು	-5885
ವೀರ್	-5886
▁ಔಟ್	-5887
▁ಖಾಲಿ	-5888
▁ನಿಸ್	-5889
▁ತನ್ನದೇ	-5890
ಡ್ಕ	-5891
▁ಉದ್ಯಾನ	-5892
▁ಏಪ್ರಿಲ್	-5893
▁ಪೂಜೆ	-5894
▁ಅಮೂಲ್ಯ	-5895
▁ವೈದ್ಯರ	-5896
▁ಬರೀ	-5897
▁ದಟ್ಟ	-5898
▁ಪೂರ್	-5899
▁ಒತ್ತು	-5900
▁ವನ್ನು	-5901
ಖಂಡ್	-5902
▁ಮಣ	-5903
▁ಯುನ	-5904
▁ಮುಂದೂಡ	-5905
್ರೂ	-5906
▁ಬಿಕ್ಕ	-5907
▁ಶಿಕ್ಷಕರ	-5908
ಕೆಟ್	-5909
▁ಸೇತುವ	-5910
▁ಶೇಕಡಾ	-5911
▁ಪಂದ್ಯಗಳ	-5912
▁ದ್ದ	-5913
ತಂತ್ರ	-5914
▁ವಾಟ್	-5915
ಿಸಿರಲಿಲ್ಲ	-5916
▁U	-5917
ಗುರು	-5918
▁ಬಳಕೆಯ	-5919
▁ಬಾಧ	-5920
▁ಸ್ಥಾನದಲ್ಲಿ	-5921
ಬರ	-5922
▁ಧನ	-5923
▁ಫೀಚ	-5924
▁ಮಾಡಿದ್ದೇನೆ	-5925
▁ಸಂವಹ	-5926
▁ಪರ್ಯಾಯ	-5927
▁ಮಾಲಿನ್ಯ	-5928
▁ಜೂ	-5929
▁ತಿಳಿವ	-5930
▁ಹೊಡೆದ	-5931
▁ಸಿದ್ಧಾಂತ	-5932
ಭಿ	-5933
▁ಶುಶ್ರೂಷ	-5934
▁ವಾಗ್ದಾಳಿ	-5935
▁ಸಂವಿಧಾನದ	-5936
ಬ್ರಿ	-5937
ಚುನಾವ	-5938
ಿದ್ದೆವು	-5939
▁ಏಳ	-5940
▁ಮಾಡಲಾಗುತ್ತಿದೆ	-5941
ಾರೋ	-5942
▁ತಪ್ಪಿತ	-5943
▁ಸಾಧ್ಯವಾಗಿಲ್ಲ	-5944
▁ಅವರೆಲ್ಲ	-5945
▁ಚಳಿ	-5946
▁ಕಡಿಮೆಯ	-5947
▁ದಿನದಲ್ಲಿ	-5948
ಂಕಾರ	-5949
▁ಗ್ರಾಹಕರಿಗೆ	-5950
ಫರ್	-5951
▁ಮೃತರ	-5952
▁ಆಕರ್ಷಕ	-5953
▁ಪ್ರವಾಸೋದ್ಯಮ	-5954
ಾದೇಶಿಕ	-5955
▁ಸ್ಥಾನಗಳನ್ನು	-5956
▁ಹೆದ್ದಾರಿ	-5957
▁ಉತ್	-5958
ುವುದರಿಂದ	-5959
ಾಗನ್	-5960
▁ಚಿಹ್	-5961
▁ತೀರಾ	-5962
▁ಜಿಯೋ	-5963
▁ಯಜ್ಞ	-5964
▁ಆರೋಪಿಗಳು	-5965
▁ಕ್ಷೇತ್ರದಿಂದ	-5966
▁ಸೀಟು	-5967
▁ಸಿಕ್ಕಿ	-5968
▁ಪಂದ್ಯದ	-5969
ಟಿವಿ	-5970
ರಿಯನ್ನು	-5971
▁ಬ್ರಿಟಿ	-5972
▁ಅಂತಿಮವಾಗಿ	-5973
▁ದೃಷ್ಟಿಕೋನ	-5974
▁ಆಡಿ	-5975
▁ಸಜ್ಜ	-5976
ೀಕ್	-5977
ವೆಡೆ	-5978
▁ಅನಾವರಣ	-5979
▁ನೇತೃತ್ವದಲ್ಲಿ	-5980
▁ಪಠ್ಯ	-5981
▁ರವೀಂದ್ರ	-5982
ನಾಯ	-5983
▁ದೂರಿನ	-5984
▁ಅಸ್ಸಾಂ	-5985
▁ಸಂಗತಿಯ	-5986
ಸಿಐ	-5987
▁ಅಕ್ಷರ	-5988
▁ಸೂರ್ಯ	-5989
▁ಅಂದಾಜು	-5990
▁ಹಿಂಬಾಲ	-5991
▁ಕೆಲಸಕ್ಕೆ	-5992
-0	-5993
▁ಐಟಿ	-5994
▁ಆರಿಸ	-5995
▁ಬ್ರೆ	-5996
▁ರಹಸ್ಯ	-5997
ಕೊಡ	-5998
▁ಬಲೆ	-5999
▁ನಾವಿ	-6000
▁ಲೋಕದ	-6001
▁ಅಂಬೇಡ್	-6002
▁75	-6003
▁ವಿಷಯದ	-6004
▁ಹರಿಯಾಣ	-6005
▁ತೀವ್ರವಾಗಿ	-6006
▁ಬೈಬಲಿನ	-6007
ನುಸಾರ	-6008
▁ಹಬ್ಬದ	-6009
▁ಉಂಟಾಗಿದೆ	-6010
▁ಆಗುತ್ತಿದೆ	-6011
▁ಮೆಹ	-6012
ದಕ್ಕೂ	-6013
▁ಕ್ಕೆ	-6014
▁ಜಾಸ್	-6015
▁ಅಲ್ಲವೇ	-6016
್ಟನ್	-6017
▁ಮೈದಾನ	-6018
ುತ್ತಾಳೆ	-6019
▁ಬಳಸಲಾಗುತ್ತದೆ	-6020
ತಿಯಾದ	-6021
▁ಗಾಗಿ	-6022
▁ಮನಮೋಹ	-6023
▁ಸಿಗಲಿದೆ	-6024
▁ಏಕೈಕ	-6025
▁t	-6026
▁ಶೌಚ	-6027
▁ಶಂಕರ್	-6028
ರುತ್ತಿದೆ	-6029
▁ಕಂಪ್ಯೂಟರ್	-6030
ಕಾಶ್ಮೀರ	-6031
ಶಾಲ	-6032
▁ಆಳ್ವ	-6033
▁ಬಾಲ್ಯ	-6034
▁ಆಟಗಾರರು	-6035
▁ಎಂದೆ	-6036
▁ನಡೆಯುತ್ತದೆ	-6037
▁ಜಾಗೃತಿ	-6038
ಬೇಕಿತ್ತು	-6039
ಿರಲಿ	-6040
▁ಹೋದರು	-6041
▁ಉಪಯುಕ್ತ	-6042
▁ಸ್ನೇಹಿತರು	-6043
▁ಪರಿಣಾಮವಾಗಿ	-6044
▁ಚಿತ್ರಗಳಲ್ಲಿ	-6045
ಕ್ಸೆಲ್	-6046
ರಿಯಾಗಿ	-6047
▁ಕಂಡಿದೆ	-6048
▁ದಾಳಿಯಲ್ಲಿ	-6049
▁ಉತ್ಪಾದಿಸುತ್ತದೆ	-6050
.)	-6051
ಕೌ	-6052
ಿಸುವುದನ್ನು	-6053
ರಣೆಯ	-6054
▁ಜಿಲ್ಲೆ	-6055
▁ಮುಕ್ತಾಯ	-6056
▁ಎದುರಿಸಲು	-6057
▁ಜಾರ್	-6058
▁ಯೋಜನೆಗಳನ್ನು	-6059
ಆದ	-6060
▁ಹೋಟೆಲ್	-6061
ಮೈ	-6062
▁ಮುಗಿಯ	-6063
ರಾಗಿದ್ದ	-6064
▁ಎಚ್ಚರಿಕೆಯಿಂದ	-6065
ವಿದ್ದ	-6066
▁ರಾಜ್ಯಗಳು	-6067
▁ಐಸಿಸಿ	-6068
▁ಭಾರತವನ್ನು	-6069
▁ತಲ	-6070
▁ಟೆಕ್	-6071
▁ಹೊಂದು	-6072
ಂಬಡ	-6073
ಕುಮಾರ	-6074
▁ನೀಡಲಿದೆ	-6075
▁ಪ್ರಾದೇಶಿಕ	-6076
▁ನಿಗದ	-6077
▁ರಂದು	-6078
▁ನೈತಿಕ	-6079
▁ಕಮಿ	-6080
▁ಮಾಡಿದನು	-6081
▁ಕ್ರಿಸ್ತ	-6082
▁ಕೈಗಾರಿಕಾ	-6083
▁ಬಲವಾದ	-6084
▁ಖ್ಯಾ	-6085
▁ಬೇಸಿಗೆ	-6086
▁ಬದಲು	-6087
▁ಉತ್ತಮವಾಗಿ	-6088
▁ಜೀವನವನ್ನು	-6089
▁ಬ್ಯಾನರ್ಜಿ	-6090
▁ಯೆಹೋವನನ್ನು	-6091
▁2017	-6092
▁ನೆರೆ	-6093
▁ಬಗೆಹ	-6094
ಶಂಕರ್	-6095
▁ಬಾಂಬ್	-6096
▁ತಿರಸ್ಕರಿಸ	-6097
▁ಸೋದ	-6098
ರಿನಲ್ಲಿ	-6099
▁ತಡೆಯಲು	-6100
▁ನಿಯಮಗಳು	-6101
▁ಅನ್ಯಾಯ	-6102
▁ಇಲ್ಲದಿದ್ದರೆ	-6103
▁ಬ್ರಾ	-6104
▁ಅದನ್ನ	-6105
▁ಸಿಂಧು	-6106
▁ಮಾತುಗಳು	-6107
ರಡು	-6108
▁ಸೆಟ್	-6109
▁ಮುನ್ನೆ	-6110
▁ವಿಶ್ರಾಂತಿ	-6111
ಾಗದ	-6112
ಡ್ಮಿ	-6113
▁ಮ್ಯೂ	-6114
ಗನ	-6115
▁ಅಕಾ	-6116
▁ಯಾವುದೂ	-6117
▁ಅಂಗೀಕರಿಸ	-6118
▁ಐಗು	-6119
ಿರುವುದಿಲ್ಲ	-6120
▁ಬಾಬು	-6121
▁ನೆಮ್ಮ	-6122
▁ಯಾಕೋಬ	-6123
▁ಚೋಪ್ರಾ	-6124
▁ಉತ್ತೇಜನ	-6125
▁ಹಾರ್ದ	-6126
▁ಎಲ್ಲಿಂದ	-6127
▁ಪ್ರಜೆ	-6128
ದಿರಿ	-6129
▁ಅಕ್ಕ	-6130
▁ಆತ್ಮಹತ್ಯೆಗೆ	-6131
▁V	-6132
▁ಹಾಗಂತ	-6133
▁ಅರವಿಂದ್	-6134
▁ಮಡ	-6135
▁ಸಿಇ	-6136
▁ಪಡುಕೋ	-6137
▁ಇಷ್ಟಪಡ	-6138
▁ನೀಡಲಾಯಿತು	-6139
▁ರಾಜ್ಯಾಧ್ಯಕ್ಷ	-6140
ಘಾನ	-6141
▁ಉಷ್ಣ	-6142
▁ಕ್ಷಮೆ	-6143
▁ವು	-6144
ಧಾರಣ	-6145
▁ಅಮೇ	-6146
▁ಡ್ರೈ	-6147
▁ದುಷ್	-6148
▁ಭವಿಷ್ಯದ	-6149
ತ್ಥ	-6150
▁ಯನ್ನು	-6151
▁ಠಾಣೆಗೆ	-6152
ಗಾರ್	-6153
▁ಆಪ್ತ	-6154
▁ಕಿಂಗ್ಸ್	-6155
▁ಬಿಗ್	-6156
▁ಛತ್ತ	-6157
▁ಬೆಳಗ	-6158
▁ಪ್ಲಸ್	-6159
ೀಕೃತ	-6160
▁ಹಿಮ	-6161
▁ಕರಾವ	-6162
▁ನಿಷ್	-6163
▁ನೀರಿನಲ್ಲಿ	-6164
ಮಕ್ಕ	-6165
▁ಏನೋ	-6166
ಚೆ	-6167
ಖಂಡ	-6168
ಕಾಂಗ್ರೆಸ್	-6169
ಪೀಠ	-6170
▁ಚಕ	-6171
ಟಿಎಂ	-6172
▁ಟ್ರಾನ್ಸ್	-6173
ಾಮು	-6174
ಕರಾದ	-6175
ರೀಶ್	-6176
ೀದ್	-6177
▁ಆ್ಯಪ್	-6178
▁ಒಟ್ಟಾಗಿ	-6179
▁ದಾಟ	-6180
▁ಬರಲು	-6181
ಲಿಂಡರ್	-6182
▁ಶಾಶ್ವತ	-6183
▁ವಯಸ್ಸಿನ	-6184
ಕನು	-6185
▁5:	-6186
▁ವಜ	-6187
ಕಾಂಗ	-6188
▁ವಿಧಿ	-6189
▁ಸತತ	-6190
ಕವನ್ನು	-6191
▁ತಳ್ಳಿ	-6192
ಗರ್	-6193
ಖ್ಯಾ	-6194
ಿಸಬೇಕಾಗಿದೆ	-6195
▁ದಿಕ್ಕ	-6196
▁ಬೌಲಿಂಗ್	-6197
▁ನಲ್ಲಿರುವ	-6198
ಡ್ತ	-6199
▁ದ್ವೀಪ	-6200
ಡಿಪಿ	-6201
ಲಾಗುವ	-6202
▁ಸಮ್ಮೇಳ	-6203
▁ಒಲಿಂಪಿ	-6204
▁ಬಾಳ	-6205
▁ಯೋಧರು	-6206
le	-6207
▁ಚಿಂತನೆ	-6208
▁ವಿಚಿತ್ರ	-6209
ಂಠ	-6210
ಜರ್	-6211
▁ಚಿದ	-6212
▁ಮೆಮೊ	-6213
▁ಕುಂಬ	-6214
▁ಸರ್ಕಾರದಿಂದ	-6215
ಂಕಿಂಗ್	-6216
▁ನಿಶ್ಚಿತ	-6217
▁ಪುನರಾವರ್ತ	-6218
▁ಲವ್	-6219
ಬ್ಲ್ಯು	-6220
ೀಪರ್	-6221
▁ಜ್ವರ	-6222
▁ಇದ್ದರೆ	-6223
▁ಕ್ರಿ	-6224
▁ಕೇಳುವ	-6225
▁ಆಸ್ಪತ್ರೆಯ	-6226
ಸಭೆಯ	-6227
▁ಮದುವೆಯ	-6228
ಾಗಿದ್ದಾನೆ	-6229
▁ಮೇಲೂ	-6230
▁ತನಿಖಾ	-6231
▁ಮತ್ತಾಯ	-6232
▁ವಸ್ತುಗಳನ್ನು	-6233
▁ಇಟ	-6234
▁ಸ್ವರಾಜ್	-6235
▁ಹೆತ್ತವರು	-6236
▁ಇಸ್ರಾಯೇಲ್	-6237
ಪಾಳ	-6238
▁ಒಡಂಬಡ	-6239
▁ನಿರ್ಧಾರವನ್ನು	-6240
▁ಅಗಲ	-6241
ಚೀನ	-6242
▁48	-6243
▁ತೊಳೆ	-6244
▁ಮರಳಿ	-6245
▁ಆಸಕ್ತ	-6246
▁ನ್ಯಾಯಾಲಯಕ್ಕೆ	-6247
ಾಭಿ	-6248
▁ಅಧ್ಯಕ್ಷತೆಯಲ್ಲಿ	-6249
▁ಔಷಧಿ	-6250
ೆರಡು	-6251
▁ಒಂದೊಂದು	-6252
▁ಆಯ್ಕೆಯನ್ನು	-6253
▁ಪ್ರೀಮಿಯ	-6254
ಕಳ	-6255
ುವನ	-6256
▁ವಿಭಜ	-6257
ದಾಗಿದೆ	-6258
ಯೆ	-6259
ಚಿಕಿತ್	-6260
ಹೆಚ್ಪಿ	-6261
ವಚನ	-6262
▁ಮಿಲಿ	-6263
▁ನೇಮಕಾ	-6264
▁ಕೆಲಸದಲ್ಲಿ	-6265
▁ಬಾಲ್	-6266
▁ಎದುರಾಗ	-6267
▁ಒಪ್ಪಿಕೊಂಡ	-6268
▁ಇದನ್ನ	-6269
▁ಗರ್ಭಿಣ	-6270
ಗೂಡಿ	-6271
ಟ್ಟಿನ	-6272
▁ಲಿಂಗ	-6273
-2	-6274
▁ಅಂಕಿ	-6275
▁ಕೊನೆಗೆ	-6276
ಟಿನ್	-6277
ಬ್ಯಾ	-6278
▁ಮಿಂಚ	-6279
▁ಇದಾಗಿದೆ	-6280
ಘು	-6281
▁ಮೂಲತ	-6282
▁ಪ್ರಭು	-6283
▁ತರಲು	-6284
▁ಹಾಕಿದ	-6285
▁T	-6286
▁ಅಂಚ	-6287
▁ಇನ್ನಿಂಗ್ಸ್	-6288
▁ಬ್ಯಾಟರಿ	-6289
▁ಮುಂದುವರಿದಿದೆ	-6290
▁ಹಂಚಿಕೊಂಡಿದ್ದಾರೆ	-6291
ೇಶ್ವರ್	-6292
▁ಮೇರೆಗೆ	-6293
▁ವಿವರಣೆ	-6294
ಳಿಗ್ಗೆ	-6295
▁ಅಂಬೇಡ್ಕರ್	-6296
▁ಅಗಲಿದ್ದಾರೆ	-6297
▁ಧನ್ಯವಾದಗಳು	-6298
▁ಹೇಳುತ್ತಾನೆ	-6299
ಿರೋ	-6300
▁ದಾವೀದನು	-6301
ಕ್ತಿಯನ್ನು	-6302
▁ಶಾಲೆಯಲ್ಲಿ	-6303
▁v	-6304
▁ವೃ	-6305
▁ಜನತೆಗೆ	-6306
▁ಧ್ಯ	-6307
▁ನಮಗ	-6308
▁ಬಯಸುವ	-6309
▁ತಂಡದಲ್ಲಿ	-6310
▁ತುಂಡು	-6311
▁ಪಡುಕೋಣೆ	-6312
▁ಹಾಲ	-6313
▁ತಿಳಿದಿದೆ	-6314
▁ಹೊಂದಿರುತ್ತದೆ	-6315
▁ಗೊತ್ತಿದೆ	-6316
▁ಜಾವ	-6317
ಾನಿಲಯ	-6318
▁ಸೆಮಿ	-6319
್ಯಾಕಾಶ	-6320
▁ಸಾರುವ	-6321
▁ಪ್ರತಿಯೊಬ್ಬರೂ	-6322
▁ಚೊ	-6323
▁ರೌ	-6324
▁ಧರ್ಮದ	-6325
▁ಸುತ್ತಮುತ್ತ	-6326
▁ಬಾರ್	-6327
ತೆಗಳನ್ನು	-6328
▁ಸಾಧ್ಯವಾಗಲಿಲ್ಲ	-6329
ಾವಧಿ	-6330
▁ತಾಯಿಯ	-6331
▁ಹೊಂದಿದ	-6332
ಘಟ	-6333
▁ಹಿಂತ	-6334
ವಿಲ್ಲದ	-6335
▁ಮಾತುಗಳನ್ನು	-6336
ೃಂಗ	-6337
ಶ್ರೀ	-6338
್ರಾಮಿಕ	-6339
▁ವಶಪಡ	-6340
▁ರೆಡ್	-6341
▁ಹಣಕಾಸಿನ	-6342
ಿಸುತ್ತಿದ್ದೇವೆ	-6343
ೂಪ್	-6344
▁ನಿಶ್ಚಯ	-6345
▁ತಪ್ಪಿತಸ್ಥ	-6346
▁ಸೂಚಿಸುತ್ತದೆ	-6347
ಂದೆ	-6348
▁ವೀಡಿಯೊ	-6349
▁ಮಾಡಿತು	-6350
▁c	-6351
▁ಷೇರು	-6352
▁ಇವುಗಳಲ್ಲಿ	-6353
▁3,	-6354
▁ಗುಂಡು	-6355
▁ಸ್ಥಳಗಳಲ್ಲಿ	-6356
▁ಸಾಂಪ್ರದಾಯಿಕ	-6357
ನೀನು	-6358
▁ಸೆರೆಯ	-6359
▁ಆರೋಗ್ಯಕ್ಕೆ	-6360
▁ಸಲ್ಲಿಸಿದರು	-6361
ಟ್ಟಿಗೆ	-6362
▁ನೋಟಿಸ್	-6363
ಲಾಘ	-6364
ಾಂಕ್	-6365
▁ಕಾರಣದಿಂದ	-6366
▁6:	-6367
▁ವಿಶ್ವಸಂಸ್ಥ	-6368
ಟಿಯ	-6369
▁ಎಬಿ	-6370
ಚಾರ್ಯ	-6371
▁ಕೊಠಡಿ	-6372
▁ಸೆಪ್ಟ	-6373
▁ಸುಷ್ಮಾ	-6374
om	-6375
ಶೆ	-6376
▁ಎಂಟ	-6377
ಹಳ್ಳಿ	-6378
▁ಹೊಂದಾಣ	-6379
▁ಒದಗಿಸುತ್ತದೆ	-6380
ಾಜಾ	-6381
▁ಸೋತ	-6382
▁ದುರ್ಬಲ	-6383
ಾಜನ	-6384
▁ಇಸ	-6385
▁ಮೃದು	-6386
ಾಟ್	-6387
▁ಹಡ	-6388
▁ಪ್ರೆಸ್	-6389
▁ಸಮೃದ್ಧ	-6390
▁ಕೈಯಲ್ಲಿ	-6391
ನಿಸ್	-6392
▁199	-6393
▁ಸಬ್	-6394
▁ಸುಳ್ಳ	-6395
▁ಅಹ್ಮದ್	-6396
▁ಹೆಂಡತಿ	-6397
▁ಚಿತ್ರಗಳನ್ನು	-6398
ನೆಂಬ	-6399
▁ಎಂದೇ	-6400
▁ದೀರ್ಘಕಾಲ	-6401
ಗೊಳ್ಳುತ್ತದೆ	-6402
▁ನಾಚ	-6403
▁ಮಂಡ್ಯ	-6404
▁ಬ್ರೇಕ್	-6405
▁ಯಶಸ್ವಿ	-6406
▁ಸಾಂಕ್ರಾಮಿಕ	-6407
▁ಅಳವಡಿಸಲಾಗಿದೆ	-6408
▁ಜಿಲ್ಲೆಗಳಲ್ಲಿ	-6409
▁ಸಂತ್ರಸ್ತ	-6410
ದೇವ	-6411
▁ಟೇಬಲ್	-6412
▁ಅಧಿವೇಶನ	-6413
ಕುಲ	-6414
▁ಕಷ್ಟಕರ	-6415
ಿನಲ್ಲಿರುವ	-6416
▁ಮೋದಿಯವರು	-6417
ಅವರು	-6418
▁ಬಿಸ	-6419
▁ಅನುಮತ	-6420
▁ಆದದರಿಂದ	-6421
ಬರಿ	-6422
▁ಬಾಂಧವ್ಯ	-6423
▁ಸುಮ್ಮನೆ	-6424
▁ನಡೆದಿಲ್ಲ	-6425
▁ಉತ್ತರಪ್ರದೇಶ	-6426
▁ಇರಾನ್	-6427
▁ಮಹಾರಾಷ್ಟ್ರದ	-6428
▁ತಾವ	-6429
▁ಬಾಲಕಿ	-6430
ಹೇಳ	-6431
ನೊಂದಿಗೆ	-6432
▁ನ್ಯೂಸ್	-6433
▁ಹೆಸರಿನಲ್ಲಿ	-6434
▁ಕೃತಿ	-6435
ರ್ಹ	-6436
▁ವಿಂಗಡ	-6437
▁ಗುಣಲಕ್ಷಣ	-6438
▁ಎಷ್ಟೋ	-6439
▁ನಾರಾಯಣ	-6440
▁ನಕ	-6441
▁ಬೆಳ್ಳುಳ್ಳಿ	-6442
ಸಿಗೆ	-6443
ರನ್ನೂ	-6444
▁ಯೋಜನೆಗೆ	-6445
▁ವಸ್ತುಗಳ	-6446
ಘಡ	-6447
▁ರಿಸ	-6448
▁ಸರಾ	-6449
▁ನಾಯಕಿ	-6450
▁ಬೌಲರ್	-6451
▁ಬನ್ನಿ	-6452
▁ಬ್ಯಾಂಕು	-6453
▁ಗುರುತಿಸಲಾಗಿದೆ	-6454
▁ಕೀಪರ್	-6455
▁ರುಪಾಯಿ	-6456
▁ಅವಧಿ	-6457
▁ಕೆಜಿ	-6458
ಭವಿ	-6459
▁ಸಲ್ಲಿ	-6460
ಿರುವುದಾಗಿ	-6461
ಪಯೋಗ	-6462
▁ಮುಂಜ	-6463
▁ಪಾಂಡೆ	-6464
▁ಕ್ರಮಕೈ	-6465
▁ಕಾರಣವೇನು	-6466
▁ನಿಯಮಗಳನ್ನು	-6467
▁ಟೊ	-6468
ಲ್ಟ್	-6469
▁ಬೆಳಿಗ್ಗೆ	-6470
▁ಮೋಟಾರ್ಸ್	-6471
ವುದೆ	-6472
▁ಚರ್ಮದ	-6473
▁ಹೊಸದಾಗಿ	-6474
ಟೋಬರ್	-6475
▁ರಜೆ	-6476
▁ನೋಡಿಕೊಳ್ಳ	-6477
▁ಕೈಗೊಂಡಿಲ್ಲ	-6478
ವಾಗುವುದು	-6479
en	-6480
▁ಅಬ್ರಹ	-6481
▁ವ್ಯರ್ಥ	-6482
▁ಸಿಲಿಂಡರ್	-6483
ವಂತೆ	-6484
▁ಶಾರು	-6485
▁ಆಹಾರವನ್ನು	-6486
ೆಯಾ	-6487
▁ಸಕಲ	-6488
ದಲ್ಲಿಯೂ	-6489
▁ಅಖಿಲ	-6490
▁ಶತ್ರು	-6491
▁ಅಭಿಪ್ರಾಯಪಟ್ಟ	-6492
▁ವಿತರಿಸಲಾಯಿತು	-6493
▁ತ್ತ	-6494
▁ನಿರು	-6495
▁ಕ್ವಾರ	-6496
▁ಕಾರ್ಯಕ್ರಮವನ್ನು	-6497
▁ಅನಾ	-6498
▁ಭೀಕರ	-6499
▁ಕೈಗೊಳ್ಳಲಾಗಿದೆ	-6500
ದನಂತರ	-6501
▁ಪ್ರಿ	-6502
▁ಕಿತ್ತ	-6503
▁ಕಾಯ್ದು	-6504
ಲಿನ್	-6505
ಲಾಯ	-6506
▁ಸಿಎ	-6507
▁ಆಕೆಗೆ	-6508
▁ಉತ್ಪಾದನಾ	-6509
▁ನಾಪ	-6510
ನೆಯಿಂದ	-6511
▁ಆಗಲಿದೆ	-6512
▁ಕೆನ	-6513
▁ಅನಂತ	-6514
▁ನಾನಾ	-6515
ೋಷ್	-6516
ವಾದುದು	-6517
▁ಬಳಸುವ	-6518
ame	-6519
▁ಮನರಂಜ	-6520
▁ಯೋಚನೆ	-6521
▁ಗಣ್ಯರು	-6522
▁ಇವರನ್ನು	-6523
▁ಯಾರನ್ನೂ	-6524
▁ವಿಚಾರಣೆಗೆ	-6525
▁ಲಾಲ್	-6526
▁ಸ್ಥಿತಿಯಲ್ಲಿ	-6527
▁ಸ್ಪರ್ಧೆಯಲ್ಲಿ	-6528
▁ಶೇರ್	-6529
▁ಕೋರ	-6530
▁ಜೇನು	-6531
▁ಯುನಿ	-6532
▁ಶೌಚಾಲಯ	-6533
▁ಹಾದ	-6534
ನಿಮ್ಮ	-6535
ೈಟೆಡ್	-6536
▁ಮಾದರಿಯನ್ನು	-6537
▁ಭರ	-6538
▁ನೋಂದಣಿ	-6539
▁ಉತ್ಸವ	-6540
▁ಐಎ	-6541
▁ಓಪನ್	-6542
▁ನದಿಯ	-6543
ಾಲೋಚ	-6544
▁ಅಹಮ	-6545
ದಾಬಾದ್	-6546
ಾವತ್	-6547
್ಯಾಹ್	-6548
▁ಬರೆದು	-6549
▁ಹೆಮ್ಮ	-6550
▁ತದನಂತರ	-6551
▁ಸ್ಯಾಮ್	-6552
▁ಮಹೀಂದ್ರಾ	-6553
▁ಶೃಂಗ	-6554
ಂದಿನ	-6555
ಂಬರಿ	-6556
ಲೈನ್	-6557
▁ತಂದಿದೆ	-6558
▁ಬ್ಲಾಕ್	-6559
▁ತೇ	-6560
▁ಒಗ್ಗ	-6561
ಸ್ತಿಗೆ	-6562
ಭಾಷ	-6563
ಾಹಿ	-6564
ಶ್ಯಕ	-6565
▁ರ್ಯ	-6566
▁ಅಧಿಕಾರಿಯ	-6567
ಭಾ	-6568
▁ಯೋಬ	-6569
▁ಅದನ್ನೇ	-6570
ುತ್ತಿದ್ದಂತೆ	-6571
▁ಕರೀ	-6572
▁ಹಾಜರಾಗ	-6573
▁ಅಪರಿ	-6574
ುತ್ತಿದ್ದೆ	-6575
▁ಕೊರಿ	-6576
▁ರಷ್ಯ	-6577
▁ಯಲ್ಲಿ	-6578
▁ರಾಷ್ಟ್ರಗಳ	-6579
▁8.	-6580
ತಿಕ್	-6581
ವೊಂದು	-6582
ಿತಿಯು	-6583
▁ವೈಜ್ಞಾನಿಕ	-6584
▁ಅರಿವು	-6585
▁ಪ್ರಾಚೀನ	-6586
▁ಸಾಕ್ಷಿಗಳು	-6587
▁ಪ್ರಯತ್ನಿಸಿ	-6588
▁5.	-6589
▁ಐದ	-6590
▁ಇಳಿಯ	-6591
▁ರಿಲೀಸ್	-6592
ಡ್ರ	-6593
▁ತಂಡವು	-6594
▁ಹೊಡೆದು	-6595
▁ಸಲ್ಲಿಸಿದ	-6596
ುವನು	-6597
▁ಅವಳನ್ನು	-6598
▁ಯುಪಿ	-6599
▁ವಿಳಾಸ	-6600
▁ಸ್ವರೂಪ	-6601
▁ಸಂದರ್ಶನ	-6602
▁ನಡೆದು	-6603
▁ದೀಕ್ಷಾಸ್	-6604
ಿಯೆ	-6605
ೋಸ್	-6606
ಕಾಂಡ	-6607
▁ದಾಸ	-6608
ಪಡಿಸಿದ	-6609
▁ಅಯೋ	-6610
▁ಎತ್ತಿ	-6611
▁ಹರಿದು	-6612
▁ಸಂಬಂಧಿಸಿ	-6613
▁ಮಾರ್ಚ್	-6614
▁ನಡೆದಿತ್ತು	-6615
ರ್ಗೆ	-6616
▁ಸ್ಕ	-6617
ುವೆ	-6618
ದ್ಯೋಗ	-6619
ೊತ್ತಡ	-6620
▁ಪಂಚಾಯಿತಿ	-6621
ವಾಗಿರಲಿಲ್ಲ	-6622
▁ತಾತ್	-6623
▁ಯುಎಸ್	-6624
▁ಬ್ಲೂ	-6625
▁ಸ್ನಾ	-6626
▁ಒದಗಿಸುವ	-6627
ಿಸುತ್ತಿವೆ	-6628
▁ಕಾಶ್ಮೀರದಲ್ಲಿ	-6629
▁ಡಿಸಿ	-6630
▁ಸಂಭಾಷ	-6631
▁ಅಂದ್ರೆ	-6632
ಗಳಲ್ಲಿಯೂ	-6633
▁ಗಾಯಾಳುಗಳನ್ನು	-6634
▁ವೀರ	-6635
▁ಎಣ್ಣ	-6636
▁ಹಿಟ್	-6637
ವೆಂಬರ್	-6638
▁ಗ್ರಾಮಸ್ಥರು	-6639
ಕ್ಸರ್	-6640
ಜಿಂಗ್	-6641
▁ಮಿಶ್ರಾ	-6642
▁ಮಾಡುತ್ತಿಲ್ಲ	-6643
▁ಭಾಗದ	-6644
▁ಮನುಷ್ಯನ	-6645
▁ನೀಡಿತ್ತು	-6646
it	-6647
ಂದೇ	-6648
ೀನಾ	-6649
▁ಚೈ	-6650
ವಾಡಿ	-6651
▁E	-6652
▁ಸುಧ	-6653
▁ದೂರವಿ	-6654
▁ಸರ್ಕಾರವನ್ನು	-6655
ಿರಾ	-6656
▁ಆಫರ್	-6657
▁ವಲಯದ	-6658
▁ತರಕಾರ	-6659
▁ಸಿನ್	-6660
▁ಒಲ	-6661
▁ಫಾರ್	-6662
▁ವಿಶ್ವವಿದ್ಯಾನಿಲಯ	-6663
▁ಒಡಿ	-6664
▁ವೋಲ್	-6665
▁ಅಭಿಮಾನಿಗಳ	-6666
▁ಬುಡ	-6667
ಲೀಟರ್	-6668
▁ಬಂಧನಕ್ಕೆ	-6669
▁ಹೆಚ್ಚಿಸುತ್ತದೆ	-6670
ಧು	-6671
್ವನ	-6672
ೇಕರ್	-6673
▁ಇವನ	-6674
▁ಹೀರೋ	-6675
▁ಶ್ಲಾಘ	-6676
ಧವ್	-6677
ೀತು	-6678
▁2014	-6679
▁ಪಾಂಡ್ಯ	-6680
ಲ್ಲಿದ್ದಾರೆ	-6681
▁ಬಾಹ್ಯಾಕಾಶ	-6682
▁ಗ್ರಾಮದಲ್ಲಿ	-6683
▁ವರ್ಷಗಳಲ್ಲಿ	-6684
▁ಮೀಡಿಯ	-6685
▁ಮೋದಿಗೆ	-6686
ಹಾಗೆ	-6687
▁ರಫ್	-6688
▁ಗೋಡೆ	-6689
▁ದ್ರಾ	-6690
▁ಸಾಕು	-6691
▁ಚಿದಂಬ	-6692
▁ಭೂಕಂಪ	-6693
▁ಸಂವಹನ	-6694
▁ತಿಳಿಯಲು	-6695
▁ನೀರಿನಿಂದ	-6696
▁ಬೆನ್ನಲ್ಲೇ	-6697
ಾನಗರ	-6698
▁ಬಾರಿಯ	-6699
▁ವೀಡಿಯೋ	-6700
ion	-6701
ಪುರ್	-6702
▁ಚಂಡ	-6703
▁ಬೇಗನೆ	-6704
▁ಸಂಬಂಧವನ್ನು	-6705
▁ಎದುರ	-6706
▁ಹಿಂಸ	-6707
▁ಏಷ್ಯಾ	-6708
▁ಬದಲಾಗ	-6709
▁ಮಾಡಿಕೊಂಡಿದ್ದಾರೆ	-6710
▁ಈಶ	-6711
ಾಬಾದ್	-6712
ಘಾನಿಸ್ತಾನ	-6713
▁ಗೋಲು	-6714
▁ನಕ್ಷ	-6715
▁ಪ್ರತಿಪಾದ	-6716
▁ಅರ್ಜಿಯನ್ನು	-6717
ಿಕೋ	-6718
▁ನೀಡುವುದಿಲ್ಲ	-6719
▁ದಿನೇ	-6720
▁ಕಾಲದ	-6721
▁ಪುನರ್	-6722
ಗುಣವಾಗಿ	-6723
▁ರಸ್ತೆಯ	-6724
▁ಕೂದಲ	-6725
):	-6726
ೀನಿ	-6727
▁ಭು	-6728
ಿಲ್ಲದೆ	-6729
್ಯವಸ್ಥ	-6730
▁ಚಳಿಗಾಲ	-6731
▁ಪ್ರತಿಭಟನಾಕಾರರು	-6732
ಸ್ಟಿಕ್	-6733
▁ಪ್ರಶ್ನಿಸಿ	-6734
ಭರಿತ	-6735
▁ಮುನ್ನೆಚ್ಚ	-6736
ುವುದರ	-6737
▁ವೇಗದ	-6738
ಭ್	-6739
ಾವಂತ	-6740
▁ಅಹಿತ	-6741
▁ಪ್ರಜ್ಞ	-6742
ಗೊಂಡಿಲ್ಲ	-6743
▁ಸಚಿವರಾದ	-6744
▁ಸೆನ್ಸ	-6745
▁ಕೊರೊನಾ	-6746
ವಳಿ	-6747
▁ಮುಂಗ	-6748
▁ಬಡ್ಡಿ	-6749
ಗೊಳ್ಳುವ	-6750
ೊಂದರಲ್ಲಿ	-6751
▁ಮಧ್ಯಾಹ್	-6752
ರೆನ್ಸ್	-6753
ೆಗ	-6754
ಟಿಗೆ	-6755
▁ಜೂನ್	-6756
▁	-6757
್	-6758
ಿ	-6759
ರ	-6760
ು	-6761
ದ	-6762
ಾ	-6763
ನ	-6764
ೆ	-6765
ತ	-6766
ಲ	-6767
ಕ	-6768
ವ	-6769
ಗ	-6770
ಸ	-6771
ಯ	-6772
ಮ	-6773
ಂ	-6774
.	-6775
ಪ	-6776
ಳ	-6777
ಡ	-6778
ಬ	-6779
ೇ	-6780
ಹ	-6781
ಟ	-6782
ಅ	-6783
ೂ	-6784
ೀ	-6785
ೊ	-6786
ಜ	-6787
ೋ	-6788
ಚ	-6789
ಶ	-6790
ಇ	-6791
ಆ	-6792
ಣ	-6793
ಷ	-6794
ಎ	-6795
,	-6796
ಧ	-6797
ಭ	-6798
ಥ	-6799
ೈ	-6800
ಈ	-6801
ಖ	-6802
ಒ	-6803
ಉ	-6804
?	-6805
0	-6806
1	-6807
ಫ	-6808
"	-6809
ೃ	-6810
:	-6811
2	-6812
ಏ	-6813
ೌ	-6814
-	-6815
ಘ	-6816
5	-6817
(	-6818
)	-6819
3	-6820
ಐ	-6821
ಠ	-6822
’	-6823
4	-6824
‘	-6825
9	-6826
6	-6827
'	-6828
8	-6829
“	-6830
7	-6831
!	-6832
”	-6833
ಞ	-6834
ಓ	-6835
‍	-6836
a	-6837
e	-6838
o	-6839
n	-6840
i	-6841
s	-6842
ಛ	-6843
/	-6844
—	-6845
r	-6846
t	-6847
ಢ	-6848
ಃ	-6849
m	-6850
⁠	-6851
–	-6852
ಊ	-6853
d	-6854
l	-6855
ಔ	-6856
S	-6857
I	-6858
[	-6859
]	-6860
A	-6861
ಝ	-6862
M	-6863
P	-6864
C	-6865
c	-6866
h	-6867
%	-6868
R	-6869
N	-6870
u	-6871
B	-6872
_	-6873
p	-6874
­	-6875
`	-6876
G	-6877
D	-6878
T	-6879
g	-6880
E	-6881
|	-6882
H	-6883
b	-6884
ೕ	-6885
O	-6886
v	-6887
L	-6888
f	-6889
V	-6890
y	-6891
w	-6892
k	-6893
W	-6894
K	-6895
₹	-6896
F	-6897
U	-6898
ಋ	-6899
~	-6900
X	-6901
೦	-6902
x	-6903
+	-6904
೧	-6905
&	-6906
$	-6907
=	-6908
Ç	-6909
J	-6910
»	-6911
೨	-6912
z	-6913
►	-6914
j	-6915
▪	-6916
@	-6917
೫	-6918
>	-6919
಼	-6920
*	-6921
Y	-6922
#	-6923
೩	-6924
ø	-6925
Z	-6926
೪	-6927
Q	-6928
೬	-6929
೮	-6930
°	-6931
೯	-6932
q	-6933
೭	-6934
\	-6935
}	-6936
{	-6937
•	-6938
॥	-6939
À	-6940
^	-6941
⁄	-6942
Ã	-6943
ʼ	-6944
।	-6945
̅	-6946
φ	-6947
♦	-6948
É	-6949
❑	-6950
ा	-6951
ಙ	-6952
à	-6953
×	-6954
ಱ	-6955
□	-6956
्	-6957
र	-6958
©	-6959
·	-6960
α	-6961
ω	-6962
̈	-6963
ì	-6964
é	-6965
◆	-6966
❍	-6967
〖	-6968
〗	-6969
μ	-6970
ೖ	-6971
′	-6972
→	-6973
<	-6974
ç	-6975
म	-6976
π	-6977
¤	-6978
स	-6979
क	-6980
ि	-6981
त	-6982
न	-6983
व	-6984
ü	-6985
ी	-6986
ا	-6987
	-6988
ο	-6989
ल	-6990
£	-6991
Á	-6992
द	-6993
े	-6994
ह	-6995
„	-6996
ï	-6997
ˈ	-6998
प	-6999
்	-7000
ं	-7001
ː	-7002
य	-7003
ो	-7004
∠	-7005
ā	-7006
ö	-7007
ς	-7008
⁡	-7009
δ	-7010
−	-7011
«	-7012
β	-7013
ु	-7014
√	-7015
া	-7016
κ	-7017
á	-7018
ρ	-7019
ل	-7020
Ω	-7021
λ	-7022
श	-7023
¿	-7024
æ	-7025
	-7026
ə	-7027
ί	-7028
ग	-7029
ज	-7030
ಌ	-7031
Ü	-7032
ν	-7033
ೞ	-7034
γ	-7035
ι	-7036
σ	-7037
ر	-7038
♪	-7039
ی	-7040
಻	-7041
ε	-7042
ब	-7043
ˌ	-7044
ி	-7045
Å	-7046
θ	-7047
τ	-7048
а	-7049
€	-7050
ó	-7051
р	-7052
	-7053
Â	-7054
о	-7055
भ	-7056
Õ	-7057
ʻ	-7058
е	-7059
க	-7060
ம	-7061
✔	-7062
í	-7063
ن	-7064
›	-7065
η	-7066
ি	-7067
⃗	-7068
	-7069
§	-7070
ɪ	-7071
к	-7072
❏	-7073
Ì	-7074
م	-7075
و	-7076
अ	-7077
ू	-7078
Ø	-7079
ä	-7080
ō	-7081
Δ	-7082
ό	-7083
в	-7084
্	-7085
്	-7086
м	-7087
н	-7088
с	-7089
ה	-7090
י	-7091
د	-7092
ण	-7093
ध	-7094
ष	-7095
ர	-7096
ಽ	-7097
®	-7098
ي	-7099
च	-7100
ै	-7101
∅	-7102
¡	-7103
Ï	-7104
û	-7105
ī	-7106
̄	-7107
̧	-7108
ب	-7109
س	-7110
	-7111
š	-7112
υ	-7113
आ	-7114
़	-7115
ব	-7116
ા	-7117
த	-7118
ல	-7119
ി	-7120
ή	-7121
и	-7122
т	-7123
ट	-7124
ন	-7125
স	-7126
ன	-7127
ப	-7128
வ	-7129
ా	-7130
్	-7131
മ	-7132
യ	-7133
ṇ	-7134
↓	-7135
̱	-7136
ύ	-7137
ক	-7138
ম	-7139
ল	-7140
ச	-7141
ா	-7142
ு	-7143
ക	-7144
ാ	-7145
≈	-7146
武	-7147
±	-7148
ē	-7149
ʊ	-7150
ά	-7151
χ	-7152
л	-7153
п	-7154
у	-7155
ו	-7156
ت	-7157
ए	-7158
ड	-7159
দ	-7160
ட	-7161
ి	-7162
ള	-7163
▸	-7164
◇	-7165
Ë	-7166
å	-7167
ū	-7168
ǃ	-7169
я	-7170
מ	-7171
נ	-7172
פ	-7173
ة	-7174
ः	-7175
ख	-7176
ठ	-7177
অ	-7178
ত	-7179
র	-7180
ੀ	-7181
ள	-7182
ద	-7183
ర	-7184
ల	-7185
ೄ	-7186
ല	-7187
‚	-7188
∙	-7189
○	-7190
Ê	-7191
÷	-7192
Œ	-7193
œ	-7194
ɔ	-7195
ɨ	-7196
́	-7197
ه	-7198
ई	-7199
গ	-7200
প	-7201
ী	-7202
ર	-7203
વ	-7204
ି	-7205
ய	-7206
వ	-7207
വ	-7208
ง	-7209
―	-7210
‹	-7211
⇨	-7212
▶	-7213
拳	-7214
	-7215
	-7216
🙏	-7217
¥	-7218
Ò	-7219
ñ	-7220
ô	-7221
ù	-7222
ɐ	-7223
ɒ	-7224
ɡ	-7225
έ	-7226
ש	-7227
ج	-7228
ح	-7229
ع	-7230
ق	-7231
ک	-7232
इ	-7233
फ	-7234
ঁ	-7235
ং	-7236
য	-7237
દ	-7238
ந	-7239
‪	-7240
↗	-7241
∝	-7242
●	-7243
✍	-7244
❖	-7245
⦁	-7246
三	-7247
大	-7248
家	-7249
	-7250
￼	-7251
è	-7252
ë	-7253
ð	-7254
ć	-7255
ě	-7256
ǔ	-7257
̊	-7258
г	-7259
ы	-7260
ь	-7261
ئ	-7262
ض	-7263
ف	-7264
ٹ	-7265
چ	-7266
ہ	-7267
ढ	-7268
थ	-7269
ौ	-7270
়	-7271
ু	-7272
ৰ	-7273
ਪ	-7274
ਲ	-7275
ੰ	-7276
ெ	-7277
ோ	-7278
య	-7279
స	-7280
ം	-7281
ร	-7282
†	-7283
‰	-7284
←	-7285
⇒	-7286
≠	-7287
⋅	-7288
国	-7289
德	-7290
	-7291
	-7292
️	-7293
¬	-7294
È	-7295
Ù	-7296
Û	-7297
ß	-7298
ê	-7299
ú	-7300
ý	-7301
ł	-7302
ɑ	-7303
ɛ	-7304
ʃ	-7305
Α	-7306
ζ	-7307
С	-7308
У	-7309
Х	-7310
б	-7311
ּ	-7312
ׁ	-7313
ב	-7314
ג	-7315
ח	-7316
ל	-7317
ן	-7318
ء	-7319
ش	-7320
ڈ	-7321
گ	-7322
औ	-7323
घ	-7324
ृ	-7325
ও	-7326
চ	-7327
ট	-7328
ধ	-7329
ভ	-7330
শ	-7331
ਜ	-7332
ਾ	-7333
ਿ	-7334
ં	-7335
મ	-7336
હ	-7337
િ	-7338
ો	-7339
ା	-7340
୍	-7341
ழ	-7342
ீ	-7343
ூ	-7344
ం	-7345
త	-7346
మ	-7347
ే	-7348
ന	-7349
പ	-7350
ര	-7351
ർ	-7352
ต	-7353
น	-7354
ḍ	-7355
ḗ	-7356
ḥ	-7357
ṁ	-7358
ἀ	-7359
ἰ	-7360
∫	-7361
♫	-7362
♯	-7363
ィ	-7364
ー	-7365
中	-7366
京	-7367
内	-7368
北	-7369
合	-7370
園	-7371
外	-7372
木	-7373
本	-7374
李	-7375
東	-7376
步	-7377
海	-7378
省	-7379
神	-7380
空	-7381
術	-7382
通	-7383
龍	-7384
	-7385
	-7386
	-7387
😊	-7388
🥏	-7389
Ð	-7390
Ö	-7391
č	-7392
ħ	-7393
ı	-7394
Ō	-7395
ś	-7396
ţ	-7397
ž	-7398
ƒ	-7399
ʒ	-7400
Μ	-7401
Σ	-7402
ξ	-7403
ώ	-7404
М	-7405
ц	-7406
ө	-7407
א	-7408
ד	-7409
ט	-7410
ק	-7411
ר	-7412
ת	-7413
آ	-7414
ز	-7415
ص	-7416
ك	-7417
ّ	-7418
پ	-7419
ܘ	-7420
ܩ	-7421
उ	-7422
ओ	-7423
झ	-7424
ञ	-7425
ळ	-7426
ॐ	-7427
আ	-7428
ড	-7429
ণ	-7430
হ	-7431
ਕ	-7432
ਦ	-7433
ਬ	-7434
ਵ	-7435
ੱ	-7436
ડ	-7437
લ	-7438
ી	-7439
્	-7440
ଆ	-7441
କ	-7442
ଗ	-7443
ଡ	-7444
ତ	-7445
ଦ	-7446
ନ	-7447
଼	-7448
ୟ	-7449
ண	-7450
ே	-7451
ை	-7452
ொ	-7453
న	-7454
ప	-7455
శ	-7456
ీ	-7457
ు	-7458
೵	-7459
ച	-7460
ട	-7461
ണ	-7462
ൂ	-7463
േ	-7464
ග	-7465
ර	-7466
ค	-7467
ธ	-7468
ย	-7469
า	-7470
ไ	-7471
์	-7472
ᱟ	-7473
ḏ	-7474
ṛ	-7475
ṣ	-7476
ṭ	-7477
ἁ	-7478
ἐ	-7479
ἔ	-7480
ἵ	-7481
ἶ	-7482
ῖ	-7483
ῶ	-7484
‐	-7485
₦	-7486
↶	-7487
∂	-7488
∆	-7489
∕	-7490
≅	-7491
≡	-7492
■	-7493
★	-7494
☞	-7495
✓	-7496
➡	-7497
➥	-7498
「	-7499
」	-7500
の	-7501
デ	-7502
レ	-7503
七	-7504
上	-7505
六	-7506
制	-7507
功	-7508
印	-7509
县	-7510
周	-7511
唐	-7512
太	-7513
夫	-7514
子	-7515
学	-7516
小	-7517
峰	-7518
心	-7519
思	-7520
悟	-7521
戈	-7522
成	-7523
日	-7524
星	-7525
最	-7526
术	-7527
杏	-7528
気	-7529
氣	-7530
派	-7531
相	-7532
縣	-7533
舞	-7534
舟	-7535
裁	-7536
证	-7537
連	-7538
郎	-7539
郡	-7540
里	-7541
銀	-7542
門	-7543
霊	-7544
马	-7545
高	-7546
도	-7547
아	-7548
주	-7549
판	-7550
	-7551
	-7552
	-7553
	-7554
	-7555
	-7556
	-7557
¢	-7558
¶	-7559
Í	-7560
Î	-7561
Ó	-7562
Þ	-7563
â	-7564
ã	-7565
ą	-7566
đ	-7567
ĸ	-7568
Ĺ	-7569
ń	-7570
Ņ	-7571
Ś	-7572
ş	-7573
Š	-7574
ƛ	-7575
ǎ	-7576
ǐ	-7577
ɜ	-7578
ɝ	-7579
ɷ	-7580
ɹ	-7581
ɾ	-7582
ʋ	-7583
ʌ	-7584
ʝ	-7585
ʹ	-7586
̪	-7587
Γ	-7588
Ε	-7589
Θ	-7590
Κ	-7591
Ο	-7592
Π	-7593
Φ	-7594
Χ	-7595
Ψ	-7596
ψ	-7597
Ё	-7598
А	-7599
Б	-7600
В	-7601
Д	-7602
И	-7603
О	-7604
П	-7605
Р	-7606
Ф	-7607
Э	-7608
Я	-7609
д	-7610
х	-7611
ш	-7612
ї	-7613
ְ	-7614
ֳ	-7615
ַ	-7616
ָ	-7617
ֿ	-7618
כ	-7619
ע	-7620
ץ	-7621
צ	-7622
ذ	-7623
ط	-7624
ظ	-7625
غ	-7626
ى	-7627
ٌ	-7628
ُ	-7629
ڪ	-7630
ھ	-7631
ے	-7632
ܝ	-7633
ܣ	-7634
ܪ	-7635
ँ	-7636
ऊ	-7637
छ	-7638
॑	-7639
॒	-7640
ই	-7641
উ	-7642
খ	-7643
জ	-7644
ঠ	-7645
ঢ	-7646
ষ	-7647
ূ	-7648
ৃ	-7649
ৈ	-7650
ৱ	-7651
ਂ	-7652
ਆ	-7653
ਚ	-7654
ਡ	-7655
ਧ	-7656
ਨ	-7657
ਰ	-7658
ੁ	-7659
અ	-7660
ગ	-7661
જ	-7662
ણ	-7663
ત	-7664
ન	-7665
ય	-7666
શ	-7667
સ	-7668
ુ	-7669
ଅ	-7670
ଇ	-7671
ଉ	-7672
ଓ	-7673
ଚ	-7674
ଣ	-7675
ପ	-7676
ବ	-7677
ଭ	-7678
ର	-7679
ହ	-7680
ୀ	-7681
ୋ	-7682
அ	-7683
ஐ	-7684
ங	-7685
ఆ	-7686
ఇ	-7687
ఉ	-7688
క	-7689
గ	-7690
డ	-7691
ధ	-7692
బ	-7693
ష	-7694
హ	-7695
ూ	-7696
ె	-7697
ై	-7698
ో	-7699
಺	-7700
೙	-7701
ೠ	-7702
ೣ	-7703
അ	-7704
ഡ	-7705
ത	-7706
ഥ	-7707
ഴ	-7708
ശ	-7709
ഷ	-7710
സ	-7711
ഹ	-7712
ീ	-7713
ു	-7714
െ	-7715
ൊ	-7716
ോ	-7717
ൽ	-7718
ද	-7719
න	-7720
ය	-7721
්	-7722
ා	-7723
ช	-7724
อ	-7725
฿	-7726
เ	-7727
็	-7728
่	-7729
้	-7730
ງ	-7731
ມ	-7732
ລ	-7733
ວ	-7734
ອ	-7735
າ	-7736
ື	-7737
ເ	-7738
ᐃ	-7739
ᒡ	-7740
ᓗ	-7741
ᱛ	-7742
ᱤ	-7743
ᱥ	-7744
ᱱ	-7745
ᱲ	-7746
Ḏ	-7747
ṃ	-7748
ṟ	-7749
ṯ	-7750
ệ	-7751
Ἀ	-7752
Ἑ	-7753
ἱ	-7754
ἴ	-7755
ὀ	-7756
ὑ	-7757
ὕ	-7758
ῑ	-7759
ῦ	-7760
‡	-7761
⁂	-7762
↑	-7763
⇩	-7764
∈	-7765
∑	-7766
≤	-7767
≪	-7768
⊕	-7769
⋯	-7770
─	-7771
▒	-7772
▬	-7773
▲	-7774
△	-7775
▷	-7776
▼	-7777
◌	-7778
◼	-7779
☂	-7780
☉	-7781
☺	-7782
✅	-7783
✌	-7784
✒	-7785
✘	-7786
❤	-7787
。	-7788
す	-7789
て	-7790
り	-7791
ウ	-7792
カ	-7793
ガ	-7794
コ	-7795
シ	-7796
ス	-7797
ト	-7798
ビ	-7799
ピ	-7800
マ	-7801
ミ	-7802
ラ	-7803
ン	-7804
万	-7805
乔	-7806
乩	-7807
五	-7808
交	-7809
人	-7810
介	-7811
伙	-7812
传	-7813
何	-7814
侍	-7815
侠	-7816
保	-7817
信	-7818
修	-7819
免	-7820
全	-7821
出	-7822
判	-7823
力	-7824
化	-7825
医	-7826
區	-7827
南	-7828
双	-7829
号	-7830
吉	-7831
名	-7832
咖	-7833
哩	-7834
啟	-7835
喬	-7836
嘉	-7837
四	-7838
団	-7839
國	-7840
土	-7841
地	-7842
套	-7843
女	-7844
安	-7845
宗	-7846
州	-7847
师	-7848
幼	-7849
形	-7850
往	-7851
御	-7852
忠	-7853
性	-7854
意	-7855
愛	-7856
慧	-7857
所	-7858
手	-7859
按	-7860
捨	-7861
斬	-7862
方	-7863
明	-7864
映	-7865
晚	-7866
普	-7867
服	-7868
村	-7869
来	-7870
果	-7871
桜	-7872
楊	-7873
極	-7874
樂	-7875
正	-7876
殊	-7877
毒	-7878
汗	-7879
治	-7880
泉	-7881
法	-7882
注	-7883
洞	-7884
洪	-7885
浦	-7886
消	-7887
港	-7888
湯	-7889
澳	-7890
無	-7891
片	-7892
版	-7893
特	-7894
琛	-7895
瑜	-7896
田	-7897
画	-7898
略	-7899
發	-7900
白	-7901
盤	-7902
眞	-7903
真	-7904
眼	-7905
礼	-7906
社	-7907
禮	-7908
程	-7909
稚	-7910
童	-7911
笠	-7912
签	-7913
算	-7914
箭	-7915
納	-7916
総	-7917
織	-7918
红	-7919
维	-7920
网	-7921
羹	-7922
耶	-7923
育	-7924
腑	-7925
航	-7926
艺	-7927
英	-7928
華	-7929
藝	-7930
號	-7931
蜇	-7932
行	-7933
話	-7934
語	-7935
说	-7936
谱	-7937
象	-7938
路	-7939
身	-7940
軍	-7941
辛	-7942
都	-7943
重	-7944
野	-7945
針	-7946
鐵	-7947
铁	-7948
長	-7949
関	-7950
防	-7951
隊	-7952
際	-7953
靈	-7954
饭	-7955
骑	-7956
鯰	-7957
龙	-7958
Ꝛ	-7959
공	-7960
그	-7961
나	-7962
띠	-7963
룹	-7964
복	-7965
산	-7966
삼	-7967
성	-7968
수	-7969
시	-7970
장	-7971
항	-7972
	-7973
	-7974
	-7975
	-7976
	-7977
	-7978
	-7979
	-7980
	-7981
	-7982
	-7983
	-7984
	-7985
	-7986
	-7987
	-7988
	-7989
	-7990
	-7991
	-7992
🏻	-7993
🏼	-7994
👇	-7995
